<unk>	0
<s>	0
</s>	0
.	-3.22265
,	-3.51663
:	-3.83301
▁*	-3.9367
'	-4.01701
▁the	-4.14487
▁a	-4.2347
▁di	-4.24351
s	-4.33053
▁in	-4.45327
▁e	-4.47278
▁i	-4.54439
mot	-4.71323
▁che	-4.73883
▁and	-4.7864
▁la	-4.82136
?	-4.83104
▁to	-4.85028
▁you	-4.85901
chi	-4.92397
▁il	-4.97964
▁of	-5.06846
▁it	-5.14626
▁per	-5.3043
▁that	-5.31127
▁un	-5.37464
t	-5.41251
▁non	-5.42373
▁è	-5.62385
▁del	-5.64126
▁is	-5.66892
▁si	-5.67706
▁le	-5.68383
▁=	-5.69967
▁he	-5.72126
▁was	-5.75571
▁[	-5.75827
re	-5.77563
▁della	-5.80832
▁l	-5.83444
▁una	-5.878
▁"	-5.89288
▁con	-5.91088
▁on	-5.91891
▁what	-5.9454
]	-5.96768
!	-5.99224
▁for	-6.01157
▁da	-6.09916
▁come	-6.10743
▁-	-6.11544
▁we	-6.13905
▁this	-6.16794
i	-6.17259
▁al	-6.20793
▁with	-6.21037
▁all	-6.22017
-	-6.22042
▁me	-6.24406
▁no	-6.25899
▁ma	-6.2664
▁do	-6.28432
▁she	-6.30188
▁they	-6.32105
▁have	-6.37257
▁be	-6.3742
▁at	-6.38071
▁dei	-6.38476
▁there	-6.40992
▁not	-6.43917
▁so	-6.44535
m	-6.44896
▁più	-6.46284
▁one	-6.49788
▁but	-6.50035
▁gli	-6.50265
▁her	-6.50515
▁can	-6.51014
e	-6.51913
▁are	-6.52411
▁se	-6.53269
▁alla	-6.53476
▁his	-6.54559
▁sono	-6.55185
▁as	-6.57042
...	-6.57503
o	-6.58845
▁questo	-6.59054
▁delle	-6.59756
▁dell	-6.60147
a	-6.60514
▁nel	-6.61349
▁o	-6.62841
▁ha	-6.64913
no	-6.65152
fat	-6.66984
to	-6.67663
▁don	-6.6894
d	-6.6934
▁oh	-6.71769
▁my	-6.71829
▁had	-6.72352
▁your	-6.73913
▁up	-6.74202
’	-6.75701
▁like	-6.75755
;	-6.75877
▁know	-6.76186
▁(	-6.77053
▁lo	-6.77763
▁.	-6.78357
▁anche	-6.79292
▁yeah	-6.79766
▁go	-6.81179
ta	-6.82141
▁from	-6.85907
▁here	-6.87288
▁mi	-6.87526
▁out	-6.89872
▁ad	-6.93315
te	-6.94599
ll	-6.96417
ti	-6.969
▁by	-6.98885
▁him	-6.98895
▁ed	-6.99022
▁'	-7.00466
▁ci	-7.00516
▁get	-7.02142
▁an	-7.02557
▁were	-7.02849
▁if	-7.03678
▁see	-7.05054
▁or	-7.05182
ve	-7.06408
)	-7.07623
▁just	-7.08956
va	-7.09389
▁nella	-7.09724
▁now	-7.09745
ed	-7.11373
▁then	-7.11817
▁when	-7.11931
▁right	-7.11994
▁about	-7.1262
ing	-7.12732
▁questa	-7.13165
▁them	-7.15809
▁well	-7.16304
▁said	-7.16745
▁commissione	-7.17046
▁who	-7.18296
▁era	-7.20092
"	-7.20434
▁dal	-7.20725
▁think	-7.21485
r	-7.23683
▁did	-7.25535
▁essere	-7.25658
▁some	-7.2611
▁cui	-7.26401
▁loro	-7.26453
▁d	-7.26509
▁where	-7.27042
▁okay	-7.28313
▁would	-7.28543
▁	-7.31616
▁look	-7.33098
▁good	-7.34233
▁how	-7.34256
▁sua	-7.34583
▁got	-7.34989
▁little	-7.35118
▁will	-7.35535
▁su	-7.36381
▁tutti	-7.36712
▁suo	-7.36961
▁de	-7.37249
▁alle	-7.38428
ndo	-7.40672
▁put	-7.41135
."	-7.4178
▁ai	-7.42105
inv	-7.42306
▁xxx	-7.42856
▁degli	-7.43199
].	-7.45017
▁more	-7.45463
▁want	-7.45741
▁yes	-7.46056
▁“	-7.46153
▁chi	-7.46628
▁ne	-7.47866
▁vi	-7.47875
▁time	-7.47966
▁tra	-7.48838
▁been	-7.50011
▁which	-7.50308
▁back	-7.50722
▁down	-7.50932
▁two	-7.51255
▁sia	-7.51296
▁very	-7.51418
▁io	-7.51508
▁stato	-7.51631
▁their	-7.51763
▁ho	-7.52769
▁due	-7.53567
▁over	-7.53755
▁dalla	-7.54782
▁presidente	-7.55102
▁has	-7.56075
▁così	-7.56711
n	-7.58146
▁b	-7.5908
▁going	-7.59199
▁stati	-7.60524
▁c	-7.61702
▁parte	-7.61924
▁let	-7.62568
▁could	-7.63124
▁quanto	-7.63185
▁tutto	-7.6341
▁sul	-7.64029
▁cosa	-7.64263
▁quando	-7.65701
▁fatto	-7.65806
▁signor	-7.66012
▁say	-7.66336
▁europea	-7.69189
▁molto	-7.71035
▁solo	-7.72083
ly	-7.72154
,"	-7.72377
▁sulla	-7.72524
▁prima	-7.72894
▁other	-7.72926
na	-7.73692
▁s	-7.73833
▁hanno	-7.74026
▁man	-7.74051
▁people	-7.74864
▁gonna	-7.75137
y	-7.75382
▁modo	-7.76045
▁senza	-7.76242
▁make	-7.76579
▁?	-7.76607
▁take	-7.77383
▁ancora	-7.77742
▁why	-7.78542
▁into	-7.80413
▁parlamento	-7.80845
er	-7.80846
▁ciò	-7.81051
▁quale	-7.81223
le	-7.81811
▁ogni	-7.83084
▁off	-7.83102
▁quella	-7.83241
▁poi	-7.83649
▁re	-7.83891
▁noi	-7.84798
▁abbiamo	-7.85096
▁dopo	-7.85134
▁fa	-7.85225
▁perché	-7.85265
▁consiglio	-7.85936
▁può	-7.86121
rsi	-7.86176
▁mio	-7.86505
▁us	-7.8651
▁first	-7.86774
si	-7.86844
▁too	-7.87001
in	-7.8773
▁fu	-7.87816
▁these	-7.8784
▁sempre	-7.88042
▁way	-7.88584
▁altri	-7.89486
▁fare	-7.89562
▁relazione	-7.89726
▁,	-7.89831
▁uno	-7.90994
▁uh	-7.91241
/	-7.91475
▁%	-7.919
▁qui	-7.92963
▁because	-7.93479
▁già	-7.935
▁quello	-7.93518
▁tempo	-7.93521
▁after	-7.93771
▁any	-7.93802
▁questi	-7.9489
▁our	-7.9545
ni	-7.9674
▁tell	-7.97312
ne	-7.97776
l	-7.9809
vano	-7.98551
▁anni	-7.98697
▁nei	-7.98731
unione	-7.99488
▁only	-7.99579
ro	-7.99989
▁ora	-8.00468
▁nell	-8.01074
▁quindi	-8.01986
▁er	-8.0206
--	-8.03232
▁aveva	-8.0339
▁politica	-8.03488
▁tale	-8.05086
▁paesi	-8.05702
mente	-8.05923
▁really	-8.06252
▁something	-8.06868
sse	-8.06918
▁nelle	-8.07907
la	-8.08282
▁quel	-8.08365
▁far	-8.08587
▁much	-8.08921
▁fine	-8.08948
▁wanna	-8.09075
▁quali	-8.10395
▁made	-8.10701
ri	-8.11165
▁fra	-8.11434
▁didn	-8.11708
nte	-8.127
▁mia	-8.13039
▁again	-8.13623
▁before	-8.13831
▁egli	-8.14096
▁ti	-8.14189
▁um	-8.14351
è	-8.14428
▁than	-8.14511
▁new	-8.1452
▁dove	-8.14543
▁lavoro	-8.14834
▁should	-8.14962
li	-8.15227
▁vita	-8.15454
zione	-8.15988
▁home	-8.16413
▁big	-8.17125
▁those	-8.17195
▁contro	-8.17529
▁day	-8.17583
▁went	-8.17859
▁three	-8.18766
▁lui	-8.19485
▁came	-8.21082
▁does	-8.21472
▁away	-8.23218
▁tutte	-8.23777
▁suoi	-8.23909
▁volta	-8.2399
▁europeo	-8.24732
vi	-8.24751
c	-8.24777
▁secondo	-8.24907
▁car	-8.25041
▁membri	-8.25041
▁never	-8.25241
?"	-8.25492
▁perchè	-8.25691
▁altro	-8.26074
▁play	-8.26631
▁deve	-8.2675
▁punto	-8.26807
▁mai	-8.27196
▁mean	-8.27388
▁give	-8.27557
▁baby	-8.277
▁li	-8.27881
▁long	-8.28591
w	-8.28988
▁also	-8.29202
▁queste	-8.29226
▁bene	-8.29257
▁house	-8.29278
▁dall	-8.29288
▁old	-8.29541
▁book	-8.3007
▁nostro	-8.30268
▁tu	-8.30795
▁another	-8.31167
▁thing	-8.31583
▁grande	-8.31765
▁proprio	-8.31914
▁things	-8.32741
▁sotto	-8.32935
▁am	-8.33102
▁lei	-8.33515
▁many	-8.33614
mo	-8.3385
▁siamo	-8.34139
lo	-8.34262
es	-8.34293
▁still	-8.34548
▁oggi	-8.34603
▁col	-8.34675
mi	-8.35434
_	-8.35541
▁need	-8.35751
▁allora	-8.35859
▁may	-8.36022
▁tre	-8.36239
▁ah	-8.36385
▁mother	-8.36574
▁great	-8.3783
▁doing	-8.37883
▁sta	-8.37994
▁through	-8.38291
▁giorno	-8.38297
▁work	-8.3862
add	-8.38883
▁tanto	-8.39217
▁dai	-8.39635
ò	-8.39847
▁must	-8.40006
rono	-8.40044
▁nostra	-8.40294
▁sarà	-8.40655
▁via	-8.40723
▁mondo	-8.40973
▁stesso	-8.41011
▁primo	-8.411
▁thought	-8.41229
▁last	-8.41734
▁dire	-8.42069
▁even	-8.4229
nti	-8.42322
▁qualche	-8.42386
vo	-8.42919
▁sue	-8.43033
▁po	-8.43478
co	-8.43538
▁name	-8.43695
▁sarebbe	-8.43821
the	-8.44055
▁alcuni	-8.44259
▁va	-8.4454
▁boy	-8.4463
▁agli	-8.45702
laughs	-8.45871
▁detto	-8.46528
nan	-8.46739
mar	-8.46829
▁huh	-8.47395
▁erano	-8.48344
▁sì	-8.48738
ci	-8.48806
▁però	-8.48839
▁head	-8.48907
▁n	-8.48981
▁vorrei	-8.49382
se	-8.4996
▁te	-8.50127
▁stata	-8.50137
▁won	-8.50346
▁caso	-8.50361
▁proposta	-8.50461
▁find	-8.5072
▁ri	-8.51149
▁dobbiamo	-8.51524
▁mr	-8.51548
▁night	-8.51651
so	-8.51965
▁around	-8.52157
▁!	-8.52215
▁erm	-8.52244
▁casa	-8.52272
▁sec	-8.52434
de	-8.52449
p	-8.52608
▁men	-8.52641
▁dalle	-8.52996
th	-8.53011
exp	-8.53205
di	-8.53288
▁called	-8.5334
▁mm	-8.53775
ra	-8.54193
▁cose	-8.54387
al	-8.54933
▁girl	-8.55186
▁meno	-8.55187
▁hand	-8.5544
▁problema	-8.55505
▁nome	-8.5556
▁most	-8.55712
▁eat	-8.5608
rlo	-8.56487
b	-8.57035
▁might	-8.57041
▁tratta	-8.57287
▁voi	-8.57385
▁forse	-8.57434
▁help	-8.57553
▁ben	-8.58021
▁place	-8.58301
▁done	-8.58779
▁commissario	-8.58814
▁paese	-8.58994
▁sure	-8.59312
▁altre	-8.5943
▁persone	-8.59781
▁thank	-8.59799
▁momento	-8.60234
▁2	-8.60384
▁father	-8.6065
▁poco	-8.60654
▁better	-8.60686
▁life	-8.60747
▁hey	-8.60887
▁1	-8.6119
▁being	-8.61203
▁importante	-8.61577
▁fosse	-8.61631
▁years	-8.61634
zioni	-8.61747
▁diritti	-8.6178
▁base	-8.6202
▁mommy	-8.62316
▁school	-8.62916
on	-8.63126
▁please	-8.6315
▁state	-8.63617
▁verso	-8.63702
▁sulle	-8.63783
▁water	-8.63892
▁tutta	-8.6439
▁while	-8.64559
▁such	-8.64867
▁love	-8.64967
▁possibile	-8.6502
▁sa	-8.65161
▁nuovo	-8.65425
▁anything	-8.65559
▁signora	-8.65565
!"	-8.66117
▁else	-8.66137
u	-8.66261
▁città	-8.66307
▁mhm	-8.66343
▁onorevole	-8.66386
▁sviluppo	-8.66423
rà	-8.66524
▁questione	-8.6653
h	-8.66715
".	-8.67207
▁nice	-8.67605
it	-8.67842
▁found	-8.67887
▁avere	-8.68141
us	-8.68165
x	-8.68482
▁molti	-8.68562
▁gran	-8.68721
▁gruppo	-8.68806
▁tuttavia	-8.69732
▁next	-8.69993
▁world	-8.70067
▁comune	-8.70341
▁dello	-8.71104
▁quelle	-8.71192
▁nostri	-8.71432
▁own	-8.71472
▁four	-8.71514
▁same	-8.71694
man	-8.71706
▁kind	-8.71787
▁doesn	-8.71831
and	-8.72252
▁part	-8.72268
▁certo	-8.72634
▁son	-8.72962
▁mentre	-8.73152
▁lot	-8.73321
do	-8.73337
▁ball	-8.73493
sa	-8.73522
▁sicurezza	-8.73637
▁situazione	-8.73773
▁particolare	-8.73791
ca	-8.73869
onorevole	-8.74004
▁under	-8.74117
g	-8.7418
▁diritto	-8.74196
▁cittadini	-8.74526
▁used	-8.74592
mento	-8.74656
▁invece	-8.74673
▁rispetto	-8.74691
▁sui	-8.74691
▁luogo	-8.74938
▁esempio	-8.74957
▁saw	-8.75317
▁governo	-8.75707
int	-8.75891
▁always	-8.7603
▁told	-8.76083
▁quasi	-8.76573
▁room	-8.76921
▁vero	-8.77035
▁3	-8.77092
ma	-8.7742
▁co	-8.7742
▁livello	-8.78012
▁face	-8.78068
▁sistema	-8.78278
▁nè	-8.78392
▁ever	-8.7947
▁left	-8.7955
▁show	-8.79896
▁fino	-8.80223
▁five	-8.80331
▁sull	-8.80418
▁end	-8.80571
sis	-8.81047
▁isn	-8.81084
▁nothing	-8.81093
▁roma	-8.81427
k	-8.8157
▁keep	-8.8237
▁call	-8.83129
▁talk	-8.83132
▁m	-8.83206
▁inoltre	-8.83449
▁open	-8.83455
▁possono	-8.83605
▁materia	-8.8375
da	-8.83981
▁mano	-8.84009
).	-8.84033
▁took	-8.84116
▁every	-8.8419
▁turn	-8.84368
”	-8.84484
▁credo	-8.85181
▁viene	-8.85252
▁red	-8.8557
f	-8.85752
me	-8.8594
as	-8.86098
▁allo	-8.86199
▁troppo	-8.86458
▁guerra	-8.86477
▁aver	-8.86637
▁settore	-8.86704
▁mercato	-8.86983
▁bit	-8.87056
bro	-8.87221
amo	-8.87308
▁sopra	-8.87437
▁once	-8.87909
▁use	-8.88299
▁–	-8.88409
▁try	-8.88486
▁goes	-8.88544
▁tali	-8.88753
▁parole	-8.89072
che	-8.89083
▁miss	-8.89297
rla	-8.8988
▁money	-8.89972
▁maybe	-8.90103
▁t	-8.90149
he	-8.90208
rci	-8.90333
▁year	-8.90882
.]	-8.90936
▁number	-8.90962
▁course	-8.91305
go	-8.91413
▁unione	-8.9145
▁mot	-8.91552
▁negli	-8.91824
▁dio	-8.91908
▁door	-8.92034
▁until	-8.92038
▁sorry	-8.9223
▁though	-8.92458
▁volte	-8.9257
▁god	-8.92932
▁city	-8.92987
▁king	-8.93149
▁wait	-8.93322
rmi	-8.93346
▁sei	-8.93438
▁its	-8.93552
▁both	-8.93555
▁siano	-8.93814
▁hm	-8.93861
▁generale	-8.94023
▁anno	-8.94272
.”	-8.9428
en	-8.94537
▁shall	-8.94549
▁enough	-8.94709
ce	-8.95091
▁riguarda	-8.95092
▁18	-8.9514
z	-8.95149
▁eyes	-8.9519
▁problemi	-8.95361
▁remember	-8.95506
tta	-8.95531
▁read	-8.95549
▁together	-8.95549
▁side	-8.95649
▁dice	-8.95657
v	-8.95742
▁best	-8.95775
▁_	-8.96097
▁occhi	-8.96182
▁p	-8.96484
▁quite	-8.96875
▁oltre	-8.97081
▁terra	-8.9712
),	-8.97317
you	-8.97403
▁stessa	-8.97583
▁dare	-8.97701
▁quelli	-8.98078
▁favore	-8.98084
▁upon	-8.98128
▁dog	-8.98309
▁donne	-8.98357
▁meglio	-8.98399
▁grandi	-8.98477
▁colleghi	-8.99219
▁looks	-8.99221
▁morning	-8.9937
▁daddy	-8.99614
em	-8.99741
▁pertanto	-8.99812
yes	-8.99826
▁soltanto	-8.99974
▁box	-9.00051
▁cup	-9.00164
▁dato	-9.00245
▁programma	-9.0045
▁hi	-9.00577
▁dunque	-9.00756
▁coming	-9.0077
▁direttiva	-9.00771
▁possiamo	-9.00825
▁children	-9.0087
▁processo	-9.00937
▁nuova	-9.00949
▁4	-9.0098
an	-9.01023
▁numero	-9.0152
▁hard	-9.01918
▁table	-9.02013
▁stop	-9.02212
or	-9.02361
▁porta	-9.02387
▁asked	-9.02422
▁conto	-9.02503
▁pretty	-9.02531
▁discussione	-9.02619
▁donna	-9.02804
▁seen	-9.02847
▁looking	-9.02868
▁idea	-9.02927
▁sir	-9.02935
▁san	-9.02944
▁black	-9.02992
▁nulla	-9.03225
▁uomini	-9.03225
tion	-9.03379
▁few	-9.03555
▁between	-9.03784
▁each	-9.03859
▁young	-9.03884
▁sociale	-9.039
▁5	-9.03933
▁vedere	-9.03983
▁hear	-9.04044
▁says	-9.04048
loi	-9.04151
▁necessario	-9.04208
▁leave	-9.04302
▁parti	-9.04355
▁child	-9.04415
▁feel	-9.04503
▁gone	-9.04839
▁popolo	-9.04857
▁alcune	-9.0491
▁vista	-9.05195
▁without	-9.05479
▁ce	-9.05544
▁bad	-9.05617
▁second	-9.05674
▁united	-9.05884
▁everything	-9.05968
▁europa	-9.05968
ato	-9.0597
▁mezzo	-9.05999
▁known	-9.06013
▁mrs	-9.06193
▁quest	-9.06462
▁avrebbe	-9.06617
▁heard	-9.06617
▁different	-9.06929
▁morte	-9.07169
▁insieme	-9.07204
▁yet	-9.07513
▁story	-9.07581
▁senso	-9.07755
▁u	-9.07839
▁essi	-9.07989
▁lungo	-9.08143
europa	-9.08342
▁soprattutto	-9.08542
▁società	-9.08719
▁mom	-9.08794
▁possa	-9.08945
▁sembra	-9.09066
pat	-9.0919
▁wanted	-9.09365
,”	-9.09597
▁libertà	-9.09629
▁round	-9.09931
▁disse	-9.10025
▁devono	-9.1033
▁maggiore	-9.105
▁onorevoli	-9.10728
▁real	-9.1074
▁later	-9.10928
▁bilancio	-9.11017
▁pace	-9.11228
▁storia	-9.11273
▁futuro	-9.11291
▁essa	-9.11321
▁giorni	-9.11348
▁today	-9.11377
▁ready	-9.11397
▁legge	-9.11509
▁pro	-9.11624
▁since	-9.11713
ers	-9.11822
",	-9.11833
▁bisogno	-9.12062
▁campo	-9.1214
▁posizione	-9.12189
▁cuore	-9.12523
▁american	-9.12919
▁emendamenti	-9.13021
▁infatti	-9.1315
are	-9.13159
▁uomo	-9.13212
ga	-9.13295
▁looked	-9.13435
▁white	-9.13526
ssero	-9.13596
▁himself	-9.1366
▁top	-9.13708
▁forma	-9.13749
tà	-9.13778
▁fuori	-9.14097
rne	-9.14195
sta	-9.14217
il	-9.14277
▁against	-9.14351
▁set	-9.14659
▁hafta	-9.1476
▁pure	-9.14764
▁potrebbe	-9.14808
▁getting	-9.14822
▁ecco	-9.1487
▁possibilità	-9.14921
tti	-9.15063
▁ask	-9.15246
ie	-9.15324
▁forza	-9.1533
▁care	-9.1535
▁sit	-9.15494
azione	-9.15555
▁mind	-9.15696
▁food	-9.15898
anno	-9.16027
▁half	-9.16038
▁pur	-9.16073
ted	-9.16091
▁ricerca	-9.16168
sib	-9.16207
▁fire	-9.1638
▁male	-9.16421
▁knew	-9.16511
▁hold	-9.16732
▁hands	-9.16814
▁capo	-9.16863
▁ten	-9.17067
um	-9.17067
▁pre	-9.17496
oh	-9.17521
▁risposta	-9.17556
▁happened	-9.17713
▁presente	-9.17829
▁case	-9.18008
▁color	-9.18039
cha	-9.18164
▁piano	-9.18224
zza	-9.18343
▁poter	-9.18433
▁bed	-9.1856
▁believe	-9.18728
▁watch	-9.1876
▁mani	-9.18795
▁light	-9.18802
▁corso	-9.18814
▁move	-9.18851
▁alright	-9.19149
▁buona	-9.19544
▁durante	-9.19604
▁tal	-9.19702
▁grazie	-9.19763
▁high	-9.19825
▁nostre	-9.19975
▁blue	-9.20053
▁small	-9.20053
▁g	-9.20203
io	-9.20367
▁posto	-9.20377
▁proposte	-9.20389
▁stay	-9.20452
ty	-9.20508
adu	-9.20517
▁eh	-9.20589
▁having	-9.20616
▁propria	-9.20782
▁soon	-9.20919
ndosi	-9.20921
▁abbia	-9.21069
▁live	-9.21372
▁green	-9.21395
▁page	-9.21581
▁states	-9.217
▁là	-9.21749
▁trattato	-9.21756
▁né	-9.21887
▁misure	-9.22072
▁fronte	-9.22113
rò	-9.22159
▁dovrebbe	-9.22221
▁talking	-9.22313
▁causa	-9.22343
▁actually	-9.22366
▁ya	-9.22401
▁six	-9.22438
▁girls	-9.2277
▁grado	-9.23081
▁ella	-9.23256
▁party	-9.23349
ry	-9.23388
▁presso	-9.23417
▁v	-9.23476
▁picture	-9.23583
▁principio	-9.23613
▁heart	-9.23629
▁papa	-9.23678
▁gave	-9.23721
▁hai	-9.23771
▁necessità	-9.23782
▁whole	-9.23874
▁appena	-9.23989
▁visto	-9.24005
ia	-9.24049
▁war	-9.2426
j	-9.24296
▁domanda	-9.2441
is	-9.24495
▁adesso	-9.24588
ssi	-9.24632
▁dear	-9.24759
▁posso	-9.24759
▁spesso	-9.24776
▁seconda	-9.24796
we	-9.24843
tte	-9.24956
▁fece	-9.24969
▁10	-9.25004
▁ragione	-9.25095
one	-9.2519
▁buon	-9.25227
▁days	-9.25299
▁making	-9.25427
▁born	-9.25516
▁cos	-9.25554
sti	-9.25714
▁died	-9.25746
▁servizi	-9.2624
▁«	-9.26411
▁molte	-9.26418
▁parola	-9.26558
▁cioè	-9.26581
▁saying	-9.2677
▁dagli	-9.26817
ha	-9.2688
bile	-9.27018
ranno	-9.27097
▁family	-9.27105
un	-9.27276
▁during	-9.27378
▁woman	-9.27381
▁condizioni	-9.27474
▁♪	-9.27692
gli	-9.27784
▁padre	-9.28094
▁quei	-9.28233
▁sort	-9.28508
▁quadro	-9.28585
▁friend	-9.28587
ria	-9.28671
▁avuto	-9.28744
▁r	-9.28875
altro	-9.28881
▁circa	-9.28929
▁run	-9.29265
be	-9.29275
ch	-9.29601
tori	-9.29693
▁...	-9.29697
▁almost	-9.29716
▁controllo	-9.29722
▁gente	-9.29826
▁voce	-9.30195
▁realtà	-9.30297
▁toys	-9.3037
▁davvero	-9.30423
▁cat	-9.31082
▁attività	-9.31436
▁qua	-9.31735
menti	-9.31969
▁town	-9.31984
▁tempi	-9.31989
▁paper	-9.32025
▁wasn	-9.32118
▁occorre	-9.32272
▁voglio	-9.32322
▁internazionale	-9.32379
▁started	-9.32393
▁cooperazione	-9.33189
▁guy	-9.33402
nza	-9.33608
▁x	-9.33611
▁trying	-9.33614
▁start	-9.33717
▁qualità	-9.33862
▁studio	-9.33913
▁merito	-9.33941
▁miei	-9.34087
▁close	-9.34269
▁tuo	-9.3454
▁quattro	-9.34569
gi	-9.34959
▁diversi	-9.35062
▁hundred	-9.35334
▁andare	-9.35345
▁accordo	-9.35436
▁comunque	-9.35526
▁nuovi	-9.35538
▁europei	-9.35542
era	-9.35602
▁italia	-9.35722
▁saranno	-9.35731
▁tipo	-9.35738
▁nuove	-9.35795
▁lady	-9.35983
▁word	-9.35986
ba	-9.36007
▁bring	-9.3607
▁fin	-9.36108
▁luce	-9.36154
▁regolamento	-9.36266
fi	-9.36272
cause	-9.36351
▁avevano	-9.36393
▁strada	-9.36584
▁risoluzione	-9.36692
gra	-9.36732
but	-9.369
▁piece	-9.36934
▁floor	-9.3704
rle	-9.37048
ano	-9.37073
▁game	-9.37163
▁bear	-9.3728
▁guarda	-9.37336
▁already	-9.37361
que	-9.37363
▁subito	-9.37399
rvi	-9.37516
▁politiche	-9.37586
▁along	-9.37606
▁qualcosa	-9.37664
▁noise	-9.37675
▁happy	-9.37908
▁played	-9.37965
▁passo	-9.37983
ge	-9.38169
▁team	-9.38251
tto	-9.38292
▁person	-9.38414
rli	-9.38575
▁desidero	-9.38631
▁comunità	-9.38732
▁point	-9.38744
▁wouldn	-9.38979
ter	-9.3907
▁john	-9.39151
ate	-9.39202
▁sound	-9.39376
▁prodotti	-9.39397
▁death	-9.39473
▁moment	-9.39567
▁probably	-9.39588
▁national	-9.39894
▁hair	-9.39934
▁front	-9.39963
▁regno	-9.40047
▁6	-9.40106
▁country	-9.4015
▁matter	-9.40208
▁20	-9.40214
ssimo	-9.40354
▁brother	-9.40726
▁15	-9.40738
▁termine	-9.40915
▁nazionale	-9.40956
▁informazioni	-9.40997
▁nessuno	-9.41191
▁vengono	-9.41256
▁k	-9.41323
▁playing	-9.41368
▁colla	-9.41389
▁mouth	-9.41414
▁progetto	-9.41628
▁haven	-9.41765
ale	-9.41784
▁mine	-9.41784
▁attraverso	-9.4181
▁seguito	-9.42012
▁milioni	-9.42135
▁guess	-9.42201
▁fondo	-9.42251
▁ruolo	-9.42358
▁stuff	-9.42371
▁bisogna	-9.42408
▁voice	-9.42548
▁cut	-9.42611
▁full	-9.42621
▁forte	-9.42641
▁persona	-9.42671
▁nazionali	-9.4276
▁bar	-9.42974
▁wrong	-9.43078
▁line	-9.43154
▁understand	-9.43291
▁fatti	-9.43311
ng	-9.43451
▁presidenza	-9.43461
▁ve	-9.43514
▁maggior	-9.43518
iamo	-9.43554
▁began	-9.43581
▁imprese	-9.43635
▁lost	-9.4381
car	-9.43944
▁ii	-9.44005
▁pare	-9.44024
▁music	-9.44262
▁bella	-9.44267
▁dad	-9.44294
▁hello	-9.44323
▁riguardo	-9.4439
am	-9.44405
▁infine	-9.44473
▁decisione	-9.44754
▁near	-9.4479
▁age	-9.44833
▁rest	-9.44901
▁became	-9.44906
▁furono	-9.45002
▁pubblico	-9.45099
▁esso	-9.45162
▁job	-9.4522
▁times	-9.45526
▁pubblica	-9.45602
▁autorità	-9.45653
▁air	-9.45808
ting	-9.46045
▁prendere	-9.46074
▁chair	-9.46232
▁anzi	-9.46303
▁prova	-9.46549
▁dati	-9.46851
accordo	-9.46885
▁natura	-9.46943
▁drink	-9.4719
▁el	-9.47279
▁sede	-9.47361
▁friends	-9.47581
▁poor	-9.48097
▁parlare	-9.48337
▁lotta	-9.48349
▁libro	-9.48386
▁famiglia	-9.48414
▁coloro	-9.48487
▁euro	-9.48585
ness	-9.48672
▁et	-9.48685
▁feet	-9.4872
▁almeno	-9.48815
▁ritengo	-9.49098
▁brought	-9.49114
▁responsabilità	-9.49313
▁parere	-9.4947
▁mare	-9.49494
▁avanti	-9.49566
▁poteva	-9.49665
▁minute	-9.49796
▁pesca	-9.50075
▁tua	-9.50393
ho	-9.50469
▁corte	-9.50507
▁punti	-9.50509
what	-9.50542
▁sleep	-9.50558
▁sea	-9.5062
▁movie	-9.50632
per	-9.50814
▁women	-9.50894
▁seemed	-9.50917
▁potuto	-9.51163
▁hope	-9.51196
▁chiesa	-9.51368
▁behind	-9.51376
▁vuole	-9.51422
▁testa	-9.51673
est	-9.51702
▁qual	-9.51706
▁signore	-9.51767
▁francia	-9.51809
po	-9.51933
▁diverse	-9.51953
▁significa	-9.51981
▁pi	-9.52086
▁corpo	-9.52167
▁area	-9.52221
▁ca	-9.52267
▁7	-9.5227
▁garantire	-9.52338
ck	-9.52348
▁toy	-9.52361
▁12	-9.52386
▁altra	-9.52399
▁f	-9.52429
▁uniti	-9.52478
▁fat	-9.52527
▁aiuti	-9.52553
▁camera	-9.52609
▁ore	-9.52612
▁umani	-9.52687
▁mesi	-9.5269
▁relazioni	-9.52759
tore	-9.52807
▁fondi	-9.52939
▁proposito	-9.53151
at	-9.53166
▁song	-9.53338
▁river	-9.53497
rio	-9.53509
▁gotta	-9.53665
(	-9.53668
points	-9.53981
▁south	-9.54074
▁week	-9.54081
1	-9.54175
▁fanno	-9.54177
▁stand	-9.54197
▁sometimes	-9.54288
▁turned	-9.54323
▁fall	-9.54404
el	-9.54574
▁relatore	-9.54663
▁trovare	-9.54684
▁hot	-9.54686
▁north	-9.54881
mmo	-9.54924
▁salute	-9.55057
▁twenty	-9.55107
▁words	-9.5511
▁politico	-9.55271
▁mo	-9.55275
▁outside	-9.55338
ling	-9.55423
▁bo	-9.55434
▁makes	-9.55435
▁dead	-9.55505
▁write	-9.55517
▁sun	-9.55624
▁data	-9.55782
▁till	-9.55802
▁fun	-9.55817
▁county	-9.55873
▁lord	-9.55965
▁boys	-9.5603
▁dibattito	-9.56046
▁french	-9.56303
▁assai	-9.56421
▁difficile	-9.56496
▁faccia	-9.56503
▁sera	-9.56647
ati	-9.56908
▁taken	-9.56997
▁giustizia	-9.57346
▁train	-9.57464
▁rather	-9.57618
▁fact	-9.57744
▁sola	-9.57753
ar	-9.5778
▁motivo	-9.57836
▁grave	-9.57838
▁able	-9.57909
▁intorno	-9.57942
▁periodo	-9.57989
altra	-9.58084
▁breve	-9.58101
▁servizio	-9.58129
▁someone	-9.58252
▁couldn	-9.58363
▁effetti	-9.58387
▁yellow	-9.58445
▁norme	-9.58578
▁fell	-9.58719
▁beautiful	-9.58721
▁procedura	-9.58795
pa	-9.58872
4	-9.58978
ata	-9.5905
▁ran	-9.59068
▁often	-9.59186
▁horse	-9.59396
▁mettere	-9.59484
▁madre	-9.59507
2	-9.59533
»	-9.59544
00	-9.59684
▁obiettivi	-9.59802
▁trova	-9.60063
▁17	-9.60067
▁phone	-9.60119
▁felt	-9.60158
▁veramente	-9.60185
▁ro	-9.60289
▁means	-9.60367
▁sapere	-9.60422
▁giovani	-9.60432
▁attenzione	-9.60606
▁nello	-9.60833
▁sole	-9.6092
▁mamma	-9.60957
▁opera	-9.61132
▁pay	-9.61169
▁france	-9.61195
▁sostegno	-9.61243
▁taking	-9.6133
▁notte	-9.61336
ke	-9.6135
▁tema	-9.61402
lla	-9.61412
▁resto	-9.61443
▁rappresenta	-9.61513
▁misura	-9.61609
well	-9.61618
▁bird	-9.61731
▁english	-9.61783
▁pari	-9.61815
▁vogliamo	-9.62096
▁sent	-9.62096
sco	-9.62121
▁milk	-9.62138
▁cinque	-9.62215
▁short	-9.62304
▁wife	-9.62327
ton	-9.62465
▁penso	-9.62576
▁stiamo	-9.6261
▁testo	-9.62621
▁however	-9.62702
urs	-9.62865
▁poiché	-9.62879
rs	-9.62923
▁casi	-9.62989
▁herself	-9.6307
▁parla	-9.6314
▁business	-9.63146
bili	-9.63234
▁uhhuh	-9.63235
▁york	-9.63236
▁questioni	-9.63326
that	-9.63372
▁serie	-9.6338
nt	-9.63442
▁true	-9.63481
▁order	-9.63559
▁alcun	-9.63617
▁linea	-9.63637
▁listen	-9.63694
rie	-9.63697
▁cause	-9.63709
▁dentro	-9.63721
▁myself	-9.63778
rebbe	-9.63883
▁sister	-9.64012
▁soluzione	-9.64013
▁potere	-9.64031
▁bambini	-9.64046
ment	-9.64086
▁primi	-9.64177
▁16	-9.64215
▁seven	-9.64501
▁sè	-9.64521
don	-9.64581
▁inside	-9.6459
▁walk	-9.64625
▁land	-9.64671
sca	-9.647
▁avesse	-9.64767
rti	-9.64888
▁economica	-9.65018
▁nonché	-9.65031
—	-9.65034
ʼ	-9.65056
▁tanti	-9.65142
▁perhaps	-9.65194
▁devo	-9.65259
▁early	-9.65259
▁ta	-9.65328
▁march	-9.65402
▁yourself	-9.65459
▁ultimi	-9.65467
▁pochi	-9.65525
▁principi	-9.65528
ali	-9.65635
▁group	-9.65691
▁migliore	-9.65692
▁successo	-9.65717
▁bus	-9.65796
▁animals	-9.65866
▁carlo	-9.65891
▁risorse	-9.65913
▁passato	-9.6605
▁deputati	-9.66127
▁pick	-9.66167
▁company	-9.66277
▁aspetti	-9.66331
▁avete	-9.66361
▁8	-9.66397
▁affinché	-9.66976
▁piuttosto	-9.67043
▁terzo	-9.67111
▁chiaro	-9.67186
▁spirito	-9.67195
▁presto	-9.67236
&	-9.6742
▁sociali	-9.67456
▁change	-9.67475
▁ago	-9.67665
▁mark	-9.67715
▁books	-9.67873
▁vostra	-9.67885
▁captain	-9.67919
▁wants	-9.68186
▁amici	-9.68303
▁bel	-9.68367
▁istituzioni	-9.68544
▁armi	-9.68574
▁[1	-9.68686
▁cento	-9.68708
▁lettera	-9.6879
interno	-9.69021
hi	-9.6929
▁centro	-9.69314
▁inter	-9.69315
▁tree	-9.69325
born	-9.69352
▁bag	-9.69467
▁given	-9.69523
▁late	-9.69882
ant	-9.70084
▁regioni	-9.7018
llo	-9.70187
▁body	-9.7042
▁bro	-9.70456
▁funny	-9.70528
▁guys	-9.70533
men	-9.70558
▁ex	-9.70629
▁rose	-9.70787
▁stessi	-9.70956
▁atto	-9.7101
▁vale	-9.71039
▁naturalmente	-9.71154
▁general	-9.71163
▁brown	-9.712
▁road	-9.71314
▁niente	-9.71343
▁sangue	-9.71373
▁mal	-9.71528
bo	-9.7158
▁qualsiasi	-9.71612
▁ride	-9.71666
sh	-9.71724
▁spero	-9.7177
▁facendo	-9.71901
▁finalmente	-9.71979
▁valore	-9.72042
▁partito	-9.72179
ere	-9.72189
▁film	-9.7221
▁ka	-9.72234
?”	-9.7225
▁dietro	-9.72302
▁either	-9.72405
▁creare	-9.7252
ur	-9.72643
▁innanzi	-9.72686
▁importanti	-9.72805
▁lì	-9.72826
▁eight	-9.72958
▁minutes	-9.7298
▁9	-9.73147
▁fede	-9.73157
▁ok	-9.73293
▁occasione	-9.733
▁amore	-9.73317
▁spazio	-9.73494
▁figlio	-9.73702
▁ni	-9.7388
▁least	-9.73896
▁alcuna	-9.73958
▁meet	-9.74088
▁basta	-9.74213
▁milano	-9.74251
▁club	-9.74261
▁repubblica	-9.74267
oni	-9.74269
▁interno	-9.74353
▁sounds	-9.74393
▁collega	-9.74424
▁protezione	-9.74453
▁tom	-9.74683
▁cap	-9.74748
▁30	-9.74823
▁termini	-9.74836
▁somebody	-9.74893
▁pel	-9.74984
lli	-9.75054
▁titolo	-9.75088
▁large	-9.75127
▁perciò	-9.75159
land	-9.75194
▁confronti	-9.7527
▁aren	-9.75366
▁h	-9.75427
▁risultati	-9.75487
gna	-9.75495
▁several	-9.75562
▁doctor	-9.75573
childes	-9.75629
▁importanza	-9.75723
▁14	-9.75763
▁childes	-9.75786
▁santa	-9.75957
▁comes	-9.75984
ambiente	-9.76016
▁richiesta	-9.7607
▁difficoltà	-9.76143
▁wish	-9.76283
pe	-9.76392
▁pratica	-9.76418
▁preso	-9.76424
▁alone	-9.76433
▁working	-9.76438
▁piedi	-9.76479
▁ordine	-9.76538
▁w	-9.76576
sce	-9.76583
3	-9.76697
▁consumatori	-9.76789
▁cold	-9.76875
ste	-9.7694
▁maniera	-9.77028
▁y	-9.77116
▁vostro	-9.77138
▁hat	-9.77188
▁ring	-9.77322
▁vede	-9.77433
▁regione	-9.77749
▁giusto	-9.77863
▁kill	-9.77894
▁pensiero	-9.779
▁vari	-9.77918
▁star	-9.7814
fa	-9.78165
▁president	-9.78177
ah	-9.782
▁across	-9.78282
▁#	-9.78331
▁government	-9.78406
▁domani	-9.78413
▁conte	-9.7848
▁stanno	-9.78544
▁11	-9.78845
▁coi	-9.78935
▁letter	-9.78992
▁formazione	-9.78992
up	-9.79066
fe	-9.7913
▁break	-9.7916
é	-9.79178
con	-9.79184
▁semplice	-9.79199
▁animali	-9.79252
▁hungry	-9.79309
▁fatta	-9.7935
▁gestione	-9.79427
▁13	-9.79448
huh	-9.79493
▁cura	-9.79495
▁throw	-9.79529
by	-9.79536
uomo	-9.79587
▁present	-9.79646
nce	-9.797
▁question	-9.79723
▁foot	-9.79786
▁maria	-9.79881
▁essendo	-9.79966
ue	-9.79982
▁power	-9.80052
▁tea	-9.80116
▁tape	-9.80149
▁tutela	-9.80182
▁hurt	-9.80235
▁esiste	-9.80237
▁lived	-9.80284
▁pen	-9.80327
ion	-9.80375
za	-9.80461
▁ottenere	-9.80478
▁figure	-9.80482
▁entro	-9.8067
▁duca	-9.80728
▁deal	-9.80866
▁politici	-9.80868
ero	-9.80958
▁posti	-9.81012
▁street	-9.81066
able	-9.81105
▁silver	-9.81212
▁mie	-9.81247
ambito	-9.81304
▁‘	-9.8135
col	-9.8135
▁mente	-9.81379
▁scuola	-9.81566
▁com	-9.81588
▁personale	-9.81754
▁programmi	-9.81816
ka	-9.81861
▁dr	-9.81871
▁important	-9.81878
▁produzione	-9.81912
▁dì	-9.81986
▁contrario	-9.82002
▁ringrazio	-9.82091
▁doveva	-9.82131
▁ba	-9.8225
▁tried	-9.82273
▁volontà	-9.82281
▁comunicazione	-9.82307
pi	-9.82341
▁continua	-9.82353
▁dovuto	-9.82439
▁specie	-9.82495
▁riforma	-9.82607
▁thanks	-9.82717
▁video	-9.82723
▁living	-9.82767
▁mondiale	-9.82848
▁killed	-9.82854
▁giovane	-9.82924
▁difesa	-9.82947
ino	-9.83033
▁intende	-9.83051
zze	-9.83052
▁dieci	-9.83142
▁par	-9.83154
▁convenzione	-9.8328
▁ministro	-9.83477
▁sappiamo	-9.83659
▁moglie	-9.83663
▁bi	-9.83771
▁boat	-9.8378
▁truck	-9.83854
▁media	-9.84074
▁speak	-9.84159
▁mummy	-9.84252
▁aspetto	-9.84264
▁venne	-9.84527
eri	-9.84582
▁buy	-9.84703
▁popolazione	-9.8471
▁cried	-9.84726
▁others	-9.84769
▁january	-9.8479
▁master	-9.85143
▁held	-9.85145
▁piccolo	-9.85148
▁alto	-9.85214
looks	-9.85217
▁affrontare	-9.85218
▁letto	-9.85237
▁ormai	-9.85268
▁esse	-9.85283
▁scopo	-9.85336
▁]	-9.85376
▁secolo	-9.85444
bi	-9.85464
articolo	-9.85684
▁assolutamente	-9.85737
▁thou	-9.85781
▁commercio	-9.85879
nze	-9.85951
▁genere	-9.86153
▁pull	-9.86197
▁seno	-9.86358
.)	-9.86367
▁ground	-9.86425
▁past	-9.86437
▁lavoratori	-9.8649
▁rising	-9.86534
▁mese	-9.86546
▁dark	-9.86552
▁park	-9.86609
▁presentato	-9.8663
▁stick	-9.86647
ine	-9.86773
▁nine	-9.86869
▁glad	-9.86907
▁trouble	-9.86927
8	-9.86941
▁pe	-9.86958
▁faceva	-9.87059
▁crisi	-9.87212
▁university	-9.87233
▁george	-9.87235
▁j	-9.87238
▁davanti	-9.87242
qui	-9.8725
der	-9.87269
▁chiama	-9.87353
▁libera	-9.87456
▁pa	-9.87557
▁van	-9.87577
▁pensare	-9.87733
▁fight	-9.8776
▁pan	-9.87785
▁gruppi	-9.87829
ster	-9.87833
▁interessi	-9.87851
she	-9.87861
▁prime	-9.87866
my	-9.87875
▁risultato	-9.87893
▁fondamentale	-9.88037
▁leggi	-9.88293
▁venga	-9.88325
remo	-9.88375
ja	-9.88382
son	-9.88414
▁verità	-9.88518
▁debba	-9.88536
▁fish	-9.88558
▁esser	-9.88667
▁rischio	-9.88682
▁vera	-9.8872
▁colle	-9.89078
▁chiede	-9.89091
lu	-9.891
▁hour	-9.89104
ver	-9.89154
▁passi	-9.89235
▁attualmente	-9.89259
▁mar	-9.89284
if	-9.89332
▁conferenza	-9.89364
for	-9.89372
▁ebbe	-9.89402
▁sugli	-9.89455
▁fi	-9.89539
▁onde	-9.89599
▁kept	-9.89637
▁history	-9.89852
lle	-9.89948
▁frog	-9.89997
▁fossero	-9.90016
▁wow	-9.9006
▁everybody	-9.90079
▁peter	-9.90214
▁pop	-9.90238
tri	-9.90247
▁piú	-9.9027
▁+	-9.90274
▁clothes	-9.90338
▁iii	-9.90594
lt	-9.9063
▁earth	-9.9064
▁problem	-9.90673
▁post	-9.90682
▁anti	-9.90694
▁economico	-9.907
ki	-9.90741
▁rendere	-9.90839
▁presenti	-9.90882
▁nazioni	-9.90926
▁football	-9.90932
▁possano	-9.91257
▁silence	-9.91333
zzo	-9.91373
▁fast	-9.91391
▁become	-9.91401
▁democrazia	-9.91434
▁tratto	-9.9151
du	-9.9153
▁among	-9.91542
▁mette	-9.91553
▁less	-9.91795
▁mezzi	-9.91797
▁carattere	-9.91819
▁giovanni	-9.91824
rgli	-9.9184
glia	-9.91897
▁gi	-9.91899
▁proprie	-9.91903
▁jack	-9.91933
▁sat	-9.91937
ley	-9.92009
▁clear	-9.92096
▁office	-9.92147
▁st	-9.92164
▁chance	-9.92254
▁potrà	-9.9226
▁named	-9.92267
▁department	-9.92271
▁presenza	-9.923
▁azioni	-9.92303
▁free	-9.92353
▁accordi	-9.92379
▁riferimento	-9.92404
▁capacità	-9.92467
▁concorrenza	-9.9253
▁cielo	-9.92565
ì	-9.92572
▁capi	-9.92605
ana	-9.9263
▁series	-9.92633
▁band	-9.92725
▁farlo	-9.92726
▁wonder	-9.92859
▁que	-9.92872
▁daughter	-9.9288
▁comuni	-9.92917
▁progetti	-9.92918
▁rock	-9.92938
▁rende	-9.92962
▁unico	-9.93042
▁west	-9.9308
▁art	-9.93169
▁fondamentali	-9.93198
▁forze	-9.93397
▁whether	-9.93505
▁interesse	-9.9358
▁dinner	-9.93637
▁reason	-9.93687
▁mama	-9.94007
▁vecchio	-9.94022
▁answer	-9.94109
▁running	-9.94124
▁kids	-9.94135
cca	-9.94163
▁thinking	-9.94186
▁dovrà	-9.94213
▁principe	-9.94354
▁votazione	-9.94474
▁tri	-9.94484
▁single	-9.94552
▁certamente	-9.94583
ora	-9.94597
▁obiettivo	-9.94627
▁settimana	-9.9472
▁easy	-9.94757
▁lunga	-9.94797
▁whatever	-9.94889
gma	-9.94909
▁ship	-9.95081
▁carta	-9.95085
▁25	-9.95147
▁april	-9.95157
▁scorso	-9.95197
▁prese	-9.95223
▁ove	-9.9525
▁afraid	-9.95286
▁eye	-9.95299
▁settori	-9.95302
▁decisioni	-9.95546
▁na	-9.95555
▁rispose	-9.95631
▁ice	-9.95634
ini	-9.95669
▁lavori	-9.95677
▁member	-9.95688
▁nose	-9.95735
▁august	-9.95746
▁paul	-9.95844
▁tante	-9.95906
▁purtroppo	-9.96021
▁seems	-9.96063
▁articolo	-9.96073
▁camp	-9.96099
▁sistemi	-9.96179
▁dubbio	-9.96284
less	-9.96293
ful	-9.96313
▁sto	-9.96373
▁moon	-9.96443
▁direzione	-9.96536
▁popoli	-9.96572
▁album	-9.96597
▁sitting	-9.96682
▁crescita	-9.96873
▁hit	-9.96878
▁avendo	-9.96923
▁voleva	-9.9693
vocalizes	-9.97051
▁carica	-9.97153
▁stood	-9.97326
▁varie	-9.97366
▁super	-9.9738
tura	-9.9739
ordine	-9.97393
▁settembre	-9.97416
▁oggetto	-9.97424
fo	-9.97474
tra	-9.97563
▁visit	-9.9759
▁strumenti	-9.97621
▁lives	-9.97804
▁vicino	-9.97815
▁voto	-9.97856
▁evitare	-9.9805
▁ovviamente	-9.98101
▁qualcuno	-9.98109
zi	-9.98178
▁september	-9.98284
▁october	-9.98307
▁window	-9.98316
▁shoes	-9.98443
com	-9.98447
▁paura	-9.98447
ità	-9.98467
▁indeed	-9.98474
▁bye	-9.98512
▁takes	-9.98518
▁vanno	-9.98538
▁married	-9.98579
▁strong	-9.98606
▁speranza	-9.98696
▁reca	-9.98833
▁disposizione	-9.98879
▁prossimo	-9.98897
erà	-9.98944
▁gioco	-9.99062
ture	-9.99077
▁tomorrow	-9.99083
sso	-9.99176
ns	-9.99218
▁trasporto	-9.99222
of	-9.99232
▁finished	-9.99303
▁creazione	-9.99362
▁fit	-9.99393
▁dialogo	-9.99408
▁special	-9.99473
▁themselves	-9.99523
▁happen	-9.99587
▁affari	-9.99743
tu	-9.99745
▁sai	-9.9983
▁chiedere	-9.99847
▁serve	-9.99968
▁propri	-9.99972
▁released	-10.0007
▁europee	-10.0008
▁gets	-10.0009
▁usually	-10.001
▁spese	-10.0011
▁sco	-10.0013
▁vivere	-10.0018
▁resta	-10.0019
▁avevo	-10.0025
stra	-10.0031
ner	-10.0044
▁sweet	-10.0047
trice	-10.0053
!”	-10.0065
▁francese	-10.0068
▁thousand	-10.0071
▁sub	-10.0074
▁third	-10.0074
▁danno	-10.0079
ko	-10.0081
▁francesco	-10.0082
ssima	-10.0083
▁province	-10.0083
▁summer	-10.0092
▁doll	-10.0093
▁career	-10.0095
ist	-10.0096
▁suppose	-10.0101
▁simile	-10.0103
▁save	-10.0103
▁within	-10.0106
▁anyway	-10.0109
▁mille	-10.0109
▁gas	-10.012
5	-10.0125
▁fe	-10.013
▁valutazione	-10.0133
▁draw	-10.0141
▁bunny	-10.0142
▁messo	-10.0156
▁maggio	-10.0162
▁catch	-10.0166
▁sostenere	-10.0169
▁costi	-10.0172
▁diceva	-10.0176
▁vuoi	-10.0179
▁quanti	-10.0185
▁facile	-10.0187
▁19	-10.019
▁mary	-10.0192
▁send	-10.0192
▁presentata	-10.0199
à	-10.0199
▁capire	-10.0213
▁elementi	-10.0213
▁hours	-10.0215
den	-10.0216
▁qualunque	-10.0222
▁vertice	-10.0227
▁push	-10.0231
▁amico	-10.0235
▁news	-10.0236
▁fase	-10.0237
▁british	-10.0241
▁board	-10.025
▁juice	-10.0263
▁stava	-10.0265
▁conseguenze	-10.0265
▁figli	-10.0266
▁ambito	-10.0268
▁mostra	-10.0273
▁monte	-10.0273
▁lingua	-10.0277
▁civile	-10.028
▁voluto	-10.0287
▁legislazione	-10.0296
▁touch	-10.03
▁noises	-10.03
▁strumento	-10.0306
▁worked	-10.0309
▁ones	-10.0311
7	-10.0312
▁months	-10.0325
▁migliorare	-10.0329
▁police	-10.033
▁lay	-10.0332
▁exactly	-10.0352
▁napoli	-10.0354
▁considerazione	-10.0358
▁east	-10.0358
▁army	-10.038
line	-10.038
▁pena	-10.0384
▁nord	-10.0395
▁abbastanza	-10.0397
▁yep	-10.0402
▁gold	-10.0403
▁contesto	-10.0404
▁disposizioni	-10.0409
et	-10.0423
02	-10.0426
▁couple	-10.043
▁thomas	-10.0431
▁uncle	-10.0434
tico	-10.0436
ff	-10.0441
▁quiet	-10.0447
▁eating	-10.0448
▁jo	-10.0464
▁prove	-10.0464
▁tanta	-10.0486
▁tenere	-10.0489
▁indian	-10.0491
▁venire	-10.0492
▁scritto	-10.0494
▁conseguenza	-10.0497
▁cow	-10.0503
▁answered	-10.0506
▁chiaramente	-10.0511
▁england	-10.0512
▁membro	-10.0514
▁fini	-10.0514
▁met	-10.0516
▁giudizio	-10.052
▁raggiungere	-10.0527
▁cerca	-10.0539
▁kitchen	-10.0553
▁semplicemente	-10.0555
▁firenze	-10.0557
▁atti	-10.057
▁dar	-10.0574
▁arm	-10.0582
ssimi	-10.0584
▁comunitario	-10.0591
emendamento	-10.0601
”.	-10.0603
▁drive	-10.0608
▁public	-10.0608
▁david	-10.0608
▁husband	-10.061
á	-10.061
▁wall	-10.061
jo	-10.0612
▁honey	-10.0624
í	-10.0625
▁middle	-10.0627
▁certain	-10.0628
▁main	-10.063
▁test	-10.0632
▁instead	-10.0636
zio	-10.0636
▁avea	-10.0636
▁dichiarazione	-10.0636
▁priorità	-10.064
▁forget	-10.0643
▁toward	-10.0645
ous	-10.0655
▁whose	-10.0659
ya	-10.0667
▁partire	-10.0668
▁progressi	-10.0669
▁piccoli	-10.067
laughing	-10.0685
ina	-10.0688
▁maggioranza	-10.0695
▁intervento	-10.0697
▁soldati	-10.0697
▁wind	-10.0701
▁lu	-10.0707
▁siete	-10.0707
▁june	-10.0711
ru	-10.0713
ggia	-10.0715
▁centrale	-10.0716
▁above	-10.0725
ic	-10.0734
6	-10.0735
puts	-10.0736
▁sicuro	-10.0747
▁nor	-10.0757
takes	-10.076
▁territorio	-10.076
▁gravi	-10.0776
▁relative	-10.0778
ssa	-10.0784
▁district	-10.0788
glio	-10.0804
▁destra	-10.0812
▁sito	-10.082
▁orange	-10.0824
▁joe	-10.0826
▁positivo	-10.083
▁dico	-10.0835
▁forward	-10.0845
let	-10.0845
▁emendamento	-10.0857
▁regole	-10.0868
▁ja	-10.0871
▁service	-10.0873
▁rispondere	-10.0875
ita	-10.0876
▁passare	-10.0876
▁seem	-10.0877
▁human	-10.0881
▁ra	-10.0883
▁stampa	-10.0888
▁ero	-10.0892
▁impegno	-10.0892
picks	-10.0895
▁poichè	-10.0898
▁bottle	-10.0901
▁evening	-10.0902
ndi	-10.0903
▁avviso	-10.0905
▁fifty	-10.0911
▁excuse	-10.0911
▁musica	-10.0912
▁ahead	-10.0917
▁principali	-10.0919
▁ragioni	-10.092
▁sin	-10.092
▁wear	-10.0926
▁nonostante	-10.0937
▁birthday	-10.0937
▁cannot	-10.0941
ring	-10.0944
▁moved	-10.0949
▁strategia	-10.0952
▁portare	-10.0954
▁negoziati	-10.0955
▁pericolo	-10.0956
▁putting	-10.096
all	-10.0961
5-0	-10.0961
▁dà	-10.0969
▁fair	-10.0973
▁prodotto	-10.0978
▁replied	-10.098
▁nemmeno	-10.0985
▁shot	-10.0986
ex	-10.0987
▁shut	-10.0991
▁sé	-10.1001
▁plate	-10.102
▁christmas	-10.1024
▁cookie	-10.1026
▁passed	-10.1031
▁cultura	-10.1039
▁ricordo	-10.104
▁system	-10.1044
▁svolto	-10.1047
▁television	-10.1053
▁fiducia	-10.1057
▁scelta	-10.106
uso	-10.106
▁tonight	-10.1069
▁patria	-10.1073
▁november	-10.1076
▁fortuna	-10.1085
▁ossia	-10.1091
▁arms	-10.1093
▁league	-10.1097
▁probabilmente	-10.1099
zzi	-10.11
▁esprimere	-10.11
▁sing	-10.1101
▁plan	-10.111
▁dovrebbero	-10.112
▁migliori	-10.1123
▁list	-10.1129
▁para	-10.113
▁dicembre	-10.1135
ccio	-10.1136
▁en	-10.1136
▁ricordare	-10.1147
▁bianco	-10.1151
▁nessun	-10.1152
▁america	-10.1152
▁documento	-10.1156
▁oppure	-10.1156
▁reached	-10.1169
▁coffee	-10.1172
▁24	-10.1173
▁verde	-10.1174
▁shape	-10.1184
ity	-10.1192
▁waiting	-10.1192
sci	-10.1196
occupazione	-10.1199
▁piccola	-10.1206
▁giugno	-10.1209
▁court	-10.1212
rai	-10.1216
▁giuridica	-10.1218
▁church	-10.1219
▁longer	-10.1223
▁points	-10.1224
▁ga	-10.1234
▁maggiori	-10.1236
▁possible	-10.1245
▁bell	-10.1249
▁compito	-10.1249
▁guida	-10.1252
▁whom	-10.1254
▁chiedo	-10.1259
▁date	-10.1265
▁motivi	-10.1275
▁farm	-10.1282
▁intanto	-10.1282
▁idee	-10.1286
▁tv	-10.129
▁pig	-10.1292
▁governi	-10.1292
▁piccole	-10.1299
pro	-10.13
▁bello	-10.1302
▁tired	-10.1305
▁soft	-10.1305
▁cool	-10.1313
▁radio	-10.1321
mel	-10.133
▁venezia	-10.1332
▁queen	-10.1333
▁form	-10.1334
rum	-10.1336
▁clean	-10.1338
ul	-10.1338
▁viaggio	-10.1345
▁fuoco	-10.1346
▁space	-10.1355
▁blood	-10.1361
▁certa	-10.1366
ber	-10.1384
▁december	-10.1386
▁puts	-10.1391
▁silenzio	-10.1391
▁future	-10.1393
▁50	-10.1393
▁pieno	-10.14
▁piena	-10.1405
tò	-10.1406
1:	-10.1408
▁estremamente	-10.1411
▁bocca	-10.1411
▁modello	-10.1414
▁principale	-10.1422
▁candidati	-10.1428
▁lato	-10.1432
gt	-10.1439
▁trasporti	-10.144
idea	-10.1442
▁sinistra	-10.1448
▁dress	-10.146
▁continuare	-10.146
▁return	-10.1469
▁seat	-10.1474
30	-10.1478
▁partecipazione	-10.1483
▁broke	-10.1484
▁chiesto	-10.1493
▁win	-10.1499
▁although	-10.1505
▁million	-10.1508
▁island	-10.1516
inizio	-10.1518
▁written	-10.1521
▁class	-10.1528
ico	-10.1539
▁aiuto	-10.1539
ica	-10.1541
▁auto	-10.1554
▁vigore	-10.1555
▁pensa	-10.1555
▁caro	-10.1575
▁chief	-10.1579
▁studi	-10.1586
||	-10.1593
▁pubblici	-10.1598
▁alta	-10.1602
▁check	-10.1604
▁cercare	-10.1616
▁marzo	-10.1624
▁contra	-10.1626
▁facciamo	-10.1632
▁july	-10.1635
▁everyone	-10.1649
▁desiderio	-10.1664
▁station	-10.1674
▁forme	-10.168
▁visita	-10.1682
industria	-10.1683
▁attuale	-10.1683
▁returned	-10.1692
▁verrà	-10.1697
▁ieri	-10.1701
▁ate	-10.1702
▁region	-10.171
▁leader	-10.1712
▁&	-10.1716
▁pieces	-10.1718
zia	-10.1719
tivo	-10.172
▁conti	-10.172
▁computer	-10.172
▁prende	-10.172
▁season	-10.1721
▁note	-10.1723
▁standing	-10.1724
lin	-10.1724
im	-10.1726
▁afternoon	-10.1728
▁rimane	-10.173
▁collaborazione	-10.1732
▁mattina	-10.1737
▁--	-10.1741
ghi	-10.1742
ze	-10.1748
▁bensì	-10.1748
▁aunt	-10.1751
nda	-10.1752
bu	-10.1753
▁college	-10.1763
▁kitty	-10.1764
▁gun	-10.1765
▁pareva	-10.1766
▁fo	-10.1769
▁piace	-10.177
▁ancor	-10.1771
▁anima	-10.1772
0	-10.1772
▁val	-10.1776
▁ringraziare	-10.1781
▁(19	-10.1784
▁concetto	-10.1786
▁german	-10.1789
▁libero	-10.1797
▁certainly	-10.1803
▁efficace	-10.1803
▁affatto	-10.1806
▁th	-10.1807
ler	-10.1814
nd	-10.1819
▁count	-10.1822
▁dovremmo	-10.1825
▁conoscenza	-10.1832
▁apple	-10.1834
▁wood	-10.1858
▁volto	-10.1863
ari	-10.1865
▁race	-10.1867
▁ministri	-10.187
▁acqua	-10.1877
▁deciso	-10.1884
▁particolarmente	-10.1896
▁fear	-10.1897
way	-10.1898
▁virtù	-10.1898
▁uso	-10.1899
▁places	-10.1899
▁former	-10.19
▁trovato	-10.1903
▁100	-10.1906
nina	-10.1906
▁seduta	-10.1907
▁ultimo	-10.191
▁vedi	-10.1911
▁lascia	-10.1919
▁reale	-10.1925
▁2000	-10.1928
▁sette	-10.1929
▁piacere	-10.1931
▁sufficiente	-10.1932
▁minister	-10.1935
▁london	-10.1938
▁hole	-10.1948
ggio	-10.1949
▁caught	-10.1949
▁spoon	-10.1952
▁following	-10.1953
tive	-10.1955
▁)	-10.1957
▁lavorare	-10.1958
▁sicuramente	-10.197
▁nessuna	-10.1972
time	-10.1973
▁low	-10.1974
▁holding	-10.1981
▁straight	-10.1988
▁azione	-10.1989
▁italiana	-10.1993
▁iv	-10.1993
▁sottolineare	-10.1995
▁careful	-10.1998
▁est	-10.2002
▁medesimo	-10.2006
au	-10.2013
▁jump	-10.2015
▁presentare	-10.202
▁esame	-10.2022
▁condizione	-10.2028
▁fratello	-10.2038
▁necessaria	-10.2039
▁tardi	-10.2039
▁village	-10.2042
▁dolore	-10.2043
▁building	-10.2045
▁games	-10.2049
▁opened	-10.2054
▁piazza	-10.2056
▁21	-10.2056
▁procedure	-10.2068
▁player	-10.2075
▁contributo	-10.2077
▁ch	-10.2082
▁umana	-10.2084
▁uhoh	-10.2085
▁sebbene	-10.2086
▁standard	-10.209
▁iniziative	-10.2091
▁pass	-10.2094
▁figura	-10.2094
▁avrà	-10.2097
▁strange	-10.2106
▁lettura	-10.2106
▁nobody	-10.2109
▁february	-10.2109
ish	-10.212
▁quick	-10.2122
▁presenta	-10.2122
led	-10.2123
▁rete	-10.2125
tur	-10.2128
▁mandato	-10.2141
▁seguente	-10.2142
▁italiano	-10.2152
▁sight	-10.2156
▁potrebbero	-10.2156
▁sforzi	-10.2166
mer	-10.2166
▁passa	-10.2168
▁sensi	-10.2171
▁ricorda	-10.2178
▁militare	-10.218
▁vol	-10.2181
there	-10.2186
▁canto	-10.2191
▁towards	-10.2192
▁law	-10.2194
▁sarebbero	-10.2199
▁ross	-10.2199
▁diventa	-10.2203
▁hall	-10.2204
▁senti	-10.2207
▁ko	-10.221
tor	-10.2219
▁gennaio	-10.2224
ente	-10.2227
▁luglio	-10.223
▁feeling	-10.2233
▁soli	-10.2234
▁thirty	-10.2236
▁zone	-10.2236
▁built	-10.2239
▁quickly	-10.2255
▁weeks	-10.2258
▁regime	-10.2268
▁2020	-10.2284
▁position	-10.2285
▁battaglia	-10.2285
▁stare	-10.2292
▁sarah	-10.2304
▁wrote	-10.2312
non	-10.2314
silence	-10.2317
▁naturale	-10.2317
▁international	-10.2321
▁parlato	-10.2324
▁ovvero	-10.2326
▁broken	-10.233
▁internazionali	-10.2332
▁cheese	-10.2335
▁internet	-10.2343
▁vuol	-10.2352
roz	-10.2356
▁battle	-10.2364
▁relativa	-10.2367
▁seguire	-10.2369
▁sick	-10.2378
▁major	-10.2388
▁metà	-10.2392
▁riduzione	-10.2397
▁locali	-10.2399
▁lontano	-10.24
▁anyone	-10.2401
▁za	-10.2401
▁thy	-10.2406
")	-10.2413
▁anch	-10.2417
▁cake	-10.2427
▁morto	-10.2435
▁massima	-10.2441
▁coscienza	-10.2447
▁russia	-10.2452
gu	-10.2452
▁truth	-10.2454
age	-10.2454
▁trees	-10.2458
▁marito	-10.2459
▁hospital	-10.2468
▁modi	-10.2474
ismo	-10.2474
acqua	-10.2481
▁dat	-10.2485
▁sense	-10.2486
▁store	-10.2488
▁comitato	-10.2489
▁supposed	-10.2496
▁pizza	-10.2497
▁fiori	-10.2502
▁du	-10.2512
▁zzz	-10.2519
▁dimostra	-10.2519
▁servi	-10.2524
▁appunto	-10.2525
▁quegli	-10.2529
▁sentire	-10.2529
▁opportunità	-10.2543
▁ooh	-10.255
▁risulta	-10.255
▁cross	-10.255
smo	-10.2556
▁nota	-10.2562
▁sala	-10.2568
▁wan	-10.257
▁stesse	-10.2574
les	-10.2579
▁usa	-10.2582
▁coraggio	-10.2584
▁poveri	-10.2585
▁gar	-10.2589
can	-10.259
day	-10.2601
▁vogliono	-10.2609
▁rapporto	-10.2609
▁opere	-10.2619
▁felice	-10.2621
▁altresì	-10.2622
▁pounds	-10.2629
▁belle	-10.264
▁voglia	-10.2643
obiettivo	-10.2645
▁porre	-10.2651
cu	-10.2653
▁mu	-10.2654
▁bob	-10.2658
▁manca	-10.2665
▁violenza	-10.2667
▁entrare	-10.267
▁works	-10.2673
▁hell	-10.2675
▁warm	-10.2677
▁match	-10.2686
▁kid	-10.2687
cco	-10.2695
▁council	-10.27
▁criteri	-10.2708
▁romani	-10.2708
▁denaro	-10.2712
▁commune	-10.2716
▁heavy	-10.2722
why	-10.2722
▁ambiente	-10.2723
▁ragazzi	-10.2724
ggi	-10.2725
▁certi	-10.2727
▁telling	-10.2732
▁regionale	-10.274
▁beat	-10.2744
nde	-10.2753
▁pretend	-10.2756
▁campagna	-10.2758
▁pictures	-10.2765
▁lettere	-10.2765
▁pie	-10.2767
▁crede	-10.2768
ppo	-10.2774
▁suddenly	-10.2778
▁unite	-10.2788
▁using	-10.279
rra	-10.2793
▁umano	-10.2799
zo	-10.2814
etto	-10.2818
▁changed	-10.2819
▁minuti	-10.282
▁novembre	-10.2826
▁garden	-10.2826
▁carne	-10.2826
▁posta	-10.2835
▁giù	-10.2841
▁applicazione	-10.2842
▁abbiano	-10.2842
▁terrorismo	-10.2844
▁miles	-10.2848
▁snow	-10.2855
▁ridurre	-10.2857
▁ambientale	-10.2857
▁germania	-10.2858
▁zona	-10.2859
▁struttura	-10.2868
▁simili	-10.2877
ultimo	-10.2879
▁attack	-10.2879
▁23	-10.2895
▁mantenere	-10.2896
▁costituisce	-10.29
▁accettare	-10.2903
▁esperienza	-10.2913
▁vediamo	-10.2924
▁stars	-10.2926
▁lunch	-10.2928
▁lor	-10.2936
▁breakfast	-10.2941
▁learn	-10.2943
▁prezzo	-10.2951
▁tener	-10.2956
▁direttamente	-10.2961
▁economici	-10.2962
▁common	-10.2965
ding	-10.2967
▁hang	-10.2967
▁safe	-10.2972
▁partner	-10.2974
▁cook	-10.2982
▁fellow	-10.2986
▁wa	-10.2987
anti	-10.2987
▁somma	-10.2995
▁wild	-10.2995
▁circle	-10.2996
2:	-10.3005
▁support	-10.3008
▁signori	-10.3013
▁rain	-10.3015
▁pat	-10.3018
▁grand	-10.302
▁palazzo	-10.3025
▁proposto	-10.3025
▁finger	-10.3027
▁definizione	-10.3029
▁libri	-10.303
▁costo	-10.3032
▁pu	-10.3033
▁medio	-10.3036
▁domande	-10.3038
▁secret	-10.3043
▁cry	-10.3045
▁interested	-10.3058
▁sale	-10.3062
how	-10.3067
▁terzi	-10.3079
▁avrebbero	-10.3087
▁duck	-10.3087
su	-10.3089
▁sign	-10.3091
▁chapter	-10.3095
▁promuovere	-10.3095
cchi	-10.3096
▁documenti	-10.3097
▁dicendo	-10.31
▁trust	-10.3107
▁ver	-10.3107
▁tenuto	-10.3111
+	-10.3113
▁stabilità	-10.3115
▁bu	-10.3116
▁ye	-10.3117
▁fix	-10.3126
▁adottare	-10.3128
,000	-10.3129
amp	-10.3133
▁report	-10.3136
▁essenziale	-10.3136
▁decided	-10.3137
▁sud	-10.3141
▁1,	-10.3148
▁pot	-10.3148
▁memoria	-10.3152
▁navi	-10.3152
▁credere	-10.3153
▁bright	-10.3161
▁propone	-10.3164
▁discorso	-10.3171
▁vengano	-10.3172
▁act	-10.319
ura	-10.3192
makes	-10.3193
come	-10.3197
▁parlamentari	-10.32
▁gra	-10.3201
▁santo	-10.3209
▁mancanza	-10.321
▁veniva	-10.3213
▁deep	-10.3215
nia	-10.3222
▁language	-10.3227
▁fornire	-10.3244
ute	-10.3247
▁build	-10.3249
▁imp	-10.3252
▁generali	-10.3252
▁bath	-10.3254
▁anybody	-10.3265
▁dance	-10.3265
▁portato	-10.3267
▁volume	-10.3267
▁prince	-10.3269
▁knows	-10.3277
▁doubt	-10.3279
▁risolvere	-10.3284
▁bri	-10.3287
▁giving	-10.3294
not	-10.3297
gno	-10.331
▁valori	-10.3312
▁elephant	-10.3328
▁favorevole	-10.3329
▁banca	-10.333
▁bread	-10.333
▁conclusione	-10.3341
tro	-10.3344
▁organizzazioni	-10.3345
▁field	-10.3353
▁parlamentare	-10.3355
▁opportuno	-10.3358
▁stopped	-10.3359
▁needs	-10.3359
pri	-10.3359
▁silly	-10.336
▁followed	-10.3372
▁italiani	-10.338
▁massimo	-10.338
▁puoi	-10.3382
▁molta	-10.3383
enti	-10.3386
▁avrei	-10.3387
▁india	-10.3394
▁faccio	-10.3395
▁incontro	-10.3398
▁utile	-10.3404
▁nearly	-10.3404
economia	-10.3407
▁local	-10.3407
▁temi	-10.3411
▁detta	-10.3412
ccia	-10.3413
▁arriva	-10.3413
wa	-10.3414
▁sport	-10.3415
voc	-10.3422
▁decide	-10.3429
▁population	-10.343
▁happens	-10.3431
▁paragrafo	-10.3433
mother	-10.3438
▁modifica	-10.344
▁effetto	-10.3445
▁force	-10.3449
uto	-10.3449
▁venuto	-10.3454
▁carry	-10.3459
▁block	-10.3461
ies	-10.3464
▁square	-10.3473
▁blocks	-10.3474
▁ought	-10.3477
▁giro	-10.3478
▁basso	-10.3479
▁lovely	-10.348
▁cars	-10.3487
▁costa	-10.3491
▁richiede	-10.3491
▁totale	-10.3498
ite	-10.3508
▁siccome	-10.3509
▁pietro	-10.3509
▁scrivere	-10.3513
▁22	-10.3528
▁prevede	-10.3528
▁yesterday	-10.3528
▁procedere	-10.3535
gia	-10.354
▁stra	-10.3541
▁nemico	-10.3543
▁control	-10.3544
▁chiara	-10.3545
▁precedente	-10.3549
▁nato	-10.3553
▁object	-10.3554
▁sapete	-10.3558
▁cover	-10.3562
▁finish	-10.3565
▁braccia	-10.3567
▁maestro	-10.3572
▁received	-10.358
iti	-10.3584
▁otto	-10.3588
▁minaccia	-10.3591
▁trasparenza	-10.3592
▁design	-10.3595
▁moving	-10.3595
▁private	-10.3596
▁except	-10.36
▁40	-10.3602
▁sky	-10.3603
ard	-10.3605
▁riteniamo	-10.3608
▁devi	-10.3611
▁corner	-10.3612
▁ferma	-10.3612
▁necessarie	-10.3617
bri	-10.3618
▁febbraio	-10.3618
▁indi	-10.3621
9	-10.363
▁ain	-10.3633
▁cha	-10.3634
▁yyy	-10.3635
▁funzione	-10.3638
▁cristo	-10.3654
▁giornata	-10.3658
–	-10.3666
▁lots	-10.367
▁lie	-10.3671
▁francesi	-10.3675
▁beginning	-10.3679
▁municipality	-10.3679
glo	-10.3691
br	-10.3692
ito	-10.3693
▁puzzle	-10.3697
▁liked	-10.3703
▁grazia	-10.3706
▁povero	-10.3709
▁worry	-10.3711
mp	-10.3711
▁follow	-10.3714
▁segno	-10.3721
▁dovere	-10.3721
→	-10.3722
cci	-10.3729
▁adam	-10.3736
▁votato	-10.3737
▁betty	-10.3737
▁iniziativa	-10.3738
▁bra	-10.3743
q	-10.3747
▁capitolo	-10.375
bbe	-10.3756
▁accesso	-10.3758
▁aprile	-10.3761
▁anymore	-10.3762
▁messa	-10.3764
ble	-10.3764
▁informazione	-10.3767
▁parents	-10.3779
▁aziende	-10.378
▁capitano	-10.378
▁fai	-10.3781
▁reti	-10.3781
▁superiore	-10.3783
▁boo	-10.3783
▁ricevuto	-10.3787
▁conoscere	-10.379
ism	-10.379
osa	-10.3808
▁bank	-10.3813
▁members	-10.3813
▁interventi	-10.3814
▁flowers	-10.3814
▁union	-10.3827
▁writing	-10.3828
▁conversation	-10.3831
▁chicken	-10.3844
▁differenza	-10.3845
▁aperto	-10.3852
▁voler	-10.3855
▁gloria	-10.3855
▁animal	-10.3859
gio	-10.386
▁egg	-10.3875
▁favorite	-10.3878
▁capital	-10.3881
cri	-10.3889
ld	-10.3891
▁competenze	-10.3899
».	-10.3912
▁nero	-10.3914
▁interest	-10.3917
ono	-10.392
nu	-10.3924
▁completamente	-10.3926
▁quell	-10.3927
▁whoa	-10.393
▁spring	-10.3931
gne	-10.3932
▁giusta	-10.3942
▁argomento	-10.3944
aria	-10.3956
▁carried	-10.3961
▁meeting	-10.3961
▁crayon	-10.3966
▁relatrice	-10.3968
tic	-10.3969
▁chiese	-10.397
▁step	-10.3974
▁sam	-10.3985
▁vittime	-10.3986
▁vantaggio	-10.3991
▁scala	-10.3997
▁morti	-10.3997
ger	-10.3998
▁term	-10.4001
▁welcome	-10.4001
ac	-10.4004
▁record	-10.4008
▁luoghi	-10.4013
▁hill	-10.4014
▁presa	-10.4019
▁shoe	-10.4019
informazione	-10.4021
▁view	-10.4023
▁polizia	-10.4024
ultima	-10.4024
▁share	-10.4029
▁strutturali	-10.4031
▁mira	-10.4031
▁including	-10.4031
▁sino	-10.4038
they	-10.4044
▁potesse	-10.4048
▁spa	-10.4053
▁aggiungere	-10.4063
▁mum	-10.4064
▁dream	-10.4067
▁cream	-10.4073
▁risponde	-10.4081
▁mon	-10.4083
▁fate	-10.4084
▁ab	-10.4089
▁wonderful	-10.409
▁capitale	-10.4092
▁bill	-10.4097
sto	-10.4101
▁spagna	-10.4108
▁michael	-10.4115
▁potete	-10.4118
▁scrive	-10.4119
▁acque	-10.4119
▁innanzitutto	-10.4122
▁investimenti	-10.4122
▁evidente	-10.4126
▁level	-10.413
▁comincia	-10.4133
▁based	-10.4134
▁nina	-10.4134
▁laugh	-10.4144
▁bambino	-10.4144
▁numerosi	-10.415
▁kiss	-10.4157
▁neppure	-10.4162
▁ke	-10.4168
▁sentito	-10.4173
▁poche	-10.4186
ham	-10.4187
▁monkey	-10.4187
▁solamente	-10.4196
▁questions	-10.4196
▁porto	-10.4198
▁vive	-10.42
▁meant	-10.4202
ante	-10.4205
▁leaving	-10.4213
▁scienza	-10.4214
▁metodo	-10.4215
▁turchia	-10.4217
▁contenuto	-10.422
bc	-10.4224
tá	-10.4225
▁energia	-10.4226
▁anna	-10.4228
▁kingdom	-10.4231
▁diverso	-10.4234
▁bottom	-10.4235
▁appeared	-10.4238
20	-10.4239
ando	-10.4241
▁1999	-10.425
▁nemici	-10.4253
▁aspetta	-10.4272
▁clock	-10.4291
▁roll	-10.4293
bra	-10.4299
▁spalle	-10.4299
obs	-10.43
▁relativi	-10.4302
▁starts	-10.4306
▁castello	-10.4311
▁ama	-10.4319
▁promise	-10.4319
▁lose	-10.4323
cia	-10.4329
▁dallo	-10.4329
▁tramite	-10.4335
▁antonio	-10.4336
▁fame	-10.434
▁bal	-10.434
osi	-10.4354
▁trattamento	-10.4356
▁interesting	-10.4357
▁rich	-10.4357
▁cost	-10.4363
uta	-10.437
▁ottobre	-10.4378
uti	-10.4384
lia	-10.439
▁opinione	-10.4391
▁colore	-10.4394
▁afferma	-10.4394
▁famiglie	-10.4396
bus	-10.4401
▁rischi	-10.4402
▁cur	-10.4405
▁sguardo	-10.441
▁puppet	-10.4411
▁addirittura	-10.4421
ir	-10.4422
ary	-10.4424
▁morire	-10.4426
▁yup	-10.4437
▁assicurare	-10.4438
▁blow	-10.4439
▁seeing	-10.4447
▁california	-10.4461
▁self	-10.4465
▁mercati	-10.4465
▁ultima	-10.4468
▁codice	-10.4469
▁walking	-10.4471
▁fly	-10.4475
▁mor	-10.4478
▁diventare	-10.4481
▁finanziari	-10.4487
ville	-10.449
▁social	-10.4492
ation	-10.4492
ud	-10.4494
dio	-10.4497
▁indietro	-10.4497
ven	-10.4499
tica	-10.4499
▁attention	-10.4502
▁trattati	-10.4507
▁lake	-10.4508
▁finale	-10.4511
▁added	-10.4512
▁riconoscimento	-10.4516
▁prezzi	-10.4517
▁anne	-10.4517
▁ritorno	-10.4518
▁goin	-10.4525
▁laughing	-10.4529
▁worth	-10.4532
▁jane	-10.4532
▁exclaimed	-10.4534
▁teacher	-10.4535
importanza	-10.4538
▁darling	-10.454
gni	-10.4541
▁spent	-10.4546
▁winter	-10.4554
▁crea	-10.4559
▁yo	-10.4566
▁dinanzi	-10.4567
▁distance	-10.4571
▁impossibile	-10.4571
▁stone	-10.4576
▁marco	-10.458
tiva	-10.458
▁china	-10.4586
▁occupazione	-10.4589
ad	-10.4591
eranno	-10.4592
▁farsi	-10.4593
▁regola	-10.4603
▁stanza	-10.4604
▁busy	-10.461
▁richard	-10.4615
▁hurry	-10.4618
▁grass	-10.4619
▁vide	-10.4621
▁ru	-10.4623
▁bridge	-10.4642
▁rapporti	-10.4648
▁chiamato	-10.4659
▁nomi	-10.466
▁teeth	-10.4664
▁necessari	-10.4665
▁costruzione	-10.4666
▁spoke	-10.4669
ola	-10.4673
ppi	-10.4679
▁torna	-10.4681
▁recente	-10.4682
▁finally	-10.4686
▁plays	-10.4689
▁bang	-10.469
op	-10.4697
▁potenza	-10.47
▁età	-10.4706
▁mad	-10.4706
ian	-10.4708
▁unito	-10.4709
▁shop	-10.4711
art	-10.4715
▁commerciali	-10.4719
▁ulteriori	-10.4726
▁vittoria	-10.4726
▁turns	-10.4726
▁sposta	-10.4727
▁legs	-10.4732
▁sheep	-10.4738
▁further	-10.4741
▁comunitaria	-10.4742
▁africa	-10.4748
▁hate	-10.4749
▁james	-10.475
▁bought	-10.4753
▁permette	-10.4754
eremo	-10.4759
▁vo	-10.4759
▁coordinamento	-10.476
▁pink	-10.4764
▁politician	-10.4764
room	-10.4768
▁germany	-10.4769
▁consenso	-10.4771
▁example	-10.4772
ava	-10.4777
▁elemento	-10.4779
▁reading	-10.4786
▁discutere	-10.4794
now	-10.4795
▁chiusa	-10.4804
▁somewhere	-10.4805
▁figlia	-10.4812
applicazione	-10.4813
▁massa	-10.4827
▁buono	-10.4833
▁stage	-10.4837
▁osservazioni	-10.484
▁esistono	-10.4846
▁robert	-10.485
ndolo	-10.4851
▁cor	-10.4853
▁forti	-10.4856
▁walked	-10.4861
▁altrimenti	-10.4862
▁movimento	-10.4865
▁conosce	-10.4867
▁aumento	-10.4868
▁reach	-10.4872
▁picks	-10.4873
▁entra	-10.4873
attività	-10.4876
ny	-10.4878
▁percento	-10.4879
▁officer	-10.4883
▁washington	-10.4888
▁terza	-10.4889
▁created	-10.4892
▁forty	-10.4893
essere	-10.4894
▁perfect	-10.4895
▁venti	-10.4911
▁dura	-10.4912
▁dicono	-10.4913
▁vecchia	-10.4914
ku	-10.4917
van	-10.4927
▁previsto	-10.4929
▁none	-10.4933
▁usare	-10.4939
▁cavallo	-10.4945
▁month	-10.4945
▁globale	-10.495
▁tower	-10.4954
ent	-10.496
▁sostenibile	-10.496
▁elezioni	-10.4964
▁type	-10.4972
▁cast	-10.4975
▁century	-10.4991
▁sicilia	-10.4991
etti	-10.4991
ani	-10.4997
enza	-10.5003
red	-10.5003
▁31	-10.5003
▁twelve	-10.5006
id	-10.5006
▁dry	-10.5009
▁leg	-10.5009
▁villa	-10.5021
pre	-10.5022
▁manda	-10.5024
"]	-10.5024
▁final	-10.5024
ù	-10.5025
ose	-10.5026
▁finora	-10.5037
▁religione	-10.504
ju	-10.5043
ut	-10.5044
▁especially	-10.5045
▁sunday	-10.5049
▁figliuolo	-10.5061
▁spend	-10.5062
▁intervenire	-10.5064
▁scena	-10.5067
▁sapeva	-10.5068
▁leggere	-10.5071
▁wash	-10.5073
▁limiti	-10.5075
#	-10.508
▁information	-10.5084
▁letters	-10.5086
11	-10.5088
▁affermato	-10.5089
▁esigenze	-10.5091
▁forgot	-10.5092
▁drop	-10.5099
▁cara	-10.5103
cy	-10.5103
▁fuck	-10.5111
▁served	-10.5111
this	-10.5112
▁director	-10.5115
▁grew	-10.5116
▁finanziario	-10.5117
▁pienamente	-10.5119
▁rappresentanti	-10.5119
10	-10.5123
▁raggiunto	-10.5129
▁paga	-10.5135
▁watching	-10.514
shi	-10.514
▁charge	-10.5148
▁paolo	-10.5161
▁ge	-10.5161
▁27	-10.5171
▁preoccupazione	-10.5172
vol	-10.5172
▁effettivamente	-10.5177
ron	-10.5178
nk	-10.5182
ten	-10.5185
=	-10.5185
▁allowed	-10.5193
▁rer	-10.5194
▁loved	-10.5197
mma	-10.52
▁troviamo	-10.52
▁dovranno	-10.5204
▁forth	-10.5204
▁laughed	-10.5209
tamente	-10.5213
▁porti	-10.5214
▁center	-10.5216
▁dan	-10.5217
▁difficult	-10.5231
▁lead	-10.5242
▁health	-10.5242
▁braccio	-10.5243
▁fucking	-10.5253
▁stupid	-10.5263
▁cre	-10.5265
▁altrettanto	-10.5267
▁combattere	-10.5271
▁professional	-10.5274
▁shit	-10.5275
nato	-10.5276
▁26	-10.5279
▁solito	-10.5284
▁track	-10.5285
▁sci	-10.5289
▁andava	-10.5295
▁svolgere	-10.5299
oso	-10.5301
▁sforzo	-10.5302
▁compromesso	-10.5306
▁morale	-10.5308
▁soldi	-10.5309
out	-10.5318
▁colpa	-10.5324
▁frank	-10.533
dis	-10.5333
▁peso	-10.5335
%	-10.5337
▁28	-10.5346
▁itself	-10.5352
▁ritiene	-10.5353
▁names	-10.5354
▁alimentare	-10.5358
▁stuck	-10.5362
▁beni	-10.5364
▁definire	-10.5365
▁dante	-10.5372
▁controlli	-10.5374
▁bologna	-10.5385
iniziativa	-10.5387
▁jim	-10.5389
▁sullo	-10.5391
▁yours	-10.5392
▁ze	-10.5392
▁file	-10.5393
▁arte	-10.5393
▁caccia	-10.5394
side	-10.5398
▁neck	-10.5407
dy	-10.5412
wi	-10.5414
▁peccato	-10.5414
rebbero	-10.5417
▁adult	-10.5422
▁quantità	-10.5427
▁moneta	-10.5427
spi	-10.543
tici	-10.5435
▁realizzare	-10.5435
▁vedo	-10.5436
▁bite	-10.5447
▁bet	-10.5447
qua	-10.545
ssime	-10.5455
▁cavalli	-10.5459
zzazione	-10.546
▁tira	-10.5461
▁entrambi	-10.5461
▁mura	-10.5464
▁fatte	-10.547
▁caterpillar	-10.5473
▁inglese	-10.5478
ps	-10.5479
▁trip	-10.5481
▁arrivare	-10.5491
cche	-10.5494
assemblea	-10.5495
▁castle	-10.5496
▁laughs	-10.5496
▁spot	-10.5496
▁origine	-10.5499
uri	-10.5499
▁economiche	-10.5506
▁prossima	-10.5518
ista	-10.5522
▁pin	-10.5523
▁buoni	-10.5524
▁continued	-10.5524
▁led	-10.5525
sing	-10.5525
king	-10.5533
▁richieste	-10.5534
▁pone	-10.5539
▁vento	-10.5548
▁leva	-10.5551
▁tratti	-10.5556
▁rivoluzione	-10.5558
▁web	-10.5561
▁crying	-10.5562
▁trovano	-10.5566
▁sad	-10.557
nes	-10.5582
▁include	-10.5584
▁spiega	-10.5584
▁succede	-10.5585
▁crazy	-10.5586
▁errore	-10.5587
▁condotta	-10.5591
▁z	-10.5593
etta	-10.5593
▁racconta	-10.5594
▁ears	-10.5596
▁unica	-10.5606
▁tocca	-10.561
ward	-10.5611
▁costituzione	-10.5611
▁punta	-10.5614
▁filippo	-10.5624
peter	-10.5634
▁campi	-10.5634
▁teatro	-10.5636
▁od	-10.5638
▁bellezza	-10.5645
▁ital	-10.5647
▁2,	-10.5647
▁fri	-10.565
▁press	-10.5652
▁nazione	-10.5654
▁lib	-10.5656
lly	-10.5666
▁account	-10.5666
▁domenica	-10.5668
▁character	-10.5669
▁importa	-10.5671
▁dolce	-10.5672
iche	-10.5674
▁locale	-10.5674
iva	-10.5675
▁period	-10.5676
▁aperta	-10.5678
then	-10.5682
mon	-10.5684
rd	-10.5686
▁bow	-10.5688
▁talvolta	-10.5689
▁compagnia	-10.5709
▁shouldn	-10.5709
▁extra	-10.5721
▁competenza	-10.5722
50	-10.5729
▁string	-10.5736
▁holds	-10.5738
▁povertà	-10.5738
▁porte	-10.5739
▁salva	-10.5742
▁contribuire	-10.5742
▁responsabile	-10.5746
▁tail	-10.575
▁concerne	-10.5751
▁diede	-10.5753
▁sal	-10.5755
▁miglioramento	-10.5759
▁scene	-10.5763
▁dropped	-10.5767
▁agire	-10.577
▁corre	-10.5773
sha	-10.5776
▁certe	-10.578
▁buone	-10.5783
▁proprietà	-10.5786
▁linee	-10.5805
▁cro	-10.5813
ric	-10.5813
ser	-10.5817
▁andò	-10.582
▁problems	-10.5821
▁marchese	-10.5822
▁lasciato	-10.5824
▁japan	-10.5829
▁professor	-10.5839
ici	-10.5841
▁viva	-10.5844
▁key	-10.5847
▁chocolate	-10.585
▁ar	-10.5853
▁parlando	-10.5859
▁tall	-10.5859
▁paris	-10.586
▁realizzazione	-10.5861
▁culturale	-10.5864
▁ciascuno	-10.5866
▁hotel	-10.5874
▁merita	-10.5875
ario	-10.5876
▁parigi	-10.5879
▁espresso	-10.588
chè	-10.5891
▁aiuta	-10.5891
endo	-10.5893
▁accanto	-10.5901
▁approvato	-10.5901
▁perdere	-10.5903
▁finanziamento	-10.5905
▁distanza	-10.5907
▁semi	-10.5913
her	-10.5913
▁parve	-10.5914
▁popular	-10.5917
▁provvedimenti	-10.5921
▁č	-10.5928
▁fecero	-10.5935
▁analisi	-10.5938
▁classe	-10.5938
▁foto	-10.5941
▁rid	-10.5946
tivi	-10.5946
▁sca	-10.5946
▁dover	-10.5951
▁central	-10.5952
▁considerare	-10.5958
▁particular	-10.5959
▁william	-10.5962
▁saint	-10.5963
▁capelli	-10.5965
▁miliardi	-10.5972
▁gioia	-10.5973
▁utilizzare	-10.5983
▁rosso	-10.5985
▁popolare	-10.5985
▁revisione	-10.5989
▁muta	-10.5989
▁peace	-10.599
▁pla	-10.5993
▁cambiamento	-10.5994
kin	-10.5998
▁romano	-10.6001
▁horses	-10.6001
ties	-10.6003
▁project	-10.601
▁militari	-10.6014
▁macchina	-10.6014
▁riconoscere	-10.6018
▁potranno	-10.602
▁showed	-10.602
▁feed	-10.6023
tus	-10.6023
▁collo	-10.6035
▁weren	-10.6036
▁vostri	-10.604
▁traffico	-10.604
▁2001	-10.6041
▁peas	-10.6042
▁surprise	-10.6044
▁situation	-10.6048
▁vie	-10.6052
▁andrea	-10.6053
▁fratelli	-10.6058
agricoltura	-10.6063
▁diversa	-10.6066
▁critica	-10.6067
▁port	-10.6069
▁livelli	-10.6072
ak	-10.6073
▁lasciare	-10.6073
▁ognuno	-10.6075
▁pet	-10.6076
▁migliaia	-10.6079
▁knock	-10.6079
▁festa	-10.6079
▁row	-10.6083
▁mouse	-10.6092
▁apart	-10.6099
▁faith	-10.6104
▁asking	-10.6108
▁cercando	-10.6114
▁partecipare	-10.6119
▁volle	-10.6121
▁corona	-10.6124
▁alive	-10.6127
▁wide	-10.6131
▁patto	-10.6131
▁2003	-10.6135
attuale	-10.6136
gan	-10.6137
▁fresh	-10.6138
▁pensato	-10.6141
▁passione	-10.6142
▁nurse	-10.6143
▁shirt	-10.6143
house	-10.6151
▁paid	-10.6152
▁sostanze	-10.616
▁chiave	-10.6163
▁disciplina	-10.6164
▁butter	-10.6174
▁pubbliche	-10.6177
ol	-10.6177
▁according	-10.618
▁shake	-10.6181
gre	-10.6182
▁concludere	-10.6184
▁corn	-10.6185
▁viso	-10.6185
°	-10.6189
▁bilanci	-10.6192
gar	-10.6192
▁amsterdam	-10.6194
turns	-10.6202
▁colpo	-10.6202
dra	-10.6203
▁wi	-10.6204
▁solidarietà	-10.6207
▁cu	-10.6207
ping	-10.621
▁tornare	-10.621
▁hardly	-10.622
▁approccio	-10.6224
▁thus	-10.6228
illustration	-10.6229
fu	-10.6229
▁esattamente	-10.6238
▁soul	-10.6238
▁padrone	-10.6242
▁normativa	-10.6242
▁telephone	-10.6242
euro	-10.6248
▁materiale	-10.6251
▁guardare	-10.6258
▁card	-10.6263
▁sfida	-10.6263
▁impegni	-10.6267
▁peggio	-10.6276
scono	-10.628
mini	-10.6281
▁smile	-10.6283
▁debito	-10.6286
▁below	-10.6288
▁martin	-10.6289
▁modalità	-10.629
▁terre	-10.6293
▁relativo	-10.6294
▁1996	-10.6295
gen	-10.6296
▁joy	-10.6298
▁povera	-10.6298
organizzazione	-10.6301
▁2018	-10.6302
▁famous	-10.6307
▁portata	-10.6313
▁unless	-10.6315
▁pain	-10.6318
ji	-10.6319
▁trans	-10.6319
▁coat	-10.6328
fer	-10.6329
▁education	-10.6331
▁partiti	-10.6333
▁lid	-10.6336
▁shoot	-10.6344
▁speciale	-10.6352
▁likes	-10.6352
▁lines	-10.6355
▁trade	-10.6357
▁2008	-10.6357
▁spirit	-10.636
▁similar	-10.6361
ole	-10.6364
▁bobby	-10.6365
ghe	-10.6366
gasps	-10.6366
▁sleeping	-10.6367
holds	-10.6369
▁sposa	-10.637
▁soluzioni	-10.6373
▁giungere	-10.6378
▁parts	-10.6381
▁serious	-10.6383
▁charles	-10.6386
▁tuoi	-10.6387
▁rosa	-10.6396
who	-10.6398
▁grow	-10.6404
▁simple	-10.6404
▁regina	-10.6405
energia	-10.6406
▁dimostrato	-10.6408
nna	-10.6408
▁appoggio	-10.6412
▁mangia	-10.6413
▁directed	-10.6414
▁mediante	-10.6415
▁sar	-10.6416
▁wake	-10.6417
▁expect	-10.642
▁rispettare	-10.6423
▁hide	-10.6426
▁riunione	-10.6431
▁1998	-10.6433
▁desidera	-10.6434
▁calling	-10.6439
▁nature	-10.6444
▁fox	-10.6446
”,	-10.6447
▁tro	-10.6449
▁antichi	-10.6452
▁circolazione	-10.6453
▁giu	-10.6454
▁sentiva	-10.6462
▁rin	-10.6466
▁royal	-10.6469
▁cambiare	-10.6471
▁closed	-10.6476
▁volete	-10.6477
italia	-10.6483
▁terreno	-10.6483
▁birds	-10.6496
▁bigger	-10.6497
▁decidere	-10.6497
▁conflitto	-10.6501
▁shi	-10.6504
▁market	-10.6505
▁sand	-10.6507
▁interessante	-10.6512
▁carico	-10.6517
▁nuovamente	-10.6518
rri	-10.6518
sen	-10.652
▁provincia	-10.6522
colo	-10.6525
▁indispensabile	-10.6528
▁strade	-10.6529
like	-10.6529
▁rapidamente	-10.653
▁joined	-10.6536
▁danni	-10.6538
▁secoli	-10.6538
▁farà	-10.6544
sia	-10.6553
▁vivo	-10.6553
▁complesso	-10.6555
▁fur	-10.6558
▁vesti	-10.6561
▁auguro	-10.6568
▁2004	-10.657
▁scared	-10.6572
▁lying	-10.6572
▁&-	-10.6574
▁produce	-10.6576
▁cittadino	-10.6577
▁storico	-10.6578
▁australia	-10.6581
▁capito	-10.6586
gg	-10.6586
▁guardia	-10.6587
▁riforme	-10.6587
▁brave	-10.6587
▁torre	-10.6594
mba	-10.6595
▁entered	-10.6595
▁sha	-10.6599
▁consigli	-10.6599
▁gesù	-10.6604
▁babies	-10.6609
▁bowl	-10.6609
▁damn	-10.6616
▁viola	-10.6617
▁turning	-10.6618
▁medico	-10.662
▁loud	-10.6626
▁2007	-10.6627
▁forest	-10.6631
una	-10.6637
▁accident	-10.6639
erò	-10.6641
ese	-10.6647
▁sento	-10.6647
▁dimensione	-10.6651
mbo	-10.6652
▁leaves	-10.6656
attenzione	-10.6656
unt	-10.6662
▁slowly	-10.6662
▁difference	-10.6663
▁é	-10.6665
▁continue	-10.6667
▁eppure	-10.6667
▁offre	-10.6669
des	-10.6675
ph	-10.668
▁ear	-10.6681
▁political	-10.6683
▁formula	-10.6685
▁aumentare	-10.6685
▁genova	-10.6687
▁nobili	-10.6687
▁tie	-10.669
▁assistenza	-10.6703
▁ampio	-10.6705
glie	-10.6705
▁dichiarazioni	-10.671
▁scuole	-10.6718
▁judge	-10.672
▁cari	-10.6723
ship	-10.6724
▁progresso	-10.6728
▁stabilire	-10.6731
▁conclusioni	-10.6737
▁sogno	-10.6739
▁fingers	-10.674
▁meat	-10.6741
xi	-10.6742
▁beach	-10.6742
▁ocean	-10.6745
▁hasn	-10.6747
cal	-10.6753
▁uscire	-10.6753
▁luigi	-10.6756
▁mountain	-10.6758
▁sara	-10.6763
▁spetta	-10.6764
▁flat	-10.6764
▁needed	-10.6767
▁quarto	-10.6769
▁eggs	-10.6772
nsi	-10.6775
▁aria	-10.6777
▁cammino	-10.6779
▁talked	-10.6782
▁danger	-10.6796
▁app	-10.6799
▁hu	-10.6801
▁novità	-10.6801
▁manifesta	-10.6801
▁roman	-10.6808
▁action	-10.681
ori	-10.6811
ap	-10.6811
▁glass	-10.6815
▁brush	-10.6816
bb	-10.6822
▁29	-10.6825
▁persino	-10.6825
▁settimane	-10.6828
▁commerciale	-10.6838
▁vecchi	-10.684
▁stories	-10.6845
▁ricorso	-10.6846
▁paio	-10.6846
▁enorme	-10.6849
▁pagare	-10.685
▁picked	-10.6854
▁facilmente	-10.686
clock	-10.6863
zie	-10.6863
▁arti	-10.6873
▁helped	-10.6879
▁personal	-10.688
ette	-10.688
▁guard	-10.6882
▁beyond	-10.6883
▁precedenti	-10.6884
▁add	-10.6887
▁immediatamente	-10.6888
▁visione	-10.6891
▁tecnologia	-10.6892
▁bat	-10.6895
▁various	-10.6895
▁meal	-10.6898
▁partenza	-10.6899
gue	-10.69
oli	-10.6901
▁pleasure	-10.6906
▁quindici	-10.6909
▁responsabili	-10.6909
▁rafforzare	-10.6912
▁journey	-10.6915
▁award	-10.6921
opinione	-10.6922
▁serio	-10.693
▁por	-10.6936
▁iron	-10.6937
ello	-10.6938
▁teddy	-10.6939
▁blu	-10.6947
▁prefer	-10.6947
▁mess	-10.6947
▁occupa	-10.6949
▁vino	-10.6951
▁murder	-10.6952
▁spesa	-10.6959
▁ladies	-10.696
zzare	-10.6961
▁poeta	-10.6965
▁therefore	-10.6966
▁utili	-10.6976
▁comprende	-10.6978
▁terrible	-10.698
▁singing	-10.6982
▁wheel	-10.6984
▁60	-10.6985
▁rabbit	-10.6996
ned	-10.6997
▁comporta	-10.7
▁messi	-10.7001
▁attiva	-10.7015
▁2010	-10.7022
▁western	-10.7023
▁2013	-10.7026
amente	-10.7026
▁percorso	-10.7027
▁multi	-10.7027
▁je	-10.7031
▁centre	-10.7032
▁piu	-10.7035
▁ricevere	-10.7035
▁votare	-10.7036
▁background	-10.7038
▁coach	-10.7038
▁disponibili	-10.704
rk	-10.7041
▁conferma	-10.7043
▁nan	-10.7048
▁finanziaria	-10.7056
▁attuazione	-10.7057
▁join	-10.7061
▁2015	-10.7067
▁supper	-10.7068
▁nu	-10.707
▁learned	-10.7072
mpi	-10.7079
pointing	-10.7083
▁insomma	-10.7084
▁stai	-10.7086
▁tavola	-10.7089
16	-10.7092
▁japanese	-10.7094
▁magnet	-10.7095
▁studenti	-10.71
▁lega	-10.71
▁des	-10.7104
▁command	-10.7105
▁km	-10.7107
▁ponte	-10.7107
▁applicare	-10.7107
▁cosí	-10.7109
▁()	-10.711
▁ambientali	-10.7112
▁pane	-10.7118
▁messaggio	-10.7122
▁funzionamento	-10.7128
ndola	-10.7129
je	-10.7137
▁natural	-10.7137
bout	-10.7138
▁size	-10.7139
▁division	-10.714
ane	-10.7141
nto	-10.7145
▁compagni	-10.715
▁worse	-10.7151
▁petto	-10.7151
▁speaking	-10.7151
▁possibili	-10.7153
▁study	-10.7153
▁gradi	-10.7159
▁choo	-10.716
▁vai	-10.7167
kay	-10.7168
▁ue	-10.7169
use	-10.7171
▁colori	-10.7171
ran	-10.7172
▁notizia	-10.7174
ula	-10.7176
▁passaggio	-10.7177
child	-10.7179
▁esistenti	-10.7179
via	-10.7183
▁rifiuti	-10.7183
▁contiene	-10.7184
gri	-10.7186
▁notice	-10.719
▁monti	-10.7192
▁particolari	-10.7195
▁coesione	-10.7198
▁sorta	-10.7199
▁luna	-10.72
▁sentimento	-10.7202
ken	-10.7203
▁older	-10.7203
▁sol	-10.7204
▁sell	-10.7207
▁chiari	-10.721
▁dressed	-10.7212
▁creato	-10.722
▁costruire	-10.722
▁veri	-10.7222
▁ju	-10.7233
▁flag	-10.7243
▁rip	-10.7244
▁dev	-10.7247
▁dov	-10.7249
▁shows	-10.7253
▁dignità	-10.7265
▁countries	-10.7265
unica	-10.7267
▁allah	-10.7267
▁explain	-10.7268
▁dolly	-10.7272
▁consentire	-10.7275
▁button	-10.7277
▁mc	-10.7278
▁civili	-10.7278
cor	-10.7282
▁chiunque	-10.7294
▁machine	-10.7296
tes	-10.7302
▁purpose	-10.731
▁riconosce	-10.7311
▁effect	-10.7313
▁storm	-10.7315
▁consiste	-10.7318
▁inizio	-10.7321
▁agricola	-10.7323
▁assemblea	-10.7326
dem	-10.7329
ded	-10.733
▁taste	-10.7331
▁fiume	-10.7337
cle	-10.7338
▁lower	-10.7343
▁ricordato	-10.7344
▁specifica	-10.7347
▁toscana	-10.7352
▁coast	-10.7352
▁1995	-10.7352
ris	-10.7355
▁genitori	-10.7357
▁brand	-10.7362
stri	-10.7368
▁enjoy	-10.7369
▁henry	-10.7371
▁voci	-10.7374
san	-10.7376
▁prossimi	-10.7377
▁canada	-10.7377
gai	-10.738
▁attuali	-10.7381
▁double	-10.7381
▁valle	-10.7381
▁disoccupazione	-10.7389
▁aye	-10.7391
▁sanità	-10.7393
▁prize	-10.7398
▁compiere	-10.74
▁finanziarie	-10.7401
ppe	-10.7404
esi	-10.7405
▁mila	-10.7408
▁rise	-10.7408
▁permesso	-10.7415
▁economia	-10.7415
▁pezzo	-10.7422
▁liberalizzazion	-10.7425
▁tecnologie	-10.743
▁affermare	-10.7437
▁tosto	-10.7438
dia	-10.7438
▁aree	-10.744
stro	-10.7447
▁gives	-10.7448
▁grecia	-10.7449
▁pagina	-10.7459
▁deriva	-10.7462
▁rate	-10.7464
▁eventi	-10.747
field	-10.7478
▁absolutely	-10.7485
▁cava	-10.7486
▁community	-10.7488
▁society	-10.7488
▁conquista	-10.7491
▁democratico	-10.7492
▁shore	-10.7492
min	-10.7492
▁tiny	-10.7495
hu	-10.7499
▁barn	-10.7501
▁bin	-10.7503
▁conserva	-10.7507
▁2002	-10.7508
ek	-10.751
▁pocket	-10.7513
▁andiamo	-10.7515
▁fre	-10.7522
▁slide	-10.7523
▁sugar	-10.7527
bar	-10.7527
▁governor	-10.7531
▁completa	-10.7536
▁moto	-10.7538
▁diciamo	-10.754
▁amount	-10.754
▁dominio	-10.7542
▁eleanor	-10.7543
ndomi	-10.7545
▁immagini	-10.7553
▁potevano	-10.7553
▁likely	-10.7554
▁peraltro	-10.7555
▁slow	-10.7557
▁plane	-10.756
▁jean	-10.756
▁marcia	-10.7562
▁facoltà	-10.7562
▁seguenti	-10.7564
▁asilo	-10.7566
▁produttori	-10.7568
▁sforza	-10.7572
▁bassi	-10.7573
tene	-10.7573
ure	-10.7574
off	-10.7582
▁soldiers	-10.7587
▁triste	-10.7588
▁lavora	-10.7589
▁event	-10.7594
▁covered	-10.7595
▁2009	-10.7599
cra	-10.7602
ide	-10.7606
▁giustamente	-10.7607
aun	-10.7607
▁narra	-10.7612
▁message	-10.7612
▁ottenuto	-10.7612
▁1997	-10.7613
▁speed	-10.7614
▁footnote	-10.7618
ene	-10.7618
▁cups	-10.7622
▁strutture	-10.7622
▁zoo	-10.7625
▁den	-10.7625
cio	-10.7627
▁medesima	-10.7632
▁stile	-10.7634
cce	-10.7634
▁dirty	-10.7635
▁manager	-10.7637
▁rimanere	-10.7637
▁stock	-10.7649
▁notizie	-10.7652
tum	-10.7656
▁sy	-10.7658
▁ordini	-10.7666
▁path	-10.7669
▁drew	-10.7673
▁preoccupazioni	-10.7673
▁limite	-10.7674
▁grosso	-10.7675
▁perch	-10.7678
▁scale	-10.7681
ella	-10.7689
▁european	-10.7694
▁("	-10.7696
▁stima	-10.7697
▁singer	-10.77
▁role	-10.7713
ford	-10.7715
▁airplane	-10.7717
▁caused	-10.772
▁mala	-10.7723
▁specialmente	-10.7724
▁tende	-10.7727
▁vostre	-10.7727
▁honor	-10.7729
▁breath	-10.773
mila	-10.7733
▁bay	-10.7734
mine	-10.7738
▁contempo	-10.7743
▁colors	-10.7745
▁tar	-10.7747
▁actor	-10.7748
▁direction	-10.7749
▁aula	-10.775
▁scambio	-10.7751
▁italy	-10.7752
▁cane	-10.7755
▁singoli	-10.7758
looking	-10.7762
▁pronto	-10.7764
▁posizioni	-10.7778
otto	-10.7778
ugh	-10.7779
▁turismo	-10.7788
▁lion	-10.7789
▁softly	-10.7793
▁minimo	-10.7797
elli	-10.7806
reaches	-10.7815
▁pelle	-10.7817
nata	-10.7819
▁rice	-10.7824
▁finito	-10.7827
▁beh	-10.7829
▁drawing	-10.7831
night	-10.7832
▁adottato	-10.7837
▁fraser	-10.7839
▁guerre	-10.784
▁imagine	-10.7842
▁giuridico	-10.7844
97	-10.7844
▁total	-10.7847
idi	-10.7851
▁sanno	-10.7854
▁profondo	-10.7854
▁funzioni	-10.7855
stru	-10.7855
▁falls	-10.7859
▁basket	-10.786
▁rumore	-10.7863
▁onore	-10.7864
▁dovesse	-10.7865
▁offrire	-10.7868
▁ferro	-10.7871
▁merci	-10.7872
▁price	-10.7873
▁significato	-10.7874
▁starting	-10.7875
▁joseph	-10.788
▁medici	-10.788
eth	-10.7881
▁grandma	-10.7883
▁situazioni	-10.7885
▁reali	-10.7885
▁process	-10.7888
▁luck	-10.7896
▁mac	-10.7898
▁result	-10.7901
▁ram	-10.7903
▁scusa	-10.7906
15	-10.7908
▁cal	-10.7909
▁www	-10.7915
ffa	-10.7916
ving	-10.7921
more	-10.7925
▁labbra	-10.7926
▁dogs	-10.7929
ens	-10.7931
occasione	-10.7935
▁military	-10.7936
▁laid	-10.7939
▁wand	-10.7939
▁tenta	-10.794
anni	-10.7943
25	-10.7945
▁pei	-10.795
▁oops	-10.7951
▁primavera	-10.7951
▁sviluppare	-10.7952
▁europe	-10.7952
▁sch	-10.7953
▁[$	-10.7957
▁begin	-10.796
▁cousin	-10.7961
uh	-10.7962
40	-10.7963
▁bur	-10.7963
▁princess	-10.7969
▁mangiare	-10.7972
▁austria	-10.7973
▁veduto	-10.7977
ampliamento	-10.7986
▁election	-10.7988
▁magic	-10.7992
▁dipende	-10.7993
▁scar	-10.7995
▁purple	-10.7998
▁neither	-10.8
tiche	-10.8001
▁scegliere	-10.8003
▁cervello	-10.8003
▁bianca	-10.8003
▁vendita	-10.8005
▁frontiere	-10.8005
▁declared	-10.8006
▁intenzione	-10.801
▁personali	-10.8015
▁zi	-10.8016
▁chiarezza	-10.8019
▁quante	-10.8019
▁notevole	-10.8022
nods	-10.8022
ok	-10.8031
▁escape	-10.8032
▁’	-10.8034
▁noto	-10.8034
▁condanna	-10.8038
▁2017	-10.8039
▁edge	-10.8039
▁charlie	-10.8039
tch	-10.8042
▁metodi	-10.8042
ché	-10.8045
▁sold	-10.8047
▁segreto	-10.806
▁verifica	-10.8064
tions	-10.8065
▁andato	-10.8067
▁estera	-10.8068
▁raised	-10.8068
▁staff	-10.807
▁comprendere	-10.8074
▁00	-10.8079
▁giuseppe	-10.8081
▁discussioni	-10.8085
▁christian	-10.8086
▁errori	-10.8087
▁reso	-10.8088
▁subject	-10.8092
▁saturday	-10.8097
▁pour	-10.8098
▁championship	-10.8103
▁missing	-10.8103
▁versione	-10.8108
▁agreed	-10.8109
▁sorriso	-10.8118
▁asleep	-10.8119
▁ministero	-10.8127
▁choice	-10.8128
▁pietra	-10.8129
▁tecnica	-10.813
▁offer	-10.8131
▁avviene	-10.8133
▁facevano	-10.8134
▁spread	-10.8137
▁fighting	-10.8138
▁clima	-10.814
▁tears	-10.814
▁smell	-10.814
area	-10.8143
▁han	-10.8144
▁scarpe	-10.8144
▁neanche	-10.8146
▁verranno	-10.8151
ui	-10.8155
adesione	-10.8157
▁ger	-10.816
▁agosto	-10.8161
▁disegno	-10.8165
▁aiutare	-10.8166
▁engine	-10.8168
ffe	-10.817
▁pensieri	-10.8171
▁bru	-10.8172
▁tiger	-10.8175
▁threw	-10.8175
▁naturali	-10.8179
▁tecniche	-10.8186
▁divieto	-10.8186
▁giunto	-10.8186
,--	-10.8191
▁christ	-10.8192
▁original	-10.8193
▁prevenzione	-10.8202
attuazione	-10.8206
▁aprire	-10.8206
▁angry	-10.8207
▁pratiche	-10.8208
▁harry	-10.8208
▁manner	-10.8208
▁agree	-10.8209
ance	-10.8213
accesso	-10.8216
▁organi	-10.8217
▁consente	-10.8217
▁spin	-10.8218
▁emerge	-10.822
▁lieto	-10.8222
poli	-10.8223
▁vicini	-10.8224
▁circostanze	-10.8228
▁higher	-10.8228
▁plastic	-10.8229
▁carte	-10.823
▁yum	-10.8234
▁missione	-10.8234
▁considered	-10.8235
▁comunitarie	-10.8242
ai	-10.8244
▁animo	-10.8251
▁israele	-10.8252
aula	-10.8268
▁presta	-10.8269
▁sente	-10.8271
▁ow	-10.8272
▁chiediamo	-10.8277
▁nope	-10.8279
▁quarter	-10.828
istruzione	-10.8284
▁assume	-10.8284
▁completely	-10.8285
▁flying	-10.8288
▁croce	-10.829
▁ur	-10.8292
▁nasce	-10.8293
▁alcuno	-10.8295
▁gate	-10.8296
▁soggetti	-10.8297
opera	-10.8297
▁contatto	-10.83
mus	-10.8306
▁ufficiale	-10.8308
▁enemy	-10.8313
▁avessero	-10.8314
▁debbano	-10.8314
▁prego	-10.8317
▁raccolta	-10.8319
▁3,	-10.8319
▁piani	-10.8321
▁magari	-10.8325
▁malattia	-10.8329
▁adesione	-10.8331
▁lawyer	-10.8335
sque	-10.8336
▁contenuti	-10.834
▁pio	-10.8341
▁tour	-10.8341
▁presentazione	-10.8343
han	-10.8346
▁announced	-10.8347
▁profonda	-10.8348
▁model	-10.8351
ore	-10.8352
▁happening	-10.8353
▁modern	-10.8355
▁equilibrio	-10.8355
har	-10.8358
▁produced	-10.836
▁ku	-10.836
▁prospettiva	-10.8362
▁smart	-10.8364
▁svolgerà	-10.8368
ii	-10.8369
▁numerose	-10.8369
▁vii	-10.8374
▁gu	-10.8374
▁accade	-10.8376
▁universale	-10.8377
▁dragon	-10.8377
▁democratica	-10.8379
▁gay	-10.8381
▁icecream	-10.8383
▁confini	-10.8386
▁simply	-10.8388
▁oriente	-10.8388
▁skin	-10.839
▁interni	-10.8393
▁legno	-10.8398
▁uguale	-10.8399
▁brain	-10.84
▁nn	-10.8401
▁bee	-10.8402
▁dichiara	-10.8406
erebbe	-10.8407
▁esprime	-10.8412
▁besides	-10.8412
▁poli	-10.8413
▁falling	-10.8413
▁direttive	-10.8414
▁impresa	-10.8415
▁female	-10.8415
olo	-10.8419
▁golden	-10.8421
▁considera	-10.8421
▁youth	-10.8422
▁tribunale	-10.8423
▁sorte	-10.843
▁rappresentano	-10.8432
▁smith	-10.8433
vir	-10.8434
ning	-10.8435
▁grida	-10.8439
abile	-10.8441
cli	-10.8446
▁minori	-10.8446
ung	-10.8452
voli	-10.8452
▁arrived	-10.8453
▁penale	-10.8454
▁italian	-10.8454
music	-10.8456
▁colui	-10.8456
▁cina	-10.8458
pping	-10.8458
▁positive	-10.8459
▁maggiormente	-10.8461
▁ritorna	-10.8463
▁modifiche	-10.8469
ppa	-10.8471
▁exp	-10.8473
ons	-10.8475
light	-10.8477
▁inizia	-10.8477
tz	-10.8478
▁rimase	-10.8478
▁training	-10.8481
▁q	-10.8482
▁professionale	-10.8484
▁twice	-10.8486
▁channel	-10.8486
▁cibo	-10.8491
val	-10.8493
nzi	-10.8494
allargamento	-10.8495
▁tentativo	-10.8497
ab	-10.8503
▁trovo	-10.8505
▁proud	-10.8505
▁continues	-10.8505
▁phil	-10.8512
▁ann	-10.8512
▁gre	-10.8513
▁tone	-10.8515
▁serra	-10.8517
nie	-10.8524
▁perfettamente	-10.8525
▁americani	-10.8527
▁version	-10.8527
impegno	-10.8528
▁ragazza	-10.8529
▁bull	-10.853
▁length	-10.853
▁missed	-10.8532
ized	-10.8535
▁gira	-10.8535
toys	-10.854
▁introdurre	-10.854
12	-10.8544
▁northern	-10.8546
▁ted	-10.8547
▁sonno	-10.855
▁requisiti	-10.8551
▁poesia	-10.8557
▁sex	-10.8559
interesse	-10.8561
▁chris	-10.8562
▁ultime	-10.8562
▁promozione	-10.8563
nta	-10.8565
ey	-10.8567
▁momenti	-10.8569
▁alquanto	-10.8569
▁doggie	-10.8569
▁interna	-10.8569
ated	-10.8571
▁fiscale	-10.8573
▁driver	-10.8574
▁obviously	-10.8574
▁smoke	-10.8579
▁incontra	-10.858
▁interessati	-10.8581
▁finire	-10.8581
▁sanzioni	-10.8584
▁medicine	-10.8584
▁operazioni	-10.8585
▁ki	-10.8586
▁fonte	-10.8587
▁sali	-10.8588
▁agricoltori	-10.8589
▁fourth	-10.8596
▁oggetti	-10.86
▁lingue	-10.8606
▁attesa	-10.8608
▁condurre	-10.8611
▁attorno	-10.8612
▁southern	-10.8617
▁pressione	-10.8618
▁vantaggi	-10.8625
▁terribile	-10.8628
▁gara	-10.8629
intera	-10.8631
▁avvicina	-10.8632
▁malgrado	-10.8639
▁metri	-10.8641
▁practice	-10.8644
▁movies	-10.8648
▁sharp	-10.8648
▁materiali	-10.8654
▁pac	-10.8657
▁funziona	-10.8659
▁rimasto	-10.8661
▁vedete	-10.8664
▁cookies	-10.8665
▁regionali	-10.8668
▁saputo	-10.8672
▁soddisfazione	-10.8674
▁fruit	-10.8679
▁ordered	-10.8683
risate	-10.8683
▁lancia	-10.8687
trici	-10.8687
▁zu	-10.8688
▁mise	-10.8688
▁vieni	-10.8693
▁fan	-10.8694
▁conta	-10.8695
▁upstairs	-10.8696
▁segue	-10.8698
▁potremmo	-10.87
▁malattie	-10.8705
esperienza	-10.871
▁uhuh	-10.8713
▁impedire	-10.8715
▁riceve	-10.8716
▁appello	-10.8719
▁pair	-10.8719
ttu	-10.8721
▁quota	-10.8722
▁testi	-10.873
mu	-10.8745
▁terms	-10.8755
▁sixty	-10.8755
▁difendere	-10.8765
▁rap	-10.8768
▁sottolineato	-10.8773
▁online	-10.8773
▁prison	-10.8773
▁ricordi	-10.8781
ux	-10.8787
ally	-10.8793
▁greater	-10.8793
▁considerato	-10.8797
isti	-10.8797
▁experience	-10.8798
wood	-10.8799
▁dodici	-10.88
▁decreto	-10.88
▁accept	-10.8803
▁sostanza	-10.8809
▁diana	-10.8815
ened	-10.8815
applausi	-10.8816
▁presentati	-10.8817
▁specifico	-10.8818
▁invito	-10.8821
▁driving	-10.8823
▁zero	-10.8826
▁unità	-10.8829
▁sembrava	-10.883
rro	-10.8833
▁dimostrare	-10.8836
▁guide	-10.8836
▁sabato	-10.8837
▁espressione	-10.8837
▁goodness	-10.8838
mina	-10.8845
▁bruxelles	-10.8845
bilità	-10.8845
ach	-10.885
▁jesus	-10.8851
▁monster	-10.8851
▁development	-10.8853
▁vedeva	-10.8854
▁sc	-10.8856
▁rovina	-10.8861
▁freddo	-10.8874
▁burn	-10.8877
▁esperti	-10.8879
▁abitanti	-10.8886
▁fermo	-10.8887
▁numbers	-10.8889
▁placed	-10.8889
▁valutare	-10.8892
▁dangerous	-10.8893
▁matrimonio	-10.8894
▁quantunque	-10.8896
▁flower	-10.8899
noise	-10.8902
▁disponibilità	-10.8903
▁title	-10.8909
ave	-10.8912
lio	-10.8915
▁max	-10.8916
▁dorothy	-10.8919
▁eighty	-10.8919
▁tries	-10.8922
▁pagine	-10.893
▁toglie	-10.8931
die	-10.8933
▁creature	-10.8937
▁mass	-10.894
▁pleasant	-10.8941
▁fenomeno	-10.8941
▁appearance	-10.8942
▁spi	-10.8944
▁movement	-10.8951
▁spe	-10.8954
▁fashion	-10.8955
▁durata	-10.8958
▁appare	-10.8961
▁riesce	-10.8964
rsene	-10.8965
▁ut	-10.8967
▁ray	-10.8969
cola	-10.8971
▁mali	-10.8972
▁tradizione	-10.8976
▁lips	-10.8976
nne	-10.8976
▁plain	-10.8983
▁republic	-10.8983
▁ended	-10.8984
mpa	-10.8987
▁dollars	-10.8988
▁preparazione	-10.8989
▁parità	-10.8998
▁associazione	-10.8999
▁semplici	-10.9003
ú	-10.9009
▁network	-10.901
▁gio	-10.9013
▁fianco	-10.9016
pin	-10.9016
▁windows	-10.9018
▁founded	-10.9022
▁regular	-10.9023
▁style	-10.9024
▁rule	-10.9026
80	-10.9031
▁monta	-10.9032
nga	-10.9033
▁romana	-10.9034
▁vescovo	-10.9039
▁ufficio	-10.9039
vasi	-10.9041
▁scan	-10.9045
▁esercito	-10.9048
▁pensi	-10.905
▁volevo	-10.9051
▁perde	-10.9051
▁tipi	-10.9052
▁deck	-10.9055
▁opinioni	-10.9058
21	-10.906
▁domina	-10.9061
▁consumatore	-10.9066
lyn	-10.9074
▁official	-10.9074
▁dimenticare	-10.9075
▁keys	-10.9079
med	-10.9083
▁huge	-10.9087
▁contratto	-10.9089
▁tasso	-10.909
▁tecnico	-10.9091
▁grown	-10.9094
▁potente	-10.9094
▁tenendo	-10.9095
▁giacomo	-10.9097
▁duty	-10.9098
▁finestra	-10.9099
▁vote	-10.9099
▁calm	-10.9102
▁complete	-10.9103
▁vada	-10.9105
▁empty	-10.9108
▁located	-10.9108
▁aff	-10.9108
▁surprised	-10.9113
▁fault	-10.9114
▁lisbona	-10.9114
▁comma	-10.9115
▁lock	-10.9115
▁swing	-10.9121
▁bert	-10.9121
▁research	-10.9125
▁immediately	-10.9126
▁anco	-10.9134
sione	-10.9135
▁rientra	-10.9136
▁meaning	-10.9144
▁miglior	-10.9145
▁duke	-10.9146
▁pontefice	-10.9148
▁teneva	-10.9149
▁anywhere	-10.9152
▁giornali	-10.9155
ans	-10.9158
isce	-10.916
rica	-10.9164
▁concrete	-10.9166
▁ria	-10.9169
▁comunitari	-10.917
▁throat	-10.9172
01	-10.9174
▁weather	-10.9177
▁ordina	-10.918
▁dimensioni	-10.9181
▁rica	-10.9181
uni	-10.9183
▁committee	-10.9184
▁metal	-10.9187
▁esseri	-10.9187
▁published	-10.919
tato	-10.919
▁dava	-10.919
▁intendo	-10.9193
▁beside	-10.9194
▁current	-10.9197
▁crew	-10.9197
▁alessandro	-10.9197
▁filled	-10.9202
▁op	-10.9204
▁discovered	-10.9204
introduzione	-10.9206
▁houses	-10.9206
▁cesare	-10.9206
▁protocollo	-10.9207
▁2005	-10.9209
▁categoria	-10.9212
▁fifteen	-10.9212
▁leone	-10.9215
▁capace	-10.9224
▁continuo	-10.9228
▁russian	-10.9229
▁bla	-10.9229
▁pulled	-10.923
tevi	-10.9232
▁dispone	-10.9232
▁boss	-10.9233
▁aggiunge	-10.924
▁author	-10.9242
▁tiene	-10.9244
▁pound	-10.9247
uff	-10.9247
▁taught	-10.9247
▁valley	-10.9248
tina	-10.9249
▁copia	-10.9249
▁personalmente	-10.9253
0.000	-10.9253
pu	-10.9265
▁cucina	-10.927
▁pitcher	-10.9271
18	-10.9271
▁census	-10.9271
▁venuta	-10.9277
▁spettacolo	-10.9277
▁pale	-10.9284
▁prodi	-10.9285
▁wise	-10.9286
▁spada	-10.9287
esercizio	-10.9288
▁risposte	-10.9289
▁esteri	-10.9291
▁fla	-10.9291
▁felici	-10.9294
▁boom	-10.9294
▁tony	-10.9296
▁deputato	-10.93
ara	-10.9302
eh	-10.9303
▁merry	-10.9304
▁mid	-10.9307
▁lunghi	-10.9307
î	-10.9307
▁avremo	-10.9312
▁inutile	-10.9312
▁esempi	-10.9313
▁pose	-10.9313
▁awful	-10.9316
▁umane	-10.9316
▁african	-10.9317
bat	-10.9324
ó	-10.9328
▁pencil	-10.933
ft	-10.9331
14	-10.9335
sche	-10.9335
▁congratularmi	-10.9336
▁»	-10.9341
▁beauty	-10.9342
▁zio	-10.9345
▁compiti	-10.9347
▁timore	-10.9347
▁poteri	-10.935
▁ulteriore	-10.935
▁logica	-10.9351
auto	-10.9351
▁usual	-10.9359
▁marriage	-10.9359
▁tongue	-10.936
▁argomenti	-10.936
▁songs	-10.9361
▁fatica	-10.9362
ade	-10.9368
▁ufficiali	-10.9368
▁corsi	-10.9368
▁privati	-10.9369
▁minore	-10.9373
▁somme	-10.9376
▁bravo	-10.9381
▁giunta	-10.9383
▁parco	-10.9386
▁sh	-10.939
▁/	-10.9395
▁cominciò	-10.9396
ngo	-10.9398
▁pardon	-10.9398
▁science	-10.9408
▁accompagna	-10.941
▁4,	-10.941
▁fortune	-10.9413
unico	-10.9423
▁mostly	-10.9425
▁moves	-10.9426
▁fool	-10.9426
tru	-10.9427
▁yay	-10.943
▁osserva	-10.9431
▁versi	-10.9433
stica	-10.9437
▁viii	-10.944
▁segnale	-10.944
▁crowd	-10.9441
▁wearing	-10.9444
▁doin	-10.9444
▁accogliere	-10.9444
▁montagna	-10.9449
ye	-10.9454
▁ways	-10.9455
▁eccellente	-10.9458
singing	-10.9459
▁hath	-10.9461
▁sottolinea	-10.9464
▁plus	-10.9464
▁rings	-10.9465
▁fila	-10.9466
ls	-10.9478
▁spanish	-10.9479
www	-10.9485
rate	-10.9487
▁sembrano	-10.9495
▁1994	-10.9497
▁fer	-10.9498
▁approva	-10.9499
▁lista	-10.9503
▁popolazioni	-10.9503
▁roof	-10.9505
▁vivi	-10.9505
▁sospetto	-10.9509
▁watched	-10.9513
▁direttore	-10.9516
▁tue	-10.9518
▁easily	-10.9521
▁value	-10.9523
▁firma	-10.9524
▁pleased	-10.9524
▁teach	-10.9524
▁altrove	-10.9527
▁gua	-10.9528
▁presently	-10.9529
▁largest	-10.9529
▁risk	-10.9529
▁diretto	-10.9532
▁lucky	-10.9532
▁intero	-10.9533
▁seguita	-10.9534
▁sentenza	-10.9535
▁presi	-10.9537
▁trovò	-10.9539
▁pants	-10.9544
gh	-10.9544
▁bas	-10.9545
places	-10.9545
▁dovremo	-10.9546
▁cambia	-10.9551
▁destinati	-10.9551
vin	-10.9553
▁avevamo	-10.9553
▁vergogna	-10.9557
▁quote	-10.9568
arte	-10.9568
amore	-10.9569
▁caratteristiche	-10.9569
▁delegazione	-10.957
▁rat	-10.9571
▁atteggiamento	-10.9572
▁cavaliere	-10.9574
▁mcdonalds	-10.9576
just	-10.9579
▁differenze	-10.9581
▁costume	-10.9581
▁potremo	-10.9582
▁dissi	-10.9585
▁voti	-10.9586
▁operatori	-10.9587
▁odio	-10.9589
ller	-10.959
▁muove	-10.9591
▁believed	-10.9593
▁fia	-10.9598
▁officers	-10.9598
▁monetaria	-10.9603
▁possesso	-10.9604
hai	-10.9606
ffi	-10.9615
▁emissioni	-10.9618
▁billy	-10.9621
▁mail	-10.9623
▁dichiarato	-10.9627
▁speciali	-10.963
work	-10.9631
▁legato	-10.9633
▁trovava	-10.9633
▁ascolta	-10.9636
▁fol	-10.9636
▁svolta	-10.9638
▁louis	-10.964
▁saved	-10.9644
▁motion	-10.9645
▁ostacoli	-10.9648
▁festival	-10.9648
▁stairs	-10.965
▁grace	-10.9657
▁positivi	-10.9657
▁pages	-10.9659
-0	-10.966
▁nineteen	-10.966
▁bio	-10.966
▁esclamò	-10.9667
▁intergovernativ	-10.9667
▁articoli	-10.9667
▁orientamenti	-10.9667
▁friday	-10.9667
▁comfort	-10.9672
▁culture	-10.9673
samente	-10.9675
▁lee	-10.9676
sy	-10.9677
▁brevi	-10.9679
▁stri	-10.968
▁influenza	-10.9681
▁dubbi	-10.9682
▁stia	-10.9684
05	-10.9686
▁norma	-10.9686
▁capisco	-10.9688
berg	-10.9689
▁2016	-10.9698
▁alza	-10.9701
▁quo	-10.9705
▁squadra	-10.9705
▁cercato	-10.9706
▁ali	-10.971
▁200	-10.971
▁lap	-10.9711
pped	-10.9714
▁strano	-10.9715
▁ragazzo	-10.9716
vis	-10.9719
ball	-10.972
ä	-10.9722
▁alti	-10.9722
▁lasciò	-10.9724
▁sorella	-10.9728
▁hadn	-10.9729
▁prete	-10.973
▁steps	-10.9731
▁greci	-10.9732
▁palace	-10.9735
▁vado	-10.9737
▁cade	-10.9738
▁accetta	-10.974
▁arma	-10.974
▁positiva	-10.9743
▁leaf	-10.9746
▁runs	-10.9748
cker	-10.9748
▁consumo	-10.9753
▁notare	-10.9753
▁flessibilità	-10.9753
▁cambiamenti	-10.9753
▁pietà	-10.9755
▁napoleone	-10.9758
▁texas	-10.9759
mb	-10.9767
uk	-10.9769
rico	-10.9773
net	-10.9773
▁ricchi	-10.9777
▁estate	-10.9777
▁statua	-10.9777
▁wolf	-10.9778
▁flight	-10.9784
▁0	-10.979
▁medie	-10.9793
▁opening	-10.9795
▁earlier	-10.9796
▁approvazione	-10.9797
▁handle	-10.9797
▁iniziare	-10.98
▁spoken	-10.9805
▁comunale	-10.9808
▁professore	-10.9812
▁ninety	-10.9817
▁min	-10.9818
▁orientale	-10.982
▁garanzia	-10.9821
lan	-10.9823
▁firm	-10.9826
▁giant	-10.9828
▁cave	-10.983
▁ghost	-10.9833
▁secretary	-10.9834
▁formed	-10.9834
rato	-10.9835
▁brothers	-10.9836
▁specifiche	-10.984
▁permettere	-10.9844
▁considerando	-10.9849
head	-10.9851
▁vennero	-10.9851
▁perdita	-10.9852
mme	-10.9853
▁cute	-10.9854
▁expected	-10.9863
▁riuscire	-10.9864
▁ste	-10.9869
asse	-10.987
▁amministrazione	-10.987
▁esperienze	-10.987
▁nondimeno	-10.987
ped	-10.9871
▁nucleare	-10.9876
▁aged	-10.9876
▁1990	-10.9877
▁cala	-10.9879
amento	-10.9882
▁cristiani	-10.9884
where	-10.9885
▁<	-10.9889
▁pranzo	-10.9889
▁interrogazioni	-10.989
▁rustling	-10.9896
▁antico	-10.9899
look	-10.9899
▁promised	-10.9899
▁vedendo	-10.9902
▁eleven	-10.9902
▁diretta	-10.9908
▁evidence	-10.9908
▁search	-10.9908
cla	-10.9909
▁latte	-10.9909
▁dutch	-10.9915
▁prospettive	-10.9915
▁senato	-10.9916
▁nobile	-10.9923
▁comando	-10.9923
▁annie	-10.9931
æ	-10.9932
▁security	-10.9933
▁brian	-10.9935
▁strength	-10.9936
▁onto	-10.9936
▁potè	-10.9945
▁donald	-10.9946
▁esclusivamente	-10.9946
ise	-10.9947
▁avviare	-10.995
▁travel	-10.995
▁climb	-10.9951
▁aspettare	-10.9956
▁cancer	-10.9956
▁pra	-10.9956
▁batte	-10.9961
▁cure	-10.9961
▁noticed	-10.9962
▁morta	-10.9969
▁unicamente	-10.9969
▁premio	-10.9974
▁motor	-10.9976
▁gentlemen	-10.9978
▁tip	-10.9978
▁fiore	-10.9979
▁integrazione	-10.9979
▁lago	-10.998
▁taluni	-10.9982
gua	-10.9986
▁constatare	-10.9986
▁modificare	-10.9992
▁bound	-10.9994
▁palla	-10.9996
▁chiuso	-10.9998
▁vice	-11
▁nove	-11
▁rough	-11.0005
▁riguardano	-11.0007
▁quivi	-11.0007
udi	-11.0008
▁pianta	-11.001
▁finchè	-11.001
▁activity	-11.001
shakes	-11.0012
▁organizzazione	-11.0014
▁recorder	-11.0014
abili	-11.0015
▁services	-11.0017
▁giunge	-11.0021
▁crime	-11.0022
stico	-11.0024
▁heaven	-11.0026
▁plenty	-11.0028
▁alternative	-11.0028
▁ebbene	-11.0032
▁maid	-11.0032
▁heat	-11.0042
▁parecchi	-11.0043
▁status	-11.0044
▁spell	-11.0045
▁gentleman	-11.0048
▁prega	-11.005
sk	-11.0053
▁alimentari	-11.0058
▁florida	-11.0059
port	-11.0061
▁basi	-11.0064
▁mission	-11.0064
▁riserva	-11.007
▁rom	-11.0071
▁giardino	-11.0073
lina	-11.0075
▁industria	-11.0078
▁eravamo	-11.0079
▁linguaggio	-11.0079
iscono	-11.0084
▁costituiscono	-11.0085
▁conciliazione	-11.0086
▁involved	-11.0088
▁punch	-11.0089
▁marina	-11.0089
▁thick	-11.009
▁rappresentante	-11.009
▁taglia	-11.0091
▁stayed	-11.0095
▁listening	-11.0097
▁performance	-11.0098
ee	-11.0098
sch	-11.0099
▁prevista	-11.0104
▁rivela	-11.0105
▁riconosciuto	-11.011
▁kick	-11.0111
▁isola	-11.0113
spe	-11.0114
▁benessere	-11.012
▁torino	-11.0123
▁compiuto	-11.0123
▁resistenza	-11.0124
▁eastern	-11.0127
▁osservazione	-11.0129
▁legislativo	-11.013
cer	-11.0132
▁nomina	-11.0136
▁task	-11.0137
ucci	-11.0142
▁condotto	-11.0142
▁traccia	-11.0143
07	-11.0145
▁numeri	-11.0151
▁fonti	-11.0153
▁ulteriormente	-11.0155
▁vivono	-11.0161
▁basti	-11.0162
▁frutto	-11.0164
▁ritardo	-11.0168
▁trenta	-11.0172
vole	-11.0173
▁respect	-11.0173
▁istruzione	-11.0176
▁convinto	-11.0181
▁closer	-11.0181
▁sarei	-11.0182
▁adatta	-11.0183
▁lasciando	-11.0185
inter	-11.0186
età	-11.0188
▁australian	-11.0189
▁senz	-11.019
here	-11.0193
▁industriale	-11.0197
some	-11.0197
▁giochi	-11.0198
▁favorire	-11.0199
▁proporre	-11.02
▁esercitare	-11.0201
uno	-11.0204
ude	-11.0207
▁speranze	-11.0207
gie	-11.0209
▁professione	-11.021
▁pal	-11.0211
▁mistake	-11.0211
▁cop	-11.0214
▁stretta	-11.0217
▁prop	-11.0221
▁ampliamento	-11.0222
▁flu	-11.0224
very	-11.0226
▁spinge	-11.0226
▁lieutenant	-11.0226
gger	-11.0228
▁fonda	-11.0228
ena	-11.023
23	-11.0231
▁invita	-11.0235
▁pagamento	-11.0235
▁[2	-11.0236
▁nizza	-11.0236
put	-11.0237
▁success	-11.0239
▁riusciti	-11.0239
▁soup	-11.0242
▁owl	-11.0246
22	-11.0247
▁lisa	-11.0252
▁flew	-11.0254
▁necessary	-11.0259
▁saluta	-11.026
kh	-11.026
mate	-11.0265
▁helen	-11.0265
▁knife	-11.0265
▁relativamente	-11.0265
▁sacco	-11.0268
▁agita	-11.0269
▁gusto	-11.0271
▁avranno	-11.0272
▁chiamata	-11.0273
▁acquista	-11.0277
▁spain	-11.0279
▁accusa	-11.0279
▁lume	-11.0288
▁cagione	-11.0288
▁garibaldi	-11.0291
▁pia	-11.0293
▁35	-11.0294
ang	-11.0295
▁sail	-11.0296
13	-11.0296
▁antica	-11.0297
▁woods	-11.0298
▁produrre	-11.0299
▁verificare	-11.0303
▁normal	-11.0304
▁shadow	-11.0304
▁autori	-11.0306
▁comportamento	-11.0306
▁cadere	-11.0307
▁speech	-11.0309
lato	-11.0309
par	-11.0309
▁drinking	-11.031
▁code	-11.0311
▁frase	-11.0318
▁felicità	-11.0318
dor	-11.0322
▁marry	-11.0323
▁daniel	-11.0325
▁operare	-11.0326
▁whispered	-11.0327
▁roberto	-11.0328
▁riso	-11.0329
▁sà	-11.0329
▁disponibile	-11.033
▁ruth	-11.0331
▁disease	-11.0337
lus	-11.0341
▁benissimo	-11.0346
▁jumped	-11.0348
▁esaminare	-11.035
shed	-11.0355
sol	-11.0358
gono	-11.0361
▁fuga	-11.0363
▁impossible	-11.0363
ag	-11.0363
▁consider	-11.0366
▁minuto	-11.037
▁struck	-11.0371
▁cer	-11.0371
▁legati	-11.0373
▁gray	-11.0373
▁privato	-11.0373
cur	-11.0376
▁knight	-11.0378
▁moo	-11.0379
rda	-11.0379
pt	-11.0382
tar	-11.0383
▁objects	-11.0383
▁oil	-11.0384
integrazione	-11.039
▁sí	-11.039
▁joke	-11.0393
mbe	-11.0393
ufficio	-11.0396
right	-11.0399
▁bush	-11.0407
▁fallen	-11.0411
▁parlamenti	-11.0412
>	-11.0415
▁excellent	-11.0415
▁fattori	-11.0418
▁magazine	-11.0422
▁tabacco	-11.0422
▁iniziato	-11.0423
19	-11.0434
▁pacchetto	-11.0435
ffer	-11.0435
▁condivido	-11.0436
▁fixed	-11.0439
▁create	-11.044
▁trick	-11.0441
▁peekaboo	-11.0442
▁snap	-11.0443
▁blind	-11.0444
▁consultazione	-11.0444
▁odd	-11.0447
▁originale	-11.0448
▁imporre	-11.0448
box	-11.0459
▁processi	-11.0462
▁ampia	-11.0463
▁needta	-11.0467
▁1992	-11.0468
pen	-11.0469
▁bis	-11.0472
▁fond	-11.0472
▁piede	-11.0473
▁scott	-11.0473
▁fama	-11.0474
17	-11.0475
▁storie	-11.0475
▁cas	-11.048
nge	-11.0482
▁particularly	-11.0482
pie	-11.0487
▁strike	-11.0488
▁pit	-11.0489
▁stagione	-11.0489
▁weird	-11.049
▁vince	-11.049
▁assicura	-11.0493
intero	-11.0497
▁zo	-11.05
▁sm	-11.0501
▁bassa	-11.0502
▁appoggia	-11.0509
▁riprende	-11.0512
▁insegna	-11.0513
nder	-11.0514
▁tedesco	-11.0515
▁riflettere	-11.0519
▁fabbrica	-11.052
▁salt	-11.0521
▁scu	-11.0521
▁procura	-11.0526
▁separate	-11.0527
▁program	-11.0528
▁swimming	-11.0528
▁lookee	-11.0529
old	-11.0535
cchia	-11.0536
ney	-11.0539
law	-11.054
▁dovevano	-11.0548
▁venisse	-11.0548
▁lire	-11.0549
▁inferiore	-11.055
▁commander	-11.0551
▁ricco	-11.0555
▁cum	-11.0556
▁aereo	-11.0557
▁showing	-11.0557
▁nesting	-11.0561
▁keeping	-11.0562
▁cambio	-11.0563
▁entrambe	-11.0568
▁choose	-11.0568
▁volo	-11.0569
▁mike	-11.0569
▁dancing	-11.057
with	-11.057
▁sudden	-11.0571
▁accoglie	-11.0573
▁evidentemente	-11.0574
▁paint	-11.0575
zion	-11.0576
▁generally	-11.0579
▁centinaia	-11.0581
▁avvenire	-11.0582
bbi	-11.0585
▁quietly	-11.0587
▁indica	-11.0587
▁corretto	-11.059
▁ottimo	-11.059
▁container	-11.0591
▁fanciulla	-11.0595
▁basa	-11.0596
▁ob	-11.0599
▁sandwich	-11.0599
▁segna	-11.06
▁medical	-11.06
▁altrui	-11.0601
nny	-11.0604
aft	-11.0605
▁sword	-11.0607
▁assumere	-11.0608
▁compiuti	-11.0609
▁fill	-11.0609
▁xi	-11.061
ua	-11.0612
▁filo	-11.0615
rse	-11.0617
▁association	-11.0618
▁gambe	-11.0625
▁governa	-11.0626
▁torto	-11.0626
america	-11.0628
▁enormi	-11.063
ira	-11.0631
▁treasure	-11.0642
▁barba	-11.0642
▁monday	-11.0644
▁definitely	-11.0644
▁lamb	-11.0645
▁vicina	-11.0646
▁utilizza	-11.0646
▁pronti	-11.065
lie	-11.0653
ndogli	-11.0654
▁swim	-11.0655
▁gro	-11.0656
▁papà	-11.0656
▁5,	-11.0656
▁range	-11.0665
▁georgia	-11.0667
▁growing	-11.0668
▁dollari	-11.0668
▁ph	-11.0668
▁conflitti	-11.0669
▁difficili	-11.0669
▁allow	-11.0669
▁indicato	-11.0671
▁cominciare	-11.0674
our	-11.0674
▁actress	-11.0676
▁energy	-11.0676
adozione	-11.0677
▁stabilito	-11.0681
▁greco	-11.0685
▁autore	-11.0688
▁balls	-11.0693
▁marky	-11.0693
▁decision	-11.0694
▁minor	-11.0694
fra	-11.0696
▁segretario	-11.0698
sur	-11.0701
▁afterwards	-11.0701
▁✿	-11.0703
▁inteso	-11.0705
▁qualora	-11.0705
▁weak	-11.0708
▁plant	-11.0709
▁considerazioni	-11.0712
▁marie	-11.0714
▁walks	-11.0721
▁policy	-11.0724
▁adopera	-11.0725
rina	-11.0728
▁servire	-11.073
autorità	-11.073
▁bathroom	-11.0731
▁lamp	-11.0732
▁mori	-11.0732
▁dettagli	-11.0732
▁stella	-11.0734
▁recentemente	-11.0736
▁sovra	-11.0736
ü	-11.0737
▁svezia	-11.0737
▁distribuzione	-11.0738
▁protect	-11.0738
rino	-11.0739
▁verbale	-11.0739
▁funzionari	-11.0741
▁holy	-11.0742
▁ourselves	-11.0744
▁ter	-11.0744
▁ghi	-11.0745
▁comp	-11.0751
▁rapida	-11.0753
▁host	-11.0754
▁veste	-11.0755
▁justice	-11.0757
70	-11.0757
▁beads	-11.0759
▁avremmo	-11.0764
▁chè	-11.0769
low	-11.077
▁turba	-11.0773
end	-11.0775
▁truppe	-11.0778
▁gui	-11.0781
▁capitali	-11.0783
▁interessa	-11.0784
▁ancient	-11.0785
▁riflessione	-11.0785
▁offered	-11.0785
nio	-11.0785
▁criminalità	-11.0785
▁costante	-11.0788
▁1993	-11.0792
▁stream	-11.0792
▁medal	-11.0799
▁colonel	-11.0801
▁upper	-11.0804
▁carriage	-11.0805
▁remained	-11.0806
▁cinema	-11.0808
▁annuale	-11.0812
▁sostiene	-11.0812
▁production	-11.0812
▁venivano	-11.0814
cos	-11.0817
▁statuto	-11.0819
▁destino	-11.0819
wing	-11.082
▁finding	-11.0822
▁madonna	-11.0826
▁abita	-11.0827
▁partita	-11.0831
▁tele	-11.0832
app	-11.0832
▁patrimonio	-11.0833
▁gesti	-11.0833
len	-11.0837
▁effects	-11.0846
▁preoccupa	-11.0848
▁contact	-11.0849
▁90	-11.0853
usa	-11.0853
▁farò	-11.0855
▁kinda	-11.0855
tezza	-11.0857
▁sostenuto	-11.086
▁speriamo	-11.086
uli	-11.0862
ries	-11.0864
▁sentimenti	-11.0865
▁yummy	-11.0868
▁fretta	-11.0871
zz	-11.0872
▁software	-11.0874
▁babbo	-11.0875
▁hook	-11.0879
zu	-11.0879
▁osservare	-11.0882
▁federal	-11.0889
tten	-11.0891
▁elevato	-11.0898
▁loves	-11.0899
▁compagnie	-11.0903
ev	-11.0903
26	-11.0905
▁sake	-11.0905
opportunità	-11.0909
▁dette	-11.0911
▁vidi	-11.0912
▁perduto	-11.0916
24	-11.0916
▁riferisco	-11.0917
▁istituzione	-11.0921
▁condition	-11.0921
▁tecnici	-11.0922
▁piglia	-11.0922
▁traffic	-11.0923
▁perfectly	-11.0923
09	-11.0924
▁correct	-11.0924
▁attuare	-11.0928
▁lunghe	-11.0929
▁turchi	-11.093
▁cavalieri	-11.0932
▁walls	-11.0934
ann	-11.0935
▁richiesto	-11.0936
03	-11.0937
▁whoops	-11.0938
▁mister	-11.0938
▁giudica	-11.0938
▁ritrova	-11.0943
▁hum	-11.0948
▁denti	-11.0948
▁tutt	-11.0948
▁records	-11.0961
▁rode	-11.0963
▁svolge	-11.0968
▁indipendente	-11.097
▁mono	-11.0972
▁acco	-11.0973
ada	-11.0977
▁academy	-11.0978
txt	-11.0981
▁stranieri	-11.0985
utilizzo	-11.0985
▁tent	-11.0985
▁velocità	-11.0985
▁carrying	-11.0988
▁recenti	-11.0991
▁labour	-11.0992
▁fancy	-11.0995
▁apri	-11.1003
▁wha	-11.1005
▁cardinale	-11.1005
▁profilo	-11.1006
▁clearly	-11.1006
06	-11.1012
▁mus	-11.1012
▁ragionevole	-11.1014
▁limita	-11.1017
del	-11.1022
ence	-11.1023
▁natale	-11.1024
▁cena	-11.1026
did	-11.1029
nare	-11.1029
▁lorenzo	-11.1029
kar	-11.103
tis	-11.1031
▁divina	-11.1032
▁fornito	-11.1032
rone	-11.1037
▁verdi	-11.1038
▁animale	-11.1039
▁foreign	-11.1041
▁leading	-11.1041
▁students	-11.1047
▁protest	-11.1047
cher	-11.105
▁ecc	-11.1051
▁sides	-11.1052
ray	-11.1053
▁nave	-11.1055
▁lights	-11.1057
nel	-11.106
▁shown	-11.1061
▁marker	-11.1065
▁luci	-11.1065
▁muro	-11.1067
▁passò	-11.1068
nch	-11.1069
▁gri	-11.1069
▁anzitutto	-11.1069
nico	-11.1072
temi	-11.1074
▁pomeriggio	-11.1076
▁entire	-11.1081
▁corrisponde	-11.1084
▁valuta	-11.1084
▁weight	-11.1084
▁poca	-11.1084
eu	-11.1087
▁suona	-11.1088
▁carefully	-11.1088
cho	-11.1089
▁ascoltare	-11.109
▁previsti	-11.109
04	-11.1096
▁2014	-11.1096
enne	-11.1101
cus	-11.1103
▁raccomandazione	-11.1107
ida	-11.1109
▁calls	-11.1111
intervento	-11.1112
fully	-11.1113
▁ix	-11.1115
▁liberi	-11.1115
▁scelto	-11.1118
▁recognize	-11.112
ren	-11.112
▁debole	-11.1124
dono	-11.1124
rac	-11.1125
▁knowledge	-11.1125
▁suit	-11.1128
▁civil	-11.1129
▁risposto	-11.1132
cro	-11.1133
▁penny	-11.1135
▁cash	-11.114
mmi	-11.1142
▁implica	-11.1145
▁ivi	-11.1146
▁possibly	-11.1147
▁younger	-11.115
▁desk	-11.1151
gui	-11.1153
▁assieme	-11.1154
▁solleva	-11.1155
▁opinion	-11.1156
rati	-11.1157
▁guardando	-11.1157
▁sti	-11.1158
▁managed	-11.1158
▁consegna	-11.116
▁opportunity	-11.1161
▁surface	-11.1161
▁reazione	-11.1162
▁chain	-11.1163
▁corrente	-11.1166
▁trattare	-11.1167
▁dec	-11.1167
alto	-11.1169
▁giova	-11.1169
▁distruzione	-11.117
▁potrei	-11.1175
▁à	-11.1176
▁eliminare	-11.1177
90	-11.1177
▁honest	-11.1179
sighs	-11.1184
▁chap	-11.1186
▁caffè	-11.1189
▁dump	-11.1191
▁scritta	-11.1192
year	-11.1197
▁interrogazione	-11.1197
▁riding	-11.1201
]!	-11.1201
▁romantic	-11.1201
▁normale	-11.1203
nzo	-11.1206
▁orders	-11.1207
▁ned	-11.1209
▁controllare	-11.121
▁relationship	-11.1211
▁giusti	-11.1213
▁farmer	-11.1213
▁riprese	-11.1215
▁arab	-11.1218
▁treat	-11.1224
▁intera	-11.1227
▁edward	-11.1227
▁asia	-11.1229
▁inserire	-11.1229
▁superare	-11.123
▁evil	-11.1233
good	-11.1234
▁ji	-11.1239
sio	-11.1242
mbi	-11.1242
▁soggiunse	-11.1246
▁alex	-11.1258
▁mezza	-11.1258
▁species	-11.1261
▁genti	-11.1262
▁pezzi	-11.1262
▁principalmente	-11.1263
▁rive	-11.1267
▁corsa	-11.1267
▁boston	-11.1268
▁tight	-11.1269
▁heads	-11.1273
▁dawn	-11.1274
▁mountains	-11.1275
▁spera	-11.1277
▁profondamente	-11.1279
▁saremo	-11.1281
▁aggiunto	-11.1282
▁mirror	-11.1282
▁rivolta	-11.1283
▁occasioni	-11.1284
▁vent	-11.1289
ical	-11.1289
ier	-11.1295
▁organization	-11.1297
▁crash	-11.1298
▁segni	-11.13
▁ciao	-11.13
▁realmente	-11.1302
▁raccogliere	-11.1304
▁disporre	-11.1304
▁hug	-11.1307
bye	-11.1308
▁crayons	-11.1309
▁neat	-11.1311
▁changes	-11.1314
▁preme	-11.1315
▁groups	-11.1316
▁arrivato	-11.1317
-19	-11.1318
ec	-11.1319
▁equal	-11.1324
▁giovine	-11.1324
▁fairy	-11.1332
▁rossa	-11.1333
▁crescente	-11.1336
oro	-11.1338
titu	-11.1339
▁begins	-11.1345
▁impatto	-11.1346
lità	-11.1351
▁pisa	-11.1352
▁alimenti	-11.1356
▁imparare	-11.1357
▁lift	-11.1359
▁realizzato	-11.1361
▁confronto	-11.1362
▁canton	-11.1363
▁70	-11.1364
▁wheels	-11.1367
▁plans	-11.1371
▁consentito	-11.1371
▁differenti	-11.1375
▁filosofia	-11.1375
▁trarre	-11.1376
▁veder	-11.1377
▁patient	-11.1378
▁guns	-11.1382
▁inf	-11.1382
▁colà	-11.1384
ker	-11.1386
▁contract	-11.1387
▁dolls	-11.1388
▁provenienti	-11.1398
▁belli	-11.1398
▁correre	-11.1399
▁pensava	-11.1404
--"	-11.1405
▁mentioned	-11.1405
▁critiche	-11.1406
▁cogli	-11.1409
▁chiamare	-11.1411
▁butterfly	-11.142
▁2019	-11.1422
▁futura	-11.1425
▁chinese	-11.1425
nica	-11.1427
▁rules	-11.1428
▁sentence	-11.1431
▁esercita	-11.1439
60	-11.1441
▁sviluppi	-11.1442
▁competitività	-11.1442
▁efficaci	-11.1442
▁raccomandazioni	-11.1443
▁cell	-11.1446
▁shoulder	-11.1448
▁tunnel	-11.1449
▁londra	-11.1449
▁soggetto	-11.1451
cing	-11.1453
▁knights	-11.1455
▁eventuali	-11.1455
▁hiding	-11.1456
▁remain	-11.1456
▁wo	-11.1458
▁prepared	-11.1458
▁pri	-11.1459
▁awards	-11.1461
▁previste	-11.1463
sum	-11.1465
▁parlava	-11.1469
▁addosso	-11.1478
▁determinato	-11.1483
▁tedeschi	-11.1486
▁giorgio	-11.1489
▁knowing	-11.1491
▁riuscito	-11.1491
▁caduta	-11.1493
und	-11.1493
tate	-11.1499
▁smaller	-11.1499
▁screw	-11.15
▁ricchezza	-11.1501
▁empire	-11.1501
▁rub	-11.1503
▁hammer	-11.1506
azioni	-11.1506
▁assunto	-11.1508
▁anime	-11.1509
▁laura	-11.151
▁forces	-11.1513
nate	-11.1514
▁caldo	-11.1517
▁episode	-11.1517
▁grido	-11.1518
▁figliuoli	-11.152
▁fissa	-11.1521
▁scoprire	-11.1521
▁studied	-11.1522
▁neve	-11.1524
▁efficacia	-11.1525
▁2012	-11.1527
▁stu	-11.1527
▁cloth	-11.1529
▁accolto	-11.153
▁utenti	-11.153
▁edizione	-11.1532
▁mari	-11.1532
aiuto	-11.1533
▁native	-11.1533
▁mate	-11.1534
▁planet	-11.1534
▁santi	-11.1535
▁pianeta	-11.1537
▁approvare	-11.1538
▁soldier	-11.1539
▁stavano	-11.1544
▁disposto	-11.1545
▁riferi	-11.1549
▁fence	-11.1553
when	-11.1554
▁negozi	-11.1557
▁mobili	-11.1559
▁safety	-11.1561
▁calma	-11.1561
▁cosi	-11.1562
▁volere	-11.1563
▁sig	-11.1564
▁brucia	-11.1567
▁sezione	-11.1568
▁guisa	-11.1569
▁hearing	-11.1573
ense	-11.1578
▁vinto	-11.158
▁horn	-11.1587
▁figures	-11.1588
▁dottore	-11.1588
▁greatest	-11.1593
whispered	-11.1606
▁usci	-11.1608
▁pool	-11.1608
oo	-11.161
▁gentile	-11.1611
▁riposo	-11.1611
▁discriminazione	-11.1613
▁adottata	-11.1615
▁prevedere	-11.1615
▁immagine	-11.1617
▁boots	-11.1618
fri	-11.1618
▁inaccettabile	-11.1618
▁aw	-11.1619
▁larga	-11.1624
▁smiled	-11.1625
▁volentieri	-11.1626
▁consiglia	-11.1626
▁mayor	-11.1626
▁colpi	-11.1626
▁writer	-11.1627
▁pushed	-11.1629
rn	-11.1631
▁mattino	-11.1632
▁obbliga	-11.1638
▁release	-11.1644
▁impianti	-11.1645
45	-11.1646
▁provide	-11.1648
▁definitiva	-11.165
▁lin	-11.1653
▁banche	-11.1654
▁avvenuto	-11.1656
▁divide	-11.1657
▁tenuta	-11.1658
▁ships	-11.1658
▁bike	-11.1659
anzi	-11.1662
▁ignora	-11.1663
▁priest	-11.1664
▁ciascun	-11.1666
▁bisogni	-11.1667
▁manage	-11.1669
hv	-11.1669
▁peanut	-11.1671
▁clever	-11.1671
▁compreso	-11.1672
▁dust	-11.1672
▁chiarire	-11.1674
▁disco	-11.1675
▁concede	-11.1677
▁scientifica	-11.1677
▁freedom	-11.1678
sound	-11.1679
▁otherwise	-11.1679
▁everywhere	-11.168
▁desire	-11.1682
▁horsie	-11.1686
▁stor	-11.1686
▁approvata	-11.1691
ign	-11.1693
atto	-11.1695
pra	-11.1697
▁nin	-11.1697
▁fuor	-11.1698
zer	-11.17
vamo	-11.17
▁nancy	-11.1702
▁miseria	-11.1706
▁volesse	-11.1706
96	-11.1706
▁unknown	-11.1707
▁rifiuta	-11.171
▁stack	-11.171
bilmente	-11.1711
▁adottate	-11.1712
cò	-11.1712
▁bump	-11.1713
▁campaign	-11.1715
▁opposite	-11.1715
gro	-11.1716
avi	-11.1716
▁rope	-11.1717
▁vite	-11.1719
▁tan	-11.1721
ging	-11.1722
▁available	-11.1723
▁sicura	-11.1725
▁ap	-11.1727
set	-11.1728
▁credito	-11.1731
▁troops	-11.1734
▁vicenda	-11.1738
▁vendetta	-11.1739
▁futuri	-11.174
lino	-11.1744
▁contessa	-11.1747
▁quack	-11.1748
▁democratici	-11.175
▁wet	-11.1753
▁crown	-11.1753
▁railway	-11.1753
▁desert	-11.1754
08	-11.1757
cella	-11.1758
▁storica	-11.1758
▁allontana	-11.1758
▁etc	-11.1761
▁colloca	-11.1765
▁competition	-11.1768
▁stir	-11.1768
▁familiar	-11.177
▁oo	-11.1773
▁pack	-11.1773
▁settled	-11.1776
▁retro	-11.1778
▁sports	-11.178
▁estrema	-11.1781
▁posa	-11.1782
▁parliament	-11.1783
▁favor	-11.1783
▁applica	-11.1784
▁bedroom	-11.1785
▁goodbye	-11.179
▁downstairs	-11.1792
▁indians	-11.1793
▁areas	-11.1801
▁amor	-11.1803
▁lucia	-11.1804
▁apertura	-11.1804
▁reaches	-11.1806
▁oro	-11.1808
▁hal	-11.1809
▁eric	-11.181
ama	-11.181
▁avessi	-11.1812
35	-11.1813
▁pakistan	-11.1813
▁scoperto	-11.1813
▁novel	-11.1814
moves	-11.1815
▁scrisse	-11.1816
▁calcio	-11.1817
▁harm	-11.182
▁padri	-11.1823
ez	-11.1826
▁andando	-11.1829
▁1991	-11.1829
uo	-11.183
▁affi	-11.1831
rgi	-11.1831
▁mobile	-11.1833
▁grab	-11.1834
▁80	-11.1835
▁surely	-11.1835
mor	-11.1835
▁wedding	-11.1836
ö	-11.1837
▁restare	-11.1837
▁mosse	-11.1838
▁trial	-11.1841
mann	-11.1842
▁mediterraneo	-11.1844
▁costui	-11.1844
▁inde	-11.1846
▁purse	-11.1847
▁culturali	-11.185
▁barbari	-11.1851
▁elephants	-11.1852
▁generazione	-11.1854
▁6,	-11.1854
▁dedicato	-11.1856
▁vincere	-11.1857
▁sang	-11.1857
28	-11.1858
▁eletto	-11.1863
▁xii	-11.1863
tine	-11.1865
board	-11.1874
▁wine	-11.1877
▁spaghetti	-11.1882
▁gift	-11.1882
cc	-11.1888
▁nera	-11.1888
ile	-11.1889
▁conosciuto	-11.189
▁dere	-11.1892
▁parliamo	-11.1892
▁composto	-11.1897
▁andata	-11.19
▁mario	-11.1902
▁fiorentini	-11.1905
▁turkey	-11.1905
▁flotta	-11.1906
▁certezza	-11.1907
ub	-11.1907
hands	-11.1907
▁stelle	-11.1908
sion	-11.1908
▁pubblicato	-11.191
ram	-11.1911
▁andar	-11.1912
▁snake	-11.1912
▁worried	-11.1912
▁venir	-11.1913
lon	-11.1913
▁stretto	-11.1913
▁iraq	-11.1914
▁credit	-11.1915
27	-11.1916
gasp	-11.1918
▁perfino	-11.1918
gon	-11.1919
▁loss	-11.1919
▁precipita	-11.192
tano	-11.1921
▁section	-11.1922
▁pensando	-11.1923
pp	-11.1925
▁gentle	-11.1926
▁contrasto	-11.1926
▁dinosaur	-11.1928
▁sally	-11.193
▁frightened	-11.1931
▁moderna	-11.1931
▁excited	-11.1931
▁address	-11.1932
av	-11.1935
▁sur	-11.1936
▁associazioni	-11.1937
interrogazione	-11.1937
▁adeguato	-11.1937
▁reply	-11.1938
▁provare	-11.1939
▁concreti	-11.194
▁gal	-11.194
▁specifici	-11.1942
immagine	-11.1944
▁ricerche	-11.1951
▁easier	-11.1951
▁giudice	-11.1952
▁cima	-11.1954
lmente	-11.1958
▁anziani	-11.196
▁favorevoli	-11.196
▁clo	-11.1961
▁recita	-11.1963
ther	-11.1963
over	-11.1963
▁appear	-11.1967
▁civiltà	-11.1975
▁debut	-11.1976
▁precisa	-11.1977
nelli	-11.1979
▁trono	-11.198
▁suono	-11.198
▁meta	-11.1983
▁poscia	-11.1984
▁branch	-11.1985
▁giunti	-11.1986
gge	-11.1986
▁percent	-11.1988
▁mention	-11.1994
▁ppe	-11.1999
▁spiegare	-11.2001
▁suggest	-11.2002
tea	-11.2005
▁albert	-11.2006
mal	-11.2012
▁virginia	-11.2018
▁passati	-11.202
▁greek	-11.2022
▁determinazione	-11.2024
▁seventy	-11.2025
far	-11.2027
esistenza	-11.2028
cent	-11.2028
▁$	-11.203
▁bringing	-11.2032
▁chiude	-11.2032
▁loose	-11.2034
▁presentate	-11.2039
▁discorsi	-11.204
▁[3	-11.2041
▁franco	-11.2041
see	-11.2042
▁rotta	-11.2042
comp	-11.2043
▁essenziali	-11.2044
▁retired	-11.2044
▁piega	-11.2048
▁giudici	-11.2051
▁forgotten	-11.2052
▁bomb	-11.2054
▁robin	-11.2055
mpo	-11.2058
▁contributi	-11.2058
▁dando	-11.2059
stone	-11.2062
fr	-11.2063
▁rischia	-11.2064
▁largo	-11.2066
▁pressioni	-11.2067
▁gestire	-11.2068
nese	-11.2068
▁32	-11.2069
▁500	-11.2071
▁permanente	-11.2073
▁competente	-11.2077
▁honour	-11.2077
▁entrò	-11.2082
▁diventato	-11.2084
▁utilizzato	-11.2089
autore	-11.2089
▁lavorato	-11.2092
war	-11.2093
▁repeated	-11.2095
▁num	-11.2096
cina	-11.2096
rog	-11.2098
▁ragazze	-11.2098
zzato	-11.2101
fica	-11.2103
▁crack	-11.2103
▁chiusura	-11.2106
▁colonna	-11.2108
▁birth	-11.2108
▁discusso	-11.2109
▁mel	-11.2111
▁cabin	-11.2114
▁costituire	-11.212
omi	-11.212
▁nutri	-11.2125
▁dipendenti	-11.2125
▁conclude	-11.2125
▁totalmente	-11.2127
▁occhio	-11.2127
▁costretto	-11.2129
▁tengo	-11.213
▁tornò	-11.2131
▁priva	-11.2135
▁gregorio	-11.2137
▁lengthened	-11.2137
▁broad	-11.2141
▁esecuzione	-11.2141
ef	-11.2142
analisi	-11.2146
▁alberto	-11.2151
back	-11.2152
▁contare	-11.2152
diamo	-11.2152
▁coerente	-11.2153
▁vuoto	-11.2153
▁bianchi	-11.2153
▁termina	-11.2154
▁enter	-11.2159
▁2011	-11.2161
epoca	-11.2162
feri	-11.2163
cto	-11.2166
▁folla	-11.2174
▁getta	-11.2174
place	-11.2176
▁silent	-11.2176
▁riserve	-11.2176
▁comfortable	-11.2177
▁naso	-11.2177
morrow	-11.2178
will	-11.218
por	-11.2181
▁interview	-11.2184
▁neri	-11.2184
▁infrastrutture	-11.2184
▁prof	-11.2184
▁concessione	-11.2184
▁log	-11.2185
▁individual	-11.2188
anima	-11.2192
▁lois	-11.2193
vocalization	-11.2193
▁direct	-11.2193
din	-11.2194
▁players	-11.2194
▁rec	-11.2195
▁papers	-11.2196
▁hanging	-11.2196
ible	-11.2199
▁obblighi	-11.22
▁stanziamenti	-11.22
moving	-11.2201
rini	-11.2203
▁promessa	-11.2208
▁wales	-11.2211
lini	-11.2211
▁temple	-11.2212
▁metti	-11.2213
▁cau	-11.2216
▁proseguire	-11.2218
▁drama	-11.2218
▁violazione	-11.222
▁vorrebbe	-11.2221
▁preghiera	-11.2223
▁narrow	-11.2224
▁gene	-11.2224
cchio	-11.2227
▁belong	-11.2227
▁perso	-11.2229
ks	-11.223
▁aumenta	-11.2234
phone	-11.2234
▁delibera	-11.2235
▁severe	-11.2236
▁detti	-11.2236
▁explained	-11.2237
hsl	-11.2237
▁remembered	-11.2237
▁seconds	-11.2243
iano	-11.2245
izzazione	-11.2247
rdi	-11.2248
▁microphone	-11.2249
bal	-11.225
stre	-11.2252
▁rafforzamento	-11.2256
argomento	-11.2258
▁fantasia	-11.2263
▁superiori	-11.2263
▁benefici	-11.2264
▁proteggere	-11.2265
▁intendere	-11.2267
▁cra	-11.2271
star	-11.2275
▁crescere	-11.2275
▁rileva	-11.2277
▁michele	-11.2277
▁cle	-11.2277
▁studiare	-11.2277
▁wooden	-11.2278
▁somewhat	-11.2279
▁risoluzioni	-11.2279
▁latina	-11.228
▁trasforma	-11.2284
▁nascita	-11.2287
▁scorsa	-11.2288
▁micro	-11.2288
▁couch	-11.2293
▁letteratura	-11.2297
nò	-11.2298
▁pad	-11.2299
▁ciascuna	-11.2301
▁rug	-11.2304
ban	-11.2305
▁anxious	-11.2306
▁giornale	-11.2308
▁liberali	-11.2309
▁banana	-11.2311
▁cri	-11.2312
▁scia	-11.2312
▁centrali	-11.2312
▁philip	-11.2313
ize	-11.2315
▁soddisfare	-11.2316
▁independent	-11.2319
ged	-11.2319
▁content	-11.2323
▁bon	-11.2324
▁oratori	-11.2326
▁intendiamo	-11.2327
▁fought	-11.2327
▁legale	-11.2334
▁britannico	-11.2335
▁sussidiarietà	-11.2335
▁pubblicità	-11.2338
▁dick	-11.2339
▁tuttora	-11.234
▁continente	-11.2341
8.	-11.2341
amministrazione	-11.2344
▁passando	-11.2345
▁italiane	-11.2346
▁ovunque	-11.2351
▁suggested	-11.2351
▁accor	-11.2358
▁chiare	-11.236
▁alberi	-11.236
▁tin	-11.2363
ky	-11.2363
▁benchè	-11.2364
▁seguendo	-11.2364
▁forced	-11.2365
rj	-11.2368
▁versa	-11.2369
▁facesse	-11.2371
row	-11.2371
▁schools	-11.2372
boli	-11.2372
▁refer	-11.2373
▁acc	-11.2373
▁gioventù	-11.2375
▁ucciso	-11.2375
▁disc	-11.2376
▁definito	-11.2378
▁forever	-11.2382
▁rossi	-11.2385
▁ebbero	-11.2386
yo	-11.2387
▁diversità	-11.239
▁partenariato	-11.2391
▁signal	-11.2391
▁ideale	-11.2392
cou	-11.2396
▁switzerland	-11.2399
▁score	-11.2403
▁hung	-11.2404
▁piante	-11.2405
▁lentamente	-11.2408
▁45	-11.2408
▁gioca	-11.241
▁elaborare	-11.2411
▁events	-11.2412
▁candy	-11.2413
rdo	-11.2414
▁confine	-11.2416
▁veneziani	-11.2417
▁nata	-11.2421
▁effettuare	-11.2421
▁concreto	-11.2423
▁1980	-11.2423
▁pesce	-11.2424
get	-11.2429
▁istituzionale	-11.2431
▁diavolo	-11.2431
▁frate	-11.2432
▁racconto	-11.2433
ating	-11.2435
▁tim	-11.2436
▁fairly	-11.2437
▁centri	-11.2437
▁fifth	-11.2439
▁sufficienti	-11.2442
▁bloody	-11.2444
ndole	-11.2444
▁resi	-11.245
▁elected	-11.245
▁tap	-11.245
▁confusione	-11.2452
▁highest	-11.2453
▁soccorso	-11.2455
▁ebrei	-11.2455
nella	-11.2456
▁farmaci	-11.2456
▁spedi	-11.2461
▁sfide	-11.2463
▁poet	-11.2465
mmer	-11.2467
bre	-11.2469
▁incidenti	-11.247
▁istante	-11.247
vio	-11.2473
▁dirò	-11.2478
mm	-11.248
▁destinato	-11.2482
▁organizzato	-11.2483
▁dying	-11.2484
▁reddito	-11.2488
▁passing	-11.2489
▁hero	-11.2492
▁plenaria	-11.2496
▁drove	-11.2498
toria	-11.2499
▁influence	-11.2499
▁conduce	-11.25
▁signed	-11.25
▁hmm	-11.2502
gging	-11.2503
▁pillow	-11.2504
▁tavolo	-11.2504
about	-11.2504
▁ken	-11.2504
▁amy	-11.2505
▁realize	-11.2509
▁desideri	-11.2511
▁forgive	-11.2511
▁svedese	-11.2512
▁teme	-11.2512
▁successful	-11.2516
nzia	-11.2517
▁lasciar	-11.2518
▁corretta	-11.2519
mble	-11.252
▁wagon	-11.252
▁cloud	-11.2521
▁ladder	-11.2522
▁pensiamo	-11.2522
▁perdono	-11.2528
ges	-11.2528
▁blanket	-11.2528
▁rattle	-11.2529
▁utilizzo	-11.253
▁slice	-11.2531
▁catena	-11.2531
▁apartment	-11.2531
▁rurale	-11.2532
▁abbandona	-11.2534
nati	-11.2535
▁museum	-11.2536
▁calendario	-11.2537
▁debbono	-11.2537
▁rare	-11.2546
mas	-11.2546
▁trascina	-11.2549
▁congresso	-11.255
▁iniziale	-11.2551
▁7,	-11.2551
▁cominciato	-11.2552
▁soggiorno	-11.2553
▁memory	-11.2553
▁dir	-11.2556
▁organismi	-11.2557
ches	-11.2559
▁rico	-11.2559
▁ireland	-11.2562
▁genio	-11.2564
▁usato	-11.2565
▁sicuri	-11.2567
▁meccanismi	-11.2569
▁chicago	-11.2569
▁nipote	-11.2569
▁degree	-11.2569
▁apre	-11.2571
▁mandò	-11.2571
▁tru	-11.2572
▁commissioni	-11.2576
▁finanziamenti	-11.2577
▁buddy	-11.2577
▁kinds	-11.2578
▁informa	-11.2578
associazione	-11.2579
▁conosco	-11.2581
▁amare	-11.2582
▁farne	-11.2582
▁capaci	-11.2584
▁necessariamente	-11.2587
▁pile	-11.2593
▁owner	-11.2594
▁congress	-11.2596
sten	-11.2598
▁yu	-11.2598
▁esercizio	-11.26
▁contento	-11.2601
▁contempla	-11.2601
▁totally	-11.2601
▁smiling	-11.2602
▁jerry	-11.2602
▁border	-11.2603
▁pressure	-11.2603
▁corse	-11.2604
nic	-11.2604
mes	-11.2606
▁salvo	-11.2607
▁bordo	-11.2608
▁ripresa	-11.261
▁disegni	-11.261
▁concilio	-11.261
▁ridotto	-11.261
▁accaduto	-11.261
▁killing	-11.2611
▁pazienza	-11.2611
▁dica	-11.2613
▁tiro	-11.2615
▁movimenti	-11.2618
▁raggiunge	-11.262
eli	-11.2621
▁pipe	-11.2624
▁pericoli	-11.2626
▁impegnati	-11.2628
▁figliuola	-11.2631
▁pò	-11.2633
▁pony	-11.2633
play	-11.2633
▁cru	-11.2634
▁concert	-11.2634
▁cinquanta	-11.2634
▁ciclo	-11.2636
▁latino	-11.2639
▁profughi	-11.2643
▁¶	-11.2643
▁doppio	-11.2644
▁comb	-11.2645
ov	-11.2647
▁relatori	-11.2651
▁sovranità	-11.2651
▁dolci	-11.2652
▁arthur	-11.2652
▁false	-11.2652
▁2006	-11.2654
▁nap	-11.2654
▁cape	-11.2655
▁incomincia	-11.2655
tries	-11.2657
▁esterne	-11.2659
▁bunch	-11.266
▁vecchie	-11.2662
▁penetra	-11.2664
▁assoluta	-11.2665
ndoli	-11.2666
▁access	-11.2668
▁settlement	-11.2669
▁turtle	-11.2669
▁recording	-11.267
▁raccomanda	-11.2672
▁continuano	-11.2672
home	-11.2672
▁nick	-11.2674
▁pensate	-11.2674
▁elizabeth	-11.2676
▁scopri	-11.2676
american	-11.2678
▁esistenza	-11.2678
▁rag	-11.2679
▁franchi	-11.2679
▁ricorrere	-11.2688
aggio	-11.2688
▁sce	-11.2693
▁madam	-11.2693
▁proper	-11.2693
▁prepara	-11.2704
▁dunno	-11.2705
▁vasta	-11.2707
▁categorie	-11.2709
▁lontani	-11.2709
▁sp	-11.2709
▁beneficio	-11.2716
▁costumi	-11.2717
apertura	-11.2719
▁goal	-11.272
▁giocare	-11.272
lar	-11.2721
▁domandò	-11.2725
▁appresso	-11.2725
▁queer	-11.2726
▁tendenza	-11.2727
▁clienti	-11.2728
▁straordinaria	-11.2728
ology	-11.2729
▁grandezza	-11.273
▁fossi	-11.2734
▁salire	-11.2734
▁noble	-11.2735
▁statue	-11.2742
▁scienze	-11.2742
▁creek	-11.2742
▁baseball	-11.2744
flu	-11.2744
▁sorpresa	-11.275
▁periodi	-11.2753
▁ò	-11.2753
▁ripeto	-11.2755
▁arrivati	-11.2757
immigrazione	-11.276
▁active	-11.2761
nni	-11.2762
▁quinto	-11.2764
rbi	-11.2765
▁willing	-11.2767
▁delitto	-11.2768
chuckles	-11.2769
istituzione	-11.2772
▁faces	-11.2773
▁meccanismo	-11.2775
▁completo	-11.2775
▁modelli	-11.2777
ius	-11.2779
▁expression	-11.2784
▁ispira	-11.2789
sp	-11.2789
▁partecipa	-11.2789
▁pescatori	-11.279
friend	-11.2791
▁nar	-11.2793
▁capita	-11.2794
scio	-11.28
eating	-11.28
▁rush	-11.2806
▁tax	-11.2809
▁composizione	-11.281
▁mix	-11.2815
▁volevano	-11.2816
continues	-11.2821
tati	-11.2822
▁alice	-11.2823
▁carcere	-11.2826
▁target	-11.2827
clu	-11.2828
▁fle	-11.2829
▁ill	-11.2833
▁cooking	-11.2834
▁worst	-11.2834
▁express	-11.2837
▁sperare	-11.2837
▁consenta	-11.2838
▁predica	-11.2838
▁ruin	-11.284
▁pretesto	-11.2843
▁museo	-11.2844
▁appar	-11.2845
▁counter	-11.2845
▁sticks	-11.285
▁stress	-11.285
▁sarò	-11.2852
impatto	-11.2853
imp	-11.2853
▁weekend	-11.2853
▁organizzata	-11.2858
ston	-11.2859
▁included	-11.286
bil	-11.2861
▁comunica	-11.2863
▁intra	-11.2865
elo	-11.2865
▁offerte	-11.2866
aspetto	-11.2869
▁salvare	-11.2871
▁sindaco	-11.2876
▁costantinopoli	-11.2876
key	-11.2877
azienda	-11.2878
▁potenti	-11.2882
▁estero	-11.2883
mont	-11.2883
▁giustifica	-11.2886
▁boats	-11.2892
▁enrico	-11.2893
▁♫	-11.2894
▁receive	-11.2895
▁thin	-11.2898
▁adora	-11.2898
▁concerned	-11.2899
ered	-11.2902
▁stro	-11.2903
▁fortemente	-11.2906
▁directly	-11.2906
▁effort	-11.2906
▁pol	-11.2906
▁bucket	-11.291
▁wound	-11.291
▁immaginare	-11.2911
bbo	-11.2914
▁superficie	-11.2915
▁verona	-11.2915
▁difende	-11.2917
▁var	-11.2919
▁mantenimento	-11.2927
▁margaret	-11.2927
▁segui	-11.293
2.	-11.293
iraq	-11.2932
▁personaggi	-11.2933
num	-11.2933
▁nega	-11.2935
▁sostituire	-11.2937
▁nati	-11.2939
long	-11.2939
▁drawn	-11.2946
▁shouted	-11.2949
▁rilievo	-11.2952
▁successivamente	-11.2954
rin	-11.2958
▁aliens	-11.296
nus	-11.296
▁chiamati	-11.2961
▁scambi	-11.2962
▁matters	-11.2969
▁messer	-11.297
▁painting	-11.2972
▁cities	-11.2974
▁soglia	-11.2974
▁towel	-11.2974
bel	-11.2975
▁jenny	-11.2978
▁doors	-11.2982
▁cattivo	-11.2982
▁agricoltura	-11.2982
town	-11.2982
▁aware	-11.2984
▁scelte	-11.2986
▁friendly	-11.2994
▁zealand	-11.2995
▁folk	-11.2995
▁marchesa	-11.2996
▁attende	-11.3
▁300	-11.3001
▁ribadire	-11.3003
▁famoso	-11.3003
▁tempio	-11.301
▁quanta	-11.3011
run	-11.3012
29	-11.3013
99	-11.3016
▁rifle	-11.3017
▁favour	-11.302
▁proposti	-11.302
bit	-11.3024
▁ceased	-11.3024
mia	-11.3025
▁università	-11.3027
ever	-11.3028
▁tragedia	-11.3029
▁volendo	-11.303
miss	-11.3031
▁claim	-11.3037
▁kosovo	-11.3037
▁voices	-11.3038
▁bandiera	-11.3038
book	-11.3039
▁apparently	-11.3039
▁wal	-11.3041
onda	-11.3043
▁uffici	-11.3044
▁canta	-11.3046
▁related	-11.3051
▁sor	-11.3054
▁1970	-11.3055
▁somehow	-11.3057
▁acp	-11.3058
scia	-11.3059
▁partecipato	-11.306
▁vienna	-11.306
▁understood	-11.3063
▁wrestling	-11.3063
▁dottrina	-11.3063
▁shame	-11.3063
▁amazing	-11.3063
▁shook	-11.3064
obbligo	-11.3066
▁accettato	-11.3066
tino	-11.3067
▁wondering	-11.3069
▁kim	-11.3069
▁giulia	-11.3071
▁prigione	-11.3072
▁wished	-11.3075
▁latter	-11.3075
▁plants	-11.3076
▁sacro	-11.3076
▁legal	-11.3077
▁hop	-11.3078
▁chest	-11.3079
▁poste	-11.3079
▁tray	-11.308
▁potenziale	-11.3081
▁materie	-11.3082
gga	-11.3082
▁victory	-11.3083
▁volontari	-11.3085
▁delight	-11.3086
▁avvi	-11.3087
▁helping	-11.309
_,	-11.3092
▁antiche	-11.3093
▁grey	-11.3096
▁meraviglia	-11.3096
▁impone	-11.3097
▁rappresentato	-11.3097
▁gla	-11.3099
▁ricca	-11.3105
▁hay	-11.3105
▁ingegno	-11.3106
▁disastro	-11.3107
rge	-11.3109
▁separa	-11.311
▁acca	-11.311
▁demand	-11.3111
▁haha	-11.3112
▁agent	-11.3114
▁terrore	-11.312
fl	-11.3121
hy	-11.3128
▁richiama	-11.3132
▁shoulders	-11.3132
▁bishop	-11.3132
ele	-11.3132
▁shopping	-11.3133
▁adeguata	-11.3133
▁soviet	-11.3133
▁raggi	-11.3139
▁raise	-11.314
▁cart	-11.3141
sings	-11.3141
▁tickle	-11.3149
▁authority	-11.315
▁roger	-11.3151
▁link	-11.3157
▁pazienti	-11.3158
ieri	-11.3159
mone	-11.3159
▁limitare	-11.3162
▁volti	-11.3163
nea	-11.3164
▁ritornare	-11.3166
▁der	-11.3167
▁scientists	-11.3174
▁guido	-11.3177
nse	-11.3178
▁core	-11.3178
▁ratifica	-11.318
ral	-11.3183
▁feels	-11.3184
▁advantage	-11.3184
▁scotland	-11.3184
▁soldato	-11.3186
▁mont	-11.3189
geni	-11.3192
▁venerdì	-11.3193
ow	-11.3194
▁established	-11.3195
▁pointing	-11.3199
uro	-11.3199
▁jar	-11.3199
▁wings	-11.32
erano	-11.3201
▁imposte	-11.3202
torio	-11.3203
▁angeles	-11.3204
▁conservazione	-11.3206
▁collegio	-11.3208
▁gode	-11.3208
▁cent	-11.3209
▁circonda	-11.3216
▁cases	-11.3216
▁seal	-11.3218
▁rassegna	-11.3219
▁poeti	-11.3219
▁avoid	-11.3219
▁artisti	-11.3219
▁praticamente	-11.3225
▁pronta	-11.3226
▁emperor	-11.3228
rete	-11.3228
▁enti	-11.3235
▁singolo	-11.3237
dan	-11.3245
▁fired	-11.3248
▁ché	-11.3249
▁villaggio	-11.3251
36	-11.3252
▁copy	-11.3252
▁matches	-11.3253
▁oxford	-11.3254
▁woo	-11.3254
▁avanza	-11.3255
acco	-11.3256
▁yard	-11.3258
nor	-11.3258
▁garanzie	-11.3263
▁rocks	-11.3263
▁fumo	-11.3264
▁contenta	-11.3264
▁crediamo	-11.3265
▁saper	-11.3265
▁religion	-11.327
▁scientifico	-11.327
▁scoperta	-11.3271
▁library	-11.3272
▁dispiace	-11.3273
▁colpito	-11.3277
▁diffusione	-11.328
▁romanzo	-11.3283
▁dra	-11.3283
▁von	-11.3286
▁student	-11.3286
▁bud	-11.3288
rus	-11.3289
segui	-11.3289
▁relax	-11.3289
▁mount	-11.3294
▁arrivo	-11.3295
▁congratulo	-11.3298
▁rachel	-11.3298
approvazione	-11.3299
▁regna	-11.3299
▁portava	-11.33
assistenza	-11.33
▁cipro	-11.3301
▁invoca	-11.3312
▁studia	-11.3314
▁legislativa	-11.3315
▁compagno	-11.3316
▁spider	-11.3316
▁bambina	-11.3317
▁terrà	-11.3318
▁faremo	-11.3319
▁miglia	-11.3321
▁somethin	-11.3321
▁render	-11.3322
▁industriali	-11.3323
▁response	-11.3324
▁privata	-11.3324
ily	-11.3325
▁woof	-11.3329
▁tuesday	-11.3333
dere	-11.3333
▁pitch	-11.3334
▁gru	-11.3334
▁switch	-11.3334
▁alien	-11.3335
▁attempt	-11.3337
▁bug	-11.3337
▁throughout	-11.3338
▁sessione	-11.3338
▁acting	-11.3338
▁artist	-11.3338
▁bei	-11.3341
▁concesso	-11.3342
▁picnic	-11.3342
▁ritira	-11.3343
▁finché	-11.3343
▁rome	-11.3346
▁continuamente	-11.3347
▁andate	-11.335
▁teams	-11.3351
▁plebe	-11.3352
▁issue	-11.3352
▁tire	-11.3361
▁presence	-11.3362
▁assenza	-11.3364
▁urgente	-11.3364
▁bosco	-11.3365
▁saluto	-11.3365
▁obbligo	-11.3366
▁marine	-11.3367
▁knocked	-11.3367
▁provvedimento	-11.3368
▁valida	-11.3369
▁cappello	-11.3371
▁mettiamo	-11.3375
▁medita	-11.3376
▁storici	-11.3378
rat	-11.3378
▁gesto	-11.3381
▁developed	-11.3382
▁coal	-11.3383
▁bir	-11.3386
▁prassi	-11.3388
▁curious	-11.3391
▁hills	-11.3393
▁doggy	-11.3393
▁airport	-11.3396
▁route	-11.3396
may	-11.34
▁castel	-11.3403
▁trasferimento	-11.3404
▁chiudere	-11.3404
▁rappresentare	-11.3405
▁jackson	-11.3406
▁walter	-11.3407
▁parlo	-11.3413
▁turco	-11.3415
▁chiuse	-11.3416
▁material	-11.342
▁fiscali	-11.342
arsi	-11.3421
▁dozen	-11.3422
▁utilizzati	-11.3425
▁benché	-11.3425
▁tank	-11.3426
▁ravenna	-11.3427
▁ideas	-11.3429
▁affronta	-11.3431
menta	-11.3435
▁sacra	-11.3435
▁ron	-11.3437
▁limit	-11.3439
▁barcellona	-11.3439
ezza	-11.344
▁regolamentazion	-11.3441
▁handsome	-11.3443
pul	-11.3445
▁fisica	-11.3446
cking	-11.3451
▁nasconde	-11.3451
ensi	-11.3455
▁gia	-11.3456
▁individui	-11.3457
▁venuti	-11.3457
▁spo	-11.3457
▁occidentale	-11.3458
▁operation	-11.3459
▁fattore	-11.3459
▁mobilità	-11.346
▁parenti	-11.3462
▁preparare	-11.3463
▁bagno	-11.3464
▁chase	-11.3464
▁avvenimenti	-11.3466
▁montagne	-11.3467
▁interessanti	-11.3469
▁treno	-11.3471
▁bando	-11.3472
▁sum	-11.3474
▁assoluto	-11.3475
▁coerenza	-11.3475
▁olympics	-11.3477
▁straordinario	-11.3478
▁solenne	-11.3482
▁madame	-11.3483
▁waited	-11.3484
▁contribuito	-11.3484
▁disposti	-11.3485
▁arrest	-11.3485
ili	-11.3487
▁dovete	-11.349
rá	-11.3491
▁femminile	-11.3493
▁cam	-11.3497
▁reported	-11.3498
sal	-11.3499
▁arrive	-11.35
▁1989	-11.3502
▁dishes	-11.3504
▁concedere	-11.3505
▁mettendo	-11.3505
wn	-11.351
▁ty	-11.3511
▁marmo	-11.3512
▁nest	-11.3514
▁cattiva	-11.3515
▁promesse	-11.352
vit	-11.3524
▁cad	-11.3524
▁prevent	-11.3524
▁languages	-11.3525
▁companion	-11.3525
▁tutelare	-11.3529
▁senior	-11.353
letta	-11.3533
▁learning	-11.3535
dge	-11.3536
▁ammira	-11.3544
▁prender	-11.3544
▁2022	-11.3544
▁banda	-11.3544
▁2019,	-11.3546
▁courage	-11.3547
▁servono	-11.3547
▁zebra	-11.3548
▁8,	-11.3548
▁dici	-11.3549
enze	-11.3551
▁lombardia	-11.3552
▁proclama	-11.3553
▁picking	-11.3559
▁visitare	-11.3561
48	-11.3562
scrive	-11.3565
▁vescovi	-11.3565
▁smooth	-11.3565
▁inv	-11.3566
rata	-11.357
▁perdona	-11.3571
▁lontana	-11.3573
ep	-11.3573
▁faint	-11.3574
silver	-11.3576
agenzia	-11.3577
laugh	-11.3579
▁pilot	-11.3582
▁negative	-11.3583
▁consigliere	-11.3584
▁pesante	-11.3591
cul	-11.3591
otti	-11.3591
▁affetto	-11.3593
▁chairman	-11.3594
▁scal	-11.3597
▁powerful	-11.3598
▁ovvio	-11.3601
▁becoming	-11.3602
nici	-11.3606
▁fleet	-11.3606
▁laurea	-11.3607
▁chess	-11.3608
▁conoscenze	-11.3611
▁bor	-11.3614
cries	-11.3614
▁babe	-11.3615
oth	-11.3615
stu	-11.3615
▁sap	-11.3616
▁10,	-11.3619
▁scrittura	-11.3619
▁negativo	-11.362
▁impedi	-11.3621
▁height	-11.3621
▁realizza	-11.3623
af	-11.3624
▁cessa	-11.3624
sc	-11.3625
win	-11.3627
▁seriously	-11.3628
▁programme	-11.3633
▁burst	-11.3637
▁sen	-11.3638
dri	-11.3641
▁buzz	-11.3643
▁upset	-11.3645
▁prescindere	-11.3647
▁structure	-11.3647
▁vedono	-11.365
▁conseguire	-11.365
▁gallo	-11.3655
▁mostrare	-11.3655
▁biblioteca	-11.3656
▁junior	-11.3656
▁scende	-11.3656
ncy	-11.3657
▁imperatore	-11.3657
▁feci	-11.3658
▁aid	-11.3664
▁farci	-11.3665
università	-11.3667
▁incoraggia	-11.3668
▁musical	-11.3669
▁ski	-11.3669
ug	-11.3673
▁ecu	-11.3674
▁dimentica	-11.3675
▁coda	-11.3675
▁maggie	-11.3675
▁significativo	-11.3676
▁isole	-11.3677
▁degno	-11.3682
▁pianto	-11.3682
▁larger	-11.3683
▁confronta	-11.3684
▁creatura	-11.3684
▁morì	-11.3688
▁angelo	-11.3691
▁mistress	-11.3692
▁chamber	-11.3692
▁distributed	-11.3693
▁democratic	-11.3696
▁average	-11.3697
▁guardava	-11.3697
▁jan	-11.37
▁economic	-11.37
▁rivolto	-11.3701
omc	-11.3705
▁char	-11.3707
▁owned	-11.3707
▁fida	-11.3708
lata	-11.371
▁manfredi	-11.371
tting	-11.3714
▁notevoli	-11.3715
▁signoria	-11.3717
▁riuscita	-11.3718
down	-11.3718
▁tentare	-11.372
▁drug	-11.3721
▁trasformazione	-11.3723
coli	-11.3725
sson	-11.3729
▁brescia	-11.3729
▁pubblicazione	-11.3729
▁dovette	-11.373
▁shh	-11.373
▁protesta	-11.3731
▁guai	-11.3732
▁touched	-11.3732
giggles	-11.3732
▁classi	-11.3732
▁incontri	-11.3733
mark	-11.3734
▁lagrime	-11.3738
▁failed	-11.3738
▁degna	-11.3739
▁frogs	-11.3739
yn	-11.3743
▁portogallo	-11.3747
▁cio	-11.3756
▁religious	-11.3756
▁frattempo	-11.3756
▁interroga	-11.3757
▁jimmy	-11.3758
▁theory	-11.3759
▁thrown	-11.3762
stiche	-11.3763
▁idiot	-11.3763
▁cresce	-11.3763
▁collabora	-11.3764
▁razzismo	-11.3766
your	-11.3766
▁seriamente	-11.3768
▁butta	-11.3772
▁virus	-11.3774
▁veicoli	-11.3775
zionale	-11.3775
▁cliente	-11.3777
cate	-11.3778
ndone	-11.3778
▁genera	-11.378
▁rapido	-11.3786
vent	-11.3789
▁2021	-11.3789
rah	-11.3792
▁catholic	-11.3793
▁padova	-11.3794
▁continui	-11.3796
ala	-11.3798
▁mini	-11.38
▁deboli	-11.38
▁transfrontalier	-11.3803
▁intenzioni	-11.3803
▁procede	-11.3804
▁pian	-11.3804
ice	-11.3807
▁rimedio	-11.3808
▁destroy	-11.3809
▁wounded	-11.3811
▁mixed	-11.3811
▁nonna	-11.3812
giu	-11.3812
lica	-11.3812
▁finita	-11.3814
▁admit	-11.3814
▁navigazione	-11.3814
▁indicazioni	-11.3814
▁combatte	-11.3815
▁darkness	-11.3815
▁contratti	-11.3816
▁lamenta	-11.3819
▁companies	-11.3821
▁delicious	-11.3821
▁irene	-11.3823
▁9,	-11.3825
▁uccide	-11.3827
▁sostanzialmente	-11.383
▁sisters	-11.3831
▁hamburger	-11.3832
sar	-11.3832
▁kissed	-11.3833
▁fui	-11.3834
▁chuck	-11.3836
▁uses	-11.3836
▁edna	-11.3837
dire	-11.3837
55	-11.3838
▁bid	-11.3838
▁tornata	-11.3839
▁exercise	-11.384
▁bessie	-11.384
án	-11.3841
▁--&	-11.3851
▁champion	-11.3855
▁consenti	-11.3856
▁pier	-11.3858
▁families	-11.3858
▁biggest	-11.3859
▁waste	-11.386
dotti	-11.3863
▁damage	-11.3866
▁salad	-11.3867
ï	-11.3867
▁tough	-11.387
▁messe	-11.3871
▁client	-11.3873
ple	-11.3874
shire	-11.3875
▁negoziato	-11.3876
▁quoth	-11.388
▁costituito	-11.3884
▁laddove	-11.3886
▁grandfather	-11.3887
▁text	-11.3888
▁carità	-11.3889
▁diversamente	-11.3893
▁gian	-11.3894
▁mag	-11.3895
▁illinois	-11.3895
▁abbraccia	-11.3896
▁(;	-11.3897
/02	-11.3899
mat	-11.39
dar	-11.39
▁imposta	-11.3903
point	-11.3904
▁planning	-11.3906
▁trunk	-11.3906
▁successivo	-11.3906
▁drops	-11.391
▁stabili	-11.3912
▁wore	-11.3913
nci	-11.3914
▁dormire	-11.3914
▁2023	-11.3915
▁rolling	-11.3916
rce	-11.3921
dici	-11.3922
cente	-11.3923
▁americano	-11.3923
▁julia	-11.3926
▁awake	-11.3926
▁currently	-11.3931
▁accorda	-11.3931
▁doppia	-11.3934
▁[4	-11.3934
▁matt	-11.3939
stici	-11.3939
nali	-11.3939
▁sentì	-11.3939
▁corea	-11.394
▁promesso	-11.3942
▁thursday	-11.3942
▁tradizionale	-11.3942
▁ombra	-11.3943
▁riporta	-11.3944
▁possession	-11.3946
----"	-11.3947
▁compra	-11.3948
▁—	-11.3951
▁statistics	-11.3952
▁beep	-11.3953
▁supera	-11.3955
▁bacia	-11.3956
▁ripete	-11.3956
▁bother	-11.3956
ski	-11.3956
▁dimora	-11.396
▁scratch	-11.3961
▁differenzia	-11.3961
▁giulio	-11.3961
▁vestito	-11.3963
▁stones	-11.3966
▁tha	-11.3971
▁islands	-11.3974
▁deco	-11.398
▁pause	-11.3981
▁barbara	-11.3983
▁papi	-11.3984
▁cifre	-11.3988
bia	-11.3989
▁temperature	-11.399
▁privilegi	-11.399
▁restano	-11.3991
dur	-11.3991
overlap	-11.3992
▁wondered	-11.3996
▁bounce	-11.3996
ivi	-11.3996
▁offerta	-11.3997
▁slept	-11.3999
▁afford	-11.3999
▁familiare	-11.4
▁streets	-11.4007
▁britain	-11.4008
▁prigionieri	-11.4008
▁management	-11.4009
▁considerata	-11.4011
▁proved	-11.4011
▁increase	-11.4015
▁condannato	-11.4016
▁conference	-11.4017
▁glance	-11.402
▁serba	-11.4021
▁36	-11.4023
▁basata	-11.4024
▁eccetera	-11.4027
▁fissare	-11.4028
▁operato	-11.403
met	-11.403
fall	-11.4032
▁soap	-11.4034
▁pity	-11.4035
▁descrizione	-11.4036
▁dollhouse	-11.4037
▁killer	-11.4038
▁br	-11.404
▁lies	-11.4041
▁bone	-11.4044
▁vittima	-11.4046
▁bitch	-11.4047
take	-11.4047
▁wave	-11.4049
roni	-11.4055
▁newspaper	-11.4058
pon	-11.4061
▁concernente	-11.4062
▁roba	-11.4063
▁originally	-11.4063
▁duro	-11.4064
▁borsa	-11.4067
▁scorre	-11.4067
▁varia	-11.4073
▁trap	-11.4074
▁advice	-11.4074
▁ser	-11.4074
▁rimasta	-11.4075
▁latin	-11.4077
stan	-11.4083
▁titoli	-11.4085
▁diaper	-11.4087
▁amato	-11.409
▁medicina	-11.4093
▁costoro	-11.4094
▁sfruttamento	-11.4095
ratner	-11.4098
▁stazione	-11.4098
▁elena	-11.4098
dice	-11.41
uda	-11.4102
ō	-11.4103
▁bodies	-11.4103
stin	-11.4104
▁beth	-11.4105
▁susan	-11.4105
▁segnala	-11.4105
▁corpi	-11.4106
▁violazioni	-11.4107
newman	-11.4107
▁habit	-11.4108
temporaneamente	-11.4109
▁map	-11.411
▁sventura	-11.4113
▁condivide	-11.4113
▁governatore	-11.4114
▁inghilterra	-11.4114
assi	-11.4117
▁beans	-11.4118
cula	-11.4119
▁liberale	-11.412
▁preciso	-11.4122
▁vedremo	-11.4122
▁split	-11.4123
▁manifestazione	-11.4128
▁pensione	-11.4128
▁solid	-11.4129
▁ban	-11.4134
▁tasse	-11.4139
▁campagne	-11.4141
▁vissuto	-11.4141
▁hearts	-11.4141
▁esorta	-11.4142
▁ambiti	-11.4145
▁locked	-11.4145
▁sogni	-11.4146
▁previous	-11.4146
▁plot	-11.4147
mino	-11.415
▁decisamente	-11.4152
▁scrittori	-11.4155
▁addio	-11.416
▁macchine	-11.416
▁clown	-11.416
▁pagamenti	-11.4162
▁remind	-11.4165
▁attivo	-11.4165
▁steve	-11.4165
▁trovi	-11.4166
▁bisognava	-11.4168
▁immigrazione	-11.4168
▁rifiuto	-11.417
▁1960	-11.417
▁stuffed	-11.4171
▁cd	-11.4174
▁cammina	-11.4178
39	-11.4178
unc	-11.4183
▁glasses	-11.4185
▁eran	-11.4185
▁novella	-11.4188
▁presidenti	-11.4188
▁essersi	-11.4189
▁minima	-11.4191
▁dem	-11.4193
▁concorda	-11.4195
cum	-11.4196
▁creduto	-11.4199
▁carrozza	-11.4199
bis	-11.42
evoluzione	-11.4202
▁territori	-11.4203
▁destroyed	-11.4207
▁claus	-11.4208
▁dimenticato	-11.4212
▁frutti	-11.4213
▁marino	-11.4216
▁vasto	-11.4218
▁basically	-11.4218
▁luca	-11.4223
▁cassa	-11.4223
▁determina	-11.4229
▁accettabile	-11.4229
ig	-11.4229
▁preti	-11.4231
▁slave	-11.4232
▁sweetie	-11.4234
▁congiunta	-11.4234
▁bada	-11.4234
▁interne	-11.4235
▁plates	-11.4237
▁sensazione	-11.4237
▁sapendo	-11.4238
▁pulling	-11.4238
▁ends	-11.4245
▁sveglia	-11.4246
▁eighteen	-11.4247
▁cowboy	-11.4247
hal	-11.4248
▁auspica	-11.4249
▁cogliere	-11.4249
▁indicare	-11.4253
▁useful	-11.4256
▁medesimi	-11.4256
▁screen	-11.4257
▁tesi	-11.4259
▁disappeared	-11.4262
▁finestre	-11.4262
▁canadian	-11.4266
▁rib	-11.4266
▁property	-11.4267
▁imparato	-11.4268
▁cards	-11.4272
▁republican	-11.4273
▁whenever	-11.4275
eva	-11.4276
▁tesoro	-11.4277
▁irrita	-11.428
▁guardò	-11.4281
▁liberamente	-11.4281
▁industry	-11.4286
▁fourteen	-11.4286
▁divisione	-11.4288
▁gang	-11.4288
▁entrata	-11.4289
▁rent	-11.429
▁udi	-11.4291
▁consapevole	-11.4294
32	-11.4294
▁hidden	-11.4296
▁scarcely	-11.4297
dic	-11.4297
▁riprendere	-11.4299
▁lasciava	-11.43
▁epi	-11.4302
▁saluti	-11.4302
▁bimbo	-11.4306
▁culto	-11.4308
▁bari	-11.4308
▁splendid	-11.4308
33	-11.4309
▁rompe	-11.431
▁keeps	-11.4311
plo	-11.4311
▁penna	-11.4313
▁ripetere	-11.4314
▁wednesday	-11.4315
▁sb	-11.4315
▁regolare	-11.4318
▁ducati	-11.4318
▁au	-11.432
▁consola	-11.4323
▁rear	-11.4323
▁passage	-11.4324
▁challenge	-11.4324
▁concluso	-11.4324
▁pati	-11.4327
▁moderni	-11.4327
▁suspect	-11.433
▁esistente	-11.4331
▁rivolge	-11.4332
.9	-11.4332
▁ac	-11.4336
▁comunicazioni	-11.4336
▁avviato	-11.4336
essa	-11.4337
▁citato	-11.434
▁sho	-11.4342
ces	-11.4344
▁garage	-11.4348
▁commissari	-11.4351
▁knee	-11.4352
▁mud	-11.4352
▁terror	-11.4353
▁caratteri	-11.4353
▁bellissima	-11.4355
nn	-11.4356
▁rimasti	-11.4356
▁scritti	-11.4356
▁menti	-11.4358
▁tam	-11.4359
▁blame	-11.436
▁steel	-11.436
▁rilevare	-11.4362
▁alte	-11.4363
▁pilastro	-11.4364
▁breast	-11.4364
was	-11.4364
▁garanti	-11.4364
▁entrato	-11.4367
▁rim	-11.4368
▁regard	-11.4369
ben	-11.4371
▁fili	-11.4372
▁nut	-11.4373
▁costituzionale	-11.4373
▁discarico	-11.4373
▁woke	-11.4376
95	-11.4377
▁sedi	-11.4377
bol	-11.4378
oggi	-11.4379
ré	-11.4379
▁enjoyed	-11.438
▁determinati	-11.4382
▁diamond	-11.4384
▁stranger	-11.4384
fici	-11.4385
▁angel	-11.4385
▁sesso	-11.4389
▁+/	-11.439
▁andati	-11.4391
▁75	-11.4392
ington	-11.4393
▁1988	-11.4393
▁contatti	-11.4395
▁indu	-11.4396
▁ghe	-11.44
▁faster	-11.4401
▁raccoglie	-11.4401
gives	-11.4403
▁transito	-11.4404
▁carbon	-11.4407
▁nervous	-11.4413
▁divenne	-11.4418
▁consulta	-11.4419
▁stadio	-11.4419
spa	-11.4422
▁cottage	-11.4422
▁teoria	-11.4422
▁stands	-11.4423
▁immagina	-11.4423
▁scrittore	-11.4423
round	-11.4424
▁affrontato	-11.4427
▁interamente	-11.4428
▁riguardanti	-11.4429
ifica	-11.4433
▁vision	-11.4434
▁ascoltato	-11.4436
▁introduce	-11.4437
▁gain	-11.4437
▁lezione	-11.4437
▁statement	-11.4438
▁sbagliato	-11.4441
dal	-11.4441
▁stomach	-11.4442
▁profitto	-11.4444
▁prisoners	-11.4445
late	-11.4447
atta	-11.4449
▁concerto	-11.445
▁toast	-11.4452
▁jail	-11.4452
▁essenzialmente	-11.4452
▁institute	-11.4452
▁hy	-11.4453
▁schiera	-11.4453
▁results	-11.4455
▁resa	-11.446
tel	-11.446
accio	-11.446
▁sed	-11.446
▁nation	-11.4461
▁sno	-11.4461
▁chimney	-11.4462
▁strasburgo	-11.4462
▁istituire	-11.4462
▁compi	-11.4462
▁trasparente	-11.4462
▁ricostruzione	-11.4463
46	-11.4464
▁riflette	-11.4466
▁knees	-11.4466
coughs	-11.4468
▁1.	-11.4468
▁lieta	-11.4468
▁tornato	-11.447
▁avv	-11.4471
▁paying	-11.4472
▁florence	-11.4472
▁votazioni	-11.4473
▁coste	-11.4476
door	-11.4476
▁spie	-11.4477
▁celebra	-11.4479
onu	-11.448
▁transport	-11.4482
▁comanda	-11.4484
▁opens	-11.4485
ioni	-11.449
▁lussemburgo	-11.4491
▁cristiano	-11.4493
▁incoraggiare	-11.4495
thank	-11.4497
▁brilliant	-11.4501
▁cupcake	-11.4502
hel	-11.4503
▁salta	-11.4504
66	-11.4504
▁mile	-11.4505
▁abusi	-11.4506
▁parma	-11.4508
▁comedy	-11.4509
▁simbolo	-11.4513
▁formato	-11.4515
▁fork	-11.4515
ule	-11.4517
gano	-11.4518
▁towns	-11.4519
▁advance	-11.4519
▁condividere	-11.4521
▁agricolo	-11.4521
▁southwestern	-11.4521
▁dreams	-11.4524
▁trace	-11.4524
▁ridere	-11.4525
▁irlanda	-11.4528
▁ly	-11.4532
▁accosta	-11.4535
▁socks	-11.4537
ably	-11.4537
▁cord	-11.4538
origine	-11.4541
▁consapevoli	-11.4541
▁elettorale	-11.4541
▁budget	-11.4542
▁naughty	-11.4543
▁uniform	-11.4543
▁items	-11.4545
▁appoggiare	-11.4547
▁ospita	-11.4552
▁winning	-11.4553
shing	-11.4554
▁trasporta	-11.4554
lor	-11.4556
▁roz	-11.4556
irlanda	-11.4556
▁sorge	-11.4557
denti	-11.4558
▁mainly	-11.4559
▁determined	-11.456
▁percentuale	-11.4561
▁funeral	-11.4562
▁holes	-11.4564
▁instant	-11.4566
▁andrew	-11.4569
▁vien	-11.457
▁cappella	-11.4571
▁maestà	-11.4571
▁removed	-11.4571
whispers	-11.4573
lic	-11.4575
ery	-11.4575
▁sesto	-11.4577
▁spare	-11.4577
▁frutta	-11.4577
----------------	-11.4581
▁buried	-11.4581
▁seppe	-11.4581
▁attendere	-11.4586
▁grosse	-11.4587
▁traduzione	-11.4591
▁occasion	-11.4593
▁reasons	-11.4595
▁geo	-11.46
▁entrate	-11.4601
▁neo	-11.4601
▁gale	-11.4602
▁gridò	-11.4602
▁competenti	-11.4603
▁scendere	-11.4604
ame	-11.4611
▁location	-11.4615
▁razza	-11.4615
▁donde	-11.4616
▁oop	-11.4617
▁banco	-11.4617
▁premi	-11.4617
▁forms	-11.4618
▁bern	-11.4619
▁pericoloso	-11.4619
▁fishing	-11.462
▁tend	-11.462
▁affairs	-11.4621
▁fuggi	-11.4623
▁rocket	-11.4623
▁seco	-11.4627
▁disgrazia	-11.4628
▁valido	-11.4631
▁anticipa	-11.4632
▁tag	-11.4634
▁moltiplica	-11.4634
tosi	-11.4635
pan	-11.4637
▁agi	-11.464
▁curiosità	-11.4642
▁grandmother	-11.4642
▁balloon	-11.4643
▁diploma	-11.4644
▁opposizione	-11.4645
▁ampiamente	-11.4646
▁formulare	-11.4648
dale	-11.4649
▁feelings	-11.465
▁riva	-11.4651
▁passioni	-11.4651
nzio	-11.4654
▁teaching	-11.4655
▁agnes	-11.4656
zzata	-11.4657
nz	-11.4659
▁thinks	-11.4659
▁xiii	-11.466
▁federico	-11.4662
▁appointed	-11.4663
odo	-11.4665
▁bestia	-11.4666
▁11,	-11.4668
▁mancano	-11.4668
▁taci	-11.4668
▁direi	-11.467
▁invited	-11.4671
▁attend	-11.4671
▁scadenza	-11.4672
tissimo	-11.4673
▁cerchi	-11.4674
▁brad	-11.468
▁tradizioni	-11.4681
▁aside	-11.4682
▁stephen	-11.4682
▁spazi	-11.4683
para	-11.4684
▁aspira	-11.4687
▁tells	-11.4687
oma	-11.4687
▁potendo	-11.4688
▁attraversa	-11.4689
vert	-11.4689
▁digitale	-11.4691
cino	-11.4692
▁concentra	-11.4693
bin	-11.4693
▁buttons	-11.4694
give	-11.4696
▁setting	-11.4697
▁gathered	-11.4697
▁cereal	-11.4703
▁vessel	-11.4703
▁guardate	-11.471
.5	-11.4711
▁treatment	-11.4714
▁jones	-11.4716
▁auntie	-11.4716
▁entirely	-11.4718
letto	-11.4718
▁guglielmo	-11.4722
▁giovedì	-11.4722
his	-11.4722
▁balance	-11.4722
▁generazioni	-11.4724
ardo	-11.4725
▁risolve	-11.4726
▁burning	-11.4726
wed	-11.4731
▁concorso	-11.4732
▁evidently	-11.4734
impresa	-11.4736
▁amicizia	-11.4736
▁andavano	-11.4738
▁riuni	-11.4738
guard	-11.4743
▁holiday	-11.4744
▁fredda	-11.4744
▁alarm	-11.4745
▁slightly	-11.4746
▁suolo	-11.4747
tain	-11.4748
▁shock	-11.4749
▁classifica	-11.4752
▁ferrara	-11.4754
▁profit	-11.4755
▁johnson	-11.4757
▁prendiamo	-11.4757
▁feste	-11.4759
▁ordinary	-11.4764
▁eccita	-11.4766
▁appro	-11.4766
▁vela	-11.4767
ight	-11.4767
▁12,	-11.4771
▁veni	-11.4772
▁codecisione	-11.4773
▁landed	-11.4773
▁shark	-11.4775
▁rif	-11.4777
▁steal	-11.4778
▁forum	-11.4779
py	-11.478
▁ham	-11.478
▁veloce	-11.4781
▁2020,	-11.4782
▁described	-11.4783
▁throws	-11.4784
▁provato	-11.4784
▁principal	-11.4784
▁attacked	-11.4789
▁characters	-11.479
▁sommo	-11.4792
▁pensò	-11.4795
▁mostrato	-11.4795
▁contest	-11.4796
▁prevenire	-11.4797
▁fully	-11.4797
▁seek	-11.4798
ona	-11.4802
▁comprensione	-11.4803
▁vel	-11.4803
▁socialista	-11.4806
▁kings	-11.4807
gate	-11.4808
▁invest	-11.4809
▁realized	-11.4811
mette	-11.4812
▁cel	-11.4812
▁strategie	-11.4814
▁portano	-11.4815
▁contrari	-11.4818
▁controlla	-11.4818
▁quaranta	-11.4821
▁combat	-11.4821
▁upside	-11.4824
▁mexico	-11.4824
▁highway	-11.4827
gin	-11.4829
▁rondini	-11.4834
▁quadri	-11.4835
uccio	-11.4837
▁piemonte	-11.4837
▁metropolitan	-11.484
▁ong	-11.4842
▁esce	-11.4846
▁individuare	-11.4846
▁angolo	-11.4848
▁grossa	-11.4849
▁naviga	-11.485
▁ringrazia	-11.485
ologia	-11.4851
▁asso	-11.4852
▁ottima	-11.4853
▁raggio	-11.4855
▁osservato	-11.4856
▁chat	-11.4858
fini	-11.4862
▁giacchè	-11.4865
▁listened	-11.4865
▁motiva	-11.4866
scu	-11.4867
tsu	-11.4868
▁circus	-11.4869
▁religiosa	-11.4875
▁concordo	-11.4875
▁riunioni	-11.4876
▁attentamente	-11.4877
▁stove	-11.488
▁aveano	-11.4882
▁concreta	-11.4882
▁rallegra	-11.4884
▁convince	-11.4885
▁37	-11.4885
iv	-11.4885
▁costretti	-11.4885
▁uscì	-11.4886
africa	-11.4888
▁credi	-11.4888
▁evento	-11.4889
▁wing	-11.4889
▁nucleari	-11.4894
▁barca	-11.4895
▁polvere	-11.4896
ndoci	-11.4896
31	-11.4898
▁indipendenza	-11.4899
▁source	-11.49
mic	-11.4903
▁rude	-11.4905
▁egypt	-11.4905
tata	-11.4906
▁assi	-11.4907
sì	-11.4909
▁esclama	-11.4909
▁moda	-11.491
▁chiamava	-11.4912
unità	-11.4915
▁attacca	-11.4916
▁cho	-11.4919
▁afghanistan	-11.492
▁evoluzione	-11.4924
bla	-11.4926
almente	-11.4927
▁puppy	-11.4927
▁violet	-11.4928
▁~	-11.4928
▁fortezza	-11.4931
▁farmi	-11.4931
▁impe	-11.4932
tory	-11.4932
▁treated	-11.4933
▁sorti	-11.4937
▁powder	-11.4937
▁spagnolo	-11.4937
▁interessate	-11.4941
▁fellows	-11.4942
mati	-11.4944
ked	-11.4946
▁legislative	-11.4947
▁globalizzazione	-11.4948
▁brevemente	-11.4948
▁bark	-11.4949
▁componenti	-11.495
ø	-11.4951
▁selva	-11.4954
▁policeman	-11.4954
▁technology	-11.4958
▁credeva	-11.4961
▁organizzare	-11.4963
▁grossi	-11.4964
▁citare	-11.4966
▁lasci	-11.4967
pet	-11.4969
▁chairs	-11.4972
-1	-11.4972
▁peek	-11.4972
tal	-11.4973
▁elenco	-11.4974
▁2020)	-11.4974
ô	-11.4976
▁eletti	-11.4977
▁bastard	-11.4977
▁pura	-11.4977
ssu	-11.4978
▁trump	-11.4978
incontro	-11.4978
▁ros	-11.4978
▁poll	-11.4982
asso	-11.4984
▁tied	-11.4987
▁defeat	-11.4988
▁eventually	-11.4989
▁probabilità	-11.4989
▁cock	-11.4989
98	-11.499
▁evidenzia	-11.4991
▁flash	-11.5
▁decisionale	-11.5001
▁gen	-11.5002
▁trattava	-11.5007
▁esserci	-11.5008
/01	-11.5008
▁siena	-11.5008
▁excitement	-11.501
▁ginevra	-11.501
ay	-11.501
▁aperte	-11.5011
▁anziché	-11.5011
▁throwing	-11.5012
▁clouds	-11.5013
▁vende	-11.5014
▁irish	-11.5016
atura	-11.5022
letti	-11.5022
uma	-11.5024
▁temo	-11.5026
▁passeggeri	-11.5031
▁wipe	-11.5031
▁conformità	-11.5031
▁function	-11.5032
▁ahhah	-11.5032
▁corruzione	-11.5032
▁giallo	-11.5032
▁consuma	-11.5032
ffo	-11.5033
▁israel	-11.5034
cita	-11.5034
▁rabbia	-11.5035
▁quod	-11.5036
▁33	-11.5036
75	-11.5036
▁lasciate	-11.5038
▁revolution	-11.5041
▁indipendenti	-11.5041
▁lunedì	-11.5041
▁replica	-11.5042
▁costantemente	-11.5046
▁2000,	-11.5049
▁generalmente	-11.505
▁immigrati	-11.5052
▁sixteen	-11.5052
▁entertainment	-11.5052
▁dovuta	-11.5052
▁construction	-11.5053
▁“‘	-11.5053
▁matura	-11.5054
pass	-11.5054
▁har	-11.5059
has	-11.506
▁diretti	-11.506
▁studies	-11.5062
▁quit	-11.5062
▁sostitui	-11.5063
▁azienda	-11.5064
burg	-11.5065
▁borgo	-11.5068
▁alter	-11.507
▁giunse	-11.507
▁grant	-11.5073
▁concern	-11.5074
▁cerchiamo	-11.5075
▁armata	-11.5076
▁guadagna	-11.5081
▁kar	-11.5083
▁paziente	-11.5083
▁perfetto	-11.5083
▁recently	-11.5087
▁commission	-11.5088
▁reign	-11.5089
▁rivedere	-11.509
tan	-11.509
oc	-11.5091
▁imperiale	-11.5092
▁affida	-11.5092
▁potessero	-11.5093
▁strana	-11.5093
▁detective	-11.5094
▁strip	-11.5094
▁1986	-11.5094
▁arts	-11.5094
▁wee	-11.5095
43	-11.5095
▁piangere	-11.5098
lis	-11.5098
▁pacific	-11.5099
▁fedeli	-11.51
▁dedica	-11.51
49	-11.51
izzato	-11.5102
▁palestinese	-11.5105
▁bless	-11.5105
▁danaro	-11.5105
▁ugly	-11.5106
esame	-11.5106
▁adventure	-11.5107
68	-11.5107
rbo	-11.5108
▁perche	-11.5109
▁pacifica	-11.511
▁truly	-11.511
▁dirige	-11.511
mica	-11.5113
▁fed	-11.5115
▁losing	-11.5115
▁uk	-11.5118
▁pine	-11.5119
▁staying	-11.5121
▁divided	-11.5122
▁dum	-11.5122
press	-11.5127
▁monetari	-11.5131
38	-11.5134
▁shooting	-11.5134
▁nido	-11.5135
▁casca	-11.5137
1.	-11.5138
▁kong	-11.5139
▁belt	-11.5144
▁commesso	-11.5147
▁lucy	-11.5148
*	-11.5148
rici	-11.5148
▁chop	-11.5149
▁fondazione	-11.5153
bell	-11.5153
▁dish	-11.5154
lies	-11.5155
▁guest	-11.5156
▁viaggi	-11.5156
▁agricole	-11.5157
▁esterni	-11.5157
aci	-11.516
▁efficiente	-11.5161
aff	-11.5166
▁caratterizza	-11.5166
▁palestinesi	-11.5168
▁circolo	-11.5169
▁drum	-11.5172
cano	-11.5173
▁compete	-11.5175
▁robot	-11.5175
▁spirituale	-11.5175
▁straniero	-11.5178
▁accumula	-11.5182
▁limitato	-11.5188
▁dun	-11.5188
▁majesty	-11.5189
▁capitoli	-11.519
bed	-11.5193
▁mancato	-11.5195
▁esterno	-11.5195
▁alpi	-11.5196
▁rushed	-11.5199
cip	-11.52
▁eaten	-11.52
▁load	-11.5202
▁fro	-11.5204
▁attivi	-11.5204
▁dose	-11.5208
▁site	-11.5209
isola	-11.521
zar	-11.5211
▁loco	-11.5212
▁breaking	-11.5212
▁drugs	-11.5213
▁cerchio	-11.5215
▁insiste	-11.522
▁jam	-11.5221
▁vorremmo	-11.5221
▁devil	-11.5225
hood	-11.5225
▁comunicare	-11.5228
▁carriera	-11.5229
▁sovrano	-11.523
▁lavorando	-11.5231
▁benedetto	-11.5231
▁fedele	-11.5234
▁regolamenti	-11.5234
-2	-11.5237
▁torn	-11.5237
ace	-11.524
▁executive	-11.5242
ross	-11.5243
▁partecipanti	-11.5245
▁pensioni	-11.5246
▁38	-11.5248
▁regge	-11.5252
▁prudenza	-11.5253
▁espresse	-11.5253
▁monete	-11.5253
▁cittadinanza	-11.5253
nc	-11.5254
▁francisco	-11.5255
▁richiamare	-11.5259
▁pole	-11.5259
▁volge	-11.526
000	-11.5261
▁accedere	-11.5263
▁evita	-11.5263
▁horrible	-11.5263
▁lucca	-11.5263
▁precedenza	-11.5264
▁lad	-11.5265
▁entrance	-11.5265
illa	-11.5265
▁producer	-11.5268
ago	-11.5268
▁eddie	-11.5269
cato	-11.5272
▁supporto	-11.5273
▁appreciate	-11.5274
▁sovvenzioni	-11.5274
▁compila	-11.5274
▁restaurant	-11.5275
▁slip	-11.5276
eg	-11.5278
▁gravità	-11.5279
▁sdegno	-11.5285
▁raymond	-11.5285
▁altera	-11.5286
▁---	-11.5288
▁eserciti	-11.5288
▁pooh	-11.5288
▁observed	-11.5289
▁irlandese	-11.5296
▁squeeze	-11.5296
▁esterna	-11.5297
93	-11.5303
â	-11.5306
▁vota	-11.5307
▁seria	-11.5308
▁debolezza	-11.5308
▁informati	-11.5309
ified	-11.531
▁cambiato	-11.5311
▁tentato	-11.5312
▁desta	-11.5312
pot	-11.5312
▁vir	-11.5313
▁familiari	-11.5314
▁accompagnato	-11.5316
▁inglesi	-11.5317
▁sollecita	-11.5318
▁entusiasmo	-11.5318
▁mettono	-11.5319
▁bald	-11.5322
▁greatly	-11.5324
▁fal	-11.5326
▁14,	-11.5328
▁gordon	-11.5328
▁stasera	-11.5328
▁dur	-11.5329
▁rese	-11.5329
▁tenuti	-11.5331
▁conditions	-11.5337
▁discuss	-11.5339
▁merchant	-11.5339
versa	-11.534
▁jon	-11.5342
duc	-11.5344
sure	-11.5347
▁qu	-11.5347
▁strappa	-11.5348
▁distant	-11.5349
▁rosalie	-11.535
▁sovente	-11.535
▁scarsa	-11.5355
65	-11.5356
▁performed	-11.5356
song	-11.5356
▁nearer	-11.536
▁connection	-11.5361
ón	-11.5362
▁folks	-11.5363
▁rigore	-11.5364
▁pointed	-11.5364
top	-11.5364
▁mighty	-11.5365
▁rovescia	-11.5367
▁udito	-11.5367
▁palm	-11.5368
pur	-11.5371
▁sedere	-11.5372
▁lifted	-11.5372
▁bou	-11.5373
▁jacket	-11.5373
usi	-11.5375
▁scudi	-11.5376
▁clip	-11.5376
▁tempesta	-11.5379
37	-11.538
throws	-11.5384
pper	-11.5386
▁cattura	-11.5386
▁strettamente	-11.5387
iana	-11.539
aldo	-11.5392
▁accolgo	-11.5393
▁schengen	-11.5393
▁hockey	-11.5393
▁petrolio	-11.5393
▁matteo	-11.5394
▁bontà	-11.5394
▁benefit	-11.5394
▁integra	-11.5395
▁destinata	-11.5397
▁13,	-11.5397
▁registra	-11.5398
ists	-11.5401
▁assembly	-11.5404
unanimità	-11.5408
▁earl	-11.5408
▁percepi	-11.5411
fort	-11.5412
rian	-11.5412
▁mode	-11.5414
▁kyoto	-11.5414
▁soffoca	-11.5414
▁patsy	-11.5417
▁polish	-11.5418
▁cardinali	-11.5419
pol	-11.5419
▁speaker	-11.542
▁ernie	-11.5422
▁odia	-11.5422
hum	-11.5423
▁pmi	-11.5423
▁agenda	-11.5423
tratta	-11.5424
▁sticker	-11.5425
▁thunder	-11.5426
▁stacca	-11.5426
▁protection	-11.5426
serv	-11.5433
aumento	-11.5436
▁global	-11.5436
▁responsible	-11.5436
▁fallimento	-11.5438
▁rie	-11.544
▁serva	-11.544
▁dottor	-11.5442
▁reati	-11.5444
▁gola	-11.5445
▁masse	-11.5447
evole	-11.5447
▁signorina	-11.545
▁custom	-11.5453
▁rendono	-11.5454
stato	-11.5454
▁crawl	-11.5455
▁innocent	-11.5457
▁passata	-11.5458
▁kangaroo	-11.5458
▁oramai	-11.5458
▁frode	-11.546
▁baker	-11.5461
▁pala	-11.5462
▁cats	-11.5463
▁grati	-11.5466
▁hasta	-11.5466
▁impressione	-11.5468
▁raccolto	-11.5469
ett	-11.5469
▁deficit	-11.5469
lf	-11.5469
▁pray	-11.5471
hand	-11.5473
▁invia	-11.5474
▁deserto	-11.5478
▁lettori	-11.5479
▁adunque	-11.548
▁monarchia	-11.5481
wo	-11.5482
▁altogether	-11.5482
ik	-11.5483
92	-11.5486
fre	-11.549
▁origin	-11.5491
▁introdotto	-11.5491
▁spoons	-11.5491
▁stette	-11.5492
▁criminali	-11.5493
▁monarch	-11.5494
vy	-11.5494
▁daily	-11.5496
ami	-11.5498
▁chiedono	-11.55
▁parent	-11.5501
▁legate	-11.5501
▁convinzione	-11.5502
▁regret	-11.5502
▁programmazione	-11.5504
ggiare	-11.5504
▁progress	-11.5505
tissima	-11.5506
▁onora	-11.5507
udo	-11.5507
pla	-11.551
▁gained	-11.5511
▁camere	-11.5511
▁vene	-11.5512
▁trionfo	-11.5513
▁accenna	-11.5517
▁chosen	-11.5517
▁capitani	-11.5518
▁dame	-11.552
▁cellule	-11.5524
▁pittore	-11.5525
▁criminal	-11.5526
▁craft	-11.5526
▁amo	-11.5528
▁nec	-11.5528
▁suffering	-11.5531
boat	-11.5531
▁sales	-11.5532
▁abbandonare	-11.5532
new	-11.5533
▁netherlands	-11.5535
▁planned	-11.5536
▁conosciamo	-11.5536
▁mill	-11.5536
▁sentiero	-11.5537
▁pride	-11.5537
▁electric	-11.554
▁rob	-11.5543
lone	-11.5545
▁passava	-11.5546
▁difetto	-11.5546
▁reference	-11.5546
▁engaged	-11.5548
▁wire	-11.5549
▁compresi	-11.555
▁suck	-11.555
▁bavaria	-11.5553
▁brenda	-11.5553
▁jumping	-11.5554
voice	-11.5556
untranscribed	-11.5557
▁ritmo	-11.5557
▁collection	-11.5557
▁austrian	-11.5557
▁tender	-11.5558
▁conservare	-11.5558
▁nations	-11.5561
▁inutili	-11.5562
▁34	-11.5562
▁scon	-11.5564
▁siti	-11.5564
▁cherry	-11.5564
▁features	-11.5564
▁platform	-11.5568
▁lacrime	-11.5568
▁energie	-11.5568
▁hunt	-11.5569
bor	-11.5569
▁rail	-11.557
boy	-11.557
ā	-11.5571
▁finisce	-11.5572
▁assist	-11.5572
bury	-11.5573
▁canzone	-11.5575
▁breathing	-11.5576
▁suscita	-11.5576
▁lottare	-11.5577
▁colour	-11.5577
▁refused	-11.5577
▁struggle	-11.5577
▁spagnola	-11.5579
▁incredibile	-11.5579
▁kidding	-11.558
tone	-11.558
▁fc	-11.558
▁hoping	-11.558
34	-11.5583
▁sorts	-11.5583
▁slaves	-11.5584
▁impression	-11.5584
▁tear	-11.5587
▁anton	-11.5587
bru	-11.5588
▁badly	-11.5589
▁includes	-11.559
cut	-11.559
▁focus	-11.5591
▁cristiana	-11.5592
▁fred	-11.5592
▁introduced	-11.5592
▁recorded	-11.5593
▁allen	-11.5593
▁rac	-11.5599
▁vittorio	-11.5599
▁rio	-11.5599
▁milione	-11.5601
▁provoca	-11.5605
▁patti	-11.5605
▁gil	-11.5605
▁hadta	-11.5607
▁urla	-11.5608
▁persia	-11.5609
▁vanta	-11.561
▁calabria	-11.5612
▁bara	-11.5612
gus	-11.5613
▁accepted	-11.5617
▁vizio	-11.5617
▁incontrato	-11.5618
▁ammettere	-11.5618
vansi	-11.5619
▁marian	-11.562
▁minimi	-11.5621
▁financial	-11.5623
▁preparato	-11.5623
▁stepped	-11.5624
zionali	-11.5626
▁notes	-11.5627
▁finanziare	-11.5628
▁imita	-11.5628
▁vitale	-11.5629
holding	-11.5631
evoli	-11.5632
▁custodi	-11.5633
▁transizione	-11.5634
▁stabile	-11.5636
agi	-11.5638
▁professionali	-11.5638
▁pil	-11.5639
▁lungi	-11.5639
▁lavorano	-11.564
▁persuade	-11.5641
rì	-11.5642
git	-11.5643
▁quarta	-11.5645
▁tetto	-11.565
▁warning	-11.5651
47	-11.5653
▁nelson	-11.5654
▁pioggia	-11.5657
▁aggrava	-11.5658
gel	-11.5659
▁frodi	-11.5659
▁colombia	-11.5662
▁labor	-11.5663
▁witch	-11.5664
▁determinate	-11.5666
▁francis	-11.5667
▁swear	-11.5668
▁miracolo	-11.567
ique	-11.567
▁insistere	-11.5672
▁asian	-11.5679
▁mena	-11.5682
▁weapon	-11.5682
▁pronuncia	-11.5683
▁lezioni	-11.5686
69	-11.5686
▁ms	-11.5686
▁grandpa	-11.5688
▁furniture	-11.569
▁maestra	-11.569
▁inviato	-11.5692
▁quality	-11.5694
▁pulls	-11.5695
▁provo	-11.5695
▁abbandonato	-11.5697
▁orienta	-11.5698
▁prestare	-11.5699
▁bones	-11.57
▁consacra	-11.5701
▁elettronica	-11.5701
abbiamo	-11.5703
zing	-11.5705
▁americans	-11.5708
▁angela	-11.5709
▁cenno	-11.5712
▁credibilità	-11.5713
▁vigilanza	-11.5713
▁precisione	-11.5713
▁shower	-11.5715
▁tac	-11.5715
▁trent	-11.5717
▁consapevolezza	-11.5724
bly	-11.5726
▁polo	-11.5726
▁carni	-11.5727
▁abba	-11.5728
▁parties	-11.5729
▁ras	-11.573
▁confessa	-11.5731
tario	-11.5732
▁lonely	-11.5735
▁povere	-11.5735
▁roles	-11.5736
▁nil	-11.5737
▁marca	-11.5739
▁acquistare	-11.5742
▁vere	-11.5745
▁bullet	-11.5746
▁istituzionali	-11.5746
▁appeal	-11.5746
▁vola	-11.5747
▁rammenta	-11.5749
▁beer	-11.5753
▁sasso	-11.5756
▁supply	-11.5757
▁sweetheart	-11.5757
▁disabili	-11.5758
▁mistero	-11.5759
▁chiamano	-11.576
▁lit	-11.576
jen	-11.5763
▁hurried	-11.5764
89	-11.5764
▁16,	-11.5764
▁weapons	-11.5765
▁gl	-11.5767
▁tentativi	-11.5769
▁irre	-11.577
▁gotten	-11.577
sul	-11.577
▁vorrà	-11.577
▁rapidly	-11.5772
▁baci	-11.5772
▁session	-11.5773
erei	-11.5774
▁forni	-11.5775
gò	-11.5778
▁collegamento	-11.5778
▁commenti	-11.5778
▁dee	-11.5779
▁indubbiamente	-11.5779
▁finanze	-11.5779
▁aut	-11.578
▁contadini	-11.578
▁tranquillo	-11.578
only	-11.578
▁oak	-11.5782
▁rifugiati	-11.5782
▁stefano	-11.5783
▁derivanti	-11.5784
▁fru	-11.5786
▁lessons	-11.5786
▁recognized	-11.5788
▁brava	-11.579
▁ritenuto	-11.5791
▁devasta	-11.5792
▁perduta	-11.5793
▁pattern	-11.5795
▁arca	-11.5797
42	-11.5798
▁armati	-11.58
▁rescue	-11.5801
▁1984	-11.5802
▁byebye	-11.5803
▁actual	-11.5803
after	-11.5803
▁winner	-11.5804
▁terroristi	-11.5805
▁disney	-11.5806
▁tratte	-11.5811
▁1987	-11.5814
▁assistant	-11.5814
▁whistle	-11.5815
▁condiziona	-11.5815
▁sollevato	-11.5817
▁cy	-11.5818
▁tur	-11.5819
boo	-11.5821
▁experiment	-11.5825
▁intellettuale	-11.5825
▁mickey	-11.5825
▁probabile	-11.5825
▁esportazioni	-11.5826
cide	-11.5826
▁insult	-11.5831
1,	-11.5833
▁prendendo	-11.5835
elecomunicazioni	-11.5836
▁alexander	-11.5836
▁prolunga	-11.5836
▁brutto	-11.5838
-3	-11.5838
mr	-11.5839
mato	-11.5839
▁giura	-11.5843
▁orale	-11.5844
▁migliora	-11.5845
▁metto	-11.5847
▁contenute	-11.5847
▁misericordia	-11.5847
▁gently	-11.5847
▁dramma	-11.585
▁remarked	-11.5852
▁jobs	-11.5854
▁cruel	-11.5854
▁mescola	-11.5855
▁racing	-11.5856
▁prendo	-11.5856
▁owe	-11.5858
▁ricchezze	-11.5859
▁giudicare	-11.5862
▁laws	-11.5863
esso	-11.5864
▁contraria	-11.5867
▁climate	-11.587
▁sweden	-11.5871
zzate	-11.5871
▁stre	-11.5881
▁audience	-11.5881
▁necklace	-11.5881
▁horror	-11.5881
▁danneggia	-11.5881
vie	-11.5882
▁convergenza	-11.5882
say	-11.5884
▁fiera	-11.5885
▁aerei	-11.5887
anza	-11.5887
▁spezza	-11.5889
▁vieta	-11.589
▁meridionale	-11.5893
▁perpetua	-11.5893
▁washing	-11.5894
▁denuncia	-11.5901
▁coinvolti	-11.5904
▁rimangono	-11.5907
59	-11.5907
▁perfetta	-11.5912
▁tagli	-11.5914
▁lesson	-11.5915
▁exciting	-11.5916
▁uccelli	-11.5916
▁uscita	-11.5918
▁ipotesi	-11.5919
▁greca	-11.5919
▁suffered	-11.5923
fal	-11.5927
▁riferisce	-11.5928
▁soddisfatto	-11.5928
▁operai	-11.5929
67	-11.593
▁sigh	-11.5932
impressione	-11.5932
▁criterio	-11.5933
▁rights	-11.5934
▁delicate	-11.5938
zy	-11.5939
▁sensibilità	-11.594
▁dna	-11.594
▁1950	-11.5945
▁normally	-11.5947
▁incident	-11.5949
▁farla	-11.5949
▁cede	-11.595
▁infelice	-11.595
▁fields	-11.595
mur	-11.5952
▁competed	-11.5952
▁precede	-11.5953
▁pene	-11.5956
▁dicevano	-11.5957
▁crossed	-11.5958
▁conseguente	-11.5962
▁selezione	-11.5963
touches	-11.5966
▁esalta	-11.5969
bird	-11.597
▁colli	-11.5973
▁avventura	-11.5973
▁distinzione	-11.5973
▁fiamma	-11.5973
▁dettaglio	-11.5975
▁thousands	-11.5975
▁cani	-11.5975
▁buio	-11.5976
telli	-11.5977
gs	-11.5978
▁nicola	-11.5979
▁cutting	-11.598
▁reputa	-11.5981
rry	-11.5982
esti	-11.5982
▁bianche	-11.5984
▁thirteen	-11.5984
▁spiaggia	-11.5985
▁identifica	-11.5986
▁occupato	-11.5987
▁fondamento	-11.5987
▁eccezione	-11.5988
▁continuerà	-11.5989
▁epoca	-11.5994
▁instance	-11.5996
▁margine	-11.5996
▁mica	-11.5996
▁ding	-11.5997
celli	-11.5997
▁introduzione	-11.5997
▁secondi	-11.6
▁intima	-11.6002
▁foglio	-11.6003
▁metteva	-11.6003
▁sappia	-11.6006
▁esige	-11.6006
aro	-11.6006
▁settle	-11.6007
▁vor	-11.6007
▁occur	-11.6007
▁gerusalemme	-11.6007
▁prosegue	-11.6008
▁clay	-11.6012
▁precise	-11.6015
▁vivamente	-11.6016
▁yards	-11.6017
have	-11.6019
▁iran	-11.6019
▁celebre	-11.6019
▁splash	-11.6019
▁blocco	-11.6019
▁impara	-11.6019
▁licenza	-11.602
▁affretta	-11.602
anche	-11.6021
▁bench	-11.6022
▁dimostrano	-11.6022
▁sits	-11.6022
ibile	-11.6023
▁types	-11.6024
▁impar	-11.6026
▁20,	-11.6026
▁critici	-11.6026
▁dub	-11.6027
▁venera	-11.6028
▁madrid	-11.6029
▁religioso	-11.603
▁balcani	-11.6031
ium	-11.6034
▁promette	-11.6034
playing	-11.6035
▁wit	-11.6037
done	-11.6039
▁drunk	-11.6041
▁1985	-11.6042
cti	-11.6043
▁lack	-11.6043
▁predi	-11.6044
▁improvvisamente	-11.6045
▁hoped	-11.6046
este	-11.6046
č	-11.6047
ments	-11.605
▁trasfer	-11.6052
▁uscito	-11.6053
▁candidate	-11.6053
▁tradizionali	-11.6054
▁́	-11.6054
▁metter	-11.6054
▁aspettative	-11.6055
▁servant	-11.6058
pc	-11.6058
▁tolto	-11.6059
▁vendere	-11.6059
▁sultan	-11.6061
▁difficulty	-11.6066
▁useta	-11.6067
▁steam	-11.6068
▁extremely	-11.6068
▁spill	-11.6068
▁approach	-11.607
▁carrots	-11.6072
▁brief	-11.6073
▁ricava	-11.6073
▁nuts	-11.6074
▁jersey	-11.6077
▁padroni	-11.6077
▁saddam	-11.6077
▁belgio	-11.6079
▁2017,	-11.6081
▁norah	-11.6081
▁mental	-11.6081
▁bears	-11.6082
▁soddisfa	-11.6083
▁universe	-11.6088
▁testimonianza	-11.6089
▁sosta	-11.6091
cat	-11.6092
▁boxes	-11.61
▁assistere	-11.6101
due	-11.6104
pulls	-11.6106
▁funzionare	-11.6106
▁corti	-11.6108
▁fissato	-11.6109
▁torri	-11.611
▁stavo	-11.6111
▁personaggio	-11.6112
▁impegna	-11.6113
▁puglia	-11.6113
dina	-11.6115
▁cab	-11.6115
▁aperti	-11.6115
▁quartiere	-11.6116
▁compassione	-11.6117
▁spaventa	-11.6117
▁giappone	-11.6117
▁piange	-11.6118
▁circumstances	-11.6119
▁rito	-11.6122
▁alfonso	-11.6123
▁massachusetts	-11.6123
▁paradiso	-11.6123
▁sostanziale	-11.6123
▁helmet	-11.6124
▁mandare	-11.6125
▁averlo	-11.6128
▁godere	-11.613
76	-11.6131
lea	-11.6133
58	-11.6133
water	-11.6134
utf	-11.6137
▁elevati	-11.6138
▁talmente	-11.6138
sky	-11.6143
▁rod	-11.6144
avano	-11.6144
▁net	-11.6145
▁unita	-11.6145
tari	-11.6146
▁schiavi	-11.6147
▁senator	-11.6147
▁composta	-11.6147
aba	-11.6148
▁maestri	-11.6148
▁deer	-11.6148
▁dude	-11.6149
▁resistere	-11.6153
▁darsi	-11.6157
▁victim	-11.6157
▁negozio	-11.6157
▁riscontra	-11.6158
▁fiamme	-11.6159
most	-11.6159
▁soci	-11.6162
▁hong	-11.6165
▁belga	-11.6166
into	-11.6169
▁pete	-11.617
hard	-11.617
▁lettore	-11.617
▁triangle	-11.617
▁muore	-11.6171
▁disperazione	-11.6172
▁grim	-11.6172
▁rispondeva	-11.6172
▁stando	-11.6175
▁chick	-11.6175
gal	-11.6175
85	-11.6177
▁trovarsi	-11.6178
▁required	-11.6181
▁svolgimento	-11.6183
▁thoughts	-11.6183
▁coro	-11.6184
▁spite	-11.6184
▁wicked	-11.6185
94	-11.6186
remmo	-11.6186
▁tenga	-11.6189
tini	-11.6189
▁sorprende	-11.6191
▁2018,	-11.6192
▁distribu	-11.6192
▁amica	-11.6192
▁virgilio	-11.6194
▁1972	-11.6194
▁prendi	-11.6195
▁stradale	-11.6196
▁42	-11.6196
lici	-11.6198
▁pasta	-11.6198
▁properly	-11.62
▁prisoner	-11.6201
▁trains	-11.6202
▁scheme	-11.6202
ering	-11.6203
▁francesca	-11.6203
▁captured	-11.6204
▁0,	-11.6204
▁15,	-11.6205
▁armed	-11.6207
▁stroke	-11.6207
▁membra	-11.6207
▁geneticamente	-11.6208
▁morali	-11.6208
▁urgenza	-11.6211
44	-11.6211
▁bagna	-11.6212
gged	-11.6212
nco	-11.6212
▁provided	-11.6216
▁pickle	-11.6216
▁victor	-11.6218
two	-11.6221
▁mediatore	-11.6222
▁grade	-11.6222
▁signs	-11.623
▁scriveva	-11.6231
▁segnalare	-11.6231
struct	-11.6231
▁tradimento	-11.6232
face	-11.6233
missione	-11.6235
▁candidato	-11.6238
▁debbo	-11.6239
56	-11.6239
▁hunting	-11.6239
▁appears	-11.624
▁beneath	-11.6241
▁1979	-11.6241
aglia	-11.6242
▁tommy	-11.6242
▁chart	-11.6243
▁amongst	-11.6244
▁donkey	-11.6247
wan	-11.6251
▁becomes	-11.6251
▁concetti	-11.6253
▁romania	-11.6254
▁capisce	-11.6257
▁laboratorio	-11.626
▁cosiddett	-11.6261
yard	-11.6262
▁conviene	-11.6265
▁carolina	-11.6265
▁changing	-11.6268
▁gates	-11.6269
▁designed	-11.6269
▁volse	-11.6274
▁addition	-11.6276
▁sf	-11.6276
[	-11.6276
▁monitoraggio	-11.6276
▁inc	-11.6276
▁1976	-11.6277
▁mettersi	-11.6278
▁gel	-11.6278
removes	-11.6282
▁taglio	-11.6284
▁print	-11.6285
▁trail	-11.6286
▁ple	-11.6287
ssione	-11.6288
▁lately	-11.6288
▁giuridici	-11.6288
▁ospiti	-11.6288
▁offerto	-11.6288
▁adozione	-11.6289
▁crudele	-11.629
▁esita	-11.6294
ix	-11.6295
▁diverti	-11.6296
▁sink	-11.6297
lum	-11.63
▁imposto	-11.63
▁attacchi	-11.63
▁jacob	-11.6301
▁bomba	-11.6301
yan	-11.6302
issimo	-11.6303
▁informato	-11.6304
▁giornalisti	-11.6305
▁abbassa	-11.6305
▁williams	-11.6307
post	-11.631
▁seth	-11.631
atti	-11.6311
▁pas	-11.6311
fy	-11.6312
▁talent	-11.6312
▁navy	-11.6312
▁scary	-11.6313
▁distinti	-11.6318
▁chron	-11.6321
▁dimostrazione	-11.6323
▁stern	-11.6324
▁vietnam	-11.6324
▁soddisfacente	-11.6324
▁ridotta	-11.6324
▁calcolo	-11.6324
▁accento	-11.6325
▁lover	-11.6325
bbie	-11.6327
▁raccontare	-11.633
bble	-11.633
offerta	-11.6331
▁replaced	-11.6333
▁drawer	-11.6335
▁padrona	-11.6336
▁affair	-11.6337
▁richiamo	-11.6338
▁orientamento	-11.634
▁belongs	-11.6342
▁workers	-11.6342
▁brings	-11.6345
▁unit	-11.6345
▁loudly	-11.6347
▁dedicata	-11.6351
63	-11.6353
▁passion	-11.6353
▁gosh	-11.6356
▁bretagna	-11.6359
▁olandese	-11.6359
▁salvaguardia	-11.6359
▁sessuale	-11.6359
▁domenico	-11.6359
▁invidia	-11.636
▁throne	-11.636
▁mantova	-11.6362
▁nas	-11.6364
▁giudiziaria	-11.6365
▁dama	-11.6374
▁amava	-11.6375
ddle	-11.6377
uf	-11.6378
▁frances	-11.6378
▁boot	-11.6381
▁deserve	-11.6383
▁compensa	-11.6384
▁illumina	-11.6386
dini	-11.6388
esigenza	-11.6389
ip	-11.6392
▁issues	-11.6392
▁17,	-11.6393
rano	-11.6393
dito	-11.6394
▁exist	-11.6394
41	-11.6395
▁occurred	-11.6396
▁guilty	-11.6396
▁stanze	-11.6397
▁associa	-11.6398
▁sfruttare	-11.6401
▁dubita	-11.6401
▁xiv	-11.6402
yeah	-11.6402
▁educazione	-11.6402
▁wil	-11.6404
ctor	-11.6405
▁parli	-11.6405
77	-11.6406
▁coinvolgimento	-11.6407
▁21,	-11.6414
▁generation	-11.6414
▁ol	-11.6416
▁falsa	-11.6417
▁tedesca	-11.6419
▁rivolte	-11.6419
▁normative	-11.642
▁danari	-11.6421
▁bruno	-11.6422
▁brutta	-11.6422
▁quae	-11.6423
chan	-11.6424
elenco	-11.6426
dica	-11.6428
▁catastrofe	-11.6431
uc	-11.6431
▁preda	-11.6433
▁patten	-11.6433
▁visti	-11.6437
▁sott	-11.6438
▁gitta	-11.644
nova	-11.644
51	-11.6441
▁delighted	-11.6442
▁cinquecento	-11.6443
▁satisfied	-11.6443
▁symbol	-11.6445
▁engineer	-11.6446
▁suggestion	-11.6447
▁linda	-11.6448
▁poo	-11.645
▁macedonia	-11.6454
▁continuò	-11.6455
gle	-11.6456
ulo	-11.6459
▁compare	-11.6459
▁kh	-11.646
▁correttamente	-11.646
▁calore	-11.6461
▁segnali	-11.6462
opens	-11.6463
▁limitata	-11.6466
occhi	-11.6466
cie	-11.6467
▁danimarca	-11.6467
▁inserito	-11.6467
▁vergine	-11.6468
▁individuale	-11.6469
▁ugo	-11.6469
▁dott	-11.6469
under	-11.6471
sey	-11.6471
▁importo	-11.6473
▁falli	-11.6473
effetto	-11.6473
▁scandalo	-11.6474
3/	-11.6475
parti	-11.6476
▁espressa	-11.6476
▁differ	-11.6477
91	-11.6477
▁chiedendo	-11.6477
▁waves	-11.6477
▁inizi	-11.6481
▁gum	-11.6486
▁nigeria	-11.6486
tp	-11.6486
▁closely	-11.6488
▁insurance	-11.6492
▁cents	-11.6492
▁deliver	-11.6493
▁repeat	-11.6494
▁pap	-11.6494
▁sfrutta	-11.6494
▁agreement	-11.6495
▁ticket	-11.6495
which	-11.6497
▁remove	-11.6498
girl	-11.6498
▁cardinal	-11.6499
▁yi	-11.65
▁affinchè	-11.6504
▁livorno	-11.6504
▁avvia	-11.6504
▁shout	-11.6506
▁request	-11.6509
▁elegante	-11.651
care	-11.6513
▁sixth	-11.6514
▁environment	-11.6515
▁minacce	-11.6516
▁fornisce	-11.6516
▁benvenuto	-11.6517
▁compresa	-11.6517
▁bottega	-11.6517
▁applicato	-11.6518
▁eats	-11.6522
▁physical	-11.6523
▁danese	-11.6528
▁commercial	-11.653
▁furia	-11.6532
▁annuncia	-11.6533
▁precisamente	-11.6533
armonizzazione	-11.6533
▁sospetta	-11.6534
▁arranged	-11.6535
ride	-11.6535
▁ritiro	-11.6538
▁beg	-11.6539
▁pesanti	-11.6542
pushes	-11.6546
▁lane	-11.6546
▁iscritto	-11.6548
▁sanitaria	-11.6549
▁mul	-11.655
▁relief	-11.6552
▁ritardi	-11.6552
▁collaborare	-11.6556
▁manifestazioni	-11.6557
▁arrow	-11.6558
▁400	-11.656
▁musician	-11.6561
▁cheeks	-11.6563
▁ambedue	-11.6564
▁modena	-11.6569
esecuzione	-11.657
igh	-11.6571
▁critico	-11.6571
▁adeguate	-11.6572
▁formulazione	-11.6572
▁diventata	-11.6573
▁musicale	-11.6574
rick	-11.6575
▁chose	-11.6575
▁ostina	-11.6577
▁determinare	-11.6579
▁aspettava	-11.658
▁servo	-11.658
elaborazione	-11.6582
qu	-11.6583
▁spar	-11.6584
▁specific	-11.6585
chu	-11.6586
▁legata	-11.6586
78	-11.6586
▁guitar	-11.6588
▁kit	-11.6589
ib	-11.6589
▁ramo	-11.6589
▁definiti	-11.6589
fire	-11.6589
▁beast	-11.659
▁democratiche	-11.6591
▁selected	-11.6593
▁serving	-11.6594
cidi	-11.6595
▁mole	-11.6599
▁darà	-11.6601
▁agricoli	-11.6601
▁supremo	-11.6601
▁territory	-11.6601
té	-11.6601
ìa	-11.6605
▁esp	-11.6606
mail	-11.6612
▁fries	-11.6612
▁mappamondo	-11.6613
▁odierna	-11.6614
ribu	-11.6616
▁rami	-11.6616
▁comunicato	-11.6616
arco	-11.6617
▁seated	-11.662
▁xvi	-11.662
▁moderno	-11.662
▁pru	-11.6621
▁fetch	-11.6621
▁tranne	-11.6625
▁sunshine	-11.6626
▁slipped	-11.6626
▁prepare	-11.6628
5/	-11.6629
▁andrà	-11.6632
▁esagera	-11.6634
▁lance	-11.6638
▁coin	-11.6638
ione	-11.6639
▁cruciale	-11.664
▁cancella	-11.6645
▁silk	-11.6646
▁tribe	-11.6646
"?	-11.6648
▁roy	-11.6648
▁sapevo	-11.665
▁uguali	-11.665
▁describe	-11.6654
asi	-11.6654
▁varietà	-11.6657
▁battaglie	-11.6662
▁gratitudine	-11.6662
▁failure	-11.6663
▁convinti	-11.6663
▁1981	-11.6663
▁comic	-11.6665
▁cercano	-11.6665
▁systems	-11.6666
▁memorie	-11.6668
▁bent	-11.6668
▁fasi	-11.6668
band	-11.6669
▁landing	-11.6672
efficacia	-11.6672
▁blo	-11.6674
▁ballo	-11.6674
▁parlano	-11.6675
▁tournament	-11.6675
▁attimo	-11.6675
▁precious	-11.6675
▁shy	-11.6676
rit	-11.6677
▁device	-11.6679
▁metro	-11.6679
▁clemente	-11.668
importante	-11.6681
▁orbit	-11.6681
▁eager	-11.6683
▁traditional	-11.6686
▁agenzie	-11.6687
87	-11.6688
▁guests	-11.6691
▁cadde	-11.6691
espressione	-11.6693
▁nepal	-11.6693
▁intesa	-11.6695
▁armonizzazione	-11.6696
▁screaming	-11.6696
▁rispetta	-11.6697
▁impre	-11.6697
▁serata	-11.6698
▁impero	-11.6698
▁potatoes	-11.6701
▁farebbe	-11.6702
▁documenta	-11.6702
▁affect	-11.6704
mò	-11.6704
▁parallel	-11.6706
crea	-11.6706
▁liberal	-11.6707
▁bacio	-11.6708
ities	-11.6708
▁complessa	-11.6712
▁esposto	-11.6713
▁discussion	-11.6714
▁pieni	-11.6714
▁canale	-11.6715
▁eagerly	-11.6716
▁19,	-11.6716
▁eseguire	-11.6718
▁agenti	-11.6718
▁ingresso	-11.6718
▁secca	-11.6719
▁risparmio	-11.672
▁saving	-11.672
▁fenomeni	-11.6724
▁prezioso	-11.6724
▁unusual	-11.6724
baby	-11.6724
cta	-11.6727
▁esito	-11.6728
▁spedizione	-11.6728
▁pav	-11.6729
:—	-11.673
`	-11.673
▁sicchè	-11.6732
▁enemies	-11.6737
▁exchange	-11.6737
▁bible	-11.6743
/4	-11.6744
▁undici	-11.6745
▁zucchero	-11.6749
▁65	-11.6749
▁skirt	-11.6749
uch	-11.6749
▁fresco	-11.6751
▁alba	-11.6751
▁talks	-11.6751
▁cuba	-11.6753
▁rimette	-11.6755
^	-11.6755
▁portò	-11.6757
▁suffer	-11.6757
▁posse	-11.6757
▁shouting	-11.6759
▁jake	-11.676
▁expensive	-11.6761
▁margot	-11.6762
umanità	-11.6762
▁piggy	-11.6762
▁notato	-11.6764
▁attacco	-11.6764
▁piatto	-11.6765
▁bolt	-11.6765
▁individuali	-11.6766
▁farther	-11.6766
▁tasca	-11.6766
▁rappresentanza	-11.6768
cast	-11.6769
▁calda	-11.6772
▁referendum	-11.6774
▁argument	-11.6774
▁segreti	-11.6774
▁miglioramenti	-11.6775
stand	-11.6777
▁guardie	-11.6779
▁threat	-11.678
▁gamba	-11.6781
father	-11.6783
mise	-11.6783
▁palermo	-11.6786
▁rivolgo	-11.6786
▁proroga	-11.6786
▁2022,	-11.6787
▁giá	-11.6789
▁servants	-11.6789
pos	-11.679
▁fever	-11.6792
▁prosegui	-11.6796
▁tranquilla	-11.6797
▁inviare	-11.6797
▁annunzia	-11.6799
▁shift	-11.6799
▁keen	-11.68
▁cosiddetto	-11.6801
▁conforta	-11.6801
▁ombre	-11.6804
▁industrie	-11.6806
▁discrimina	-11.6807
▁hood	-11.681
▁americana	-11.6811
▁giuridiche	-11.6811
▁feroce	-11.6811
▁[5	-11.6815
▁identità	-11.6815
▁muni	-11.6816
▁organizza	-11.6818
▁statistiche	-11.6818
▁ossa	-11.6821
▁momma	-11.6821
iani	-11.6823
dent	-11.6823
▁peculiar	-11.6823
▁carpet	-11.6827
▁foundation	-11.6828
▁ringing	-11.6828
nca	-11.683
▁nozze	-11.6832
▁baroni	-11.6833
▁oldest	-11.6833
▁maraviglia	-11.6835
64	-11.6835
▁popolari	-11.6838
▁divisa	-11.6838
▁elder	-11.6838
▁senate	-11.6839
▁bend	-11.6839
▁clara	-11.6841
▁facili	-11.6845
▁serena	-11.6845
lò	-11.6849
still	-11.6849
▁1983	-11.6849
▁giraffe	-11.6849
▁onori	-11.685
▁accuse	-11.685
▁gatto	-11.6851
▁diminui	-11.6855
▁laughter	-11.6855
▁corri	-11.6856
vic	-11.6856
zon	-11.6857
▁talun	-11.6859
rare	-11.686
▁evidenza	-11.6862
▁washed	-11.6864
▁pond	-11.6865
▁scambia	-11.6866
act	-11.6867
▁sv	-11.6867
▁pag	-11.6868
pretends	-11.6869
▁angle	-11.6871
▁registrato	-11.6872
▁generi	-11.6872
▁presentano	-11.6873
▁hut	-11.6873
▁chilometri	-11.6874
▁bellissimo	-11.6876
▁coltiva	-11.6876
▁testimoni	-11.6877
▁obli	-11.6878
▁vibra	-11.6885
▁alternativa	-11.6889
▁falso	-11.689
▁vengo	-11.6891
▁rapi	-11.6894
▁misero	-11.6895
▁savi	-11.6896
▁avverti	-11.6896
▁remains	-11.6897
▁goals	-11.6898
▁sausage	-11.6899
itá	-11.69
▁pepper	-11.69
▁motore	-11.6904
▁echo	-11.6904
▁colazione	-11.6906
uccia	-11.6907
rè	-11.6907
▁product	-11.691
▁click	-11.691
▁150	-11.6911
▁lieve	-11.6912
▁pietre	-11.6912
▁flow	-11.6912
▁contraddizione	-11.6913
▁scoppia	-11.6913
▁morgan	-11.6916
▁rinuncia	-11.6916
tape	-11.6917
▁specchio	-11.6918
▁rotto	-11.6923
▁premier	-11.6923
▁cricket	-11.6924
▁discipline	-11.6924
▁permetta	-11.6924
▁oink	-11.6925
▁affetti	-11.6925
▁flo	-11.6925
▁assiste	-11.6928
▁sending	-11.6932
▁bandi	-11.6935
▁permission	-11.6936
▁spia	-11.6937
▁appieno	-11.6937
▁maschera	-11.6937
▁tenne	-11.6938
dom	-11.6939
▁sooner	-11.6939
▁jason	-11.6939
▁rimanda	-11.694
▁osa	-11.6942
▁sons	-11.6943
▁jeff	-11.6943
▁fog	-11.6944
▁label	-11.6945
▁danza	-11.6945
▁puro	-11.6945
▁nah	-11.6948
▁cera	-11.6949
▁delicato	-11.695
▁tools	-11.6953
cons	-11.6953
▁macchia	-11.6954
eria	-11.6956
▁fondata	-11.6958
ificazione	-11.6959
▁frequenta	-11.696
▁iddio	-11.6963
ously	-11.6963
▁cocoon	-11.6963
▁bimbi	-11.6963
54	-11.6965
▁simon	-11.6965
▁burned	-11.6968
▁pesci	-11.6968
▁shining	-11.697
yer	-11.6971
meno	-11.6973
▁rooms	-11.6973
ttle	-11.6975
▁somministra	-11.6981
▁usando	-11.6983
sei	-11.6984
▁costrui	-11.6986
▁organo	-11.6986
▁powers	-11.6987
▁legame	-11.6989
▁rassicura	-11.6991
▁escaped	-11.6992
▁rabbi	-11.6995
estate	-11.6996
▁inca	-11.6997
mani	-11.6997
▁nana	-11.6998
▁fold	-11.7
▁twin	-11.7
▁portoghese	-11.7
▁profonde	-11.7
▁respiro	-11.7
▁sudditi	-11.7001
▁basato	-11.7001
▁graham	-11.7002
▁convert	-11.7002
asilo	-11.7002
▁tummy	-11.7002
otta	-11.7002
▁lusso	-11.7003
ware	-11.7004
▁andarono	-11.7004
▁mina	-11.7005
▁foglie	-11.7006
▁spirits	-11.7008
rna	-11.701
lock	-11.7011
▁tang	-11.7011
▁whilst	-11.7013
▁guarino	-11.7013
'11	-11.7015
▁stupi	-11.7016
uring	-11.7016
88	-11.7017
▁dull	-11.7022
▁48	-11.7023
fish	-11.7024
▁aribert	-11.7026
▁assedia	-11.7026
▁attiene	-11.7027
▁conforme	-11.7028
▁fail	-11.7034
▁pee	-11.7035
▁faithful	-11.7036
▁quam	-11.7036
▁presents	-11.7037
ison	-11.7038
▁avrete	-11.7039
▁radice	-11.7044
inquinamento	-11.7045
▁eterna	-11.7049
dr	-11.7049
uale	-11.705
▁patri	-11.7051
▁paragona	-11.7052
▁sintesi	-11.7052
▁comment	-11.7054
▁avanzata	-11.7054
▁singolare	-11.7058
▁buildings	-11.7059
▁intended	-11.7061
▁marks	-11.7062
▁whisper	-11.7062
▁quid	-11.7062
▁historical	-11.7064
▁bimba	-11.7066
▁orgoglio	-11.7066
▁portando	-11.7067
dies	-11.7068
▁cambi	-11.7069
▁tractor	-11.7071
▁nascere	-11.7071
vor	-11.7076
▁stadium	-11.7078
▁gau	-11.7079
▁crab	-11.7079
▁pesa	-11.708
▁johnny	-11.708
▁indirizzo	-11.708
cap	-11.7082
▁delay	-11.7083
▁rivolgere	-11.7084
▁trionfa	-11.7087
57	-11.7088
▁recupero	-11.709
▁underneath	-11.709
▁defence	-11.709
▁seduto	-11.7091
▁complessivo	-11.7092
▁fie	-11.7092
▁ker	-11.7093
▁consult	-11.7094
arrondissement	-11.7096
▁limited	-11.7098
▁seleziona	-11.7098
▁sessanta	-11.71
bee	-11.71
▁resti	-11.7101
▁diviso	-11.7106
var	-11.7107
break	-11.711
▁messaggi	-11.711
53	-11.7111
ial	-11.7112
▁conduct	-11.7113
▁ferito	-11.7114
▁berlino	-11.7114
▁conced	-11.7116
▁1982	-11.7116
▁vast	-11.7116
▁2001,	-11.7116
▁cl	-11.7117
tted	-11.7117
▁bere	-11.7117
▁jungle	-11.7118
▁wh	-11.7118
▁branches	-11.712
▁elaborato	-11.7123
nello	-11.7124
▁laggiù	-11.7128
▁pun	-11.713
▁intraprendere	-11.7131
▁suprema	-11.7132
▁vederlo	-11.7133
▁legend	-11.7136
▁legittima	-11.7136
tella	-11.7137
▁pericolosi	-11.7138
▁discute	-11.7138
▁jr	-11.7138
table	-11.7139
▁guari	-11.714
▁spy	-11.7141
▁swiss	-11.7141
▁cali	-11.7142
▁villani	-11.7142
pit	-11.7143
▁dirt	-11.7143
vu	-11.7144
nei	-11.7144
aga	-11.7145
▁seats	-11.7147
ottima	-11.715
high	-11.715
▁spiegazione	-11.715
cted	-11.7152
hanno	-11.7154
▁jimmie	-11.7154
▁solitudine	-11.7155
gata	-11.7155
▁cliff	-11.7155
▁000	-11.7156
▁dada	-11.7156
▁mercy	-11.7158
▁selling	-11.7164
▁stole	-11.7165
▁arrested	-11.7166
▁reward	-11.7167
▁reckon	-11.7167
▁federigo	-11.7168
uck	-11.7168
▁review	-11.7169
five	-11.7169
▁organizzati	-11.7171
▁robe	-11.7172
▁shade	-11.7172
dad	-11.7173
fied	-11.7176
giamo	-11.7177
▁calo	-11.7178
▁stan	-11.7178
az	-11.7179
▁goat	-11.718
▁cavalleria	-11.7181
▁tassa	-11.7183
▁bore	-11.7183
▁apprezza	-11.7186
pr	-11.7186
▁foreste	-11.7186
▁console	-11.7187
▁riguardante	-11.7188
▁ricordiamo	-11.7188
▁ponti	-11.719
▁2000.	-11.7192
▁oli	-11.7193
▁veduta	-11.7193
▁temporale	-11.7196
anta	-11.72
hop	-11.7202
▁income	-11.7202
▁lalla	-11.7203
▁marked	-11.7204
▁intento	-11.7205
▁copenaghen	-11.7206
▁counsel	-11.7206
▁virtú	-11.7206
▁nominato	-11.7206
▁sab	-11.7207
▁fuggire	-11.7208
▁comandante	-11.721
▁ful	-11.721
▁frontiera	-11.721
▁cia	-11.721
▁rav	-11.7211
▁umanitari	-11.7213
▁bruce	-11.7215
▁defini	-11.7217
▁economie	-11.7219
▁giornate	-11.7219
▁sospesa	-11.7219
▁flood	-11.7219
pia	-11.722
▁soddisfatti	-11.722
▁confess	-11.7225
▁lungamente	-11.7225
▁joint	-11.7227
▁rapid	-11.7228
▁ec	-11.7228
tia	-11.7228
▁pericolose	-11.723
▁temper	-11.7231
▁happiness	-11.7232
▁inhabitants	-11.7232
▁ursula	-11.7232
▁peggiore	-11.7233
▁anchor	-11.7233
▁anger	-11.7237
▁toilet	-11.7237
▁elettori	-11.7237
▁intention	-11.7238
▁decent	-11.724
▁dumb	-11.7241
▁carenze	-11.7243
86	-11.7245
▁tonnellate	-11.7245
▁costituzionali	-11.7245
▁spari	-11.7248
▁parecchie	-11.725
▁prayer	-11.725
▁attenti	-11.7252
▁invade	-11.7257
▁22,	-11.7257
▁ruff	-11.7258
▁sprang	-11.7258
▁pratico	-11.7261
ome	-11.7262
▁canon	-11.7263
▁terribili	-11.7265
▁tempera	-11.7266
▁proto	-11.7267
▁require	-11.7267
▁colonne	-11.7268
▁sana	-11.7268
▁illegale	-11.7269
▁indicate	-11.7269
▁respinge	-11.7269
▁whi	-11.7269
aldi	-11.727
hm	-11.727
▁proposed	-11.7271
▁invano	-11.7271
▁dibattiti	-11.7271
▁lincoln	-11.7271
▁raccolti	-11.7271
▁holmes	-11.7271
▁stabilisce	-11.7272
▁rubber	-11.7272
▁infra	-11.7278
▁xxi	-11.7278
▁rime	-11.7281
▁massime	-11.7281
agenda	-11.7281
▁sper	-11.7281
-4	-11.7282
▁togliere	-11.7283
▁elimina	-11.7283
▁temp	-11.7284
▁description	-11.7284
▁ripercussioni	-11.7284
▁dinamica	-11.7285
▁considerati	-11.7285
▁reg	-11.7287
▁bits	-11.7292
▁stringe	-11.7295
▁voyage	-11.7298
▁complex	-11.7298
▁1975	-11.7298
▁riesco	-11.7299
▁seg	-11.7301
▁accorge	-11.7302
▁fuss	-11.7304
▁connected	-11.7305
▁provvedere	-11.7306
hol	-11.7308
▁veda	-11.731
▁ugualmente	-11.7311
▁alphabet	-11.7311
▁lick	-11.7316
▁imper	-11.7317
gone	-11.7321
▁interessato	-11.7321
▁telefono	-11.7324
▁despite	-11.7324
▁leggermente	-11.7324
▁package	-11.7324
▁coppia	-11.7325
▁girlfriend	-11.7327
▁jazz	-11.7327
▁theatre	-11.7329
▁piero	-11.7329
▁ces	-11.733
▁problematica	-11.7332
▁defeated	-11.7334
▁tarda	-11.7336
▁triumph	-11.7337
▁spencer	-11.7337
▁disponiamo	-11.7337
▁assistito	-11.7337
estero	-11.7338
▁esclusi	-11.7339
▁racconti	-11.7339
▁archer	-11.7339
▁image	-11.7341
▁bond	-11.7345
shows	-11.7345
▁intelligente	-11.7346
▁confidence	-11.735
▁respinto	-11.735
▁volumi	-11.735
▁eagle	-11.7351
▁tortura	-11.7351
▁puni	-11.7352
▁negativi	-11.7353
▁destinate	-11.7354
luc	-11.7354
▁propose	-11.7355
ngono	-11.7356
▁guardian	-11.7356
nale	-11.7357
▁immobili	-11.7358
▁seized	-11.7359
▁fargli	-11.736
adi	-11.736
▁distruggere	-11.7361
▁emergency	-11.7364
tell	-11.7364
▁segnatamente	-11.7364
▁recent	-11.7364
▁significant	-11.7369
nin	-11.7369
▁harder	-11.7372
▁convegno	-11.7377
erie	-11.7377
▁torture	-11.7377
name	-11.738
▁lieti	-11.738
▁retta	-11.7382
▁multiple	-11.7383
▁cedere	-11.7387
▁ricon	-11.7387
air	-11.7387
making	-11.7388
maker	-11.7388
▁shapes	-11.7388
▁utterance	-11.739
▁basketball	-11.739
▁cows	-11.7393
▁regimi	-11.7394
▁pr	-11.7395
▁tucker	-11.7395
▁mood	-11.7395
▁cotesto	-11.7397
▁faranno	-11.7397
wer	-11.74
▁proibi	-11.7402
▁ridiculous	-11.7403
▁satellite	-11.7403
▁amante	-11.7405
▁majority	-11.7405
▁rilevante	-11.7408
▁animi	-11.7408
▁vestiti	-11.741
▁tristi	-11.7411
▁soffrire	-11.7414
▁kindly	-11.7414
▁hussein	-11.7416
▁fastidio	-11.7417
▁piacevole	-11.7417
▁capua	-11.7418
▁ritratto	-11.7418
relli	-11.7418
une	-11.7419
▁depends	-11.7423
▁feriti	-11.7426
▁intensi	-11.7426
▁energetica	-11.7426
hr	-11.7427
▁prigioni	-11.7428
▁skill	-11.7429
involuntary	-11.743
▁settentrionale	-11.743
had	-11.7431
bio	-11.7431
▁solve	-11.7433
▁55	-11.7435
▁illustra	-11.7436
esterno	-11.7438
verso	-11.7441
ë	-11.7443
▁catherine	-11.7443
▁1974	-11.7443
▁1969	-11.7443
▁straw	-11.7444
▁highly	-11.7446
/20	-11.7447
▁aah	-11.7448
▁sorrow	-11.7449
▁cheap	-11.7453
▁tassi	-11.7453
ibili	-11.7454
▁edifici	-11.7456
▁umbrella	-11.7456
▁delightful	-11.7457
▁cul	-11.7457
▁frequenti	-11.7459
▁avvisa	-11.7459
▁dreadful	-11.7465
▁formare	-11.7469
▁confermato	-11.7469
▁eugenio	-11.7469
▁ebbi	-11.747
▁scappa	-11.7471
▁smiles	-11.7471
▁cuori	-11.7474
▁details	-11.7474
▁pushing	-11.7474
▁riusciremo	-11.7475
▁personalità	-11.7476
▁incidente	-11.7476
▁alfredo	-11.7476
▁rinnovabili	-11.7478
ère	-11.7479
▁gala	-11.748
▁destro	-11.7482
ening	-11.7482
pes	-11.7482
▁communication	-11.7483
▁istituti	-11.7483
▁veg	-11.7485
▁completed	-11.7485
bling	-11.7486
▁espressamente	-11.7486
▁shelter	-11.7488
▁applicata	-11.7489
▁fior	-11.7494
gn	-11.7495
▁abbi	-11.7495
▁proof	-11.7495
▁1968	-11.7497
▁attento	-11.7497
▁impulso	-11.7497
ossi	-11.7499
▁strutturale	-11.75
cini	-11.7502
▁ward	-11.7503
▁spendere	-11.7506
▁gina	-11.7506
▁condotti	-11.7507
▁mezzogiorno	-11.751
▁reserve	-11.7511
▁attempts	-11.7513
▁prestazioni	-11.7514
▁installa	-11.7515
insieme	-11.7516
▁dovessero	-11.7518
▁geni	-11.7519
lk	-11.752
▁intro	-11.7522
▁gigante	-11.7523
▁carter	-11.7523
▁ostacolo	-11.7523
▁scienziati	-11.7523
▁wazir	-11.7523
▁persian	-11.7525
▁stops	-11.7526
▁advanced	-11.7526
▁demo	-11.7527
▁bearing	-11.7529
ccò	-11.7529
▁presero	-11.753
▁incontrare	-11.7531
▁reality	-11.7531
▁attivamente	-11.7532
picking	-11.7533
▁chiedeva	-11.7533
▁rep	-11.7535
▁pareri	-11.7535
▁aggiunse	-11.7536
▁polonia	-11.7537
vers	-11.7538
▁23,	-11.7538
▁vendite	-11.7539
▁method	-11.754
▁investigator	-11.7543
esa	-11.7544
▁eroi	-11.7546
▁ville	-11.7546
▁closet	-11.7547
▁sexual	-11.7548
▁minoranze	-11.755
▁richiedono	-11.755
▁turkish	-11.755
▁dispute	-11.755
▁1977	-11.755
▁saggio	-11.7552
▁pic	-11.7552
▁complimenti	-11.7552
▁registrazione	-11.7553
glielo	-11.7554
▁peccati	-11.7554
▁uccidere	-11.7554
ivo	-11.7555
▁korea	-11.7555
▁modest	-11.7557
▁commi	-11.7559
▁murdered	-11.7559
▁considerate	-11.7563
▁intelligence	-11.7563
▁geografo	-11.7563
▁clothing	-11.7564
▁avvocato	-11.7565
▁corrispondenza	-11.7565
▁madeline	-11.7567
▁gettin	-11.7568
also	-11.7569
vvi	-11.7569
istituto	-11.757
▁scri	-11.7572
▁includere	-11.7573
▁appropriate	-11.7574
▁genovesi	-11.7577
fan	-11.7577
▁dolori	-11.7577
▁constant	-11.7577
▁cancro	-11.7578
starts	-11.7582
▁discover	-11.7583
▁radicale	-11.7583
▁tela	-11.7584
ingresso	-11.7584
▁gods	-11.7584
europe	-11.7588
▁indagini	-11.759
▁1978	-11.7591
▁comodo	-11.7594
lati	-11.7595
▁painted	-11.7596
▁archi	-11.7598
▁spu	-11.7598
rest	-11.7601
▁bah	-11.7601
mano	-11.7602
ibus	-11.7602
▁clap	-11.7603
▁responsibility	-11.7604
▁taylor	-11.7604
▁revoca	-11.7605
▁bosnia	-11.7605
▁household	-11.7606
▁rang	-11.7607
▁diventi	-11.7607
▁motivazione	-11.7607
▁sounded	-11.7608
zed	-11.7608
▁rafforza	-11.761
▁affermazioni	-11.761
quo	-11.7611
▁ragiona	-11.7611
lico	-11.7611
▁quinta	-11.7614
▁pericolosa	-11.7615
▁hurts	-11.7617
tani	-11.7617
▁mississippi	-11.7617
▁seguì	-11.7617
▁alzò	-11.7617
▁austin	-11.7618
▁prosperità	-11.7618
▁ottimi	-11.7618
▁eccellenza	-11.7618
▁investigation	-11.7619
ual	-11.762
▁altamente	-11.762
▁speaks	-11.7622
▁spiriti	-11.7622
▁cifra	-11.7622
sina	-11.7623
▁viaggia	-11.7625
▁ducks	-11.7625
▁prae	-11.7626
▁ripara	-11.7627
▁stable	-11.7628
▁intendono	-11.763
▁raimondo	-11.7631
▁disputa	-11.7631
leg	-11.7632
▁2002.	-11.7632
▁returning	-11.7632
▁loving	-11.7632
ization	-11.7633
▁rolled	-11.7635
▁slight	-11.7637
▁chiusi	-11.7638
▁creando	-11.7641
▁peep	-11.7644
▁pirate	-11.7644
bad	-11.7645
▁riflessioni	-11.7645
▁patrick	-11.7646
▁galli	-11.7646
▁tristezza	-11.7647
▁firmato	-11.7648
72	-11.7648
▁increased	-11.7649
▁gamma	-11.765
▁autorizzazione	-11.7652
lton	-11.7656
▁sospetti	-11.7658
▁marocco	-11.7658
▁subordina	-11.7658
▁rilevanza	-11.766
▁bare	-11.7661
▁cooper	-11.7662
▁stamp	-11.7666
▁sieno	-11.7667
▁turno	-11.7668
▁closes	-11.7669
▁nacque	-11.767
▁scarica	-11.767
ete	-11.7674
▁rinunciare	-11.7678
▁mystery	-11.7685
▁driven	-11.7686
▁emozioni	-11.7686
▁colloqui	-11.7687
▁individua	-11.7687
▁worn	-11.7687
▁delinea	-11.7688
▁estendere	-11.7688
telo	-11.7692
▁magnets	-11.7692
geri	-11.7694
▁teachers	-11.7695
▁valere	-11.7697
▁clausola	-11.7699
▁decine	-11.7704
▁allorchè	-11.7704
▁bol	-11.7705
part	-11.7706
ìo	-11.7706
▁somiglia	-11.7709
▁guards	-11.7711
niche	-11.7711
▁riuscì	-11.7713
▁intense	-11.7714
▁erasi	-11.7715
▁consideriamo	-11.7715
▁climbing	-11.7716
▁avvenne	-11.7717
▁liberazione	-11.7718
ela	-11.7721
▁auguriamo	-11.7722
▁pensavo	-11.7724
gor	-11.7724
▁inaugura	-11.7725
▁championships	-11.7725
▁creatures	-11.7725
▁katherine	-11.7726
▁restitui	-11.7727
ong	-11.7728
second	-11.7728
▁commento	-11.7729
▁respond	-11.7732
▁journalist	-11.7735
▁photo	-11.7737
▁trasformare	-11.7738
▁potevo	-11.774
regolamentazione	-11.774
▁foolish	-11.7741
▁intelligenza	-11.7742
▁sostituito	-11.7745
▁energetico	-11.7745
▁kin	-11.7745
entrata	-11.7747
equilibrio	-11.7747
▁toccare	-11.7748
moni	-11.7749
▁39	-11.7749
▁doctors	-11.7751
▁espressi	-11.7752
▁distingue	-11.7753
▁basic	-11.7753
▁colonnello	-11.7754
▁lasciamo	-11.7756
▁rifugio	-11.7757
mber	-11.7759
▁conosceva	-11.7762
▁socio	-11.7763
nger	-11.7763
▁batti	-11.7764
tha	-11.7764
▁belief	-11.7767
▁trasmissione	-11.7768
▁sottile	-11.7768
▁afferra	-11.7769
▁tribunali	-11.7773
▁meow	-11.7774
▁prato	-11.7776
▁apertamente	-11.7778
▁pagato	-11.7778
▁impiega	-11.7779
anna	-11.778
▁carl	-11.778
▁simula	-11.778
▁simone	-11.7781
▁psico	-11.7781
▁patch	-11.7782
from	-11.7782
▁xx	-11.7783
▁applicazioni	-11.7784
▁abiti	-11.7787
▁conosci	-11.7788
▁definita	-11.7788
▁invite	-11.7789
▁cm	-11.779
▁2017.	-11.7791
▁44	-11.7792
▁colonie	-11.7792
▁trascura	-11.7792
▁droga	-11.7795
▁pensionati	-11.7796
▁unable	-11.7796
▁disposta	-11.7798
▁federale	-11.7798
▁begun	-11.7799
▁rolls	-11.7799
▁trot	-11.7803
▁utilizzando	-11.7803
fen	-11.7804
▁shortly	-11.7806
assa	-11.7806
▁trasmettere	-11.7808
▁legali	-11.7808
▁circostanza	-11.7809
▁iris	-11.7813
▁austriaci	-11.7814
▁previously	-11.7815
sivo	-11.7817
▁portati	-11.7818
▁velo	-11.782
demonstrates	-11.7823
▁colpevole	-11.7823
posta	-11.7823
▁gon	-11.7824
▁pitched	-11.7825
▁2021,	-11.7826
alta	-11.7826
▁salvatore	-11.7827
▁shell	-11.7829
▁ability	-11.7833
centi	-11.7834
▁beve	-11.7835
▁disprezzo	-11.7836
▁catastrofi	-11.7836
▁politics	-11.7836
▁regolarmente	-11.7836
▁ribelli	-11.7838
▁arrivano	-11.7838
▁respingere	-11.7839
▁ira	-11.7839
▁uniforme	-11.7839
▁camminare	-11.784
▁climbed	-11.784
▁charm	-11.7843
▁impiego	-11.7843
duca	-11.7844
▁frasi	-11.7844
zj	-11.7847
▁estende	-11.7848
▁televisione	-11.7849
▁brazil	-11.785
▁jewish	-11.785
▁1973	-11.7851
▁compa	-11.7851
▁perseguire	-11.7851
▁nominated	-11.7853
rp	-11.7854
▁dora	-11.7854
▁edit	-11.7856
▁(18	-11.7858
▁neuro	-11.786
▁zan	-11.7861
▁veloci	-11.7861
▁investire	-11.7861
▁gut	-11.7864
atore	-11.7864
▁svizzera	-11.7864
▁guinea	-11.7864
▁vaga	-11.7865
▁meanwhile	-11.7865
1/	-11.7865
▁ripartizione	-11.7866
▁application	-11.7866
▁pavia	-11.7867
▁umanità	-11.7868
▁allarga	-11.7869
▁verse	-11.7869
▁visited	-11.7869
▁lanciare	-11.7871
▁belly	-11.7875
sort	-11.7877
worth	-11.7878
▁precisare	-11.7878
▁economy	-11.7878
▁wilson	-11.7879
▁grato	-11.7879
▁item	-11.788
▁innalza	-11.7882
▁1°	-11.7884
▁deb	-11.7885
▁richiedere	-11.7886
acca	-11.7888
▁classes	-11.789
▁martino	-11.789
▁aim	-11.7891
▁successi	-11.7892
uz	-11.7892
▁sergeant	-11.7892
▁2019.	-11.7893
▁costringe	-11.7893
▁dipendenza	-11.7894
▁contenti	-11.7894
▁capture	-11.7897
ulteriore	-11.7899
▁riempi	-11.79
▁gross	-11.79
▁frame	-11.7902
▁corda	-11.7909
loud	-11.7909
▁comprese	-11.7909
▁presidential	-11.791
▁uhhum	-11.791
attempts	-11.7913
▁convento	-11.7913
lam	-11.7914
nal	-11.7914
▁appo	-11.7914
woman	-11.7916
▁adventures	-11.7917
▁hip	-11.7918
▁checked	-11.792
pote	-11.792
79	-11.7922
▁annunciato	-11.7923
▁lodi	-11.7924
▁spots	-11.7926
ain	-11.7926
▁organismo	-11.7928
▁sets	-11.793
▁mozione	-11.7931
▁marketing	-11.7931
ister	-11.7932
▁gatti	-11.7933
▁portion	-11.7933
ching	-11.7933
▁charlotte	-11.7934
gola	-11.7934
▁decisivo	-11.7935
▁rinnova	-11.7937
▁dolcezza	-11.7937
▁backwards	-11.7937
▁occupied	-11.7938
▁emilia	-11.7939
▁flip	-11.7939
▁letting	-11.794
▁severi	-11.7941
▁divino	-11.7941
▁passano	-11.7944
▁dono	-11.7947
▁appuntamento	-11.795
▁amministrativa	-11.795
▁meriti	-11.795
▁vocal	-11.7957
▁superato	-11.7959
▁raggiungimento	-11.7962
▁affaccia	-11.7962
▁nonsense	-11.7964
▁cora	-11.7965
▁edgar	-11.7966
▁olio	-11.7966
▁facciano	-11.7969
▁interpretazione	-11.797
media	-11.7972
▁tornava	-11.7973
▁sacrifice	-11.7973
rtu	-11.7974
▁trovata	-11.7974
▁perform	-11.7975
▁stretch	-11.7975
▁baa	-11.7975
▁gervaise	-11.7976
▁distinguere	-11.7977
cello	-11.7977
▁arco	-11.7977
▁fisico	-11.7977
▁angeli	-11.7977
▁orecchie	-11.7977
phi	-11.7979
▁cercava	-11.7979
▁pension	-11.7979
bul	-11.7985
wait	-11.7986
bur	-11.7986
▁presented	-11.7987
▁informare	-11.7987
▁olive	-11.7987
▁alimenta	-11.7988
izzare	-11.7988
▁cita	-11.799
▁favori	-11.799
▁goose	-11.7991
drops	-11.7991
▁chin	-11.7992
▁inferiori	-11.7992
cep	-11.7994
▁2018.	-11.7995
ín	-11.7995
▁rocca	-11.7995
▁efficienza	-11.7996
▁pens	-11.7997
▁2016,	-11.7998
sun	-11.7998
▁aspettando	-11.7999
▁oliver	-11.8002
▁zia	-11.8003
▁connessi	-11.8003
▁passengers	-11.8003
▁copertura	-11.8004
▁fanciullo	-11.8004
▁survey	-11.8004
▁bundle	-11.8004
▁infinite	-11.8004
▁approvati	-11.8004
▁casual	-11.8005
made	-11.8006
▁sacrifica	-11.8006
venti	-11.8008
▁kent	-11.8009
nar	-11.8009
▁esami	-11.8011
zzu	-11.8012
comune	-11.8012
▁connect	-11.8012
▁stanca	-11.8016
toy	-11.8016
▁costruito	-11.8018
▁pyrénées	-11.8018
▁strawberries	-11.8018
aka	-11.8018
▁colloquio	-11.8018
▁ferra	-11.8019
▁cinese	-11.8021
▁ornament	-11.8023
cità	-11.8026
▁sedia	-11.8026
▁tolse	-11.8027
cchino	-11.8029
▁xv	-11.8029
▁sussidi	-11.8032
▁sorveglianza	-11.8033
bet	-11.8033
▁velocemente	-11.8036
nam	-11.8038
▁attribuire	-11.8038
▁broadcast	-11.8038
▁lung	-11.8039
impiego	-11.804
▁nearest	-11.804
▁tub	-11.8042
73	-11.8044
▁sviluppa	-11.8046
▁aircraft	-11.8047
▁decimo	-11.8048
▁cosiddetta	-11.8048
▁emily	-11.805
ject	-11.8053
▁moments	-11.8053
3.	-11.8057
dam	-11.8059
▁biglietto	-11.806
▁conflict	-11.806
▁chiamò	-11.806
▁riescono	-11.806
▁savage	-11.8061
▁cata	-11.8061
▁studente	-11.8062
▁salita	-11.8062
▁sembrare	-11.8067
▁lemme	-11.8067
▁ripa	-11.8068
▁display	-11.8069
▁convoca	-11.8069
▁buying	-11.8074
▁appartiene	-11.8074
▁ashamed	-11.8075
..."	-11.8077
▁prossime	-11.8078
▁ref	-11.8079
▁amanda	-11.8079
▁urban	-11.808
▁roads	-11.808
▁rou	-11.8081
inchiesta	-11.8082
sono	-11.8082
tola	-11.8083
▁watches	-11.8083
▁leonardo	-11.8084
rno	-11.8087
▁religiosi	-11.8089
▁cabinet	-11.809
▁operazione	-11.8091
▁sic	-11.8091
▁appariva	-11.8092
▁contrasta	-11.8092
▁attended	-11.8092
▁temere	-11.8093
▁sensibile	-11.8093
▁clan	-11.8094
▁interpreta	-11.8096
▁occuparsi	-11.81
▁feeding	-11.8101
▁reciproco	-11.8103
▁rappresenti	-11.8103
▁melissa	-11.8103
ou	-11.8103
▁scientifici	-11.8104
▁mortale	-11.8104
▁squeak	-11.8104
▁mostrava	-11.8104
▁punk	-11.8105
▁lunghezza	-11.8105
▁khan	-11.8106
▁radici	-11.8106
▁delicata	-11.8106
▁ferdinando	-11.8106
▁gee	-11.8109
▁safely	-11.8109
any	-11.8109
▁confermare	-11.811
▁mosca	-11.811
▁atlantic	-11.8111
▁soldo	-11.8112
hei	-11.8112
retto	-11.8117
▁muslim	-11.8117
▁silvio	-11.8117
▁prussia	-11.8118
▁tennis	-11.8118
▁mmm	-11.8118
▁timori	-11.8119
▁25,	-11.8119
▁admitted	-11.8119
▁sheet	-11.8119
▁omaggio	-11.8119
▁conservative	-11.812
▁factory	-11.8121
tello	-11.8122
▁bade	-11.8125
fine	-11.8128
▁edition	-11.8129
▁nascosto	-11.8131
▁seventeen	-11.8131
▁oscura	-11.8132
ardi	-11.8133
▁tramp	-11.8134
▁nursery	-11.8135
▁emana	-11.8136
▁diventano	-11.8137
▁castelli	-11.8137
eccellente	-11.8139
▁sensibili	-11.8141
▁donato	-11.8141
▁measure	-11.8142
▁accerta	-11.8142
▁bead	-11.8142
▁negare	-11.8145
▁immobile	-11.8146
▁concezione	-11.8146
▁1967	-11.8146
▁caduto	-11.8146
▁armate	-11.8147
▁redditi	-11.8147
jan	-11.8147
▁distrugge	-11.8148
▁grandissima	-11.8149
▁depend	-11.8149
▁registro	-11.8149
▁2017)	-11.8151
▁rurali	-11.8151
▁percy	-11.8159
▁parziale	-11.816
▁compared	-11.8161
▁julie	-11.8161
kins	-11.8164
▁fits	-11.8165
500	-11.8165
▁ricomp	-11.8166
▁stimola	-11.8174
▁esistere	-11.8174
▁cela	-11.8175
▁canti	-11.8176
grunts	-11.8176
▁refuse	-11.8176
▁cough	-11.8177
▁complessiva	-11.8178
camp	-11.8178
▁ruler	-11.8178
▁chemical	-11.8178
▁hugo	-11.8183
▁scored	-11.8184
▁stronger	-11.8185
▁chu	-11.8187
▁archivio	-11.8188
▁nail	-11.8188
▁deputy	-11.8189
▁amministrative	-11.8189
▁vincenzo	-11.8189
esse	-11.819
▁steady	-11.819
occa	-11.8191
▁sollevare	-11.8193
▁provvede	-11.8193
▁[.7	-11.8196
▁fantastic	-11.8199
▁codes	-11.8201
▁editor	-11.8202
▁google	-11.8203
aki	-11.8203
▁defense	-11.8203
▁ferrovie	-11.8203
▁comprare	-11.8203
▁nobiltà	-11.8203
▁aspect	-11.8204
▁subi	-11.8205
;"	-11.8206
cata	-11.8207
▁insegnanti	-11.8208
▁allargamento	-11.8208
▁dicevo	-11.8208
dine	-11.8208
▁trained	-11.8209
forma	-11.821
▁reports	-11.8212
▁12.00.	-11.8212
ids	-11.8215
▁administration	-11.8217
▁maastricht	-11.8217
▁screwdriver	-11.8217
▁coperto	-11.8217
▁grateful	-11.8217
▁ultra	-11.8218
▁amministrazioni	-11.8218
▁surrounded	-11.8219
▁boschi	-11.8226
▁demanded	-11.8231
▁ceca	-11.8231
▁eventualmente	-11.8232
▁considerable	-11.8234
▁rei	-11.8234
▁friendship	-11.8235
▁hor	-11.8235
▁follows	-11.8239
begins	-11.8239
▁lands	-11.8242
bula	-11.8244
tern	-11.8246
dico	-11.8246
▁dispetto	-11.8246
▁insufficiente	-11.8246
▁prestigio	-11.8246
▁finlandia	-11.8247
▁thirsty	-11.8247
▁gentili	-11.8249
▁kra	-11.825
▁adeguatamente	-11.8251
▁cage	-11.8252
▁succeeded	-11.8253
▁script	-11.8253
▁joan	-11.8254
▁kat	-11.8254
▁secure	-11.8254
▁awfully	-11.8257
▁dirlo	-11.8258
▁accelera	-11.8259
▁annulla	-11.826
▁condividiamo	-11.826
▁watson	-11.826
▁attached	-11.8265
▁rank	-11.8265
olio	-11.8267
▁ordinato	-11.8268
▁becky	-11.827
▁shin	-11.8271
▁descrive	-11.8273
▁tengono	-11.8274
▁equipment	-11.8275
▁diffusa	-11.8275
▁schiaccia	-11.8275
▁expert	-11.8275
▁preferito	-11.8276
cular	-11.8276
▁dargli	-11.8277
zzati	-11.8278
▁starring	-11.8278
▁modificati	-11.8279
▁gr	-11.8279
▁represented	-11.8281
▁easter	-11.8282
▁descend	-11.8282
▁duo	-11.8285
▁disegna	-11.8285
▁protegge	-11.8286
▁modificato	-11.8288
▁precisi	-11.8289
▁accent	-11.8294
▁perseguita	-11.8295
▁clero	-11.8296
mere	-11.8298
▁educa	-11.83
▁medica	-11.8301
▁arresta	-11.8303
▁superbia	-11.8303
▁diminuzione	-11.8304
▁suicide	-11.8306
▁argentina	-11.8308
▁disappear	-11.8311
▁puo	-11.8312
lé	-11.8313
vel	-11.8313
▁bold	-11.8317
▁scorta	-11.8319
▁regi	-11.8319
▁vicende	-11.8319
▁vacation	-11.832
▁victoria	-11.832
▁naturally	-11.832
▁pareti	-11.8321
▁sailor	-11.8322
▁decade	-11.8322
gare	-11.8323
▁breathe	-11.8326
▁segg	-11.8328
▁conservato	-11.833
▁formale	-11.8332
gil	-11.8332
▁headquarters	-11.8333
▁sublime	-11.8333
▁cavalca	-11.8333
ume	-11.8334
▁resist	-11.8334
▁promo	-11.8335
▁(1	-11.8337
esempio	-11.8341
▁annuncio	-11.8342
▁bun	-11.8344
▁handed	-11.8344
2,	-11.8345
▁giove	-11.8346
ccu	-11.8346
▁reato	-11.8348
▁article	-11.8349
▁blowing	-11.835
▁semina	-11.8351
▁billion	-11.8351
dì	-11.8354
▁register	-11.8355
▁helps	-11.8355
▁beau	-11.8356
▁atte	-11.8357
▁unanime	-11.836
▁sleepy	-11.8361
▁umilia	-11.8362
▁risolto	-11.8362
▁causes	-11.8362
▁riveste	-11.8364
▁sviluppato	-11.8364
▁dimmi	-11.8365
▁champions	-11.8367
▁prede	-11.8369
▁solida	-11.8369
▁earn	-11.837
▁farvi	-11.8371
▁muri	-11.8372
▁inform	-11.8374
▁progetta	-11.8374
▁nam	-11.8375
▁credete	-11.8376
▁pennsylvania	-11.8377
▁riguardi	-11.8377
▁arrivò	-11.8377
▁accennato	-11.8379
▁separazione	-11.8381
elle	-11.8386
▁severo	-11.8386
▁pensano	-11.8388
gun	-11.8388
▁improvvisa	-11.8389
▁coinvolge	-11.8391
71	-11.8391
▁coinvolgere	-11.8392
▁primary	-11.8393
84	-11.8394
▁invitato	-11.8394
▁hur	-11.8395
▁mun	-11.8396
▁rimaneva	-11.8396
▁emergenza	-11.8398
▁supported	-11.8399
▁roar	-11.84
▁spiegato	-11.84
▁feri	-11.8402
▁95	-11.8405
▁curva	-11.8406
▁tecnologico	-11.8406
▁geography	-11.8406
▁understanding	-11.8407
rine	-11.8409
▁farle	-11.841
celle	-11.8413
▁leap	-11.8414
pal	-11.8414
▁ul	-11.8416
▁ash	-11.8416
▁reform	-11.842
▁paoli	-11.8421
▁ritenere	-11.8421
▁marte	-11.8421
▁proponiamo	-11.8421
▁residenza	-11.8421
▁adulti	-11.8423
bbing	-11.8424
iled	-11.8425
▁vinci	-11.8425
▁arabi	-11.8426
▁oste	-11.8426
▁bib	-11.8426
▁golf	-11.8428
▁assente	-11.8428
cens	-11.8429
nning	-11.843
▁clinic	-11.8431
▁whoever	-11.8434
▁legittimo	-11.8435
▁2001.	-11.8436
▁confida	-11.8436
▁drift	-11.8436
▁orchestra	-11.8437
▁1930	-11.8438
gy	-11.8441
▁successiva	-11.8441
▁esamina	-11.8443
▁scare	-11.8443
▁birdie	-11.8444
lice	-11.8446
ised	-11.8447
▁ammoni	-11.8448
mming	-11.8448
atlantiques	-11.845
▁malcolm	-11.845
▁1971	-11.845
▁emma	-11.8452
▁levi	-11.8452
▁visite	-11.8452
ash	-11.8454
▁rientrare	-11.8455
▁lumi	-11.8455
▁efforts	-11.8456
▁conclusi	-11.8459
▁virgin	-11.8459
▁equivale	-11.8459
messi	-11.8463
▁longobardi	-11.8465
2/	-11.8465
▁domando	-11.8465
▁hits	-11.8466
))	-11.8467
audi	-11.8468
▁diedero	-11.847
▁provinciale	-11.8473
▁giustificare	-11.8474
▁punte	-11.8474
▁compiace	-11.8474
bes	-11.8475
▁spoglia	-11.8475
▁meters	-11.8476
▁sacri	-11.8479
▁helicopter	-11.8479
▁confident	-11.848
▁kevin	-11.848
▁artista	-11.8481
▁motto	-11.8482
▁tradition	-11.8483
▁pelli	-11.8484
▁ped	-11.8484
scapito	-11.8484
▁lasciano	-11.8489
ssy	-11.8491
▁guardi	-11.8493
▁ruota	-11.8494
▁beatrice	-11.8495
iere	-11.8495
▁pittura	-11.8495
▁monitor	-11.8496
▁unfortunately	-11.8497
archi	-11.8498
▁consolida	-11.8498
volo	-11.8499
▁2002,	-11.8502
▁respira	-11.8502
▁ducato	-11.8505
bli	-11.8509
ê	-11.8509
▁concittadini	-11.8509
▁harvey	-11.8509
▁visibile	-11.8509
▁temperatura	-11.851
▁prospect	-11.851
▁lasciata	-11.851
▁mestiere	-11.8512
▁alleati	-11.8513
▁drinks	-11.8513
hl	-11.8515
▁danny	-11.8515
▁vain	-11.8516
▁films	-11.8516
▁doveri	-11.8516
▁dichiarare	-11.8518
gets	-11.8519
▁logico	-11.8521
▁rilevato	-11.8521
▁sbaglia	-11.8521
▁rammarico	-11.8524
talk	-11.8525
▁mabel	-11.8526
diti	-11.8531
▁bags	-11.8531
▁popola	-11.8532
▁massimi	-11.8534
▁citizens	-11.8535
▁tokyo	-11.8539
▁ambi	-11.8539
▁rapidità	-11.854
terà	-11.8541
▁ohio	-11.8541
▁visitors	-11.8542
lari	-11.8544
▁companions	-11.8545
▁strain	-11.8549
▁discende	-11.8551
▁degrees	-11.8553
▁riduce	-11.8554
▁concludo	-11.8554
▁sfa	-11.8555
▁ribadito	-11.8557
▁risale	-11.8558
▁fatale	-11.856
▁veglia	-11.856
▁merc	-11.8562
meri	-11.8565
▁peak	-11.8567
kan	-11.8568
▁preghiere	-11.8568
▁missouri	-11.8568
▁assunta	-11.8568
▁magistrati	-11.8569
▁fantastico	-11.857
▁lode	-11.857
▁veneto	-11.8571
▁nascondere	-11.8572
▁domini	-11.8573
wy	-11.8577
nau	-11.8578
▁serbia	-11.8578
pus	-11.8578
▁jen	-11.8578
▁exact	-11.8579
▁augusto	-11.858
▁terreni	-11.858
▁43	-11.858
▁sogna	-11.8582
▁punishment	-11.8584
▁beds	-11.8585
▁dotazione	-11.8585
▁prendono	-11.8585
▁cli	-11.8587
▁inquired	-11.8588
▁covers	-11.8589
▁assegna	-11.8589
▁articola	-11.8591
▁definite	-11.8591
dog	-11.8594
▁cries	-11.8596
▁shakespeare	-11.8598
▁gravemente	-11.86
▁incremento	-11.8601
▁30,	-11.8603
▁avvenga	-11.8605
▁otter	-11.8605
▁fund	-11.8606
▁cig	-11.8606
▁collect	-11.8606
▁calci	-11.8608
▁specula	-11.8609
▁riusci	-11.861
▁davano	-11.8611
▁peg	-11.8614
▁lads	-11.8614
▁midnight	-11.8614
▁profondità	-11.8614
▁auspicabile	-11.8615
▁shaking	-11.8618
▁israeli	-11.8619
▁diego	-11.862
▁louise	-11.862
▁risa	-11.8621
sburg	-11.8621
perhaps	-11.8622
▁ferre	-11.8625
▁castella	-11.8625
aia	-11.8626
▁resiste	-11.8627
▁behold	-11.8628
▁convenzioni	-11.8628
▁injured	-11.8628
▁riposa	-11.8629
▁liquid	-11.863
▁ric	-11.8631
▁chip	-11.8636
pho	-11.8636
mpe	-11.8636
▁conoscono	-11.8637
▁congratula	-11.8641
▁preliminare	-11.8643
▁tenebre	-11.8643
bag	-11.8644
▁rinvio	-11.8644
▁estremo	-11.8646
vola	-11.8646
▁cominciava	-11.8647
▁cavi	-11.8648
▁riusciva	-11.8649
▁importazioni	-11.865
▁offrono	-11.8651
▁costs	-11.8657
▁glen	-11.8657
sciu	-11.8658
▁febbre	-11.8658
▁costruttivo	-11.8658
▁salerno	-11.8659
▁patter	-11.8659
▁jolly	-11.866
▁apples	-11.8665
asia	-11.8667
would	-11.8668
▁repress	-11.867
▁develop	-11.8671
▁explanation	-11.8673
▁1966	-11.8674
▁banks	-11.8675
pola	-11.8676
▁fil	-11.8676
▁lento	-11.8676
▁rota	-11.8679
▁bona	-11.8682
teristituzionale	-11.8688
▁cattolica	-11.8688
▁inspector	-11.8688
▁grandissimo	-11.8688
▁strinse	-11.8689
▁expedition	-11.8689
▁poetry	-11.869
▁opposto	-11.869
▁arrival	-11.8694
▁tiranno	-11.8697
▁hoc	-11.8702
▁tieni	-11.8703
▁scolastico	-11.8703
▁salotto	-11.8704
▁troppi	-11.8704
ccola	-11.8706
▁rad	-11.8708
master	-11.8712
▁veleno	-11.8714
▁provocato	-11.8714
▁integrati	-11.8717
▁sentiamo	-11.8718
▁magnifico	-11.8718
ddy	-11.8719
ortensia	-11.872
▁sfo	-11.872
▁worm	-11.872
▁percio	-11.8721
▁trovavano	-11.8723
▁fled	-11.8725
▁dy	-11.8727
▁cortesia	-11.8727
▁pretending	-11.8727
lant	-11.8731
▁abito	-11.8731
▁squirrel	-11.8734
▁zimbabwe	-11.8734
▁permitted	-11.8734
▁galere	-11.8735
▁stretti	-11.8736
▁suoni	-11.8737
▁fuma	-11.8738
▁utilizzate	-11.8741
approccio	-11.8742
ado	-11.8744
▁unhappy	-11.8745
▁michelangelo	-11.8749
▁sinistro	-11.8749
▁matematica	-11.8749
62	-11.8749
▁fermò	-11.8749
▁deroga	-11.8749
▁effie	-11.8749
cosa	-11.8749
▁favourite	-11.8749
▁contesta	-11.8751
▁berg	-11.8754
▁muovere	-11.8756
▁pilota	-11.8756
▁levò	-11.8757
▁activist	-11.8764
berto	-11.8765
▁cheek	-11.8765
vità	-11.8766
vver	-11.8767
▁favella	-11.8768
▁option	-11.8768
▁curve	-11.8769
▁cairo	-11.8769
▁01	-11.8773
▁esb	-11.8773
▁legami	-11.8773
▁avversari	-11.8774
▁minus	-11.8774
▁elevata	-11.8774
▁recarsi	-11.8774
▁(2	-11.8776
▁18,	-11.8778
▁bravi	-11.8778
▁pubblicata	-11.8778
▁imprenditori	-11.8778
▁rever	-11.8779
▁potersi	-11.8779
▁literature	-11.8779
▁soccer	-11.8779
▁carro	-11.8779
▁miserable	-11.8779
▁cromer	-11.878
cee	-11.8782
▁finalità	-11.8782
▁hid	-11.8784
▁illustrato	-11.8785
addressed	-11.8788
“	-11.8788
mbri	-11.8788
▁candida	-11.8789
▁omc	-11.8791
′	-11.8794
▁ordinò	-11.8794
▁ottiene	-11.8794
▁possiede	-11.8794
▁moltitudine	-11.8796
▁fortunatamente	-11.8796
▁ogm	-11.8797
▁croci	-11.8797
▁kelly	-11.8798
▁medicinali	-11.8799
dò	-11.8801
▁concernenti	-11.8803
▁piatti	-11.8803
▁norman	-11.8804
▁decise	-11.8807
▁root	-11.8807
▁activities	-11.881
▁satisfaction	-11.881
▁sostenibilità	-11.881
▁feast	-11.881
▁creati	-11.8811
▁scritte	-11.8811
▁answers	-11.8811
even	-11.8811
▁importance	-11.8812
eur	-11.8813
▁costanza	-11.8815
acce	-11.8815
▁condur	-11.8818
▁2013.	-11.8819
▁ages	-11.8822
▁attori	-11.8824
▁harbour	-11.8825
▁1945	-11.8826
▁aspettiamo	-11.8828
▁squadre	-11.883
▁radi	-11.883
▁smarri	-11.8831
▁avanzate	-11.8831
▁positivamente	-11.8833
▁needle	-11.8833
▁convincere	-11.8834
83	-11.8835
▁poison	-11.8836
▁riga	-11.8836
▁24,	-11.8839
▁britannica	-11.884
▁ribadisco	-11.884
▁gather	-11.884
▁colpisce	-11.8841
▁pugno	-11.8842
▁malta	-11.8843
▁attenta	-11.8844
▁trema	-11.8845
▁nowhere	-11.8846
bert	-11.8846
orum	-11.8847
▁libere	-11.8847
▁pope	-11.8848
▁marchio	-11.8849
▁averne	-11.885
lara	-11.885
▁awarded	-11.8852
82	-11.8852
▁evidenziato	-11.8853
▁ottenuti	-11.8855
▁supreme	-11.8855
▁rapidi	-11.8856
anda	-11.8857
▁def	-11.8859
▁sandy	-11.8859
▁equilibrata	-11.8861
ability	-11.8862
74	-11.8862
front	-11.8862
▁niccolò	-11.8871
▁kisses	-11.8872
draws	-11.8873
▁lanciato	-11.8873
▁infer	-11.8874
▁ramp	-11.8877
stop	-11.888
▁splendida	-11.8886
▁rappresentati	-11.8887
▁partendo	-11.8888
▁spavento	-11.8889
▁washer	-11.889
chen	-11.889
▁compre	-11.889
▁tick	-11.8899
tant	-11.8901
▁intend	-11.8901
▁elettrica	-11.8902
▁nerve	-11.8902
▁troppe	-11.8902
▁generoso	-11.8902
▁leadership	-11.8903
▁operano	-11.8903
▁definitivo	-11.8905
▁ardi	-11.8905
▁mosche	-11.8906
▁considero	-11.8909
▁passate	-11.8909
fest	-11.8909
hey	-11.8909
▁stacker	-11.8916
coming	-11.8917
innovazione	-11.8917
▁presupposto	-11.8917
▁religiose	-11.8917
▁sacerdoti	-11.8917
▁pumpkin	-11.8917
▁fermezza	-11.8918
▁napoleon	-11.8918
▁bandiere	-11.8918
▁digital	-11.8918
▁candle	-11.8922
▁variety	-11.8924
▁battere	-11.8926
contr	-11.8929
dus	-11.893
▁filosofi	-11.8931
▁sardegna	-11.8932
▁neighborhood	-11.8932
▁apollo	-11.8933
▁contenere	-11.8933
▁desideriamo	-11.8935
▁principessa	-11.8935
▁jury	-11.8936
▁adatto	-11.8938
▁stipula	-11.8939
▁menzionato	-11.894
▁trecento	-11.8941
load	-11.8941
▁stiff	-11.8942
▁tickets	-11.8944
▁sock	-11.8945
▁blocca	-11.8945
▁parish	-11.8946
▁ricorre	-11.8947
▁occidentali	-11.8948
▁famosa	-11.8948
▁jennie	-11.8948
▁vedova	-11.8949
alba	-11.8949
▁territoriale	-11.8949
▁pausa	-11.8951
▁27,	-11.8952
▁berlin	-11.8952
▁investimento	-11.8952
▁cortile	-11.8952
▁spicca	-11.8956
▁ferri	-11.8957
▁critical	-11.8959
▁prot	-11.8961
▁immense	-11.8963
▁snack	-11.8963
▁ottenne	-11.8963
▁riciclaggio	-11.8963
arma	-11.8967
▁bitter	-11.8968
▁49	-11.8968
▁products	-11.8968
pers	-11.8969
▁altezza	-11.897
▁michel	-11.897
rich	-11.8971
▁deny	-11.8973
▁neu	-11.8973
▁immediata	-11.8977
▁escludere	-11.8978
▁ralph	-11.8979
▁obliged	-11.8979
▁buonarroti	-11.8981
▁disappointed	-11.8981
try	-11.8983
▁mask	-11.8983
▁debate	-11.8985
▁interrompe	-11.8985
▁bce	-11.8986
logo	-11.8987
▁tomba	-11.8988
▁demon	-11.899
▁expecting	-11.8991
▁guasta	-11.8992
▁sl	-11.8992
essi	-11.8993
▁seguono	-11.8994
▁crimini	-11.8995
▁corporation	-11.8995
rme	-11.8997
▁boyfriend	-11.8998
▁concordato	-11.8999
▁regni	-11.9
▁cheerful	-11.9
/3	-11.9001
▁hunter	-11.9003
▁aha	-11.9003
▁nun	-11.9005
▁bab	-11.9005
▁vessels	-11.9008
▁sorridendo	-11.901
▁ambasciatori	-11.901
▁svolgono	-11.901
▁hannah	-11.901
▁esporta	-11.901
▁liberty	-11.9011
▁merely	-11.9014
▁ouch	-11.9015
▁reaching	-11.9016
▁quotidiana	-11.9022
▁sentivo	-11.9023
ille	-11.9024
▁neutral	-11.9025
▁addietro	-11.9025
▁censura	-11.9025
▁1964	-11.9026
▁committed	-11.9027
▁perceived	-11.9028
▁kan	-11.9029
▁rientrano	-11.9029
▁impegnarsi	-11.9031
▁gai	-11.9031
▁inganna	-11.9033
ngen	-11.9035
▁elaborazione	-11.9035
rup	-11.9036
▁magnetic	-11.9036
▁venite	-11.9037
▁tollera	-11.9038
▁potea	-11.9038
▁regional	-11.904
▁valuable	-11.9041
▁trattative	-11.9041
▁ringraziamento	-11.9044
▁mossa	-11.9046
▁compera	-11.9046
▁professionisti	-11.9047
▁molly	-11.9048
▁sacrificio	-11.9049
ordina	-11.9053
nton	-11.9055
▁oven	-11.9056
▁occupati	-11.9056
▁rosamund	-11.9057
▁appointment	-11.9057
▁vini	-11.9058
▁ascolto	-11.9058
▁fresca	-11.9059
▁classico	-11.9059
rba	-11.9061
://	-11.9061
eni	-11.9062
▁chew	-11.9062
enta	-11.9063
▁poly	-11.9063
▁[.6	-11.9064
▁europol	-11.9064
▁doc	-11.9068
rb	-11.9071
▁rubbish	-11.9072
▁vicepresidente	-11.9072
▁whereupon	-11.9072
▁surgery	-11.9073
▁cito	-11.9074
▁whee	-11.9075
▁rival	-11.9079
▁obey	-11.9081
does	-11.9082
▁hans	-11.9082
▁obbligatoria	-11.9083
▁sentite	-11.9083
script	-11.9087
▁coperta	-11.9088
▁bloom	-11.9089
▁fig	-11.909
▁aderire	-11.909
▁mart	-11.909
bef	-11.9091
abit	-11.9095
▁continuava	-11.9096
▁launched	-11.9096
▁mustn	-11.9097
card	-11.9098
▁senno	-11.9099
▁ideali	-11.91
▁istruzioni	-11.9102
assenza	-11.9102
▁sapienza	-11.9104
▁dovrei	-11.9104
▁vincitore	-11.9105
▁giovinezza	-11.9106
▁fairies	-11.9107
▁remote	-11.9107
▁conformemente	-11.9108
aggi	-11.911
52	-11.9112
▁bacon	-11.9114
▁vendica	-11.9116
▁volontario	-11.9116
▁ammette	-11.9117
mmy	-11.9117
▁patients	-11.9117
▁sussiste	-11.9119
dress	-11.9119
▁federazione	-11.9119
▁decenni	-11.9121
▁lewis	-11.9122
▁illness	-11.9122
▁contrastare	-11.9123
▁davide	-11.9123
gato	-11.9123
▁whoo	-11.9123
▁nights	-11.9126
▁polly	-11.9126
▁ble	-11.9129
▁[.8	-11.9129
▁muoversi	-11.9129
▁tropical	-11.913
inc	-11.9132
▁rivers	-11.9132
▁flessibile	-11.9135
▁principle	-11.9135
▁thumb	-11.9135
▁petizioni	-11.9135
▁compiuta	-11.9136
▁sought	-11.9138
▁edith	-11.9138
mission	-11.9138
▁pp	-11.9139
▁lascio	-11.914
mond	-11.9141
▁stopping	-11.9141
▁trucks	-11.9142
▁dining	-11.9143
▁mist	-11.9145
▁pears	-11.9145
bald	-11.9146
▁gab	-11.9147
▁seme	-11.9147
▁maddalena	-11.9151
▁sniff	-11.9151
▁coke	-11.9152
▁panni	-11.9153
▁aeree	-11.9153
ndipendentemente	-11.9153
▁complessi	-11.9155
▁attesta	-11.9157
mag	-11.9157
dare	-11.9158
▁iranian	-11.9159
▁rick	-11.916
▁impostazione	-11.9161
▁curato	-11.9162
▁accelerare	-11.9163
▁realizzati	-11.9163
▁collegati	-11.9164
▁artists	-11.9164
▁raffi	-11.9164
▁obbedi	-11.9165
▁shared	-11.9165
▁mh	-11.9166
▁gelosia	-11.9167
▁belonged	-11.9167
etica	-11.9167
rose	-11.9167
▁spinta	-11.9167
[...]
