<unk>	0
<s>	0
</s>	0
.	-3.34083
,	-3.52591
▁di	-3.98444
:	-4.08718
▁e	-4.19498
'	-4.20989
▁*	-4.21865
▁a	-4.26196
▁in	-4.40761
▁the	-4.42689
▁che	-4.48195
s	-4.53379
▁la	-4.56578
▁i	-4.61103
▁il	-4.65444
mot	-4.99592
▁per	-5.05184
▁and	-5.0666
?	-5.06727
▁to	-5.11846
▁un	-5.12091
▁you	-5.14161
▁non	-5.17794
chi	-5.19253
▁è	-5.33405
▁of	-5.34907
▁del	-5.39244
▁le	-5.41384
▁it	-5.42948
▁si	-5.46488
▁della	-5.55642
▁l	-5.57803
▁that	-5.59387
▁una	-5.6213
t	-5.63133
’	-5.65933
▁con	-5.68391
re	-5.7799
▁da	-5.87359
▁is	-5.94374
▁al	-5.97366
▁=	-5.98116
▁come	-5.99541
▁he	-5.99655
▁[	-6.03501
▁was	-6.03811
▁ma	-6.04023
▁"	-6.08751
▁dei	-6.11834
▁più	-6.17255
▁on	-6.19425
!	-6.20351
▁gli	-6.21033
▁what	-6.22818
i	-6.2322
]	-6.26842
▁sono	-6.27192
▁for	-6.28309
▁all	-6.29178
▁alla	-6.29473
▁-	-6.3006
▁se	-6.32822
▁delle	-6.33712
▁nel	-6.34357
▁questo	-6.34763
▁dell	-6.34946
▁ha	-6.36549
-	-6.40309
▁me	-6.40855
▁we	-6.41853
▁o	-6.44799
▁this	-6.44996
▁no	-6.47084
▁with	-6.49291
to	-6.49682
no	-6.50248
e	-6.51121
▁lo	-6.5346
▁do	-6.5436
▁she	-6.58203
▁anche	-6.59192
▁they	-6.60353
ta	-6.61799
m	-6.62753
o	-6.62821
▁be	-6.62946
a	-6.63106
▁have	-6.65421
▁at	-6.6571
▁so	-6.65951
▁mi	-6.67835
▁there	-6.69279
▁not	-6.7168
te	-6.71974
▁ed	-6.72067
▁ad	-6.72732
ti	-6.75564
...	-6.7744
▁can	-6.77918
▁one	-6.77936
▁but	-6.78156
▁her	-6.78558
;	-6.79449
d	-6.79843
▁are	-6.81499
▁.	-6.81503
▁his	-6.82358
▁ci	-6.83526
▁nella	-6.84346
▁as	-6.8503
▁(	-6.87109
va	-6.87213
▁questa	-6.88834
▁era	-6.89961
▁don	-6.93808
▁cui	-6.93943
fat	-6.94281
▁oh	-6.96017
▁dal	-6.96201
▁commissione	-6.96398
▁essere	-6.98436
▁loro	-6.98632
▁my	-6.9951
▁had	-7.00627
r	-7.01908
▁your	-7.02473
▁up	-7.02566
▁like	-7.04208
▁know	-7.04607
▁sua	-7.05684
▁go	-7.06363
▁suo	-7.07551
▁yeah	-7.08047
▁tutti	-7.1002
▁su	-7.11378
▁from	-7.14045
▁ai	-7.14363
▁alle	-7.14725
▁d	-7.14808
▁here	-7.15515
)	-7.17299
▁degli	-7.18021
▁out	-7.18091
ed	-7.18624
ndo	-7.19027
▁tra	-7.20397
ll	-7.21043
▁stato	-7.21351
▁	-7.21961
▁'	-7.22165
ve	-7.22256
ing	-7.22709
▁vi	-7.24103
▁de	-7.2428
▁sia	-7.26674
▁by	-7.26951
▁or	-7.27108
▁him	-7.2723
▁ho	-7.27499
▁ne	-7.28547
▁stati	-7.28637
▁an	-7.28929
▁presidente	-7.29171
▁dalla	-7.29879
▁due	-7.3054
▁get	-7.30639
▁were	-7.3105
▁europea	-7.31194
▁if	-7.31906
▁io	-7.31936
▁così	-7.32857
▁see	-7.33279
▁tutto	-7.34804
"	-7.36081
▁just	-7.36452
▁parte	-7.36685
▁now	-7.37955
▁quando	-7.38662
▁signor	-7.3894
▁sul	-7.39036
▁when	-7.39819
▁then	-7.40139
▁quanto	-7.40148
▁right	-7.40386
▁fatto	-7.40452
▁about	-7.40869
▁“	-7.42511
▁solo	-7.43492
▁them	-7.43565
▁hanno	-7.43821
▁molto	-7.43928
▁well	-7.44439
▁chi	-7.44565
▁said	-7.45034
▁sulla	-7.45382
▁who	-7.46202
▁cosa	-7.46563
▁c	-7.48594
▁prima	-7.49753
▁think	-7.49958
n	-7.51093
unione	-7.51392
▁modo	-7.51607
▁senza	-7.51723
▁ancora	-7.53512
▁some	-7.53889
▁where	-7.55011
▁did	-7.5524
▁parlamento	-7.56192
▁–	-7.56323
▁okay	-7.56382
▁would	-7.56803
▁quella	-7.57563
▁fu	-7.58083
▁quale	-7.59067
▁abbiamo	-7.59719
▁ogni	-7.60381
▁poi	-7.60492
▁mio	-7.60831
▁consiglio	-7.60835
▁look	-7.61465
▁ciò	-7.61684
▁può	-7.62198
▁perché	-7.62392
▁good	-7.62432
▁got	-7.62482
▁how	-7.6254
▁little	-7.63306
▁uno	-7.63423
▁will	-7.63526
▁sempre	-7.63999
▁re	-7.64116
▁noi	-7.64594
rsi	-7.64865
▁altri	-7.64965
▁fa	-7.64982
si	-7.65185
▁dopo	-7.65821
."	-7.66126
▁fare	-7.67057
▁già	-7.67387
na	-7.67505
▁tempo	-7.68271
le	-7.68439
▁put	-7.68659
inv	-7.70281
▁xxx	-7.7039
▁quello	-7.70565
▁relazione	-7.70678
▁nei	-7.70688
▁questi	-7.70924
].	-7.71326
▁more	-7.72128
▁anni	-7.72306
▁s	-7.7267
▁aveva	-7.7324
ni	-7.73594
▁ora	-7.73832
▁want	-7.74249
▁yes	-7.74305
▁nell	-7.75408
▁time	-7.76089
vano	-7.7611
ne	-7.76359
▁paesi	-7.7653
▁quindi	-7.77386
▁back	-7.77812
▁been	-7.78259
▁which	-7.78547
▁down	-7.78608
▁two	-7.79514
▁very	-7.79658
▁their	-7.80049
▁qui	-7.8017
▁politica	-7.80553
▁nelle	-7.81305
▁over	-7.81774
y	-7.82122
▁quel	-7.82167
mente	-7.82194
▁tale	-7.82242
sse	-7.82799
ly	-7.82804
▁egli	-7.8311
▁b	-7.83751
▁has	-7.84496
l	-7.85052
nte	-7.85357
ro	-7.85496
▁,	-7.85952
▁lavoro	-7.8734
▁quali	-7.87349
▁going	-7.87454
▁membri	-7.88638
▁vita	-7.88639
▁mia	-7.90589
▁could	-7.91382
ri	-7.91573
▁let	-7.91725
▁fra	-7.91771
▁europeo	-7.91882
▁contro	-7.92582
▁lui	-7.94269
▁suoi	-7.94445
er	-7.94636
▁say	-7.94765
li	-7.95437
▁man	-7.95968
▁ti	-7.96323
▁dove	-7.9685
▁fine	-7.96871
▁tutte	-7.97694
▁?	-7.98129
▁deve	-7.98464
è	-7.98752
▁volta	-7.98903
▁far	-8.0013
la	-8.00555
,"	-8.0086
▁other	-8.01398
▁punto	-8.01802
zione	-8.0269
▁mai	-8.02697
▁perchè	-8.02892
▁nostro	-8.03005
▁people	-8.0302
▁gonna	-8.03281
▁li	-8.03375
in	-8.03418
▁grande	-8.03468
▁secondo	-8.03716
▁make	-8.04242
▁queste	-8.04442
▁dall	-8.04802
▁take	-8.05764
▁altro	-8.06121
/	-8.06719
▁lei	-8.0677
▁why	-8.06805
▁bene	-8.06919
▁proprio	-8.0781
▁mondo	-8.0875
▁col	-8.09517
▁tu	-8.09582
▁into	-8.09878
▁oggi	-8.10857
▁off	-8.11061
▁us	-8.11743
▁primo	-8.11956
▁sotto	-8.12082
vi	-8.12988
▁giorno	-8.13079
▁siamo	-8.13127
▁sarà	-8.13732
▁stesso	-8.13932
▁dobbiamo	-8.1409
▁tre	-8.14155
▁tanto	-8.14391
▁nostra	-8.14397
▁sta	-8.14808
▁first	-8.14932
▁too	-8.15185
▁dai	-8.15601
▁way	-8.15979
▁these	-8.16154
▁qualche	-8.16172
lo	-8.16634
nti	-8.18042
▁uh	-8.18542
▁vorrei	-8.18565
c	-8.18616
▁allora	-8.18881
rono	-8.18883
▁sue	-8.18956
▁agli	-8.1899
▁alcuni	-8.19127
co	-8.19213
▁dire	-8.19668
▁%	-8.19939
▁via	-8.20199
▁stata	-8.20441
▁erano	-8.20461
mo	-8.20892
▁sarebbe	-8.20994
▁any	-8.21473
▁because	-8.217
▁after	-8.21983
ci	-8.224
▁caso	-8.22717
▁our	-8.23675
▁ri	-8.24047
▁detto	-8.25076
▁diritti	-8.25384
▁proposta	-8.2551
▁forse	-8.25521
▁tell	-8.25621
▁però	-8.25844
▁dalle	-8.26375
mi	-8.274
▁paese	-8.27482
▁po	-8.27489
▁va	-8.27623
se	-8.27644
▁only	-8.2778
▁sì	-8.28045
▁voi	-8.29166
▁commissario	-8.29632
▁meno	-8.30108
▁nome	-8.30291
▁er	-8.30299
▁cose	-8.30404
▁persone	-8.30453
vo	-8.30751
▁casa	-8.30774
ò	-8.30906
--	-8.31162
▁importante	-8.31551
▁problema	-8.31846
▁sviluppo	-8.32239
▁altre	-8.3233
de	-8.33421
▁momento	-8.34302
▁fosse	-8.34428
▁really	-8.34496
rlo	-8.35147
▁something	-8.35163
▁sulle	-8.35344
▁poco	-8.35556
▁verso	-8.35801
▁tuttavia	-8.36369
▁questione	-8.3643
▁much	-8.37085
onorevole	-8.37164
▁wanna	-8.37377
▁nuovo	-8.37634
▁possibile	-8.37658
▁new	-8.37948
▁made	-8.38279
w	-8.38642
▁tutta	-8.39235
▁cittadini	-8.39264
▁didn	-8.40004
es	-8.40388
▁ben	-8.40413
▁città	-8.40494
▁car	-8.40761
▁te	-8.40985
▁molti	-8.41081
so	-8.41479
▁um	-8.41623
▁again	-8.41839
▁before	-8.42061
▁base	-8.42558
▁than	-8.42708
▁sicurezza	-8.4315
▁should	-8.43237
▁sa	-8.43328
▁n	-8.437
▁home	-8.43721
▁big	-8.44007
▁mentre	-8.44026
▁tratta	-8.44158
▁dello	-8.44371
▁quelle	-8.44541
▁gran	-8.44712
▁day	-8.44795
▁sui	-8.44833
▁nostri	-8.45314
▁those	-8.45457
▁gruppo	-8.45604
▁avere	-8.45961
▁particolare	-8.46046
▁went	-8.46154
▁comune	-8.46848
▁three	-8.46982
rà	-8.47116
europa	-8.47153
▁quasi	-8.47197
zioni	-8.47256
▁came	-8.47407
▁situazione	-8.47456
▁luogo	-8.47548
▁diritto	-8.47632
?"	-8.48199
▁ah	-8.48432
di	-8.48979
”	-8.49519
▁governo	-8.49572
▁signora	-8.49617
▁does	-8.49745
▁esempio	-8.50663
▁inoltre	-8.50973
▁livello	-8.51012
p	-8.51141
▁nè	-8.51315
▁certo	-8.51361
▁away	-8.51507
▁rispetto	-8.52201
▁vero	-8.52351
▁long	-8.52473
▁fino	-8.52723
▁sistema	-8.53112
▁never	-8.53375
▁invece	-8.53558
sa	-8.53813
ra	-8.54212
b	-8.54481
▁play	-8.54693
▁sull	-8.55589
▁mean	-8.55809
▁give	-8.55988
▁baby	-8.56169
▁possono	-8.5619
▁house	-8.56677
▁also	-8.57586
▁old	-8.57659
▁book	-8.58276
▁state	-8.58287
mento	-8.58861
▁mercato	-8.58886
▁settore	-8.58921
▁tali	-8.59146
ca	-8.59188
▁am	-8.59261
▁another	-8.59359
▁mano	-8.59739
▁thing	-8.60062
▁things	-8.6069
▁2	-8.60826
▁sopra	-8.61081
amo	-8.61164
on	-8.61228
u	-8.61527
▁parole	-8.61766
_	-8.61775
▁troppo	-8.61814
▁many	-8.61869
▁still	-8.61981
al	-8.62013
▁viene	-8.62693
▁1	-8.62773
▁materia	-8.6301
▁negli	-8.63304
ma	-8.63329
▁allo	-8.63663
▁credo	-8.63899
▁aver	-8.64102
▁need	-8.64272
▁may	-8.64294
▁mother	-8.6485
▁occhi	-8.65282
▁work	-8.65473
▁guerra	-8.65668
the	-8.6589
▁siano	-8.65966
▁great	-8.6597
▁doing	-8.6613
▁generale	-8.66336
mar	-8.6645
▁through	-8.66481
▁favore	-8.66621
h	-8.66631
▁dio	-8.66728
add	-8.66753
rla	-8.67078
▁donne	-8.67264
▁thought	-8.67544
▁must	-8.67669
x	-8.67714
g	-8.68089
▁volte	-8.68093
▁riguarda	-8.68297
▁oltre	-8.6843
▁disse	-8.69297
▁last	-8.69318
rmi	-8.7029
th	-8.70347
rci	-8.70447
▁even	-8.70459
▁colleghi	-8.71032
▁sei	-8.71157
▁roma	-8.71313
".	-8.71454
▁quelli	-8.71485
▁stessa	-8.71499
▁problemi	-8.71806
▁terra	-8.71864
▁donna	-8.71871
nan	-8.72042
▁name	-8.72133
da	-8.72251
▁possiamo	-8.72292
).	-8.72712
▁3	-8.7276
▁grandi	-8.72833
▁boy	-8.72907
tta	-8.7293
▁men	-8.72935
▁meglio	-8.73314
▁devono	-8.73337
▁anno	-8.7358
▁numero	-8.73603
▁processo	-8.73722
us	-8.73881
▁direttiva	-8.74079
▁son	-8.74091
laughs	-8.74166
▁programma	-8.74176
▁!	-8.74444
▁nuova	-8.7484
▁onorevole	-8.74867
▁night	-8.75109
▁huh	-8.75545
▁find	-8.75708
go	-8.75799
▁co	-8.75938
▁sociale	-8.76079
▁dunque	-8.76101
do	-8.76959
▁nulla	-8.76973
▁insieme	-8.77048
▁head	-8.77255
▁mezzo	-8.77376
che	-8.77684
▁parti	-8.77824
ce	-8.77977
▁won	-8.78432
▁avrebbe	-8.78659
▁uomini	-8.78697
▁sec	-8.78891
▁soprattutto	-8.7911
▁mr	-8.79167
▁libertà	-8.79183
▁infatti	-8.79208
▁pertanto	-8.7933
▁porta	-8.79377
▁dato	-8.79512
▁hand	-8.79739
▁erm	-8.79745
▁necessario	-8.79935
▁grazie	-8.80089
▁dare	-8.80135
▁lungo	-8.80273
▁società	-8.80278
exp	-8.80314
▁onorevoli	-8.80336
▁quest	-8.80388
▁around	-8.80408
▁mm	-8.8051
man	-8.8076
▁bisogno	-8.80934
▁cuore	-8.81185
▁called	-8.81578
▁conto	-8.81796
▁essi	-8.81967
▁alcune	-8.82126
▁maggiore	-8.8219
me	-8.82707
▁essa	-8.82889
sta	-8.82945
▁discussione	-8.83156
k	-8.83293
▁dice	-8.8331
▁vedere	-8.83403
▁vista	-8.83422
▁futuro	-8.83439
▁ella	-8.83565
▁girl	-8.83634
▁senso	-8.83692
▁ecco	-8.84126
▁popolo	-8.84201
▁giorni	-8.84223
▁morte	-8.8469
▁storia	-8.84706
▁eat	-8.84993
▁might	-8.8528
▁most	-8.85533
▁bilancio	-8.85618
▁pace	-8.8577
▁europa	-8.85802
▁ricerca	-8.85952
▁help	-8.86099
▁place	-8.86199
▁thank	-8.86309
▁corso	-8.86317
▁forza	-8.86396
▁life	-8.86656
▁m	-8.86716
it	-8.86829
▁sembra	-8.86907
▁campo	-8.86935
▁soltanto	-8.86957
▁done	-8.87068
▁possa	-8.87569
v	-8.87624
▁san	-8.88029
▁sure	-8.88129
▁hey	-8.88271
ssero	-8.88647
▁forma	-8.88652
▁fuori	-8.88755
▁father	-8.88918
▁servizi	-8.8896
▁better	-8.88964
▁posizione	-8.88975
▁potrebbe	-8.88989
▁being	-8.8941
▁years	-8.89688
▁misure	-8.89755
!"	-8.90228
▁mommy	-8.90619
▁school	-8.90888
f	-8.90953
▁capo	-8.90976
rne	-8.91208
▁please	-8.91421
▁water	-8.9178
sti	-8.91961
▁pro	-8.91988
▁legge	-8.91997
▁nostre	-8.92266
▁while	-8.92781
▁ce	-8.92821
▁such	-8.93117
▁possibilità	-8.93211
▁love	-8.93213
il	-8.93224
▁risposta	-8.93316
ga	-8.93625
▁uomo	-8.93696
anno	-8.93745
▁anything	-8.93855
▁dovrebbe	-8.93938
▁europei	-8.94053
▁18	-8.94064
▁nice	-8.94269
▁else	-8.94415
▁fece	-8.94541
),	-8.94625
▁mhm	-8.94639
▁presente	-8.94716
▁pure	-8.94765
▁posto	-8.95064
bile	-8.9523
▁buona	-8.95337
▁presso	-8.95468
azione	-8.95521
▁nuovi	-8.9564
▁abbia	-8.95654
▁grado	-8.96042
▁tal	-8.96082
▁found	-8.9617
▁propria	-8.96532
▁t	-8.9672
▁spesso	-8.96721
▁world	-8.96953
and	-8.97106
▁part	-8.97375
▁emendamenti	-8.97427
▁piano	-8.97563
▁durante	-8.97582
▁mani	-8.97698
▁pur	-8.97742
ndosi	-8.97826
▁voce	-8.97834
▁necessità	-8.98057
int	-8.98083
▁next	-8.98107
▁causa	-8.98209
▁4	-8.98291
▁proposte	-8.98736
▁quadro	-8.98916
▁domanda	-8.98959
▁padre	-8.99006
▁four	-8.99047
▁né	-8.99133
▁fronte	-8.9915
tà	-8.99202
▁principio	-8.99221
▁condizioni	-8.9925
ranno	-8.99414
tion	-8.9953
▁ragione	-8.99543
▁under	-8.99674
▁own	-8.99744
▁same	-8.99825
▁poter	-8.99832
▁posso	-8.99886
rò	-8.9991
▁kind	-8.99924
zza	-8.99963
▁doesn	-9.00122
▁molte	-9.00205
▁appena	-9.00243
▁parola	-9.00517
▁p	-9.00589
▁gente	-9.008
▁male	-9.0085
an	-9.00853
▁umani	-9.00982
▁internazionale	-9.01093
▁là	-9.01318
▁davvero	-9.0136
▁buon	-9.01694
▁ball	-9.01834
▁dagli	-9.01849
▁quei	-9.01939
▁5	-9.02027
▁lot	-9.02182
▁trattato	-9.0219
▁realtà	-9.02308
▁progetto	-9.02438
as	-9.02682
▁used	-9.02835
z	-9.02956
▁visto	-9.03107
▁avuto	-9.03254
▁saw	-9.03628
▁face	-9.03736
altro	-9.03885
▁qualità	-9.03952
ssi	-9.0425
▁told	-9.04265
▁always	-9.04312
tti	-9.04557
▁room	-9.05133
▁seconda	-9.05247
▁hai	-9.0553
▁cooperazione	-9.05786
sis	-9.06236
io	-9.06264
▁unione	-9.06424
▁show	-9.06781
▁desidero	-9.0685
▁politiche	-9.06875
▁avevano	-9.07129
▁ever	-9.07156
▁v	-9.07258
▁circa	-9.07319
▁attività	-9.07321
ssimo	-9.07539
▁end	-9.07691
▁left	-9.07809
ty	-9.07987
▁luce	-9.08347
▁saranno	-9.08417
▁passo	-9.08437
he	-9.08456
▁five	-9.08543
▁cento	-9.08587
▁keep	-9.08758
▁quattro	-9.09006
▁forte	-9.09278
▁nothing	-9.0938
▁isn	-9.09464
▁presidenza	-9.09526
▁call	-9.0958
.]	-9.09597
be	-9.09882
▁occorre	-9.099
▁idea	-9.09951
▁tipo	-9.10229
rle	-9.10301
▁voglio	-9.10398
▁nuove	-9.1053
▁miei	-9.10535
▁pre	-9.10575
▁dati	-9.10582
▁cioè	-9.10686
en	-9.10696
▁tempi	-9.10711
▁controllo	-9.10754
▁open	-9.10943
▁papa	-9.10949
▁talk	-9.11196
▁strada	-9.113
▁ruolo	-9.11561
▁red	-9.11666
accordo	-9.11764
▁turn	-9.11925
▁tuo	-9.12049
▁comunità	-9.12214
▁adesso	-9.12343
▁took	-9.12376
tto	-9.12425
▁every	-9.12462
▁diversi	-9.12567
▁«	-9.12645
▁merito	-9.12836
▁natura	-9.13193
▁subito	-9.13226
rvi	-9.13253
▁its	-9.13325
▁miss	-9.13711
▁risoluzione	-9.13733
▁nessuno	-9.13766
▁bit	-9.1383
▁imprese	-9.1392
▁riguardo	-9.13999
bro	-9.14066
▁accordo	-9.14213
▁milioni	-9.14244
▁andare	-9.14336
▁regolamento	-9.1442
tte	-9.14431
tori	-9.14994
▁use	-9.15048
▁qualcosa	-9.15166
▁attraverso	-9.15425
▁nazionale	-9.15517
rli	-9.15769
▁once	-9.15845
▁fondo	-9.15968
▁vengono	-9.16029
▁nazionali	-9.1614
▁infine	-9.16267
ria	-9.16277
ato	-9.16296
▁persona	-9.16514
gli	-9.16543
▁try	-9.16597
▁goes	-9.16822
menti	-9.16883
▁esso	-9.17038
ha	-9.17101
▁mot	-9.17339
or	-9.17404
▁maggior	-9.1749
▁regno	-9.17713
▁seguito	-9.17737
▁termine	-9.17762
▁furono	-9.18056
▁money	-9.18133
▁euro	-9.18173
▁10	-9.18204
▁informazioni	-9.18235
ted	-9.183
▁maybe	-9.18305
▁garantire	-9.18565
▁pubblico	-9.19063
▁god	-9.19071
nza	-9.19096
▁comunque	-9.19211
▁prodotti	-9.19228
▁number	-9.19306
▁year	-9.19329
▁fatti	-9.19372
▁course	-9.19448
▁bella	-9.19623
▁hi	-9.19701
▁king	-9.19769
▁u	-9.19808
▁colla	-9.19868
▁door	-9.20057
▁city	-9.20059
▁until	-9.20258
▁fin	-9.20258
▁responsabilità	-9.2029
▁francia	-9.20307
▁g	-9.20351
▁sostegno	-9.2039
▁sorry	-9.2051
▁uniti	-9.20521
ers	-9.20545
▁wait	-9.20686
▁both	-9.20697
j	-9.20814
▁though	-9.20846
▁famiglia	-9.20884
▁obiettivi	-9.21032
▁lotta	-9.21103
▁remember	-9.21158
▁pubblica	-9.21278
▁coloro	-9.21447
▁avanti	-9.21491
",	-9.21496
▁motivo	-9.2154
▁parere	-9.21607
▁periodo	-9.21744
▁autorità	-9.21761
▁hm	-9.2178
▁italia	-9.21874
are	-9.21922
era	-9.22016
▁poteva	-9.22072
.”	-9.221
▁prendere	-9.22129
▁parlare	-9.22291
▁decisione	-9.22296
▁dibattito	-9.227
▁chiesa	-9.22739
▁corpo	-9.22822
▁shall	-9.22822
▁best	-9.22849
▁enough	-9.22943
one	-9.22953
em	-9.23323
▁dog	-9.23387
▁almeno	-9.23437
▁read	-9.23489
▁ve	-9.23502
ba	-9.23558
▁eyes	-9.2362
que	-9.23755
▁together	-9.23774
ry	-9.23816
▁side	-9.23933
▁prova	-9.24077
▁_	-9.24295
▁mesi	-9.24299
▁testa	-9.24508
is	-9.24873
▁anzi	-9.24993
you	-9.25116
▁quite	-9.25411
un	-9.2543
ck	-9.2545
▁relazioni	-9.25514
▁case	-9.25588
▁corte	-9.25737
▁deputati	-9.25905
um	-9.26003
▁hard	-9.26183
▁qual	-9.26218
▁upon	-9.26295
▁looks	-9.26321
▁ritengo	-9.26325
▁significa	-9.26363
▁box	-9.26493
▁potuto	-9.26501
▁ii	-9.26583
▁punti	-9.26886
▁black	-9.27115
▁cup	-9.27172
yes	-9.27247
▁giustizia	-9.27295
▁testo	-9.27392
▁morning	-9.2754
▁questioni	-9.27572
bili	-9.27778
▁daddy	-9.27913
▁ore	-9.28024
▁diverse	-9.28393
▁trovare	-9.28402
▁qua	-9.28495
▁bisogna	-9.28687
▁stop	-9.2888
▁children	-9.28936
▁coming	-9.28941
▁signore	-9.29061
ie	-9.29075
▁vuole	-9.29379
▁studio	-9.29526
▁tua	-9.29638
▁vogliamo	-9.29697
loi	-9.29708
▁fondi	-9.29742
▁assai	-9.29976
▁sede	-9.30079
▁bad	-9.30139
▁libro	-9.30269
▁sir	-9.30284
▁salute	-9.30397
▁stiamo	-9.30534
fi	-9.30581
▁mare	-9.30602
▁difficile	-9.30608
▁asked	-9.30705
▁r	-9.30756
▁pretty	-9.30801
ng	-9.30807
▁fanno	-9.30877
▁...	-9.30998
▁pesca	-9.31037
▁looking	-9.31129
▁politico	-9.31171
▁seen	-9.31206
▁says	-9.31407
▁pare	-9.31553
▁successo	-9.31606
▁young	-9.31614
▁hear	-9.31736
▁few	-9.31819
▁between	-9.31956
▁intorno	-9.31957
▁effetti	-9.31963
▁each	-9.32107
▁aiuti	-9.32129
▁different	-9.32187
▁faccia	-9.32383
▁child	-9.32488
▁leave	-9.32827
▁poiché	-9.32901
▁sola	-9.32913
▁nello	-9.32933
altra	-9.32935
▁altra	-9.32935
▁feel	-9.32946
▁notte	-9.33143
▁risorse	-9.33144
▁gone	-9.33178
▁x	-9.33188
▁pi	-9.33234
▁second	-9.3325
▁relatore	-9.33288
▁sera	-9.33362
pat	-9.33387
▁mrs	-9.33596
▁without	-9.33633
▁breve	-9.33655
▁servizio	-9.33677
▁15	-9.33748
▁bambini	-9.33811
▁table	-9.33931
▁united	-9.34044
per	-9.34092
▁real	-9.34114
pa	-9.34134
▁madre	-9.3416
▁everything	-9.34201
▁sole	-9.34247
▁known	-9.34346
▁avesse	-9.34411
▁bar	-9.34543
lla	-9.34656
▁heard	-9.34896
▁rappresenta	-9.34998
ano	-9.35266
▁casi	-9.35273
ge	-9.35284
▁guarda	-9.3536
▁migliore	-9.35478
▁innanzi	-9.35542
▁yet	-9.35701
▁story	-9.35727
▁pari	-9.35748
▁norme	-9.35754
tore	-9.35791
▁misura	-9.35914
▁alcun	-9.35994
▁mom	-9.36104
▁data	-9.36111
▁20	-9.36194
▁istituzioni	-9.36435
▁ultimi	-9.36587
▁chiaro	-9.36631
gi	-9.36927
▁sè	-9.37054
▁proposito	-9.37081
▁eh	-9.3711
▁valore	-9.37145
▁attenzione	-9.37212
▁color	-9.37218
▁since	-9.37311
▁cinque	-9.37372
▁potere	-9.37429
▁care	-9.37519
▁wanted	-9.37647
▁tema	-9.37687
▁round	-9.37711
▁6	-9.37842
▁linea	-9.37851
ale	-9.37853
▁trova	-9.37933
▁spirito	-9.3796
▁piuttosto	-9.37991
▁veramente	-9.38069
cha	-9.38258
▁soluzione	-9.38294
▁later	-9.38296
▁principi	-9.38395
▁ca	-9.38439
▁top	-9.38441
▁mo	-9.38494
▁nonché	-9.38584
▁mind	-9.38667
ia	-9.38798
rti	-9.38909
▁passato	-9.38962
ate	-9.38979
▁pochi	-9.39329
▁mettere	-9.39399
ch	-9.39483
▁today	-9.39569
▁giovani	-9.39573
▁ready	-9.39624
▁economica	-9.39691
ting	-9.40002
▁sapere	-9.40097
▁primi	-9.40286
▁serie	-9.40397
▁move	-9.40527
▁vostra	-9.40609
▁termini	-9.40686
▁qualsiasi	-9.40898
▁american	-9.40966
,”	-9.41035
▁cos	-9.41054
▁white	-9.4109
oh	-9.41249
▁conte	-9.41547
▁looked	-9.41723
▁ten	-9.41727
we	-9.41783
rio	-9.41795
▁set	-9.41816
sib	-9.4187
▁himself	-9.41935
▁resto	-9.42116
ue	-9.42149
▁half	-9.42173
▁importanti	-9.42232
▁grave	-9.42273
▁protezione	-9.42295
▁fire	-9.42308
▁creare	-9.42334
▁et	-9.42347
▁against	-9.42542
▁sociali	-9.42565
▁food	-9.42681
▁partito	-9.42721
▁avete	-9.42803
▁centro	-9.4289
▁opera	-9.42899
▁hafta	-9.43006
▁getting	-9.4311
▁presto	-9.43118
rebbe	-9.43198
▁high	-9.432
▁terzo	-9.43443
▁ask	-9.43616
▁light	-9.43637
mmo	-9.43868
▁regioni	-9.44057
adu	-9.44076
ho	-9.44339
▁penso	-9.44356
▁spazio	-9.44384
▁risultati	-9.44441
▁armi	-9.44474
▁ministro	-9.44544
▁ro	-9.44563
bo	-9.44619
▁sit	-9.44636
▁hands	-9.44659
▁devo	-9.4466
▁camera	-9.44661
rie	-9.4474
▁knew	-9.44827
▁stessi	-9.44836
▁blue	-9.4497
▁hold	-9.45181
▁maniera	-9.45196
▁live	-9.45197
sco	-9.45345
interno	-9.45496
est	-9.45504
▁war	-9.45518
▁dentro	-9.45698
▁aspetti	-9.45765
▁facendo	-9.45798
▁vostro	-9.4582
▁bed	-9.45879
ambito	-9.45902
▁dietro	-9.45903
▁amici	-9.45977
▁happened	-9.45985
▁politici	-9.45998
▁atto	-9.46228
▁entro	-9.46293
po	-9.46304
▁ta	-9.4642
▁bo	-9.46435
▁finalmente	-9.46445
▁watch	-9.46717
▁fede	-9.46721
▁small	-9.46806
▁believe	-9.46982
▁lettera	-9.47045
▁stanno	-9.47062
▁ya	-9.47074
▁figlio	-9.47138
▁green	-9.47291
▁12	-9.47303
▁procedura	-9.47398
▁alright	-9.47453
ambiente	-9.47627
▁naturalmente	-9.47953
”.	-9.48007
▁regione	-9.48058
▁parla	-9.48289
▁amore	-9.48307
bi	-9.48403
nt	-9.48591
▁sangue	-9.48638
▁stay	-9.4869
▁alcuna	-9.4875
▁confronti	-9.48884
▁having	-9.48899
▁secolo	-9.49159
▁giovane	-9.49178
▁soon	-9.4919
▁page	-9.49231
▁six	-9.49315
▁affrontare	-9.49321
gra	-9.49436
▁affinché	-9.49494
▁heart	-9.49527
▁titolo	-9.49613
▁7	-9.49675
▁bel	-9.49791
▁duca	-9.49873
▁piedi	-9.49877
ter	-9.50039
1	-9.50159
▁states	-9.50164
▁vale	-9.50191
▁born	-9.50301
▁actually	-9.50382
▁girls	-9.50417
▁seno	-9.50439
▁talking	-9.50503
ar	-9.50514
▁party	-9.51032
▁pensiero	-9.51061
▁picture	-9.51079
▁niente	-9.51094
▁repubblica	-9.51123
▁genere	-9.51432
▁ottenere	-9.51719
▁preso	-9.51738
▁semplice	-9.51775
▁gave	-9.51946
▁whole	-9.51971
▁pel	-9.52015
▁tanti	-9.52168
▁crescita	-9.52217
▁gestione	-9.52223
▁lì	-9.5223
▁carlo	-9.52233
▁cat	-9.52252
▁giusto	-9.52273
▁♪	-9.5234
▁mondiale	-9.52369
▁interno	-9.524
▁democrazia	-9.52576
▁milano	-9.52599
▁days	-9.52802
▁dear	-9.53053
2	-9.53134
ste	-9.53251
▁lavoratori	-9.53289
▁run	-9.53292
▁importanza	-9.53324
▁riforma	-9.53427
▁occasione	-9.53451
▁risultato	-9.53535
lli	-9.5364
▁making	-9.53691
ness	-9.53911
▁fondamentale	-9.5393
▁close	-9.54047
llo	-9.54148
tu	-9.54154
▁fatta	-9.5417
el	-9.54221
▁spero	-9.54275
▁strategia	-9.54514
▁domani	-9.54733
▁volontà	-9.54837
sca	-9.54981
▁saying	-9.55006
▁family	-9.55151
▁dieci	-9.55296
▁lady	-9.55406
▁woman	-9.5545
▁perciò	-9.5554
▁during	-9.55586
▁produzione	-9.55665
▁gruppi	-9.55767
▁nazioni	-9.55789
▁coi	-9.5582
▁difficoltà	-9.55857
▁f	-9.55876
▁dovuto	-9.55948
▁sort	-9.56063
ur	-9.5614
▁piccolo	-9.56198
▁richiesta	-9.56309
at	-9.56341
▁mente	-9.56514
▁commercio	-9.56596
▁pa	-9.56696
iamo	-9.56961
▁friend	-9.57025
▁k	-9.57122
▁comunicazione	-9.57237
▁vede	-9.57279
nze	-9.57282
▁esiste	-9.57359
uomo	-9.57453
▁venne	-9.5746
▁alto	-9.57663
▁scopo	-9.57832
▁personale	-9.57848
▁mie	-9.57853
▁mal	-9.57854
▁posti	-9.57894
▁almost	-9.57912
▁doveva	-9.57974
▁fondamentali	-9.58044
▁par	-9.58143
▁convenzione	-9.58359
ata	-9.58368
▁aspetto	-9.5842
▁popolazione	-9.58441
▁toys	-9.58456
▁essendo	-9.58526
▁vari	-9.58532
▁cura	-9.58553
▁specie	-9.58611
am	-9.58698
ling	-9.58863
▁letto	-9.59011
▁contrario	-9.59036
00	-9.59068
▁sappiamo	-9.59138
▁cielo	-9.59321
zze	-9.59413
pi	-9.59536
▁pratica	-9.5958
▁consumatori	-9.59697
▁team	-9.59712
▁verità	-9.5977
▁faceva	-9.59827
▁paper	-9.59862
pe	-9.60137
▁town	-9.60248
▁difesa	-9.60482
▁wasn	-9.60553
▁tutela	-9.6059
▁basta	-9.60635
▁started	-9.6067
▁died	-9.60672
gna	-9.60769
▁presentato	-9.60896
▁assolutamente	-9.61011
▁30	-9.61015
▁principe	-9.6103
▁continua	-9.6111
▁start	-9.61136
▁ebbe	-9.61161
▁guy	-9.61271
▁17	-9.61531
▁formazione	-9.61601
fa	-9.61605
ì	-9.61656
car	-9.61693
▁rischio	-9.61695
▁pensare	-9.61798
▁programmi	-9.61844
▁fossero	-9.61863
▁trying	-9.61895
▁tratto	-9.61987
▁intende	-9.62061
▁inter	-9.62145
ssima	-9.62209
▁moglie	-9.6221
▁riferimento	-9.62344
▁europee	-9.62363
(	-9.62481
▁capacità	-9.62486
▁settori	-9.62491
ssa	-9.62571
▁rispose	-9.62577
▁ni	-9.62788
&	-9.62849
▁forze	-9.62861
▁interessi	-9.62884
▁farlo	-9.62897
▁mamma	-9.629
▁vecchio	-9.63057
▁comuni	-9.63155
▁dì	-9.63167
▁john	-9.63266
▁ovviamente	-9.63284
▁ormai	-9.63352
▁16	-9.6338
4	-9.63411
▁giovanni	-9.63469
▁avea	-9.63561
▁azioni	-9.63566
▁word	-9.63589
sce	-9.63641
ke	-9.63648
▁el	-9.63736
cca	-9.63773
▁hundred	-9.63808
but	-9.63841
articolo	-9.63919
▁sostenere	-9.63937
▁economico	-9.63969
ment	-9.64112
▁animali	-9.64145
▁mese	-9.64316
▁ringrazio	-9.64335
▁libera	-9.64371
▁davanti	-9.64403
▁game	-9.64405
▁bring	-9.64494
cause	-9.64622
▁maria	-9.64626
con	-9.64647
▁sound	-9.64686
▁progressi	-9.64779
ali	-9.64809
▁proprie	-9.64847
▁carica	-9.64884
▁passi	-9.64894
▁accordi	-9.65177
▁floor	-9.65281
▁piece	-9.65349
▁bear	-9.65371
rgli	-9.65461
▁country	-9.65469
▁prese	-9.65511
▁person	-9.65539
▁presenza	-9.65562
▁already	-9.65602
▁scuola	-9.65617
▁colle	-9.65659
▁mine	-9.65664
▁sugli	-9.65706
▁front	-9.6572
▁cap	-9.65733
▁8	-9.65778
▁onde	-9.65811
▁along	-9.65827
▁strumenti	-9.65864
▁happy	-9.65896
▁moment	-9.65957
▁point	-9.66101
▁age	-9.6611
▁progetti	-9.66112
▁noise	-9.66158
tura	-9.66242
▁played	-9.66242
▁vera	-9.66341
▁strumento	-9.66364
▁negoziati	-9.66567
▁national	-9.66618
▁rendere	-9.66756
▁voice	-9.6687
▁costituzione	-9.66965
▁attualmente	-9.67015
▁esser	-9.67081
▁concorrenza	-9.6723
▁leggi	-9.6726
▁wouldn	-9.67323
▁death	-9.67496
▁crisi	-9.67507
▁air	-9.6754
▁dubbio	-9.67563
▁ove	-9.67774
▁probably	-9.67839
▁cut	-9.67974
▁obiettivo	-9.68011
▁ordine	-9.6806
▁hair	-9.6835
fe	-9.68382
▁interesse	-9.68387
▁chiede	-9.68519
▁matter	-9.6862
▁carattere	-9.68718
▁vicino	-9.68744
▁esse	-9.68786
▁river	-9.68853
▁voto	-9.69139
▁tante	-9.69149
▁settimana	-9.69166
▁brother	-9.69178
lu	-9.69296
▁santa	-9.69399
ordine	-9.69482
▁possano	-9.69571
▁line	-9.69595
▁playing	-9.69624
▁mouth	-9.69666
▁que	-9.69812
ka	-9.69826
▁full	-9.69843
▁lunga	-9.69962
▁capi	-9.70003
▁9	-9.7013
▁haven	-9.70138
▁debba	-9.70168
▁scorso	-9.70174
▁maggio	-9.70301
▁guess	-9.70365
ati	-9.70368
ʼ	-9.70567
▁stuff	-9.70574
▁times	-9.70665
▁na	-9.70759
▁prossimo	-9.70867
▁cause	-9.70968
▁purtroppo	-9.71025
3	-9.71037
du	-9.71247
▁wrong	-9.7134
▁civile	-9.71347
▁priorità	-9.71421
▁conferenza	-9.71433
▁understand	-9.71478
▁mezzi	-9.71492
▁dialogo	-9.71525
▁collega	-9.71683
▁unico	-9.71756
hi	-9.71767
▁lost	-9.71862
▁began	-9.7188
▁film	-9.71982
▁presenti	-9.71988
▁varie	-9.72081
▁migliorare	-9.7224
▁area	-9.72404
▁hello	-9.72515
▁hope	-9.72546
▁certamente	-9.72672
▁music	-9.72694
rs	-9.72891
ere	-9.72965
▁near	-9.72998
▁speranza	-9.73055
▁voleva	-9.73057
▁chiedere	-9.73073
8	-9.73159
▁became	-9.73181
▁potrà	-9.73209
▁job	-9.73248
▁raggiungere	-9.73288
▁stava	-9.73298
oni	-9.73516
▁maggioranza	-9.73564
▁creazione	-9.73572
▁vivere	-9.73722
▁evitare	-9.73818
▁paura	-9.73851
▁contesto	-9.7387
ora	-9.74014
▁gioco	-9.74028
eri	-9.74035
▁propri	-9.74035
▁mille	-9.74051
▁qualcuno	-9.74112
▁media	-9.74183
▁lavori	-9.74297
▁mar	-9.74361
é	-9.74384
▁ba	-9.74422
▁facile	-9.74447
▁dad	-9.74464
▁chair	-9.74641
▁affari	-9.74648
▁direzione	-9.74733
uso	-9.74807
▁napoli	-9.75025
▁drink	-9.75139
qui	-9.75222
▁popoli	-9.75243
▁trasporto	-9.75271
▁decisioni	-9.75318
▁14	-9.75351
▁ra	-9.75408
▁friends	-9.75438
▁sea	-9.75457
▁com	-9.7546
▁tenere	-9.75525
▁figli	-9.75601
▁rest	-9.75689
ver	-9.75728
▁sistemi	-9.75781
▁soldati	-9.75795
▁dovrà	-9.75842
▁13	-9.75888
▁25	-9.75947
sh	-9.75966
▁membro	-9.7599
▁carta	-9.76061
▁elementi	-9.7607
▁iii	-9.76092
▁legislazione	-9.76137
▁venga	-9.76195
▁conseguenza	-9.76221
▁diceva	-9.76312
▁poor	-9.76321
▁sito	-9.7634
▁fase	-9.76432
▁chiaramente	-9.76497
ton	-9.76558
▁bro	-9.76574
▁costi	-9.76608
▁svolto	-9.76635
▁disposizione	-9.76746
nce	-9.76753
▁minute	-9.76913
▁francese	-9.76914
▁ka	-9.76929
▁settembre	-9.76941
▁anti	-9.76949
▁feet	-9.7696
▁votazione	-9.76988
▁bi	-9.77138
▁principali	-9.77154
▁messo	-9.77184
▁11	-9.77248
▁poichè	-9.77273
▁brought	-9.77415
▁giugno	-9.77473
▁fat	-9.7751
▁week	-9.77517
▁avendo	-9.77537
▁fall	-9.77672
▁abbastanza	-9.77695
▁prime	-9.77797
▁positivo	-9.77821
▁rose	-9.77921
▁oggetto	-9.77999
▁capire	-9.78132
▁amico	-9.78161
▁territorio	-9.78177
▁voluto	-9.78443
▁sto	-9.78608
▁siete	-9.78625
what	-9.78753
▁sleep	-9.78769
▁movie	-9.78776
▁train	-9.78784
▁women	-9.78798
▁simile	-9.78844
▁spese	-9.78918
▁valutazione	-9.79148
▁avevo	-9.79197
▁seemed	-9.79214
▁sicuro	-9.79306
▁lingua	-9.79359
▁semplicemente	-9.79401
idea	-9.79425
▁vanno	-9.79485
▁ran	-9.79607
▁behind	-9.7962
▁reca	-9.79671
▁toy	-9.7969
▁fe	-9.79965
▁esprimere	-9.79976
▁ringraziare	-9.80015
remo	-9.80097
gt	-9.80277
▁sun	-9.80558
▁gravi	-9.8059
▁tom	-9.8065
▁york	-9.80683
▁cultura	-9.80693
▁francesco	-9.80709
▁qualunque	-9.80712
▁pan	-9.80891
▁rispondere	-9.80894
well	-9.80971
ture	-9.80979
▁migliori	-9.81195
▁chiama	-9.81255
lle	-9.81291
▁dovrebbero	-9.81298
▁stand	-9.81302
▁song	-9.81612
▁fiducia	-9.8167
▁gas	-9.81702
▁gotta	-9.81708
▁conseguenze	-9.81758
▁dichiarazione	-9.81773
▁south	-9.81812
▁fun	-9.81886
▁nonostante	-9.81933
▁till	-9.82013
▁north	-9.82019
▁giudizio	-9.82025
points	-9.82041
▁dovremmo	-9.82094
tico	-9.82215
▁scritto	-9.8224
▁piccola	-9.82259
▁modello	-9.82279
▁makes	-9.82385
▁19	-9.82463
▁sometimes	-9.82469
▁piccole	-9.82472
▁impegno	-9.82529
▁turned	-9.82599
▁governi	-9.82631
▁dicembre	-9.82638
sso	-9.82648
▁lord	-9.82677
▁portare	-9.82712
tra	-9.82793
▁words	-9.82947
▁silenzio	-9.82952
▁prodotto	-9.83021
▁probabilmente	-9.83051
▁comunitario	-9.8327
▁tanta	-9.83345
▁venire	-9.83374
▁boys	-9.83383
▁twenty	-9.83393
▁h	-9.83397
▁continuare	-9.83419
▁outside	-9.83472
▁w	-9.83493
▁dead	-9.83521
▁write	-9.8355
▁cerca	-9.83573
▁pen	-9.83577
▁guida	-9.83643
▁piccoli	-9.83681
▁regole	-9.83769
▁mette	-9.83797
▁passare	-9.83799
▁mostra	-9.8392
▁articolo	-9.83958
▁french	-9.83975
▁sé	-9.84064
▁county	-9.84113
▁principale	-9.84148
▁pieno	-9.84201
▁resta	-9.84424
▁hot	-9.84433
▁maggiori	-9.84525
inizio	-9.84581
▁estremamente	-9.84644
▁idee	-9.84668
▁monte	-9.8467
za	-9.84678
land	-9.84775
fo	-9.84779
7	-9.84786
▁video	-9.84801
▁centrale	-9.84871
▁considerazione	-9.84888
urs	-9.84893
▁danno	-9.84934
▁ex	-9.84978
ero	-9.85
▁sforzi	-9.85038
▁horse	-9.851
lt	-9.85139
▁bus	-9.8514
à	-9.85172
▁taken	-9.85204
▁efficace	-9.85216
▁fini	-9.85261
sci	-9.85292
▁pericolo	-9.85334
▁ragioni	-9.85387
▁fell	-9.85488
▁pena	-9.8555
▁ero	-9.85652
▁scelta	-9.85703
▁fact	-9.8571
▁ok	-9.85714
▁documento	-9.85753
▁terrorismo	-9.85765
▁rather	-9.85767
▁english	-9.85842
▁fuoco	-9.85949
»	-9.8595
▁motivi	-9.85972
▁business	-9.8609
▁compito	-9.8612
▁nota	-9.86249
▁tri	-9.86273
▁destra	-9.86286
▁altresì	-9.86412
▁able	-9.86458
▁someone	-9.8649
▁dà	-9.86578
▁yellow	-9.86592
▁atti	-9.86639
trice	-9.86645
▁couldn	-9.86669
ana	-9.86725
▁club	-9.86801
▁viaggio	-9.86892
▁pareva	-9.86896
▁chiedo	-9.86916
▁beautiful	-9.86933
▁pay	-9.86949
cu	-9.86958
▁rende	-9.86982
▁ancor	-9.87017
▁felt	-9.87019
▁lavorare	-9.87045
▁fi	-9.87072
▁quanti	-9.87085
zio	-9.87112
▁piena	-9.87195
▁nord	-9.87208
▁nessun	-9.87247
emendamento	-9.87299
▁often	-9.87415
▁disposizioni	-9.87573
▁nemmeno	-9.87577
▁bocca	-9.87656
▁(.)	-9.87675
ff	-9.87675
don	-9.87676
▁means	-9.87685
▁true	-9.87809
▁volto	-9.87951
▁ricordare	-9.88151
▁ride	-9.88183
zzo	-9.88199
industria	-9.88199
▁star	-9.88224
▁stampa	-9.88287
▁ossia	-9.88308
tri	-9.88327
▁phone	-9.88346
▁france	-9.88405
▁russia	-9.88515
▁chiesto	-9.88585
▁promuovere	-9.88643
▁ga	-9.88647
▁piú	-9.88932
obiettivo	-9.8906
ster	-9.89116
▁presentata	-9.89204
▁cercare	-9.89206
▁marzo	-9.89216
▁sinistra	-9.89309
▁gi	-9.89311
▁firenze	-9.89349
▁particolarmente	-9.89389
▁valori	-9.89423
▁pubblici	-9.89429
▁sai	-9.89439
▁intanto	-9.89465
▁partire	-9.89493
▁reale	-9.89559
▁piacere	-9.89573
▁taking	-9.89632
ccio	-9.89638
▁bird	-9.89737
occupazione	-9.8985
▁fortuna	-9.89856
▁y	-9.89857
ja	-9.89966
▁short	-9.89976
▁00	-9.90006
▁musica	-9.90041
▁vuoi	-9.90112
▁sent	-9.90131
assemblea	-9.9015
▁vertice	-9.90176
ant	-9.90287
▁milk	-9.90331
▁violenza	-9.90478
▁avviso	-9.90505
▁wife	-9.90532
▁bianco	-9.90543
men	-9.90587
▁march	-9.90637
▁conoscenza	-9.90645
com	-9.90714
▁contributo	-9.90813
▁however	-9.90902
▁desiderio	-9.9091
▁patria	-9.91081
▁dar	-9.91161
▁certa	-9.91169
▁italiana	-9.91271
▁intervento	-9.91307
▁deciso	-9.9131
▁herself	-9.9132
▁vigore	-9.91394
▁unite	-9.91514
▁uhhuh	-9.91542
▁mandato	-9.91564
ine	-9.91571
▁group	-9.91597
that	-9.91629
▁ch	-9.91643
▁virtù	-9.9168
▁verde	-9.91706
▁pe	-9.91762
▁naturale	-9.91823
▁order	-9.91876
▁listen	-9.91881
▁dolore	-9.91905
▁avrà	-9.91923
stra	-9.91928
▁myself	-9.92076
▁bello	-9.92205
▁sister	-9.92614
zi	-9.92649
ah	-9.92704
▁seven	-9.9273
▁fiori	-9.92751
▁inside	-9.92777
▁partecipazione	-9.92858
▁walk	-9.92868
▁parlato	-9.92906
▁internazionali	-9.92914
▁giuridica	-9.92922
▁studi	-9.92957
—	-9.92986
▁sottolineare	-9.93046
▁ieri	-9.93077
▁turchia	-9.93082
▁fratello	-9.93151
▁forme	-9.93193
▁mark	-9.9322
▁presenta	-9.93248
▁early	-9.93441
▁visita	-9.93454
▁perhaps	-9.93461
▁umana	-9.93466
▁dico	-9.93474
▁sebbene	-9.93551
▁relative	-9.93568
gno	-9.93684
▁land	-9.93723
▁yourself	-9.9374
smo	-9.93846
▁trovato	-9.93857
▁animals	-9.93858
▁condizione	-9.93881
▁company	-9.9393
▁serve	-9.93953
▁sufficiente	-9.93961
up	-9.93969
▁medesimo	-9.94012
▁ministri	-9.94029
economia	-9.94104
▁pick	-9.94171
▁metà	-9.94268
▁libero	-9.9439
▁wants	-9.9442
▁attuale	-9.94465
▁ago	-9.94518
▁lor	-9.94556
▁super	-9.94593
▁figure	-9.94625
▁rimane	-9.94705
▁francesi	-9.94749
▁contra	-9.9484
▁seguente	-9.94858
▁collaborazione	-9.94883
▁books	-9.94898
▁--	-9.94952
▁mattina	-9.94959
▁potrebbero	-9.94988
▁necessaria	-9.95005
▁tardi	-9.95051
▁oppure	-9.95224
▁ricordo	-9.95469
▁change	-9.95493
▁‘	-9.95546
▁concetto	-9.95559
▁mantenere	-9.95609
▁esame	-9.95638
▁facciamo	-9.95661
ssimi	-9.95736
my	-9.9574
▁alta	-9.95762
▁marito	-9.95774
▁stabilità	-9.95779
glia	-9.9581
nia	-9.95878
▁gennaio	-9.96029
▁bag	-9.96068
▁captain	-9.961
▁rete	-9.96121
6	-9.96137
▁adottare	-9.96196
▁verrà	-9.96265
▁affatto	-9.9642
▁[1	-9.96426
▁opportunità	-9.96426
?”	-9.96688
▁vogliono	-9.96806
born	-9.96867
son	-9.97042
▁prove	-9.9716
▁italiano	-9.97253
▁conti	-9.9728
▁morto	-9.97347
▁battaglia	-9.97352
▁presentare	-9.97356
▁anima	-9.97377
▁sentire	-9.97397
▁brown	-9.9743
▁iniziative	-9.97439
▁hat	-9.9751
▁dimostra	-9.97582
▁nessuna	-9.97583
▁sarebbero	-9.97594
et	-9.97621
▁given	-9.97755
▁body	-9.9786
able	-9.97863
▁aiuto	-9.97868
▁crede	-9.97888
▁locali	-9.9789
▁ambito	-9.97959
▁denaro	-9.97968
▁figura	-9.98013
▁tree	-9.98014
▁criteri	-9.98035
col	-9.98119
▁lontano	-9.98174
▁prezzo	-9.98186
▁general	-9.98422
▁guys	-9.98486
5	-9.98508
im	-9.98607
▁lettura	-9.98692
▁votato	-9.98723
▁funny	-9.98846
▁fornire	-9.98942
▁felice	-9.98946
cchi	-9.98956
▁lato	-9.98997
▁certi	-9.99009
▁regime	-9.99023
▁acqua	-9.99059
▁van	-9.9919
▁essenziale	-9.99233
▁wish	-9.99243
▁road	-9.99279
▁sette	-9.99285
▁piace	-9.99371
▁vuol	-9.99498
▁rapporto	-9.99543
▁post	-9.9957
▁uso	-9.99615
▁trasporti	-9.99684
erà	-9.99816
acqua	-9.99901
▁proposto	-9.99912
▁luglio	-9.99965
▁acque	-9.99996
▁ridurre	-10.0001
▁en	-10.0005
▁regionale	-10.002
▁vedi	-10.0035
▁ultimo	-10.0038
by	-10.004
▁auto	-10.0045
▁sala	-10.0052
▁caro	-10.0054
led	-10.0056
”,	-10.0058
▁#	-10.0059
▁poveri	-10.0064
▁either	-10.0065
▁canto	-10.0068
▁militare	-10.0073
▁bensì	-10.008
▁riduzione	-10.0084
▁emendamento	-10.0087
▁campagna	-10.0088
▁minutes	-10.0093
▁segno	-10.0094
▁j	-10.0109
▁ovvero	-10.0111
▁elezioni	-10.0113
▁quegli	-10.0123
rai	-10.0123
▁eight	-10.0131
▁art	-10.0143
▁entrare	-10.0147
▁seduta	-10.0162
▁coraggio	-10.0176
▁fight	-10.018
▁massimo	-10.0186
▁fo	-10.0197
▁conclusione	-10.0198
der	-10.02
▁least	-10.0206
▁novembre	-10.0212
▁compromesso	-10.0214
▁anch	-10.0216
▁opere	-10.0222
▁meet	-10.0223
▁sicuramente	-10.0223
▁organizzazioni	-10.0227
▁appunto	-10.0231
cco	-10.0233
▁sounds	-10.0236
▁porre	-10.0238
▁soli	-10.024
▁+	-10.0248
ggio	-10.0254
ki	-10.0259
▁zona	-10.0264
▁esperienza	-10.0267
▁prevede	-10.0269
▁seguire	-10.0273
▁germania	-10.0277
ino	-10.0289
▁palazzo	-10.0295
▁stesse	-10.03
▁favorevole	-10.0303
▁zone	-10.0309
▁aren	-10.0309
▁passa	-10.0311
▁somebody	-10.0313
▁dicendo	-10.0314
▁direttamente	-10.0317
ous	-10.0323
▁large	-10.0327
nda	-10.0336
▁break	-10.0336
▁procedure	-10.034
ultimo	-10.035
▁massima	-10.0359
ari	-10.0366
▁doctor	-10.037
▁discorso	-10.0375
▁several	-10.0381
0	-10.039
line	-10.0391
▁diventa	-10.0393
childes	-10.0394
▁deal	-10.0401
▁sub	-10.0407
▁servi	-10.0407
▁childes	-10.041
▁venezia	-10.0411
▁pensa	-10.042
▁credere	-10.043
▁ground	-10.0435
ring	-10.0448
▁working	-10.0451
30	-10.0451
▁basso	-10.0454
▁voglia	-10.0455
▁question	-10.0459
▁lettere	-10.0462
▁medio	-10.0463
▁ring	-10.0467
ya	-10.0471
▁terzi	-10.0475
▁alone	-10.0477
▁umano	-10.048
▁ambientale	-10.0481
▁lascia	-10.0488
ente	-10.0493
▁cold	-10.0493
▁minaccia	-10.0494
▁memoria	-10.05
▁50	-10.0506
▁mancanza	-10.052
for	-10.0522
▁prende	-10.0522
▁affermato	-10.0527
▁braccia	-10.0532
non	-10.054
▁domande	-10.0541
▁avrebbero	-10.0544
ggia	-10.0546
▁cristo	-10.0547
▁simili	-10.0548
▁iv	-10.055
ppo	-10.0554
importanza	-10.056
▁sensi	-10.0562
▁foot	-10.0572
▁sicilia	-10.0575
▁economici	-10.0585
▁dovere	-10.0592
▁veniva	-10.0594
▁kill	-10.0595
▁ferma	-10.0598
ner	-10.0606
▁president	-10.0615
▁tea	-10.0627
▁abbiano	-10.0628
▁utile	-10.0633
▁vittime	-10.0634
▁grazia	-10.0637
▁band	-10.0639
▁giù	-10.0642
nd	-10.0648
▁across	-10.0649
less	-10.065
▁aperto	-10.0654
▁government	-10.0666
▁letter	-10.0669
▁power	-10.067
▁modi	-10.0676
▁belle	-10.0677
▁incontro	-10.0678
ns	-10.0679
▁risolvere	-10.0681
▁costo	-10.0693
▁coscienza	-10.0706
▁trattamento	-10.0709
▁ru	-10.0731
▁venuto	-10.0734
▁struttura	-10.0738
▁totale	-10.074
▁portato	-10.0749
ex	-10.075
▁manca	-10.0752
▁street	-10.0759
▁hungry	-10.0762
▁sguardo	-10.0764
huh	-10.0772
▁povero	-10.0778
▁posta	-10.0778
▁pietro	-10.0779
▁master	-10.0783
▁throw	-10.0786
▁propone	-10.0788
▁necessarie	-10.0794
▁accettare	-10.0795
▁assicurare	-10.0797
▁giornata	-10.0798
▁fast	-10.0804
▁piazza	-10.0806
▁minuti	-10.081
ru	-10.0811
▁luoghi	-10.0813
▁precedente	-10.0814
▁24	-10.0818
▁usa	-10.0818
▁tape	-10.0829
ndi	-10.083
▁sapete	-10.0834
▁fish	-10.0836
▁album	-10.0846
▁test	-10.0851
▁sin	-10.0852
cci	-10.0853
▁lived	-10.0858
▁dinanzi	-10.0867
▁comitato	-10.0872
▁hurt	-10.0873
▁libri	-10.0881
tica	-10.0889
▁silver	-10.0895
▁lu	-10.0896
▁stare	-10.0904
▁relativa	-10.0907
she	-10.0913
▁superiore	-10.0918
ic	-10.0925
▁effetto	-10.0938
▁spagna	-10.0944
▁chance	-10.0947
▁documenti	-10.0955
▁ricevuto	-10.0955
▁costituisce	-10.0957
▁province	-10.0972
▁ragazzi	-10.0994
▁capitale	-10.0997
▁important	-10.1
▁entrambi	-10.1007
▁molta	-10.1013
▁chiara	-10.1015
tivo	-10.1021
▁definizione	-10.1021
▁thanks	-10.1027
▁george	-10.1029
▁potesse	-10.1034
▁living	-10.104
▁nemico	-10.1043
▁parlamentare	-10.1048
▁dr	-10.105
▁numerosi	-10.1056
▁tried	-10.1058
▁richiede	-10.1062
▁val	-10.1062
▁italiani	-10.1078
▁du	-10.1095
rum	-10.1099
▁killed	-10.1114
▁others	-10.1117
▁giro	-10.1119
▁signori	-10.1139
ultima	-10.114
▁completamente	-10.1143
▁single	-10.1151
▁azione	-10.1154
▁tenuto	-10.1156
▁costa	-10.1159
▁candidati	-10.116
▁siccome	-10.1162
▁vol	-10.1171
▁chiese	-10.1173
▁west	-10.1179
ini	-10.118
▁boat	-10.1183
▁past	-10.1184
zzi	-10.1186
▁recente	-10.1191
▁santo	-10.1196
▁trasparenza	-10.1199
▁trouble	-10.1202
jo	-10.1202
▁peter	-10.1213
▁nato	-10.1218
▁park	-10.1218
▁truck	-10.1222
▁sco	-10.1229
▁solidarietà	-10.1233
▁movimento	-10.1238
▁diventare	-10.124
▁jo	-10.1243
▁sentito	-10.1244
▁speak	-10.1247
▁late	-10.1248
▁aprile	-10.125
energia	-10.1251
▁buy	-10.1253
▁mummy	-10.1253
▁puoi	-10.1254
▁note	-10.1265
tro	-10.1271
▁avrei	-10.1274
▁university	-10.128
▁polizia	-10.1284
▁indi	-10.1289
▁tramite	-10.129
▁opportuno	-10.1296
▁energia	-10.13
▁evidente	-10.1302
▁cried	-10.1305
▁navi	-10.1306
▁january	-10.1309
▁impossibile	-10.1318
▁para	-10.1318
▁conoscere	-10.1325
▁held	-10.1331
▁present	-10.1339
looks	-10.1345
▁]	-10.1351
ko	-10.1353
▁risulta	-10.1358
▁mercati	-10.1372
▁giusta	-10.1375
▁diverso	-10.138
tive	-10.1382
▁reti	-10.1384
▁finale	-10.1389
▁indietro	-10.1396
▁dark	-10.1398
▁thou	-10.14
▁peso	-10.1404
▁vive	-10.1407
▁temi	-10.141
▁bambino	-10.1418
▁ottobre	-10.1421
▁investimenti	-10.1423
▁ricorda	-10.1426
ber	-10.1433
▁free	-10.1444
▁glad	-10.1448
▁rock	-10.1453
▁nine	-10.1455
ze	-10.1461
▁&	-10.1467
▁sud	-10.1467
applicazione	-10.147
▁vide	-10.1474
▁stick	-10.1475
▁rising	-10.148
▁faccio	-10.1488
▁gra	-10.1489
iniziativa	-10.149
▁funzione	-10.1496
▁otto	-10.1504
▁famiglie	-10.1511
▁raggiunto	-10.1512
▁unito	-10.1517
▁povertà	-10.1524
▁parlamentari	-10.1534
▁applicazione	-10.1539
▁vantaggio	-10.1541
pro	-10.1545
▁generali	-10.1547
▁solamente	-10.1548
▁wow	-10.155
▁volume	-10.1551
▁august	-10.1554
▁vediamo	-10.156
▁paragrafo	-10.1561
▁differenza	-10.1581
▁frog	-10.1586
▁religione	-10.1588
5-0	-10.1595
tor	-10.1601
ful	-10.1606
bbe	-10.1611
ita	-10.162
9	-10.1628
▁ama	-10.1635
▁banca	-10.164
▁stanza	-10.1647
▁comes	-10.1649
ir	-10.1652
lia	-10.1653
▁pull	-10.1665
▁procedere	-10.167
▁trattati	-10.1672
▁scala	-10.1675
▁castello	-10.1682
▁lisbona	-10.1683
▁relatrice	-10.1685
▁spalle	-10.1693
▁globale	-10.1696
▁esistono	-10.1699
▁neppure	-10.1703
▁paul	-10.1714
▁carne	-10.172
▁svolgere	-10.1722
▁realizzare	-10.1724
▁za	-10.1727
▁history	-10.1733
▁finanziarie	-10.1734
▁afferma	-10.1734
▁jack	-10.1737
▁bri	-10.174
▁consenso	-10.1747
▁hour	-10.1752
▁wind	-10.1754
▁quell	-10.1756
ble	-10.1757
▁scena	-10.176
▁accesso	-10.1761
essere	-10.1761
ghi	-10.1766
gni	-10.1768
▁dallo	-10.1773
▁risponde	-10.1784
▁presa	-10.1787
▁osservazioni	-10.1788
▁kept	-10.1789
▁morti	-10.1805
▁eppure	-10.1808
▁romani	-10.1812
▁radio	-10.1812
▁100	-10.1814
▁st	-10.1816
▁aggiungere	-10.1817
▁everybody	-10.182
▁colore	-10.182
informazione	-10.1822
▁earth	-10.1828
▁messa	-10.1835
zo	-10.1841
▁capitano	-10.1845
▁clothes	-10.1848
▁football	-10.1855
▁poche	-10.1858
▁riteniamo	-10.1862
▁competenze	-10.1863
▁vittoria	-10.1863
▁sapeva	-10.1864
▁problem	-10.1866
▁mu	-10.1869
▁usare	-10.1869
▁office	-10.187
zia	-10.1883
▁approccio	-10.1888
▁spa	-10.1888
02	-10.1904
▁nemici	-10.1904
▁metodo	-10.1909
▁argomento	-10.1911
▁draw	-10.1915
▁sat	-10.1924
▁est	-10.1927
▁fit	-10.1935
▁cambiamento	-10.1944
▁interventi	-10.1945
▁silence	-10.195
attività	-10.1951
▁figlia	-10.1951
í	-10.1954
▁permette	-10.1956
▁become	-10.1957
of	-10.196
▁contenuto	-10.1965
▁date	-10.1967
▁among	-10.1977
▁pienamente	-10.1978
▁clear	-10.1993
amp	-10.1994
▁eye	-10.1995
▁series	-10.1996
▁potete	-10.1999
▁somma	-10.2
▁febbraio	-10.2007
▁commerciali	-10.2011
▁sostenibile	-10.2011
▁combattere	-10.203
▁maestro	-10.2046
▁department	-10.2046
▁sweet	-10.2046
gio	-10.2047
▁named	-10.2049
▁gesù	-10.2052
▁wonder	-10.2053
▁bu	-10.2061
gma	-10.2067
▁morire	-10.2072
▁future	-10.2077
▁21	-10.2081
▁rischi	-10.2084
▁aziende	-10.2084
▁braccio	-10.2089
▁finora	-10.209
▁forti	-10.2099
▁ja	-10.2103
▁scrivere	-10.2104
▁nero	-10.2104
nto	-10.2107
way	-10.2113
▁patto	-10.2113
▁capitolo	-10.2116
▁necessari	-10.2122
▁computer	-10.2126
ut	-10.2129
▁vengano	-10.213
▁daughter	-10.2135
▁scrive	-10.2137
▁whether	-10.2178
▁dinner	-10.2178
▁running	-10.2183
▁rappresentanti	-10.2191
▁win	-10.2191
▁mary	-10.2195
▁2004	-10.2196
▁reason	-10.2197
▁pop	-10.2198
▁mama	-10.2199
▁viso	-10.2202
▁pass	-10.2203
▁farsi	-10.2203
▁easy	-10.2208
▁ritorno	-10.221
▁hit	-10.2211
▁kids	-10.2213
▁comincia	-10.2213
▁relativi	-10.2215
▁less	-10.2218
▁thinking	-10.2222
▁mira	-10.2225
▁bell	-10.223
▁talvolta	-10.2237
▁answer	-10.2249
den	-10.225
▁detta	-10.2262
ico	-10.227
▁auguro	-10.2278
▁april	-10.2279
▁prezzi	-10.2286
▁america	-10.2287
▁ambiente	-10.2293
▁buono	-10.231
▁whatever	-10.231
▁elemento	-10.231
▁chiamato	-10.2312
▁marco	-10.232
bu	-10.2322
ley	-10.2324
gu	-10.233
▁sforzo	-10.2338
▁ship	-10.2339
▁vecchia	-10.2341
▁cookie	-10.2344
▁cina	-10.2346
▁gloria	-10.2347
▁pu	-10.2351
▁afraid	-10.2351
▁finanziamento	-10.2358
▁ones	-10.2368
▁moon	-10.237
!”	-10.2372
ist	-10.2372
▁effettivamente	-10.2379
▁modifica	-10.238
▁età	-10.2382
sto	-10.2382
▁2000	-10.2383
▁internet	-10.2391
▁altrettanto	-10.2393
▁finanziario	-10.2402
▁visit	-10.2404
▁previsto	-10.2409
▁nor	-10.241
nu	-10.241
▁voler	-10.241
▁gets	-10.241
▁ulteriori	-10.2413
▁district	-10.2414
▁seems	-10.2415
▁member	-10.242
if	-10.2425
▁special	-10.2425
let	-10.2426
▁strutturali	-10.2432
▁codice	-10.2434
▁nose	-10.2438
▁sale	-10.2447
▁vento	-10.2449
▁sino	-10.245
▁conosce	-10.2453
▁takes	-10.2456
▁agire	-10.2472
osa	-10.248
▁sitting	-10.2481
▁fai	-10.2485
▁altrimenti	-10.2486
▁andava	-10.249
▁sullo	-10.2493
».	-10.2498
▁gar	-10.2498
▁save	-10.2498
▁chiusa	-10.25
aria	-10.2504
▁condotta	-10.2508
▁finanziari	-10.2513
glio	-10.2515
▁soldi	-10.2517
▁porto	-10.2519
organizzazione	-10.2519
▁iniziativa	-10.2525
ndolo	-10.2527
nde	-10.253
vocalizes	-10.2533
rra	-10.2534
▁dolce	-10.2541
mon	-10.2543
▁potenza	-10.2546
▁andò	-10.2548
▁esigenze	-10.2555
enza	-10.2557
▁lives	-10.2558
▁miliardi	-10.2562
▁stood	-10.2564
su	-10.2564
▁proprietà	-10.2576
rebbero	-10.258
ura	-10.258
attuale	-10.2583
▁dicono	-10.2585
▁addirittura	-10.2587
▁moneta	-10.2604
▁entra	-10.2605
▁scienza	-10.261
▁riforme	-10.2624
▁cristiani	-10.2625
ità	-10.263
▁devi	-10.2632
▁espresso	-10.2641
▁campi	-10.2645
▁shoes	-10.2647
▁livelli	-10.265
▁september	-10.2653
▁cur	-10.2654
▁indeed	-10.2654
▁comunitaria	-10.2657
ccia	-10.2657
▁october	-10.266
▁gioia	-10.2661
▁bye	-10.2663
▁window	-10.2666
▁strong	-10.2672
▁david	-10.2673
▁married	-10.268
ina	-10.2682
▁23	-10.2689
▁costruzione	-10.2692
wa	-10.2693
▁news	-10.2693
▁preoccupazione	-10.2695
▁spiega	-10.2697
▁parigi	-10.2698
▁leggere	-10.2708
▁discutere	-10.2709
▁bra	-10.2711
▁arriva	-10.2712
▁definire	-10.2724
▁opinione	-10.2724
▁aumento	-10.2728
▁tomorrow	-10.2728
▁massa	-10.2728
▁ice	-10.2729
cia	-10.2736
▁tener	-10.2736
les	-10.2738
▁rapporti	-10.274
▁ver	-10.2753
▁culturale	-10.2756
▁finished	-10.276
▁cara	-10.2765
lin	-10.2766
▁public	-10.2773
▁themselves	-10.2777
▁wall	-10.278
▁lasciato	-10.2786
zzazione	-10.2789
▁chiave	-10.2792
▁informazione	-10.2793
▁happen	-10.2794
▁mila	-10.2795
▁2003	-10.2796
▁responsabile	-10.28
▁suppose	-10.2803
▁40	-10.2804
▁paga	-10.281
art	-10.281
▁met	-10.2813
agricoltura	-10.2814
▁tocca	-10.2814
gne	-10.2814
▁riconoscimento	-10.2821
ismo	-10.2825
▁revisione	-10.2826
▁usually	-10.2832
age	-10.2832
▁released	-10.2834
▁buoni	-10.2834
▁quantità	-10.2837
▁volle	-10.2841
▁bellezza	-10.2846
▁paolo	-10.2852
▁gold	-10.2852
▁punta	-10.2859
▁doll	-10.2859
adesione	-10.2861
ps	-10.2862
▁summer	-10.2864
▁trovano	-10.2868
▁č	-10.287
▁origine	-10.2884
▁riconoscere	-10.2884
▁migliaia	-10.2887
▁limiti	-10.289
▁third	-10.2896
▁inglese	-10.2899
▁within	-10.2899
▁intervenire	-10.2903
▁26	-10.2907
▁senti	-10.2911
▁dimostrato	-10.2912
▁form	-10.2914
▁thousand	-10.2915
▁career	-10.2918
▁british	-10.2919
▁nomi	-10.2921
▁coesione	-10.2924
enti	-10.2934
▁sfida	-10.2934
▁anyway	-10.2936
▁thomas	-10.2938
▁catch	-10.2943
▁touch	-10.2949
▁economiche	-10.2952
▁bunny	-10.2961
▁caccia	-10.2971
▁mura	-10.2972
tici	-10.2976
all	-10.2977
▁camp	-10.2982
ul	-10.2985
▁lega	-10.2998
▁cercando	-10.3
ggi	-10.3007
▁marchese	-10.3012
▁send	-10.3012
▁hours	-10.3013
▁fate	-10.3014
▁secret	-10.3017
iti	-10.3017
▁passione	-10.3019
▁push	-10.3019
▁board	-10.3026
▁pie	-10.3027
▁terza	-10.3033
ose	-10.3033
▁leader	-10.3035
▁coordinamento	-10.3035
uta	-10.3038
▁cor	-10.3046
▁prossima	-10.3049
▁andrea	-10.305
▁cavallo	-10.3053
▁vostri	-10.3054
uto	-10.3056
tur	-10.3061
▁solito	-10.3062
▁porte	-10.3064
▁diede	-10.3067
▁28	-10.3074
▁noises	-10.3086
▁east	-10.3087
▁juice	-10.3094
▁popolare	-10.3098
ion	-10.3098
▁compagnia	-10.3105
▁concludere	-10.311
▁aspetta	-10.3117
can	-10.3117
▁police	-10.312
▁standard	-10.3122
▁beni	-10.3123
cche	-10.3124
▁tv	-10.3126
▁rafforzare	-10.3128
▁worked	-10.3129
▁fatte	-10.3129
▁sport	-10.3129
▁capelli	-10.3131
▁richieste	-10.3135
▁ultima	-10.3135
▁complesso	-10.3137
▁aperta	-10.3138
attenzione	-10.3139
▁cavalli	-10.3141
▁months	-10.3145
▁peccato	-10.3156
▁colpa	-10.3164
▁percorso	-10.3168
▁offre	-10.3172
▁exactly	-10.3172
▁civili	-10.3173
▁army	-10.3173
▁compiere	-10.3174
▁approvato	-10.3181
▁arm	-10.3193
bri	-10.3194
▁vedo	-10.3198
▁miglioramento	-10.3205
▁22	-10.3211
gia	-10.3215
▁uncle	-10.3216
▁shape	-10.3216
▁pensato	-10.3217
▁messaggio	-10.3219
▁viva	-10.3227
▁provincia	-10.3228
▁yep	-10.3229
||	-10.3236
▁occupazione	-10.324
▁locale	-10.3242
▁couple	-10.3242
▁tratti	-10.3244
▁region	-10.3244
▁militari	-10.3244
▁dura	-10.3249
van	-10.3251
▁é	-10.3256
▁drive	-10.3258
▁pig	-10.326
ac	-10.3274
▁tornare	-10.3278
▁cow	-10.3279
▁considerare	-10.3287
▁joe	-10.3288
▁eating	-10.3294
▁importa	-10.3294
▁crea	-10.3294
▁england	-10.3302
▁merita	-10.3303
▁parlando	-10.3304
▁buone	-10.3305
▁guardare	-10.3306
▁dovranno	-10.3307
etto	-10.3309
▁traffico	-10.331
▁partiti	-10.3313
▁1,	-10.3314
▁accanto	-10.3319
▁mediante	-10.3321
▁teatro	-10.3322
▁stra	-10.3329
▁collo	-10.3333
▁human	-10.3335
▁answered	-10.3337
▁arrivare	-10.3344
▁potranno	-10.3344
▁contribuire	-10.3345
▁diversa	-10.3352
▁seem	-10.3354
▁lay	-10.3354
uti	-10.3359
▁system	-10.336
▁morale	-10.336
▁middle	-10.3361
▁prospettive	-10.3363
▁aree	-10.3363
▁court	-10.3366
▁festa	-10.3369
▁kitchen	-10.3372
▁certain	-10.3376
▁fame	-10.3376
▁povera	-10.338
▁esattamente	-10.338
▁shut	-10.3381
▁rispettare	-10.3383
▁honey	-10.3391
ger	-10.3394
▁troviamo	-10.341
▁linee	-10.3413
▁salva	-10.3415
nta	-10.342
▁controlli	-10.3422
▁indian	-10.3423
▁husband	-10.3429
▁main	-10.3431
▁errore	-10.3435
allargamento	-10.3437
▁speciale	-10.344
▁ritiene	-10.3441
▁venti	-10.3442
▁ciascuno	-10.3447
▁plate	-10.3448
▁instead	-10.3449
▁dimensione	-10.345
▁competenza	-10.3452
▁tavola	-10.3452
▁perdere	-10.3452
▁porti	-10.3454
▁(19	-10.3455
▁vecchi	-10.346
▁forget	-10.3462
▁file	-10.3463
▁sogno	-10.3466
▁impegni	-10.3469
▁quiet	-10.3469
attuazione	-10.3484
▁toward	-10.3489
▁figliuolo	-10.349
▁)	-10.3492
▁whose	-10.3492
▁utilizzare	-10.3498
á	-10.3506
▁alimentare	-10.3516
laughing	-10.3517
▁june	-10.3518
▁parve	-10.3521
opinione	-10.3524
ù	-10.3531
▁sol	-10.3531
▁service	-10.3531
time	-10.3537
▁above	-10.3547
▁soluzioni	-10.3548
▁fecero	-10.3551
▁terreno	-10.3553
mp	-10.3562
▁sing	-10.3566
puts	-10.3569
takes	-10.3569
▁regola	-10.3576
▁riunione	-10.3578
▁classe	-10.3582
▁mor	-10.3584
ute	-10.3586
ler	-10.3588
▁tecnologia	-10.3593
▁nazione	-10.3601
▁pagina	-10.3611
▁normativa	-10.3621
▁decidere	-10.3623
▁orange	-10.3628
▁forward	-10.3634
▁settimane	-10.3636
▁rosso	-10.3637
▁realizzazione	-10.3638
▁league	-10.3642
istruzione	-10.3644
▁facilmente	-10.3651
▁colpo	-10.3656
▁cro	-10.366
▁ognuno	-10.366
▁ampio	-10.3662
ven	-10.3665
▁rin	-10.3667
▁debito	-10.3677
▁church	-10.3677
bra	-10.3677
▁lasciare	-10.3679
tò	-10.3683
▁plan	-10.3684
▁vicini	-10.3689
▁conflitto	-10.3689
▁space	-10.3691
▁danni	-10.3692
▁adottato	-10.3698
▁precedenti	-10.37
▁aumentare	-10.3709
▁strade	-10.3709
▁evening	-10.371
▁distanza	-10.371
▁fair	-10.3719
picks	-10.372
ssime	-10.372
▁th	-10.3721
osi	-10.3725
▁antichi	-10.3727
ity	-10.373
▁romano	-10.3732
▁fifty	-10.3732
dia	-10.3737
▁excuse	-10.3738
▁ahead	-10.3738
▁hu	-10.3738
▁corre	-10.3743
▁bottle	-10.3753
▁birthday	-10.3758
▁terre	-10.3766
▁cannot	-10.3767
▁moved	-10.3767
▁wear	-10.3773
▁app	-10.3775
▁shot	-10.3775
▁list	-10.3782
nina	-10.3784
italia	-10.3786
▁putting	-10.3787
▁modalità	-10.3791
▁storico	-10.3792
▁television	-10.3796
▁cambiare	-10.3798
▁padrone	-10.3799
▁comprende	-10.3809
▁rivoluzione	-10.3809
▁replied	-10.3812
mer	-10.3814
▁christmas	-10.3822
▁gun	-10.3823
anti	-10.3845
unica	-10.3848
qua	-10.3855
▁creato	-10.3856
▁passed	-10.3859
▁succede	-10.386
▁nobili	-10.3861
ad	-10.3864
▁pretend	-10.3867
▁pubbliche	-10.3868
▁carico	-10.3872
▁tonight	-10.3873
▁interessante	-10.3873
▁ambientali	-10.3873
vol	-10.388
▁persino	-10.3881
▁arms	-10.3891
▁visione	-10.3895
▁tuoi	-10.3898
▁corona	-10.3899
▁november	-10.3905
▁puts	-10.3906
▁votare	-10.3909
br	-10.3914
▁villa	-10.3916
▁wood	-10.3918
▁antonio	-10.3922
▁vie	-10.3924
▁fratelli	-10.3926
▁rapidamente	-10.3928
▁notizia	-10.3936
▁position	-10.3937
▁design	-10.3952
▁sostanze	-10.3957
▁web	-10.3958
▁partecipare	-10.3967
▁portata	-10.3971
20	-10.3973
▁sci	-10.3975
oso	-10.3976
▁volete	-10.3977
▁coffee	-10.3977
accesso	-10.3978
▁naturali	-10.398
▁quarto	-10.3981
▁points	-10.3985
▁cari	-10.3986
▁reached	-10.3996
▁aiuta	-10.3999
▁aunt	-10.4
▁spesa	-10.4002
▁german	-10.4003
▁soft	-10.4003
▁torna	-10.4011
▁waiting	-10.4014
▁vivo	-10.4024
ani	-10.4025
▁vo	-10.4028
tamente	-10.4035
▁whom	-10.4035
▁class	-10.4038
▁medico	-10.4039
▁possible	-10.404
▁longer	-10.4044
▁manda	-10.4045
▁croce	-10.4047
▁check	-10.4048
▁sal	-10.4053
▁sentiva	-10.4054
▁studenti	-10.4059
▁preoccupazioni	-10.4073
▁cool	-10.4073
▁queen	-10.4083
▁fri	-10.4089
▁farà	-10.4089
▁israele	-10.4097
come	-10.4103
▁farm	-10.4104
▁certe	-10.4104
▁petto	-10.4105
▁filippo	-10.4106
bus	-10.4107
ghe	-10.411
▁arte	-10.4113
▁jump	-10.4113
▁clean	-10.4114
▁dover	-10.412
▁island	-10.4121
▁sentimento	-10.4124
▁poeta	-10.413
▁wa	-10.4131
ny	-10.4132
▁tired	-10.4135
▁immediatamente	-10.4149
▁scambio	-10.4152
▁bright	-10.4152
▁disciplina	-10.4155
▁blood	-10.4158
▁assistenza	-10.4159
uri	-10.4159
▁garden	-10.4161
1:	-10.4162
▁desidera	-10.4173
▁dignità	-10.4177
▁analisi	-10.4182
▁bologna	-10.4183
▁fear	-10.4183
▁lieto	-10.4188
▁bassi	-10.4195
▁circolazione	-10.4197
▁permesso	-10.4201
▁eventi	-10.4208
▁mon	-10.421
▁warm	-10.4212
ito	-10.4212
▁materiale	-10.4218
▁december	-10.4218
ica	-10.4223
chè	-10.4225
▁sento	-10.4231
▁dress	-10.4232
▁strange	-10.4236
ando	-10.4238
▁costruire	-10.4246
aula	-10.4248
▁act	-10.4249
▁broke	-10.4256
▁pat	-10.4258
ori	-10.426
▁secoli	-10.426
▁offrire	-10.4261
▁prossimi	-10.4266
▁attuali	-10.4269
▁partner	-10.4273
tter	-10.4276
▁spetta	-10.4278
▁colori	-10.4279
▁consiste	-10.428
▁stabilire	-10.4294
▁rosa	-10.4295
▁apple	-10.4297
▁return	-10.4298
▁ab	-10.4304
▁disponibili	-10.4305
▁fiume	-10.4309
dy	-10.4313
▁foto	-10.4317
nato	-10.4318
▁cammino	-10.4322
eranno	-10.4324
▁responsabili	-10.4324
▁although	-10.4329
▁million	-10.4329
▁college	-10.4331
▁seat	-10.4338
▁written	-10.4339
▁uscire	-10.4355
▁guardia	-10.4358
ppe	-10.436
day	-10.4361
▁dichiarazioni	-10.4364
▁ar	-10.4365
▁chief	-10.4365
▁serio	-10.4376
▁conclusioni	-10.4385
▁specialmente	-10.4386
▁ko	-10.4387
pri	-10.4387
▁vino	-10.4392
q	-10.4392
area	-10.4395
▁tosto	-10.4395
ron	-10.4396
tiva	-10.4397
▁sanità	-10.4397
▁bianca	-10.4407
▁discussioni	-10.4413
▁cu	-10.4421
▁possibili	-10.4426
▁unica	-10.4429
▁noto	-10.4434
▁genitori	-10.445
occasione	-10.4453
▁commerciale	-10.4453
ppi	-10.4454
▁scene	-10.4455
°	-10.4456
▁july	-10.4459
▁utili	-10.4461
▁progresso	-10.4461
▁pezzo	-10.4462
▁station	-10.4464
▁immagini	-10.4466
▁everyone	-10.4473
▁finanziaria	-10.4473
▁pieces	-10.4473
▁adesione	-10.4475
▁race	-10.4477
▁29	-10.448
▁consigli	-10.4483
▁ottenuto	-10.4485
▁grosso	-10.4487
▁specifica	-10.4491
euro	-10.4499
▁private	-10.4499
▁comporta	-10.4512
▁decide	-10.4513
▁quick	-10.4515
xi	-10.4516
▁contiene	-10.4516
mel	-10.4519
▁partenza	-10.4523
▁returned	-10.4523
red	-10.4528
▁applicare	-10.4533
▁standing	-10.4535
▁dev	-10.4537
▁sorta	-10.4538
▁enorme	-10.4539
ndola	-10.454
▁kitty	-10.4541
▁occupa	-10.4549
interesse	-10.455
▁afternoon	-10.4554
▁season	-10.4556
▁confini	-10.4557
ies	-10.4564
▁ricevere	-10.457
▁monti	-10.4571
▁je	-10.4576
▁personali	-10.458
sha	-10.458
▁nuovamente	-10.4587
+	-10.4588
▁particolari	-10.4595
▁scuole	-10.4598
▁count	-10.4608
▁learn	-10.4612
▁certainly	-10.4614
▁places	-10.4615
▁spi	-10.4617
▁democratico	-10.4623
▁giungere	-10.4625
▁macchina	-10.4629
ava	-10.4637
▁domenica	-10.4637
▁prospettiva	-10.4637
▁london	-10.4638
▁pone	-10.4642
▁hall	-10.4647
▁aria	-10.465
▁fonte	-10.4651
▁cittadino	-10.4651
▁bob	-10.4658
▁comprendere	-10.4662
tiche	-10.4666
▁peggio	-10.4672
▁former	-10.4678
▁circostanze	-10.4685
▁chiari	-10.4687
▁indispensabile	-10.4694
▁ge	-10.4696
▁adam	-10.4697
intera	-10.4698
")	-10.4699
▁passaggio	-10.4713
ish	-10.4717
▁battle	-10.4719
▁hospital	-10.4721
▁rifiuti	-10.4724
▁2020	-10.4724
▁singoli	-10.4733
▁giunto	-10.4736
▁promozione	-10.4741
▁genova	-10.4743
▁kid	-10.4745
▁voci	-10.4745
▁low	-10.4752
nk	-10.4754
▁games	-10.476
▁cha	-10.4764
▁caught	-10.4769
▁following	-10.477
▁completa	-10.4773
▁village	-10.4774
▁bilanci	-10.4774
▁stile	-10.4774
anni	-10.4776
ties	-10.4777
▁holding	-10.4777
▁prevenzione	-10.4778
▁tira	-10.4779
au	-10.4782
▁oggetti	-10.4789
▁building	-10.479
▁pane	-10.4791
▁provvedimenti	-10.4792
▁spoon	-10.4793
▁capito	-10.4795
▁31	-10.4796
▁novità	-10.4797
▁straight	-10.4808
▁relativo	-10.4812
▁27	-10.4816
▁careful	-10.4821
▁player	-10.4824
cri	-10.4824
▁critica	-10.4826
ite	-10.4827
tá	-10.4828
▁affermare	-10.4831
▁international	-10.4835
▁duck	-10.4836
esperienza	-10.4838
▁riconosce	-10.4843
▁hole	-10.485
▁snow	-10.4853
▁esistenti	-10.4858
▁luna	-10.4859
▁versione	-10.4859
cio	-10.486
ante	-10.4864
▁pratiche	-10.4875
▁pagare	-10.4881
nsi	-10.4883
▁opened	-10.4884
▁rimanere	-10.4885
▁wild	-10.4888
scono	-10.489
▁innanzitutto	-10.4894
▁reso	-10.4895
▁block	-10.4899
–	-10.4907
▁major	-10.4911
ation	-10.4913
▁uhoh	-10.4914
▁frontiere	-10.4915
dio	-10.4917
▁sorriso	-10.4923
▁labbra	-10.4924
12	-10.4926
▁law	-10.4927
▁aiutare	-10.4931
▁nobody	-10.4931
pre	-10.4936
▁february	-10.494
iva	-10.4942
▁piani	-10.4943
▁pot	-10.4946
etti	-10.4951
▁lib	-10.4954
▁chiunque	-10.4957
▁strutture	-10.4957
zie	-10.4962
▁ross	-10.4969
▁sight	-10.4974
▁sarah	-10.4975
▁notizie	-10.4983
▁towards	-10.4987
▁triste	-10.4995
▁ze	-10.4996
rri	-10.4998
▁democratica	-10.5
▁limite	-10.5001
▁valle	-10.5002
▁pelle	-10.5004
ju	-10.5006
▁cambiamenti	-10.501
▁funzionamento	-10.5017
▁thy	-10.5019
impegno	-10.5025
▁pizza	-10.5025
▁anna	-10.503
tivi	-10.5036
▁feeling	-10.5039
there	-10.5047
nne	-10.5049
▁weeks	-10.5052
ser	-10.5055
▁built	-10.5061
▁thirty	-10.5064
▁onore	-10.5068
▁tentativo	-10.5073
glo	-10.5076
▁pensieri	-10.5076
▁minori	-10.5077
▁sviluppare	-10.5078
▁bill	-10.5078
▁quickly	-10.508
▁funzioni	-10.5083
▁consentire	-10.5087
▁pictures	-10.509
▁potevano	-10.5098
▁significato	-10.5099
lly	-10.5102
▁stima	-10.5103
▁sca	-10.5108
▁medesima	-10.5111
▁contempo	-10.5112
▁tecnologie	-10.5114
▁luigi	-10.5119
▁wi	-10.5122
ono	-10.5127
▁soggetti	-10.5129
▁regina	-10.5129
▁profondo	-10.5134
▁broken	-10.5136
▁veri	-10.5137
▁cross	-10.5139
▁wrote	-10.5143
silence	-10.5145
▁pin	-10.5152
▁1999	-10.5154
▁meeting	-10.5155
roz	-10.5163
▁reali	-10.5169
▁ufficiale	-10.5173
ping	-10.5175
▁condanna	-10.5189
50	-10.5191
▁cheese	-10.5196
▁safe	-10.5203
▁cervello	-10.5208
▁malattie	-10.5208
▁match	-10.521
▁finito	-10.5213
▁ferro	-10.5225
▁anyone	-10.5227
▁segreto	-10.5228
▁sembrava	-10.5231
▁concerne	-10.5232
▁india	-10.5232
ula	-10.5235
▁messi	-10.5237
▁sposa	-10.5239
shi	-10.5241
▁2,	-10.5243
▁giustamente	-10.5243
sia	-10.5243
ol	-10.5245
▁wan	-10.5246
▁ordini	-10.5249
▁tende	-10.5253
▁minimo	-10.5253
▁cake	-10.5255
▁trees	-10.5258
▁oriente	-10.5261
▁truth	-10.5262
▁china	-10.5262
▁ricorso	-10.5264
▁leva	-10.5265
integrazione	-10.5266
▁store	-10.5266
▁bath	-10.5267
▁dipende	-10.5274
▁vostre	-10.5279
▁ooh	-10.528
▁sense	-10.528
▁malattia	-10.5288
▁agricola	-10.5291
▁od	-10.5301
ding	-10.5301
▁facoltà	-10.5303
▁decided	-10.5303
ak	-10.5305
▁level	-10.5305
▁veduto	-10.5306
▁contenuti	-10.5309
▁pronto	-10.531
▁sick	-10.5317
▁supposed	-10.5323
▁fellow	-10.5328
▁works	-10.5329
ud	-10.5333
bc	-10.5334
▁terribile	-10.5336
▁hell	-10.5342
mpi	-10.5347
▁grand	-10.5348
sione	-10.535
▁zzz	-10.535
▁appoggio	-10.5361
▁fenomeno	-10.5368
▁numerose	-10.5375
▁disegno	-10.5383
dis	-10.5395
▁andiamo	-10.5397
▁missione	-10.5406
▁introdurre	-10.5407
▁sanno	-10.5412
▁produttori	-10.5413
▁knows	-10.5415
▁lingue	-10.5417
▁carte	-10.543
▁agosto	-10.5433
▁andato	-10.5434
▁esprime	-10.5441
▁quindici	-10.5442
▁commune	-10.5448
▁pounds	-10.5448
▁profonda	-10.5449
▁council	-10.5449
voc	-10.5459
▁compagni	-10.546
▁heavy	-10.5465
▁cover	-10.5467
▁torre	-10.5471
▁liberalizzazion	-10.5474
▁chiarezza	-10.5475
▁mangia	-10.5476
▁report	-10.5485
▁ju	-10.549
▁monkey	-10.5492
▁specifico	-10.5495
▁raccolta	-10.5498
▁interni	-10.5511
▁ponte	-10.552
▁finestra	-10.5523
stro	-10.5531
▁abitanti	-10.5536
why	-10.5543
▁lie	-10.5544
▁telling	-10.5548
opportunità	-10.5549
▁racconta	-10.5549
▁situazioni	-10.5553
risate	-10.5555
mba	-10.5558
10	-10.556
▁posizioni	-10.5565
una	-10.5567
mother	-10.5568
▁pietra	-10.5569
▁espressione	-10.5575
▁miles	-10.5576
▁difendere	-10.5583
▁clima	-10.5585
▁finger	-10.5585
▁scusa	-10.5586
▁using	-10.5589
▁dovesse	-10.559
ld	-10.5592
▁1998	-10.5592
▁presta	-10.5598
▁ricordato	-10.5601
▁attuazione	-10.5603
▁suddenly	-10.5604
▁errori	-10.5609
▁vedeva	-10.5617
stica	-10.5618
▁opinioni	-10.5625
▁mum	-10.5626
▁contatto	-10.5634
▁changed	-10.5642
▁metri	-10.5643
▁vantaggi	-10.5645
▁cre	-10.5647
▁consente	-10.5647
▁conferma	-10.5647
▁parità	-10.565
▁conserva	-10.5655
▁ue	-10.5657
▁breakfast	-10.5657
▁considerato	-10.5659
▁quante	-10.5665
▁sorella	-10.5666
▁rain	-10.5667
▁notevole	-10.5669
▁sign	-10.567
unico	-10.5677
▁mise	-10.5678
▁attack	-10.5688
▁grida	-10.569
▁matrimonio	-10.5691
▁organi	-10.5691
▁common	-10.5695
▁boo	-10.5699
▁avessero	-10.5702
▁metodi	-10.5704
ola	-10.5706
▁cook	-10.5708
▁anne	-10.5714
▁lunch	-10.5716
ene	-10.5719
▁impedire	-10.572
▁ye	-10.5728
▁stars	-10.573
ary	-10.5733
▁medici	-10.5739
fer	-10.5739
▁finish	-10.5746
▁sam	-10.5755
▁neanche	-10.5759
▁giuridico	-10.5766
▁minister	-10.5766
how	-10.5768
▁worry	-10.5772
▁diciamo	-10.5774
▁beh	-10.578
04	-10.5782
▁africa	-10.5785
▁ultime	-10.5788
2:	-10.5789
▁aula	-10.579
▁tar	-10.5791
11	-10.5791
▁produce	-10.5792
▁materiali	-10.5796
▁pei	-10.5796
▁bruxelles	-10.5797
▁arti	-10.5798
voli	-10.5801
▁intenzione	-10.5802
▁trust	-10.5809
▁bank	-10.5813
▁dante	-10.5814
▁svolgerà	-10.5814
▁hang	-10.5816
▁attiva	-10.5818
▁ke	-10.5818
▁equilibrio	-10.5821
▁insomma	-10.5822
▁aprire	-10.5824
▁estera	-10.5824
▁circle	-10.5828
▁esseri	-10.5828
▁rappresentano	-10.5829
▁manifesta	-10.5833
▁regionali	-10.5837
▁attorno	-10.5838
▁scegliere	-10.5845
▁competitività	-10.5847
erò	-10.5852
▁facevano	-10.5854
opera	-10.5857
▁comunitarie	-10.5857
▁marcia	-10.5857
not	-10.5858
▁guerre	-10.586
▁turismo	-10.586
▁cry	-10.5862
▁dimostrare	-10.5866
ent	-10.5867
▁merci	-10.5882
▁puppet	-10.5882
▁fix	-10.5888
▁interested	-10.5889
▁esteri	-10.5893
▁prince	-10.5893
▁giardino	-10.5895
mini	-10.5899
▁giuliano	-10.591
▁maggiormente	-10.5911
rico	-10.5919
▁pio	-10.5919
▁chapter	-10.5923
▁des	-10.5924
lio	-10.5929
adozione	-10.5932
▁step	-10.5934
▁tribunale	-10.5937
▁requisiti	-10.5945
rsene	-10.5949
▁por	-10.595
▁deep	-10.5954
▁welcome	-10.5955
▁seguenti	-10.597
▁agricoltori	-10.597
tene	-10.5973
cce	-10.5974
ard	-10.5979
side	-10.5983
▁invito	-10.5984
▁conta	-10.5985
▁legno	-10.5986
zzare	-10.5989
▁valutare	-10.5992
▁pla	-10.5994
▁vescovo	-10.5996
▁example	-10.5996
▁gradi	-10.5997
▁record	-10.6
otto	-10.6002
▁debbano	-10.6004
▁americani	-10.6005
▁muta	-10.6006
▁dance	-10.6009
▁alcuno	-10.601
▁permettere	-10.6012
▁rimase	-10.6013
▁grecia	-10.6017
san	-10.6017
▁moto	-10.602
makes	-10.6021
▁needs	-10.6022
▁interessati	-10.6027
▁interna	-10.6029
▁adult	-10.6031
▁language	-10.6033
▁dimensioni	-10.6043
mma	-10.6045
▁build	-10.6048
stri	-10.6048
▁toscana	-10.605
▁force	-10.6056
▁tecniche	-10.606
cy	-10.6066
▁trovò	-10.6067
▁serra	-10.6072
▁narra	-10.6072
▁avviene	-10.6073
▁cars	-10.6074
▁field	-10.608
▁voti	-10.6081
eremo	-10.6082
▁freddo	-10.6083
▁z	-10.6085
▁yo	-10.6087
▁sposta	-10.6089
▁animo	-10.6092
▁anybody	-10.6093
▁include	-10.6094
ism	-10.6097
▁momenti	-10.6099
▁doubt	-10.61
▁washington	-10.6102
▁capace	-10.6105
▁verranno	-10.6107
▁dominio	-10.6114
▁colui	-10.6114
▁dat	-10.6115
ndomi	-10.6118
▁giving	-10.6119
cla	-10.612
▁esperti	-10.6126
▁accade	-10.6128
bilità	-10.6134
▁gu	-10.6137
▁sky	-10.6137
▁viola	-10.6139
▁beat	-10.614
▁fianco	-10.6141
▁rimasto	-10.6141
▁bread	-10.6142
glie	-10.6144
▁potè	-10.6145
ance	-10.6152
▁perfettamente	-10.6159
▁giuseppe	-10.616
▁vedete	-10.6167
tus	-10.6167
▁professionale	-10.617
▁ragazza	-10.617
▁tecnica	-10.6172
▁fanciulla	-10.6173
▁conquista	-10.6173
▁elephant	-10.6176
▁impresa	-10.618
▁michael	-10.618
▁square	-10.6183
▁piu	-10.6186
▁cibo	-10.6188
▁attesa	-10.6189
▁stopped	-10.619
▁soddisfazione	-10.6191
▁operatori	-10.6193
▁pontefice	-10.6196
▁compiuto	-10.6196
▁local	-10.6199
▁sorte	-10.6201
▁silly	-10.6202
▁dichiara	-10.6203
▁followed	-10.6203
15	-10.6203
▁primavera	-10.6207
▁chiediamo	-10.6209
▁verifica	-10.6211
▁incontra	-10.6213
▁happens	-10.6213
▁corner	-10.6213
▁sostanza	-10.6216
iche	-10.6221
▁ministero	-10.6223
▁nearly	-10.6228
▁population	-10.6228
ella	-10.6235
▁wonderful	-10.6235
▁tipi	-10.6235
▁poli	-10.6242
▁presentati	-10.6243
▁extra	-10.6245
▁nasce	-10.6246
ham	-10.6247
▁semi	-10.6247
▁semplici	-10.6257
▁invita	-10.626
▁tradizione	-10.6268
▁entrambe	-10.6268
▁ebbene	-10.627
via	-10.627
▁term	-10.6273
▁carry	-10.6273
id	-10.6277
▁blocks	-10.6282
▁promise	-10.6287
▁malgrado	-10.6297
▁inizio	-10.63
▁lovely	-10.6303
oli	-10.6303
▁potremmo	-10.6304
▁perde	-10.6306
▁ought	-10.6306
▁gio	-10.6309
▁miglior	-10.6312
▁testi	-10.6312
▁pet	-10.632
▁fiscale	-10.6324
mila	-10.6328
▁tenendo	-10.6331
▁ate	-10.6333
▁fan	-10.6336
▁except	-10.6336
▁social	-10.6341
je	-10.6344
▁fer	-10.6344
introduzione	-10.6346
▁uguale	-10.6347
▁sente	-10.635
▁yesterday	-10.635
▁durata	-10.6352
▁stai	-10.6361
▁favorite	-10.6362
▁inutile	-10.6363
ville	-10.6367
▁vesti	-10.6367
▁indica	-10.637
▁sar	-10.6371
▁union	-10.6372
▁control	-10.6373
▁segnale	-10.6377
▁dimenticare	-10.6378
▁object	-10.6383
▁saputo	-10.6383
▁lots	-10.6388
▁condurre	-10.6388
▁esempi	-10.6389
▁follow	-10.6397
▁deputato	-10.6403
▁specifiche	-10.6403
▁received	-10.6404
▁betty	-10.6404
▁rumore	-10.6405
▁moving	-10.6414
▁dava	-10.6423
▁martin	-10.6425
▁poteri	-10.6425
▁quantunque	-10.643
▁osserva	-10.6432
▁60	-10.6435
▁puzzle	-10.6435
▁2001	-10.6438
▁disoccupazione	-10.6444
use	-10.6446
▁compiuti	-10.6447
▁venuta	-10.6447
▁inizia	-10.6448
▁riceve	-10.645
▁lunghi	-10.645
▁giorgio	-10.6452
▁stretta	-10.6453
▁protocollo	-10.6457
%	-10.6459
▁yyy	-10.6463
▁funziona	-10.6466
▁ufficiali	-10.6468
▁risposte	-10.647
▁formula	-10.647
▁share	-10.6473
▁presentazione	-10.6475
▁pietà	-10.6476
▁operazioni	-10.6477
nes	-10.6478
▁ritorna	-10.6481
▁beginning	-10.6483
▁cominciò	-10.6484
▁grass	-10.6486
▁liked	-10.6492
▁dichiarato	-10.6493
▁corsi	-10.6496
pu	-10.6502
▁modifiche	-10.6503
ici	-10.6504
▁ste	-10.6504
▁prego	-10.6506
▁fonda	-10.6507
▁municipality	-10.6507
ship	-10.6508
▁deriva	-10.6512
▁support	-10.6523
▁magari	-10.6525
arte	-10.6527
▁vivi	-10.6528
▁reach	-10.6529
→	-10.6534
▁cane	-10.6534
▁potente	-10.6534
ung	-10.6536
▁op	-10.6538
▁mala	-10.6543
▁account	-10.6551
ude	-10.6553
▁lead	-10.6556
▁assemblea	-10.6563
▁alquanto	-10.6567
▁emissioni	-10.6567
▁lasciò	-10.6569
▁rovina	-10.6571
ffe	-10.6574
▁cost	-10.6575
▁hurry	-10.6585
▁felicità	-10.6585
▁anymore	-10.6586
ese	-10.6592
▁parents	-10.6594
▁continuo	-10.6596
▁writing	-10.6599
▁decreto	-10.6601
▁flowers	-10.6605
▁laughing	-10.6607
▁members	-10.6609
ku	-10.6609
▁pagine	-10.6612
ten	-10.6615
▁2002	-10.6618
▁esclamò	-10.6618
▁pressione	-10.6618
sing	-10.6622
colo	-10.6622
nna	-10.6622
▁blu	-10.6625
poli	-10.6627
▁penale	-10.6627
▁fiore	-10.6629
▁finire	-10.6634
▁conversation	-10.6636
▁logica	-10.6636
▁cercato	-10.6637
▁linguaggio	-10.6637
▁tiene	-10.6638
▁spring	-10.6639
▁2008	-10.6641
▁rivela	-10.6644
▁california	-10.6645
▁ain	-10.6648
▁animal	-10.6651
▁bal	-10.6653
▁gara	-10.6654
▁hill	-10.6662
▁--&	-10.6667
▁universale	-10.6669
▁lista	-10.6674
▁poesia	-10.6676
endo	-10.6677
king	-10.6681
▁chicken	-10.6692
▁asilo	-10.6697
▁sanzioni	-10.6706
▁premio	-10.6708
▁robert	-10.6717
▁mangiare	-10.6721
▁ragazzo	-10.6727
▁whoa	-10.6729
▁potremo	-10.6738
▁sforza	-10.6742
▁capital	-10.6742
nata	-10.6742
▁paio	-10.6742
▁egg	-10.6743
▁view	-10.6748
▁interest	-10.6753
▁argomenti	-10.6762
etta	-10.6763
▁trovava	-10.6772
▁trovo	-10.6775
▁alti	-10.6777
▁congratularmi	-10.678
ane	-10.678
▁pacchetto	-10.6783
mb	-10.6784
▁minore	-10.6787
▁prete	-10.6791
▁vendita	-10.6792
▁bru	-10.6794
▁carried	-10.6794
▁democratici	-10.6799
▁flessibilità	-10.68
▁disponibilità	-10.6801
▁avremo	-10.6803
▁finanziamenti	-10.6804
▁dream	-10.6813
▁influenza	-10.6817
▁crayon	-10.6817
▁cesare	-10.6818
mbo	-10.6818
▁positiva	-10.682
cal	-10.6827
▁spettacolo	-10.6828
▁economia	-10.6829
▁versi	-10.6838
▁truppe	-10.6841
ttu	-10.6847
val	-10.6847
▁shoe	-10.6848
intero	-10.6851
▁convinto	-10.6852
▁peraltro	-10.6854
they	-10.6856
▁riesce	-10.6856
▁sfide	-10.6856
▁umane	-10.6858
▁sara	-10.6862
▁including	-10.6862
▁personalmente	-10.6863
gan	-10.6865
▁diretto	-10.6867
▁intendo	-10.6868
▁riusciti	-10.687
sche	-10.6877
out	-10.688
▁richard	-10.688
▁sha	-10.688
▁perdita	-10.688
dra	-10.6881
▁costante	-10.6883
▁quota	-10.6886
▁nina	-10.689
▁copia	-10.6892
▁riserva	-10.6893
▁viii	-10.6895
▁ricchi	-10.6896
▁cream	-10.69
▁nove	-10.69
▁1997	-10.6904
▁frutto	-10.6912
▁vii	-10.6915
▁roll	-10.6919
▁kiss	-10.6921
▁divieto	-10.6925
▁rappresentante	-10.6926
▁teneva	-10.6929
fu	-10.6932
▁nucleare	-10.6932
▁sottolineato	-10.6946
▁cava	-10.6949
▁vedendo	-10.6951
▁cosí	-10.6951
▁esercitare	-10.6955
▁meant	-10.6956
▁ascolta	-10.6957
▁costituzionale	-10.6957
obs	-10.6957
▁based	-10.6962
▁tro	-10.6963
▁lavora	-10.6965
▁direttive	-10.6968
▁lose	-10.697
nie	-10.697
▁vai	-10.697
▁zi	-10.6973
▁strano	-10.6975
▁director	-10.698
op	-10.6982
▁questions	-10.6983
▁nn	-10.6984
tz	-10.6986
▁laugh	-10.6989
▁fur	-10.699
▁bang	-10.6991
▁000	-10.6994
▁timore	-10.7004
▁comunitari	-10.7014
▁considera	-10.7014
▁dodici	-10.7018
▁taglia	-10.7019
agenzia	-10.702
▁finchè	-10.7021
▁month	-10.7021
▁felici	-10.7023
▁monta	-10.7024
▁attuare	-10.7024
▁resistenza	-10.7025
▁fuck	-10.7028
▁dov	-10.7029
▁avvicina	-10.703
▁cal	-10.7031
▁positivi	-10.7032
▁lire	-10.7035
▁james	-10.7039
▁leaving	-10.7041
▁rientra	-10.7042
▁km	-10.7043
▁gira	-10.7044
▁further	-10.7045
▁sospetto	-10.7048
▁kingdom	-10.7049
▁bottom	-10.705
▁esaminare	-10.7051
▁sti	-10.7054
▁tasso	-10.7055
▁sembrano	-10.7057
▁preparazione	-10.7058
▁starts	-10.7061
13	-10.7063
▁guardando	-10.7068
▁direttore	-10.7069
▁appeared	-10.707
▁ostacoli	-10.707
▁muro	-10.7071
des	-10.7072
▁pianta	-10.7079
▁grow	-10.708
▁sonno	-10.7089
▁clock	-10.7089
▁ricco	-10.709
▁riso	-10.7093
▁produrre	-10.7098
▁volevo	-10.7099
▁scar	-10.71
▁bet	-10.7104
▁tecnico	-10.7105
vasi	-10.7106
▁self	-10.7111
▁frank	-10.7112
▁anco	-10.7115
▁romana	-10.7116
▁antico	-10.7123
▁fonti	-10.7125
▁fila	-10.7126
▁rer	-10.7127
▁spend	-10.7127
▁ital	-10.7128
▁costituiscono	-10.713
▁2010	-10.7131
▁torino	-10.7131
▁associazione	-10.7134
▁giunta	-10.7134
▁delegazione	-10.7135
▁tenta	-10.7135
tevi	-10.7136
▁nobile	-10.7137
▁cala	-10.7152
▁destinati	-10.7154
▁cambia	-10.7157
▁sentenza	-10.7157
nzi	-10.7158
▁stupid	-10.7165
▁esercito	-10.7167
trici	-10.7167
ls	-10.7167
ore	-10.7174
▁iniziato	-10.7175
▁zio	-10.7178
▁vada	-10.7179
▁accogliere	-10.718
▁mad	-10.7182
▁interesting	-10.7184
16	-10.7187
▁dovremo	-10.7188
▁fly	-10.719
▁spot	-10.7191
▁legislativo	-10.7191
ens	-10.7193
▁knock	-10.7196
▁bridge	-10.72
▁possesso	-10.7205
▁avviare	-10.7207
▁ricordi	-10.7209
▁trans	-10.7212
▁benessere	-10.7213
▁cavaliere	-10.7215
▁fatica	-10.7215
▁taste	-10.7218
▁cucina	-10.7228
▁jane	-10.7228
her	-10.7228
▁blow	-10.723
▁condotto	-10.7235
▁winter	-10.7236
tions	-10.7238
▁stone	-10.7241
▁fermo	-10.7241
ario	-10.7242
▁medie	-10.7242
▁speranze	-10.7242
▁pose	-10.7247
▁vivono	-10.7248
▁differenze	-10.7249
▁esclusivamente	-10.725
▁seeing	-10.7251
ward	-10.7252
▁caratteristiche	-10.7253
amore	-10.7254
▁yup	-10.7264
▁articoli	-10.7267
▁sostenuto	-10.7278
▁walking	-10.728
▁comando	-10.728
▁contratto	-10.7284
▁greco	-10.7288
room	-10.7294
▁orientale	-10.7296
▁bassa	-10.7296
tic	-10.7296
▁impa	-10.7301
▁appello	-10.7305
▁attention	-10.7308
▁segretario	-10.7312
stico	-10.7316
▁percento	-10.7318
▁scale	-10.732
▁riconosciuto	-10.7322
▁worth	-10.7323
▁appare	-10.7324
▁goin	-10.7325
▁genti	-10.7327
▁plays	-10.7327
▁destino	-10.7329
▁rich	-10.7334
▁added	-10.7336
▁hotel	-10.7337
▁lasciando	-10.7337
▁morta	-10.7338
▁wide	-10.734
▁iniziare	-10.7341
▁chiuso	-10.7341
▁dottore	-10.7343
▁inferiore	-10.7344
▁vennero	-10.7347
▁giacomo	-10.7351
▁darling	-10.7361
▁vergogna	-10.7362
▁teacher	-10.7363
rse	-10.7364
ian	-10.7365
▁exclaimed	-10.7366
▁ideale	-10.7366
▁yours	-10.7368
▁favorire	-10.7371
▁distance	-10.7373
▁benefici	-10.7376
ista	-10.7376
▁nondimeno	-10.7376
▁lake	-10.7381
▁center	-10.7386
▁ulteriore	-10.7391
▁riuscire	-10.7394
▁avranno	-10.7395
▁shop	-10.7396
▁disponibile	-10.7398
▁machine	-10.74
▁stage	-10.7402
mus	-10.7403
▁continue	-10.7409
▁2018	-10.7414
▁ali	-10.7423
▁turns	-10.7427
▁atteggiamento	-10.7427
▁speciali	-10.743
▁diretta	-10.7434
▁busy	-10.7434
▁nu	-10.7436
▁leg	-10.7439
▁sali	-10.745
▁squadra	-10.7455
▁tue	-10.7457
▁fattori	-10.7461
▁professor	-10.7463
▁consumo	-10.7465
14	-10.7469
▁trip	-10.747
▁unità	-10.7475
▁pagamento	-10.7479
=	-10.748
▁orientamenti	-10.748
▁fornito	-10.748
▁leone	-10.7486
▁teeth	-10.7489
▁segue	-10.749
▁basi	-10.7492
▁sostiene	-10.7494
▁popolazioni	-10.7495
▁spoke	-10.7497
▁pink	-10.7498
▁brand	-10.7499
▁rive	-10.7503
tes	-10.7505
utilizzo	-10.7506
isti	-10.7506
▁finally	-10.7506
▁2007	-10.7509
▁bis	-10.7509
▁greci	-10.7511
▁antica	-10.7513
america	-10.752
▁numeri	-10.7522
rge	-10.7526
▁multi	-10.7527
▁osservazione	-10.7527
▁reading	-10.7536
stru	-10.7537
▁amministrazione	-10.7538
▁brush	-10.7539
▁presi	-10.754
▁pubblicato	-10.7551
▁legs	-10.7552
vole	-10.7555
▁sheep	-10.7555
▁dollari	-10.7556
▁notare	-10.7558
cle	-10.7559
▁title	-10.7566
▁nomina	-10.7568
▁indicato	-10.7569
ffa	-10.757
▁spada	-10.757
▁eccellente	-10.7572
▁sacco	-10.7572
▁riguardano	-10.7576
▁sarei	-10.7577
▁bought	-10.7584
▁fre	-10.7586
▁principalmente	-10.7589
▁germany	-10.7589
▁patrimonio	-10.7591
▁parecchi	-10.7595
▁alessandro	-10.7595
cli	-10.7597
▁politician	-10.7601
autorità	-10.7606
80	-10.7613
▁concrete	-10.7614
▁lancia	-10.7621
▁string	-10.7629
▁privati	-10.763
▁aggiunto	-10.7632
applausi	-10.7633
ans	-10.7634
▁somewhere	-10.7636
▁proteggere	-10.7637
▁legato	-10.7645
▁cominciare	-10.7648
alto	-10.7649
ving	-10.7651
▁sottolinea	-10.7653
▁picks	-10.7654
▁ger	-10.7654
uno	-10.7663
▁piede	-10.7666
nico	-10.7677
▁parlava	-10.7677
▁compreso	-10.7679
"]	-10.7679
▁sentimenti	-10.7679
▁senato	-10.7684
▁shi	-10.7684
▁ram	-10.7686
▁3,	-10.7687
▁passò	-10.7689
▁walked	-10.7691
▁processi	-10.7696
ran	-10.7702
▁officer	-10.7703
▁card	-10.7704
▁lago	-10.7705
▁tall	-10.771
▁accetta	-10.7711
▁perfect	-10.7717
▁created	-10.7717
▁sad	-10.7718
▁recenti	-10.7724
▁autori	-10.7729
▁information	-10.773
▁prevista	-10.7731
▁forty	-10.7732
▁tower	-10.7734
▁montagna	-10.7739
▁cast	-10.774
▁accoglie	-10.7742
▁statuto	-10.775
▁assume	-10.7751
▁filo	-10.7751
▁seguita	-10.7756
▁assicura	-10.7756
▁chiamata	-10.7758
▁bow	-10.7761
sque	-10.7763
▁altrove	-10.7765
ris	-10.7765
▁final	-10.7765
ide	-10.7766
ji	-10.7767
▁considerando	-10.7767
▁parco	-10.7769
▁century	-10.7769
erebbe	-10.7772
▁veste	-10.7774
elli	-10.7778
▁dry	-10.7779
▁centinaia	-10.7784
▁comportamento	-10.7786
▁pensi	-10.7788
▁dissi	-10.7796
▁stagione	-10.78
▁cadere	-10.7803
hu	-10.7803
▁ulteriormente	-10.7807
now	-10.7808
▁avevamo	-10.7811
▁minuto	-10.7815
▁twelve	-10.7818
#	-10.7822
▁tedesco	-10.7822
▁tail	-10.7825
25	-10.7828
ü	-10.7831
età	-10.7831
▁gusto	-10.7832
▁industriale	-10.7833
▁vieni	-10.784
▁2013	-10.784
▁wash	-10.7842
▁norma	-10.7843
▁letters	-10.7843
▁rabbit	-10.7851
▁compiti	-10.7852
▁garanzia	-10.7857
▁especially	-10.786
▁sunday	-10.7861
▁benissimo	-10.7862
▁fuga	-10.7863
▁conflitti	-10.7864
▁dan	-10.7867
▁spe	-10.7868
▁pra	-10.7873
▁spent	-10.7873
▁corsa	-10.7873
this	-10.7875
▁partenariato	-10.7876
▁adottata	-10.7881
▁aereo	-10.7881
▁disco	-10.7884
▁drop	-10.7885
▁cure	-10.7893
▁evidentemente	-10.7899
▁professional	-10.7901
▁jim	-10.7903
dem	-10.7904
▁latte	-10.7904
▁scarpe	-10.7905
▁definitiva	-10.7909
▁forgot	-10.7911
▁modificare	-10.7918
▁grew	-10.7921
▁aspettare	-10.7922
▁esperienze	-10.7922
▁acco	-10.7924
▁segna	-10.7931
▁names	-10.7935
▁recentemente	-10.7938
▁accusa	-10.7939
unt	-10.7942
▁aggiunge	-10.7942
▁health	-10.7945
▁indipendente	-10.7948
▁pensava	-10.7948
▁realizzato	-10.7948
▁served	-10.7948
▁eliminare	-10.795
▁2015	-10.795
spi	-10.7951
gue	-10.7952
▁pranzo	-10.7953
▁giunge	-10.7956
▁charge	-10.7956
▁cer	-10.7957
▁watching	-10.7957
mor	-10.7959
mme	-10.7964
▁forth	-10.7975
▁comma	-10.7975
vin	-10.7977
▁assumere	-10.7979
▁ottimo	-10.7979
▁brave	-10.798
▁ufficio	-10.798
î	-10.7981
▁privato	-10.7982
▁1996	-10.7982
▁elevato	-10.7983
▁fresh	-10.7987
▁difficult	-10.7992
▁gre	-10.7992
▁proporre	-10.7992
▁2005	-10.7993
gui	-10.7993
rdi	-10.8
nga	-10.8011
▁2009	-10.8011
ford	-10.8014
▁loved	-10.8017
▁track	-10.802
▁allowed	-10.8022
esi	-10.8026
▁integrazione	-10.8031
▁riflessione	-10.8031
▁calma	-10.8032
▁bur	-10.8034
▁difficili	-10.8039
▁laughed	-10.804
▁venisse	-10.8047
▁quote	-10.805
▁enormi	-10.8053
▁farò	-10.8054
▁sabato	-10.8057
000	-10.8063
▁realmente	-10.8063
▁shit	-10.8064
▁amsterdam	-10.8066
▁intergovernativ	-10.807
▁scelto	-10.807
▁nancy	-10.8075
▁procura	-10.8077
▁fabbrica	-10.808
▁fucking	-10.8086
▁roberto	-10.8086
▁civiltà	-10.8091
▁fretta	-10.8096
ther	-10.8096
▁imporre	-10.8098
▁osservare	-10.8099
▁stabilito	-10.8099
▁eravamo	-10.8101
▁rapida	-10.8105
▁intero	-10.8106
▁shake	-10.8107
▁fia	-10.8114
▁online	-10.8119
▁paris	-10.8122
▁legati	-10.8122
▁riflettere	-10.8124
▁pronti	-10.8124
▁continente	-10.8127
gar	-10.8133
auto	-10.8133
40	-10.8134
▁condivido	-10.8134
rd	-10.8139
▁itself	-10.8139
▁venivano	-10.814
spe	-10.814
▁riprese	-10.8145
▁toglie	-10.8146
▁dubbi	-10.8152
▁unicamente	-10.8154
▁gua	-10.8159
▁volo	-10.8164
▁originale	-10.817
▁turchi	-10.8172
immigrazione	-10.8177
▁soggetto	-10.8182
▁stuck	-10.819
▁cardinale	-10.8191
▁bio	-10.8193
ries	-10.8194
▁type	-10.8201
ning	-10.8203
▁vado	-10.8206
▁hate	-10.8208
▁pri	-10.821
gger	-10.8218
▁fama	-10.8219
▁giu	-10.8219
▁bre	-10.8219
▁dovevano	-10.8223
▁neck	-10.8228
▁liberi	-10.8231
ab	-10.8231
▁vicenda	-10.8233
▁william	-10.8235
▁pressioni	-10.8237
▁ur	-10.8237
▁honor	-10.8238
▁arma	-10.8239
▁potrei	-10.8241
▁accompagna	-10.8245
▁parlamenti	-10.8249
▁firma	-10.8249
▁debole	-10.8251
▁diversità	-10.8251
esercizio	-10.8253
▁chè	-10.8253
usa	-10.8255
▁»	-10.8255
tum	-10.8261
ufficio	-10.8265
▁romania	-10.8266
▁categoria	-10.8269
▁caterpillar	-10.8269
▁mc	-10.8279
▁lunghe	-10.828
▁interrogazioni	-10.8282
▁likes	-10.8283
▁à	-10.8285
▁project	-10.8285
▁castle	-10.8288
▁efficaci	-10.8291
peter	-10.8292
▁bite	-10.8298
▁solleva	-10.8299
▁senz	-10.8302
▁laughs	-10.8306
▁torto	-10.8309
▁ampia	-10.8313
▁corretto	-10.8315
ndogli	-10.8319
▁nave	-10.833
mina	-10.8335
▁accident	-10.8339
▁charles	-10.8345
impatto	-10.8346
▁emerge	-10.835
ph	-10.835
▁corn	-10.8352
stre	-10.8352
gen	-10.8353
▁zero	-10.8357
▁continued	-10.8357
▁sicura	-10.8359
▁rise	-10.8361
intervento	-10.8362
istituzione	-10.8369
▁crazy	-10.8369
assistenza	-10.837
▁filosofia	-10.8371
▁crying	-10.8372
isce	-10.8377
▁larga	-10.8378
vis	-10.8387
▁sviluppi	-10.8388
▁storie	-10.8396
▁rurale	-10.8396
▁key	-10.8397
▁discriminazione	-10.8403
▁verificare	-10.8403
▁prodi	-10.8404
▁utilizza	-10.8405
zzato	-10.8406
▁distribuzione	-10.8407
▁muove	-10.8408
▁ears	-10.8408
▁saremo	-10.8412
gre	-10.8414
▁insegna	-10.8415
▁marchesa	-10.8419
▁pia	-10.8421
ello	-10.8423
▁arrivato	-10.8424
sio	-10.8437
▁superare	-10.844
▁specifici	-10.8446
ux	-10.8446
▁comp	-10.8448
▁mezza	-10.8451
min	-10.8455
rk	-10.8457
▁ivi	-10.8458
▁compagnie	-10.8459
▁perduto	-10.8459
rato	-10.8463
▁profondamente	-10.8464
▁istante	-10.8465
▁mouse	-10.8465
▁relativamente	-10.8467
▁ragionevole	-10.8468
▁holds	-10.8469
▁occasioni	-10.8471
▁entrò	-10.8475
▁allah	-10.8476
▁frase	-10.8478
sen	-10.8484
▁gambe	-10.8487
▁alternative	-10.8487
▁spo	-10.8488
ngo	-10.8493
▁edizione	-10.8494
▁saint	-10.8496
▁character	-10.8499
▁operare	-10.85
▁stretto	-10.85
▁sovra	-10.8502
▁professore	-10.8503
▁conosciuto	-10.8504
▁riuscito	-10.8507
▁richiesto	-10.8508
▁grido	-10.8509
lina	-10.8518
▁mediterraneo	-10.852
19	-10.8526
mu	-10.8531
▁ascoltare	-10.8531
▁comunale	-10.8532
▁quivi	-10.8533
▁peace	-10.8534
mine	-10.8541
▁spiegare	-10.8542
▁shouldn	-10.8542
▁central	-10.8543
▁istruzione	-10.8544
▁avremmo	-10.8549
▁ritrova	-10.8552
▁adeguato	-10.8555
▁saluta	-10.8557
sur	-10.8557
▁giusti	-10.856
▁eventuali	-10.856
▁pezzi	-10.8562
▁giornali	-10.8563
▁avvenuto	-10.8565
▁giochi	-10.8568
▁actor	-10.8569
▁fuor	-10.8572
▁annuale	-10.8574
▁coat	-10.8576
▁folla	-10.8584
▁getta	-10.8585
▁tedeschi	-10.8586
▁reddito	-10.8587
▁caldo	-10.8588
▁trarre	-10.8588
▁alimentari	-10.8591
▁soddisfare	-10.8592
▁poca	-10.8594
▁cambio	-10.8594
olo	-10.8595
▁adottate	-10.8595
▁svolta	-10.8595
▁rossa	-10.8596
▁dropped	-10.8599
argomento	-10.8604
▁controllare	-10.8605
▁alberi	-10.8606
▁culturali	-10.8608
▁period	-10.8612
▁acquista	-10.8613
▁problems	-10.8613
▁spirit	-10.8614
▁ricchezza	-10.8615
07	-10.8618
feri	-10.8622
▁qualora	-10.8622
▁japan	-10.8623
ction	-10.8628
▁scon	-10.8629
▁generazione	-10.8634
▁jean	-10.8635
▁corrente	-10.8638
ade	-10.8638
sk	-10.8644
▁australia	-10.8644
cchia	-10.8645
▁altrui	-10.8646
▁crescente	-10.8647
▁segni	-10.865
▁veder	-10.8655
ned	-10.8657
▁bambina	-10.8657
▁utilizzato	-10.8658
▁nature	-10.8659
▁inteso	-10.866
▁provenienti	-10.8661
then	-10.8666
▁piglia	-10.8666
▁constatare	-10.8669
▁fissa	-10.8675
▁chocolate	-10.8677
▁pomeriggio	-10.8677
▁utenti	-10.8678
▁election	-10.8678
05	-10.8683
▁costui	-10.8687
▁criminalità	-10.8691
zion	-10.8691
▁dispone	-10.8693
▁ritardo	-10.8694
▁trenta	-10.8696
▁autore	-10.8697
samente	-10.8698
▁certezza	-10.87
ó	-10.8703
▁bat	-10.8706
rica	-10.8708
▁forest	-10.8712
▁fla	-10.8713
▁basa	-10.8715
bar	-10.8716
▁dettagli	-10.8717
▁servire	-10.8717
▁particular	-10.872
▁han	-10.8721
▁vidi	-10.8723
tezza	-10.8724
▁cuba	-10.8725
aiuto	-10.8728
▁popular	-10.8732
epoca	-10.8737
▁denti	-10.8738
▁tour	-10.8739
▁scambi	-10.8741
▁avvenire	-10.8741
▁partita	-10.8746
▁horses	-10.8749
▁assunto	-10.8753
▁stelle	-10.8756
▁mosse	-10.8756
▁futura	-10.8757
▁cousin	-10.8761
ded	-10.8774
▁critiche	-10.8774
house	-10.8777
▁feed	-10.8778
▁offer	-10.8778
▁distruzione	-10.8783
cò	-10.8785
▁odio	-10.8788
▁inaccettabile	-10.8791
▁bravo	-10.8791
▁stia	-10.8796
▁divina	-10.8797
nder	-10.8797
▁confronto	-10.8799
ney	-10.88
▁svolge	-10.8803
lino	-10.8803
▁rica	-10.8809
ai	-10.8813
▁appoggia	-10.8816
▁composto	-10.8825
▁gestire	-10.8826
ppa	-10.8826
nge	-10.8827
▁consultazione	-10.8827
▁iraq	-10.883
▁pianeta	-10.8831
▁reazione	-10.8833
gg	-10.8833
▁domina	-10.8834
▁posa	-10.8837
▁price	-10.884
▁obblighi	-10.8842
▁riprende	-10.8843
▁surprise	-10.8843
▁den	-10.8843
▁showed	-10.8845
▁situation	-10.8846
▁velocità	-10.8846
▁conciliazione	-10.8847
▁normale	-10.8847
nare	-10.8851
▁eletto	-10.8856
▁peas	-10.8859
▁caffè	-10.8863
▁riserve	-10.8867
▁cagione	-10.8874
▁add	-10.888
▁consumatore	-10.8882
▁rid	-10.8885
▁weren	-10.8886
more	-10.8888
ok	-10.8889
▁butter	-10.8889
▁apart	-10.8892
▁lavorato	-10.8894
▁futuri	-10.8895
▁explain	-10.8902
▁suono	-10.8904
▁previsti	-10.8905
▁brevi	-10.8906
▁row	-10.8906
▁magnet	-10.891
▁lid	-10.8911
▁canada	-10.8914
▁impatto	-10.8915
▁diventato	-10.8915
▁nurse	-10.8915
▁benché	-10.8916
▁soggiunse	-10.8918
▁lume	-10.8919
▁1995	-10.8923
▁lower	-10.8923
▁allontana	-10.8924
▁faith	-10.8926
▁raccogliere	-10.8926
gri	-10.8926
cer	-10.8927
▁dedicato	-10.8927
▁capitali	-10.8931
off	-10.8932
▁asking	-10.8935
▁riposo	-10.8936
▁soul	-10.8936
apertura	-10.8937
▁fox	-10.8937
ek	-10.8937
▁cade	-10.8939
▁shirt	-10.8941
▁vite	-10.8942
▁ciascun	-10.8947
▁()	-10.8949
▁pisa	-10.895
▁considerazioni	-10.8951
▁lion	-10.8951
▁sand	-10.8952
▁mali	-10.8952
▁scoperto	-10.8952
▁riferisco	-10.8955
▁alive	-10.8957
cola	-10.8968
▁risposto	-10.897
gasps	-10.897
▁costume	-10.897
▁200	-10.8972
▁stranieri	-10.8974
▁staff	-10.8974
▁scorsa	-10.8977
▁manner	-10.8979
▁paid	-10.898
▁stavano	-10.8981
▁infrastrutture	-10.8982
▁consegna	-10.8989
illustration	-10.8989
▁inserire	-10.8991
▁positive	-10.8991
▁discorsi	-10.8992
▁andando	-10.8998
udi	-10.8998
▁diavolo	-10.8999
▁contrasto	-10.8999
▁rivolta	-10.9001
▁according	-10.9005
▁disposto	-10.9009
▁accolto	-10.9013
▁imparare	-10.9013
▁spin	-10.9019
▁andar	-10.902
▁domandò	-10.9026
▁royal	-10.9026
▁iron	-10.9026
pping	-10.9027
▁guisa	-10.9032
ffi	-10.9033
▁similar	-10.9033
09	-10.9037
turns	-10.9038
nò	-10.9041
▁hardly	-10.9042
▁interessa	-10.9042
01	-10.9042
▁process	-10.9042
▁usato	-10.9043
▁thus	-10.9047
▁essenziali	-10.9052
▁rice	-10.9054
▁riferi	-10.9058
mbi	-10.906
▁telephone	-10.906
▁tornò	-10.9061
▁ciclo	-10.9062
▁pensando	-10.9064
▁parts	-10.9064
▁colpi	-10.9067
▁giova	-10.9068
▁neri	-10.9073
▁tele	-10.9074
▁madonna	-10.9074
analisi	-10.9075
▁differenti	-10.9075
cur	-10.9075
06	-10.9076
▁ut	-10.908
▁vicina	-10.908
▁education	-10.9084
▁favorevoli	-10.9084
▁ghi	-10.9086
▁tutt	-10.9094
▁implica	-10.9097
▁creature	-10.9097
▁santi	-10.9099
▁lines	-10.9099
▁famous	-10.9104
▁smell	-10.9104
▁below	-10.9104
▁guard	-10.9105
▁veneziani	-10.9106
▁vinto	-10.9106
▁smile	-10.9108
▁adatta	-10.9108
▁simple	-10.9108
▁pain	-10.9109
▁manager	-10.9111
▁dette	-10.9114
▁bobby	-10.9118
▁chiare	-10.9118
ave	-10.9125
cker	-10.9127
▁periodi	-10.9127
▁shoot	-10.9132
rini	-10.9133
rate	-10.9134
inter	-10.9135
▁legale	-10.9135
▁potenziale	-10.9139
▁promessa	-10.9143
▁violazione	-10.9147
▁addosso	-10.9147
▁scritta	-10.915
▁animale	-10.9151
▁colà	-10.9152
immagine	-10.9153
▁organizzazione	-10.9155
gh	-10.9161
spo	-10.9164
▁verdi	-10.9164
▁termina	-10.9164
ally	-10.9166
▁ria	-10.9167
▁estrema	-10.9171
ffer	-10.9171
21	-10.9176
nzo	-10.9178
▁capisco	-10.9179
▁zu	-10.9183
▁varia	-10.9187
▁gesto	-10.9188
▁sleeping	-10.9192
▁serious	-10.9194
▁hide	-10.9196
▁unless	-10.9197
holds	-10.9198
gua	-10.9198
▁wake	-10.92
who	-10.9201
▁gentile	-10.9203
▁terrore	-10.9204
▁speriamo	-10.9205
▁mess	-10.9209
æ	-10.921
▁market	-10.9214
▁rafforzamento	-10.9214
▁birds	-10.9215
▁oratori	-10.9218
abile	-10.9222
▁result	-10.9226
▁racconto	-10.9226
▁pale	-10.9227
uni	-10.9228
ap	-10.923
▁tie	-10.9232
▁expect	-10.9233
▁destinato	-10.9234
nch	-10.9235
▁ob	-10.9237
▁directed	-10.9241
▁museo	-10.9252
▁q	-10.9258
▁scoprire	-10.9259
▁calling	-10.9263
omc	-10.9265
▁fiorentini	-10.9266
▁intera	-10.9267
0.000	-10.9269
▁fruit	-10.9272
▁bay	-10.9274
▁raccomandazioni	-10.9277
▁monete	-10.928
▁disporre	-10.9283
▁closed	-10.9284
▁tecnici	-10.9288
▁istituzione	-10.929
uk	-10.9291
▁chiarire	-10.9294
▁volesse	-10.9295
▁brain	-10.9296
▁trattare	-10.9297
▁esterne	-10.9297
▁conseguire	-10.9301
field	-10.9304
-0	-10.9307
▁coerente	-10.931
▁bigger	-10.9311
]?	-10.9311
like	-10.9314
▁soccorso	-10.9315
▁damn	-10.9318
▁mattino	-10.9323
▁press	-10.9328
▁giudice	-10.9331
▁correre	-10.9331
temi	-10.9332
▁organismi	-10.9335
▁giovine	-10.934
▁coach	-10.9343
▁giunti	-10.9345
▁funzionari	-10.9348
▁beach	-10.9351
▁mountain	-10.9353
▁amor	-10.9355
ller	-10.9356
▁joined	-10.9358
▁leaves	-10.9359
▁cavalieri	-10.936
lini	-10.936
▁contributi	-10.9363
18	-10.9364
associazione	-10.9366
▁prevedere	-10.9368
▁www	-10.9369
amento	-10.9375
▁cena	-10.9375
gge	-10.9376
▁figliuoli	-10.9377
▁elaborare	-10.9378
amministrazione	-10.9379
▁barn	-10.9379
▁cogli	-10.9381
▁barba	-10.9384
▁conclude	-10.9386
esistenza	-10.939
▁approvare	-10.9392
▁roman	-10.9392
▁prigione	-10.9395
▁discusso	-10.9396
▁scared	-10.9397
▁2017	-10.9398
▁giudica	-10.9399
▁software	-10.94
▁governa	-10.94
▁lying	-10.94
▁bowl	-10.9402
▁barbari	-10.9402
▁centri	-10.9403
▁austria	-10.9406
▁provare	-10.9407
ugh	-10.9407
▁brucia	-10.9409
▁benchè	-10.9409
▁&-	-10.9409
▁determinato	-10.9413
▁caduta	-10.9413
▁clienti	-10.9414
▁canta	-10.9414
▁pac	-10.9416
▁traccia	-10.9416
▁italiane	-10.9419
▁eran	-10.9421
▁vince	-10.9423
▁entered	-10.9424
▁palla	-10.9426
▁vice	-10.9431
▁babies	-10.9431
▁parliamo	-10.9434
▁raccomandazione	-10.9434
▁ragazze	-10.9436
▁turning	-10.9437
▁prof	-10.9438
iraq	-10.9439
light	-10.9439
▁venir	-10.9443
▁sarò	-10.9445
ssu	-10.9446
▁rip	-10.9447
▁flat	-10.9447
▁priva	-10.9451
▁loud	-10.9452
▁colloca	-10.9458
▁aumenta	-10.9461
▁padri	-10.9462
▁profilo	-10.9463
▁difference	-10.9467
▁moderna	-10.9473
▁professione	-10.9474
▁meccanismo	-10.9476
▁cipro	-10.9477
▁slowly	-10.948
▁agita	-10.9481
▁totalmente	-10.9485
ele	-10.9488
▁impianti	-10.949
▁effettuare	-10.9491
▁vendetta	-10.9491
▁piante	-10.9493
▁costretto	-10.9495
▁straordinaria	-10.9495
▁concede	-10.9496
interrogazione	-10.9496
▁anime	-10.9501
▁fingers	-10.9501
▁storm	-10.9501
▁gode	-10.9505
▁credito	-10.9506
imp	-10.9507
▁sor	-10.951
▁permanente	-10.9512
▁miseria	-10.9513
▁anziché	-10.9513
▁nega	-10.9514
▁storica	-10.9514
▁poscia	-10.9515
▁consentito	-10.9515
pie	-10.9516
wi	-10.9517
▁chiamare	-10.9517
▁artisti	-10.9518
▁cri	-10.952
▁largo	-10.9522
mia	-10.9523
▁judge	-10.9526
▁volentieri	-10.9526
▁napoleone	-10.9531
▁garibaldi	-10.9535
▁definito	-10.9536
asse	-10.9538
97	-10.9542
idi	-10.9543
▁meat	-10.9543
▁stella	-10.9545
▁glass	-10.9548
▁led	-10.9552
▁sp	-10.9557
▁action	-10.9558
▁experience	-10.956
▁natale	-10.9563
▁exp	-10.9563
▁valuta	-10.9568
▁eggs	-10.9572
ag	-10.9573
▁oro	-10.9575
▁scientifica	-10.9581
▁0	-10.9581
▁nera	-10.9584
▁londra	-10.9587
▁needed	-10.9589
▁tempio	-10.9593
▁hasn	-10.9593
▁sorpresa	-10.9594
▁collegio	-10.9596
▁federico	-10.9596
▁/	-10.9596
▁dando	-10.9599
▁western	-10.9605
kin	-10.9605
▁preme	-10.9605
▁efficacia	-10.9606
▁talked	-10.9606
▁trono	-10.9607
▁danger	-10.9609
▁political	-10.9613
amente	-10.9613
▁determinazione	-10.962
▁35	-10.962
▁alza	-10.9624
▁nan	-10.9627
▁bon	-10.9627
▁vorrebbe	-10.9628
▁monster	-10.9628
▁heaven	-10.9631
▁liberali	-10.9632
▁beyond	-10.9636
03	-10.9638
lan	-10.9639
▁zoo	-10.9645
▁stories	-10.9648
▁award	-10.965
▁approvazione	-10.965
▁occhio	-10.9656
▁pal	-10.9657
▁spread	-10.966
▁genio	-10.966
▁4,	-10.9664
▁restare	-10.9668
▁vasta	-10.9668
▁partecipato	-10.9668
▁tenuta	-10.967
▁costumi	-10.9673
ken	-10.9674
▁pazienti	-10.9677
▁gui	-10.9678
▁perfino	-10.968
▁meccanismi	-10.9682
▁picked	-10.9684
▁esercita	-10.9686
clock	-10.9686
▁previste	-10.9686
▁science	-10.9687
kay	-10.9687
▁stock	-10.9688
▁sold	-10.9692
▁flag	-10.9693
▁helped	-10.9698
▁approvata	-10.9699
▁vincere	-10.97
▁gioventù	-10.97
▁pleasure	-10.97
▁centre	-10.9701
▁scrisse	-10.9701
▁journey	-10.9705
tch	-10.9706
▁background	-10.9711
▁teddy	-10.9711
obbligo	-10.9711
▁ix	-10.9712
tui	-10.9715
▁imperatore	-10.9716
▁various	-10.9718
▁assieme	-10.9719
▁relatori	-10.9723
24	-10.9729
▁difende	-10.9729
▁volere	-10.9729
▁perso	-10.973
▁culture	-10.9733
nelli	-10.9733
▁meal	-10.9734
bb	-10.9734
▁vuoto	-10.9737
▁max	-10.9739
▁centrali	-10.9743
nio	-10.9744
▁modelli	-10.9744
▁ku	-10.9744
▁taluni	-10.975
▁nizza	-10.9751
▁immagine	-10.9754
▁passando	-10.9755
▁rat	-10.9756
▁conservazione	-10.9756
▁chiude	-10.9759
▁ladies	-10.9762
▁passati	-10.9762
▁join	-10.9764
▁corse	-10.9764
▁mari	-10.9765
pointing	-10.9767
▁murder	-10.9769
▁gia	-10.977
▁gregorio	-10.977
▁therefore	-10.9771
▁terrible	-10.9779
▁cominciato	-10.9783
▁mobili	-10.9787
▁dipendenti	-10.9788
gai	-10.9792
▁ucciso	-10.9793
▁sh	-10.9794
mit	-10.9794
▁lentamente	-10.9795
▁singing	-10.9795
▁sí	-10.9795
▁ombra	-10.9799
▁wheel	-10.98
▁fol	-10.9803
▁cosi	-10.9805
▁completo	-10.9807
▁contare	-10.9808
▁bisogni	-10.9811
▁associazioni	-10.9813
tina	-10.9818
▁significativo	-10.9819
av	-10.9821
▁rate	-10.9821
rone	-10.9822
▁ear	-10.9823
▁monetaria	-10.9823
▁fortemente	-10.9825
▁soglia	-10.9826
▁cima	-10.9827
▁rom	-10.9829
▁sicuri	-10.9829
▁phil	-10.9835
▁facesse	-10.9835
▁occidentale	-10.9836
▁scor	-10.9838
▁personal	-10.9838
▁giustifica	-10.9841
▁stanziamenti	-10.9845
▁natural	-10.9847
uch	-10.9851
har	-10.9855
▁superiori	-10.9857
▁ricerche	-10.9863
ama	-10.9863
▁istituzionale	-10.9868
ated	-10.9869
▁abbandona	-10.9869
▁wal	-10.987
▁nascita	-10.9871
child	-10.9876
▁supper	-10.9877
▁command	-10.9879
▁portogallo	-10.9882
▁dottrina	-10.9882
▁doppio	-10.9882
▁palestinese	-10.9883
▁learned	-10.9885
▁disastro	-10.9887
▁wo	-10.9888
▁palermo	-10.9892
▁flu	-10.9894
▁sindaco	-10.9896
▁henry	-10.9896
▁apre	-10.9897
nica	-10.9899
▁ridotto	-10.9901
▁study	-10.9904
▁division	-10.9906
▁ann	-10.9906
aspetto	-10.9908
▁precipita	-10.9909
▁somme	-10.9909
▁ebbero	-10.9911
▁violazioni	-10.9913
▁festival	-10.9915
▁japanese	-10.9916
▁pericoli	-10.992
▁travel	-10.9921
▁perch	-10.9921
▁contessa	-10.9923
▁perdono	-10.9926
shed	-10.993
▁("	-10.993
▁sch	-10.9932
▁shows	-10.9933
pped	-10.9933
wing	-10.9935
tano	-10.9939
mpa	-10.9939
bout	-10.9943
▁guardò	-10.9946
▁avessi	-10.9946
▁ignora	-10.9948
▁ted	-10.9949
▁preoccupa	-10.9949
fici	-10.9951
▁proseguire	-10.9952
▁ispira	-10.9953
▁corretta	-10.9957
▁speaking	-10.9957
▁choo	-10.9958
▁statua	-10.9961
▁joy	-10.9962
▁trade	-10.9962
▁worse	-10.9963
▁industria	-10.9966
▁bianchi	-10.9967
▁petrolio	-10.9968
▁imagine	-10.997
▁meta	-10.9971
▁ratifica	-10.9971
approvazione	-10.9971
▁imposte	-10.9984
▁rischia	-10.9985
▁diana	-10.9989
▁fattore	-10.9989
▁concreti	-10.9989
▁notice	-10.9991
▁britannico	-10.9996
han	-10.9996
▁double	-10.9996
▁90	-11.0001
▁sentì	-11.0004
▁older	-11.0014
▁pour	-11.0017
▁stor	-11.0019
▁andata	-11.0019
▁accaduto	-11.002
▁ricca	-11.0021
▁gives	-11.0022
ampliamento	-11.0027
▁spinge	-11.0027
dor	-11.003
ise	-11.0031
sal	-11.0031
▁conduce	-11.0032
▁gay	-11.0032
nni	-11.0034
▁size	-11.0036
▁dolly	-11.0037
▁dressed	-11.0038
▁sufficienti	-11.0039
▁mandò	-11.0041
▁precisa	-11.0042
▁frate	-11.0042
▁rilievo	-11.0043
▁famoso	-11.0043
▁tavolo	-11.0044
▁villaggio	-11.0045
▁salvo	-11.0048
fica	-11.0049
▁anziani	-11.005
▁banche	-11.0051
▁calcio	-11.0054
cchio	-11.0054
▁competente	-11.0055
▁continuano	-11.0056
▁contento	-11.0056
▁preghiera	-11.0058
ché	-11.0061
▁coast	-11.0064
▁xi	-11.0065
▁figliuola	-11.0067
▁slide	-11.0067
▁society	-11.0067
▁delitto	-11.0069
▁proud	-11.007
oro	-11.007
▁superficie	-11.0072
cher	-11.0073
▁nutri	-11.0073
cina	-11.0075
▁passeggeri	-11.0077
▁community	-11.0077
▁pretesto	-11.0078
▁giudici	-11.0079
▁mori	-11.0081
ú	-11.0081
▁cas	-11.0081
▁utilizzati	-11.0081
▁carcere	-11.0082
cella	-11.0083
▁spera	-11.0086
▁sussidiarietà	-11.0087
▁countries	-11.0087
▁prigionieri	-11.0092
▁belli	-11.0099
▁giovedì	-11.0101
wood	-11.0104
▁purpose	-11.0104
▁harry	-11.0104
▁crescere	-11.0105
segui	-11.0106
tru	-11.0109
africa	-11.0115
▁raggiunge	-11.0116
▁button	-11.0117
▁capaci	-11.0118
▁effect	-11.0119
▁chiusura	-11.0125
▁dolci	-11.0125
▁flotta	-11.0126
cc	-11.0127
▁sezione	-11.013
▁tuttora	-11.0133
▁batte	-11.0135
ric	-11.0135
▁rico	-11.0136
▁tiro	-11.0139
23	-11.0141
mbe	-11.0141
▁iniziale	-11.0142
gie	-11.0143
▁nipote	-11.0145
▁stri	-11.0145
lità	-11.0148
rgi	-11.015
▁russian	-11.0151
▁volti	-11.0152
▁incidenti	-11.0153
▁bordo	-11.0154
▁movimenti	-11.0154
▁elettorale	-11.0154
▁xii	-11.016
▁pronta	-11.0162
▁concreto	-11.0164
origine	-11.0166
some	-11.0167
▁enjoy	-11.0167
▁basata	-11.017
▁chris	-11.0171
▁catena	-11.0171
▁prize	-11.0173
▁portava	-11.0174
dono	-11.0175
▁signorina	-11.0179
▁parenti	-11.0181
17	-11.0182
▁tendenza	-11.0185
▁sell	-11.019
▁basti	-11.0191
▁colonna	-11.0193
▁miglia	-11.0194
ged	-11.0198
▁cellule	-11.0198
▁joseph	-11.0198
▁scia	-11.02
▁grandezza	-11.0208
▁gal	-11.0212
▁prega	-11.0213
ced	-11.0215
onu	-11.0216
▁commissari	-11.0219
▁stu	-11.022
med	-11.0222
▁fantasia	-11.0222
▁slow	-11.0222
▁sce	-11.0223
▁presentate	-11.0223
▁creatura	-11.0223
▁adopera	-11.0226
▁ovvio	-11.0227
▁saper	-11.0227
▁gate	-11.0231
▁svezia	-11.0232
▁papà	-11.0232
▁lieta	-11.0233
▁pensate	-11.0237
▁italy	-11.0242
ucci	-11.0244
▁immaginare	-11.025
ara	-11.0251
▁confusione	-11.0251
▁applica	-11.0253
▁diffusione	-11.0256
▁chiuse	-11.0261
▁turba	-11.0263
▁plus	-11.0265
▁rossi	-11.0266
▁divide	-11.0266
▁prepara	-11.027
▁disegni	-11.0272
▁prassi	-11.0272
▁pensiamo	-11.0275
▁aye	-11.0276
▁resi	-11.0277
▁finché	-11.0282
▁christian	-11.0284
▁mac	-11.0287
▁tiny	-11.029
ure	-11.029
▁latina	-11.029
▁pocket	-11.029
▁shore	-11.0291
▁basket	-11.0291
▁ordina	-11.0295
▁guardava	-11.0302
▁bla	-11.0303
▁privata	-11.0304
▁speed	-11.0305
▁absolutely	-11.0306
ette	-11.031
▁ovunque	-11.031
▁apertura	-11.0319
▁avvenimenti	-11.032
▁terrà	-11.0323
▁sugar	-11.0323
▁rivolto	-11.0325
▁approva	-11.0329
▁plenaria	-11.033
▁intendiamo	-11.033
▁versa	-11.0332
▁fossi	-11.0334
▁eleanor	-11.0335
▁cups	-11.0337
▁2006	-11.0339
▁assoluta	-11.0347
▁soldato	-11.0351
▁plane	-11.0352
▁adora	-11.0353
22	-11.0354
▁corruzione	-11.0354
▁amount	-11.0357
▁likely	-11.0358
▁vent	-11.0361
▁antiche	-11.0363
eth	-11.0363
▁volevano	-11.0367
▁confine	-11.037
▁dispiace	-11.0371
▁alimenti	-11.0371
▁pazienza	-11.0374
▁calendario	-11.0375
▁path	-11.0375
uli	-11.0376
▁70	-11.0377
▁soldiers	-11.0379
▁seguendo	-11.0379
▁european	-11.038
▁ter	-11.0381
60	-11.0383
▁garanzie	-11.0384
▁event	-11.0385
▁tabacco	-11.0389
▁babbo	-11.039
▁cookies	-11.0391
autore	-11.0394
▁covered	-11.0398
▁ciascuna	-11.0399
▁singer	-11.0406
vent	-11.0406
ren	-11.0406
▁estate	-11.0406
▁organizzata	-11.0407
▁nata	-11.0408
nse	-11.0408
▁singolo	-11.0409
▁costituire	-11.0412
▁research	-11.0414
ye	-11.0416
▁crime	-11.0416
▁scelte	-11.0419
▁2019	-11.042
▁appresso	-11.0422
▁disposti	-11.0424
▁sur	-11.0425
▁europe	-11.0425
▁contribuito	-11.0429
▁sovranità	-11.0429
▁congresso	-11.0433
nci	-11.0433
▁message	-11.0434
▁farne	-11.0435
▁rifiuta	-11.0438
▁costantinopoli	-11.0439
▁[$	-11.0439
▁dirty	-11.0441
▁fili	-11.0442
▁transfrontalier	-11.0444
bil	-11.0444
▁footnote	-11.0449
▁beneficio	-11.0452
▁clo	-11.0452
▁network	-11.0454
hai	-11.0454
▁limitare	-11.0455
▁rileva	-11.0458
lmente	-11.0459
▁promesse	-11.0459
▁informa	-11.0459
stor	-11.0461
▁rotta	-11.0462
▁drew	-11.0469
▁dirò	-11.047
▁direction	-11.047
▁turco	-11.0472
ndole	-11.0475
▁istituire	-11.0475
▁dragon	-11.0478
▁cio	-11.0479
very	-11.0482
▁proposti	-11.0484
▁costituito	-11.0486
▁total	-11.0489
▁conosco	-11.0489
ey	-11.0495
▁cau	-11.0502
▁pianto	-11.0506
▁fui	-11.0506
▁salvare	-11.0506
▁colors	-11.0506
▁riuscita	-11.0507
▁role	-11.0508
▁limita	-11.0508
▁neve	-11.0511
▁sharp	-11.0511
▁penetra	-11.0511
anima	-11.0516
▁governor	-11.0516
▁sperare	-11.0516
▁breath	-11.0518
▁attende	-11.052
vir	-11.052
▁mantenimento	-11.0524
▁adeguata	-11.0525
▁naso	-11.0526
▁pesce	-11.0527
▁partecipa	-11.0527
▁ricorrere	-11.0528
▁raccomanda	-11.0529
▁medicine	-11.0529
▁micro	-11.053
aun	-11.0531
▁alberto	-11.0533
▁ribadire	-11.0535
▁minor	-11.0537
▁airplane	-11.0544
▁zucchero	-11.0544
▁globalizzazione	-11.0544
▁caused	-11.0547
▁potenti	-11.0548
▁formato	-11.055
▁recita	-11.0553
▁storici	-11.0555
▁plastic	-11.0555
odo	-11.0556
▁contenta	-11.0557
▁bin	-11.0557
▁charlie	-11.0559
ges	-11.056
scia	-11.0562
▁indicazioni	-11.0567
▁1°	-11.0567
▁comfort	-11.0569
▁suona	-11.0571
▁necessariamente	-11.0571
▁compagno	-11.0574
▁continuamente	-11.0576
▁letteratura	-11.0577
70	-11.0581
ö	-11.0582
ua	-11.0584
▁romanzo	-11.0586
looking	-11.0588
▁ecc	-11.059
▁accettato	-11.0591
nc	-11.0592
diamo	-11.0593
▁christ	-11.0595
università	-11.0597
▁accolgo	-11.0599
▁emilia	-11.06
▁bee	-11.06
▁intendere	-11.0601
▁gri	-11.0602
▁candidato	-11.0603
▁lontana	-11.0603
berg	-11.0604
▁andate	-11.0604
▁mettendo	-11.0606
▁meraviglia	-11.0612
▁falls	-11.0613
▁softly	-11.0614
▁personaggi	-11.0614
▁marina	-11.0616
▁quo	-11.0617
▁2014	-11.0621
▁min	-11.0623
▁incontri	-11.0626
sy	-11.0627
▁accorda	-11.0628
lato	-11.0628
▁driver	-11.0629
▁dogs	-11.0631
▁sc	-11.0631
▁lontani	-11.064
▁guide	-11.0642
▁drawing	-11.0643
▁studiare	-11.0643
ches	-11.0646
▁colpito	-11.0647
azienda	-11.0648
reaches	-11.0651
night	-11.0653
▁fraser	-11.0658
▁anzitutto	-11.066
▁cogliere	-11.0661
▁università	-11.0662
▁mistake	-11.0663
▁gro	-11.0665
▁chiudere	-11.0668
▁richiama	-11.067
nts	-11.0672
▁cappello	-11.0672
▁crediamo	-11.0672
pul	-11.0673
▁studia	-11.0674
▁rappresentato	-11.0674
▁creduto	-11.0675
▁consiglia	-11.0677
â	-11.0679
▁esecuzione	-11.0681
rino	-11.0681
▁affi	-11.0682
▁fisica	-11.0682
nati	-11.0682
▁urgente	-11.0687
▁successivo	-11.0692
▁starting	-11.0694
▁cru	-11.0696
▁miracolo	-11.0696
▁attivo	-11.0701
▁individuare	-11.0705
▁bush	-11.0707
▁carità	-11.0708
▁grandma	-11.0709
▁cinema	-11.0709
▁lasciar	-11.0713
▁culto	-11.0714
▁oops	-11.0716
rdo	-11.0721
▁wand	-11.0723
▁sacro	-11.0723
▁2016	-11.0724
▁giornale	-11.0725
▁luck	-11.0729
▁ingegno	-11.0732
▁farmaci	-11.0736
/20	-11.0736
ons	-11.0738
▁abbraccia	-11.0739
▁1994	-11.0742
▁rapido	-11.0743
ized	-11.0744
▁yum	-11.0745
▁impone	-11.0746
▁ppe	-11.0746
▁cinquanta	-11.0751
▁incoraggiare	-11.0751
▁esercizio	-11.0752
▁concessione	-11.0752
▁military	-11.0752
uh	-11.0755
▁mono	-11.0755
▁complete	-11.0758
▁begin	-11.0763
▁esistenza	-11.0765
mmi	-11.0766
ä	-11.0767
bel	-11.0771
▁faremo	-11.0771
▁ki	-11.0772
▁princess	-11.0773
ndoli	-11.0775
sì	-11.0776
▁prescindere	-11.0778
lyn	-11.0778
▁negativo	-11.0789
rete	-11.079
▁industriali	-11.0792
▁amare	-11.0792
▁smith	-11.0796
fra	-11.0797
▁ripresa	-11.0798
▁retro	-11.0803
bre	-11.0804
▁trasferimento	-11.0805
▁purple	-11.0805
net	-11.0805
▁messer	-11.0806
▁magic	-11.0807
▁lucia	-11.0811
▁smart	-11.0815
▁neither	-11.082
▁organizzato	-11.0824
▁raggi	-11.0826
▁escape	-11.0829
▁biblioteca	-11.0829
▁disabili	-11.0834
▁commissioni	-11.0834
▁declared	-11.0837
▁concedere	-11.0838
▁padova	-11.084
▁laid	-11.0842
ira	-11.0843
08	-11.0845
▁ow	-11.0847
▁chiamati	-11.0847
▁uffici	-11.0848
▁cattivo	-11.0849
▁grossi	-11.085
▁familiare	-11.085
▁championship	-11.0852
▁degno	-11.0852
nods	-11.0854
geni	-11.0856
▁insiste	-11.0862
▁praticamente	-11.0863
▁cop	-11.0863
▁impegnati	-11.0865
▁lagrime	-11.0866
▁venuti	-11.0866
giu	-11.0872
▁comunica	-11.0874
▁soggiorno	-11.0876
▁scienze	-11.0881
▁pensò	-11.0882
▁assenza	-11.0886
▁5,	-11.089
▁subject	-11.0894
▁tiger	-11.0894
▁combatte	-11.0895
▁seriamente	-11.0895
▁cristiano	-11.0899
▁raised	-11.0899
▁classi	-11.09
▁edge	-11.0903
ena	-11.0904
put	-11.0906
▁realizza	-11.0906
▁cum	-11.0909
▁duro	-11.0913
45	-11.0913
▁corrisponde	-11.0913
▁original	-11.0916
▁saturday	-11.0918
▁choice	-11.0918
▁concilio	-11.0918
▁gridò	-11.0918
▁nasconde	-11.0918
▁pescatori	-11.0925
▁missing	-11.0927
▁vittima	-11.0928
▁dica	-11.0929
▁mobilità	-11.0931
▁straordinario	-11.0932
▁latino	-11.0932
▁agreed	-11.0934
▁ricostruzione	-11.0934
▁cruciale	-11.0935
▁guai	-11.0935
▁windows	-11.0935
▁asleep	-11.094
▁port	-11.0943
▁paziente	-11.0944
▁produced	-11.0947
rina	-11.095
▁model	-11.0952
▁luci	-11.0953
▁fighting	-11.0955
▁tears	-11.0959
▁predica	-11.0961
▁femminile	-11.0966
▁mel	-11.0968
▁rub	-11.0971
▁poste	-11.0971
ui	-11.0973
▁cifre	-11.0975
▁tragedia	-11.0975
▁verbale	-11.0976
26	-11.0976
▁rappresentare	-11.0978
▁ray	-11.098
▁essenzialmente	-11.0981
▁volendo	-11.0982
▁engine	-11.0985
▁sword	-11.0987
bilmente	-11.0989
▁angry	-11.0991
gor	-11.0993
▁avanza	-11.0995
tine	-11.0995
▁provvedimento	-11.0996
,--	-11.0997
▁amato	-11.0997
▁genera	-11.0998
cro	-11.1
▁morì	-11.1001
▁promesso	-11.1002
▁ospita	-11.1002
▁bull	-11.1002
▁enrico	-11.1002
▁rassegna	-11.1004
▁addio	-11.1005
iscono	-11.1007
▁bacia	-11.1007
▁threw	-11.1007
▁apri	-11.1007
▁prevenire	-11.1007
▁ferdinando	-11.1008
cus	-11.1008
aumento	-11.1008
▁citato	-11.1011
▁salire	-11.1012
▁tony	-11.1013
▁respect	-11.1013
cto	-11.1015
▁isole	-11.102
▁messe	-11.1024
▁agree	-11.1026
▁quarter	-11.1036
▁scoperta	-11.1039
▁cla	-11.1043
▁training	-11.1045
▁golden	-11.1046
▁giocare	-11.1048
▁rag	-11.1051
▁solenne	-11.1052
▁higher	-11.1053
▁ambiti	-11.1055
ft	-11.1057
▁considered	-11.1066
▁vecchie	-11.1066
▁ritornare	-11.1067
▁lezione	-11.1069
gono	-11.1071
▁eccita	-11.1073
▁500	-11.1073
▁credeva	-11.1076
▁metal	-11.1079
▁youth	-11.108
▁flying	-11.1081
ker	-11.1082
▁interessate	-11.1085
▁assoluto	-11.1086
▁italian	-11.1088
▁lips	-11.1089
▁elena	-11.1089
mul	-11.109
▁ripeto	-11.1091
▁concordo	-11.1092
▁decision	-11.1095
▁refer	-11.1096
▁poeti	-11.1096
▁cresce	-11.1097
cra	-11.1104
mm	-11.1106
▁completely	-11.1106
▁energetica	-11.1108
▁dovete	-11.1111
eu	-11.1112
▁irlandese	-11.1113
pol	-11.1116
▁mostrare	-11.1117
▁scan	-11.1119
▁nope	-11.1125
▁impedi	-11.1125
▁degna	-11.1125
▁udi	-11.1126
▁intenzioni	-11.1129
▁amo	-11.1133
▁ms	-11.1133
uff	-11.1134
▁considerata	-11.1135
▁palestinesi	-11.1135
▁socialista	-11.1135
▁bosco	-11.1139
▁enemy	-11.114
▁polonia	-11.114
▁mass	-11.1144
ida	-11.1146
▁sogni	-11.1148
nel	-11.1149
▁lombardia	-11.115
▁calm	-11.1154
▁happening	-11.1156
▁abita	-11.1156
▁laura	-11.1158
▁rap	-11.116
▁tutelare	-11.1161
▁saluto	-11.1161
▁lawyer	-11.1161
▁zo	-11.1162
▁quinto	-11.1162
▁fumo	-11.1165
▁channel	-11.1166
▁piega	-11.1169
▁risoluzioni	-11.1171
▁sex	-11.1172
▁skin	-11.1177
▁announced	-11.1179
letta	-11.1181
nella	-11.1184
▁rifiuto	-11.1188
▁simply	-11.1188
tato	-11.1189
sch	-11.1195
▁lorenzo	-11.1201
pra	-11.1201
▁offerte	-11.1209
▁immagina	-11.1209
lica	-11.1209
▁vote	-11.1214
▁icecream	-11.1214
▁vissuto	-11.1214
▁besides	-11.1217
▁quanta	-11.1222
▁scu	-11.1222
nzia	-11.1224
▁female	-11.1225
▁campagne	-11.1225
app	-11.1227
▁composizione	-11.1232
▁efficiente	-11.1233
▁parlo	-11.1233
music	-11.1236
▁schiera	-11.1237
▁intra	-11.1237
▁falling	-11.1238
▁official	-11.1244
▁cave	-11.1244
▁1990	-11.1247
▁fedele	-11.1249
▁cliente	-11.1253
▁detti	-11.1254
▁successivamente	-11.126
▁avv	-11.1261
▁arrived	-11.1264
▁contempla	-11.1266
▁ché	-11.1267
par	-11.1268
▁allow	-11.1269
▁trasparente	-11.1269
▁affetto	-11.1274
▁provato	-11.1278
▁ascoltato	-11.1278
▁dec	-11.128
▁boss	-11.1281
▁frutti	-11.1282
0,000	-11.1286
▁americano	-11.1287
▁sostituire	-11.1288
scio	-11.1288
www	-11.1289
▁riguardanti	-11.1301
▁musulmani	-11.1301
▁version	-11.1303
▁pair	-11.1305
▁twice	-11.1306
▁curiosità	-11.1307
bat	-11.1307
▁sm	-11.1309
▁obbliga	-11.1317
▁vestito	-11.1318
▁suolo	-11.1318
▁fallimento	-11.1318
▁trasforma	-11.1318
▁length	-11.1318
▁fiscali	-11.1321
rati	-11.1321
▁delibera	-11.1322
▁northern	-11.1323
▁franchi	-11.1327
tino	-11.133
▁plain	-11.1331
▁mer	-11.1338
▁continues	-11.1339
▁rivolge	-11.134
▁vedono	-11.1341
▁conoscenze	-11.1346
▁regolamenti	-11.1347
▁comprensione	-11.135
▁corpi	-11.1353
▁movies	-11.1353
toys	-11.1354
eh	-11.1355
▁ocean	-11.1356
▁gesti	-11.1357
stici	-11.1357
nese	-11.136
▁missed	-11.1362
▁louis	-11.1362
▁principessa	-11.1364
▁vasto	-11.1364
▁southern	-11.1366
ging	-11.137
▁concesso	-11.1372
▁smoke	-11.1372
▁montagne	-11.1372
▁uccide	-11.1375
▁ebrei	-11.1377
▁valida	-11.1378
▁sveglia	-11.1378
▁interroga	-11.138
▁vienna	-11.1384
▁minoranze	-11.1388
vamo	-11.1388
ili	-11.1392
▁practice	-11.1393
▁honour	-11.1395
▁doggie	-11.1395
▁bisognava	-11.1396
▁michele	-11.1398
▁vescovi	-11.1399
ang	-11.1403
▁cassa	-11.1405
▁obviously	-11.1406
▁categorie	-11.141
▁deboli	-11.141
▁modern	-11.1413
▁fourth	-11.1413
▁cattiva	-11.1415
▁bulgaria	-11.1416
▁utilizzo	-11.1416
▁acp	-11.1418
▁pubblicazione	-11.1421
▁uscì	-11.1422
▁isola	-11.1422
▁mario	-11.1424
ffo	-11.1425
cing	-11.1428
rda	-11.1428
▁keys	-11.1429
▁dump	-11.1431
▁fida	-11.1432
▁arrivati	-11.1432
▁fortune	-11.1437
▁generalmente	-11.1439
ened	-11.144
▁banda	-11.1446
▁native	-11.1452
▁spell	-11.1453
▁veicoli	-11.1454
▁preparare	-11.1456
zu	-11.1458
▁fissare	-11.1461
nesi	-11.1461
»,	-11.1462
▁provide	-11.1462
die	-11.1462
▁rimasta	-11.1466
▁bei	-11.1467
▁fashion	-11.1469
▁imparato	-11.1472
▁congratulo	-11.1476
▁materie	-11.1477
▁franco	-11.1477
▁divisione	-11.1478
▁motion	-11.1479
agenda	-11.1481
▁religiosa	-11.1481
▁strasburgo	-11.1487
ile	-11.1487
▁planet	-11.1488
▁arab	-11.1492
▁costoro	-11.1493
▁mobile	-11.1495
del	-11.1497
▁individui	-11.1498
▁simbolo	-11.1499
▁continui	-11.1501
▁ordered	-11.1502
▁entrato	-11.1502
▁riva	-11.1507
▁rimedio	-11.1508
▁sventura	-11.1509
mato	-11.1512
▁marmo	-11.1512
▁upstairs	-11.1516
▁trasformazione	-11.1518
▁notevoli	-11.1521
▁interne	-11.1522
▁accept	-11.1523
▁legislativa	-11.1526
end	-11.153
▁consapevole	-11.153
▁tries	-11.1531
▁numbers	-11.1531
▁sdegno	-11.1531
▁avviato	-11.1533
▁costantemente	-11.1538
▁development	-11.154
▁ridere	-11.1541
▁uhuh	-11.1544
▁arrivo	-11.1547
▁prison	-11.155
▁terms	-11.155
▁protesta	-11.1551
▁consapevoli	-11.1554
▁abusi	-11.1554
▁determina	-11.1556
▁consenta	-11.1559
▁arabi	-11.1559
35	-11.1559
▁conformità	-11.156
▁gen	-11.1563
▁dorothy	-11.1565
▁balcani	-11.1565
▁riporta	-11.157
▁bandiera	-11.1571
arco	-11.1573
▁sixty	-11.1576
▁vel	-11.1582
▁costretti	-11.1587
evoluzione	-11.1591
▁scientifico	-11.1592
▁scopri	-11.1594
▁trascina	-11.1598
rro	-11.16
▁greater	-11.1603
▁coerenza	-11.1604
▁kosovo	-11.1604
▁jesus	-11.1604
nate	-11.1609
▁doppia	-11.161
▁sfruttamento	-11.1611
▁marry	-11.1612
▁capita	-11.1614
▁tesoro	-11.1616
▁ciao	-11.1617
▁georgia	-11.1617
mmer	-11.1617
menta	-11.162
▁seco	-11.1625
▁handle	-11.1625
▁entrata	-11.1625
▁burn	-11.1626
▁driving	-11.1626
rn	-11.1628
▁vitale	-11.1628
▁medita	-11.163
▁suit	-11.163
▁perfetto	-11.1632
▁aveano	-11.1633
▁preciso	-11.1638
sp	-11.164
28	-11.164
▁ammira	-11.164
▁interamente	-11.1643
▁interrogazione	-11.1644
▁decisamente	-11.1645
▁dimentica	-11.1646
▁affrontato	-11.1647
▁dimora	-11.1654
▁tornato	-11.1657
▁boom	-11.1658
▁imposta	-11.1659
▁fedeli	-11.1662
▁goodness	-11.1662
▁navigazione	-11.1663
impresa	-11.1664
▁1992	-11.1666
innovazione	-11.1667
mann	-11.1669
▁volontari	-11.1671
▁manzoni	-11.1671
▁performance	-11.1677
▁scorre	-11.1684
▁individual	-11.1685
our	-11.1686
▁finita	-11.1687
▁macchine	-11.1688
▁geo	-11.1689
▁protect	-11.1689
▁32	-11.1692
ee	-11.1694
▁concluso	-11.1694
▁sapendo	-11.1694
▁farmer	-11.1696
27	-11.1698
▁flower	-11.1701
▁style	-11.1702
▁agenzie	-11.1705
▁placed	-11.171
ada	-11.1712
▁separate	-11.1714
ins	-11.1714
▁movement	-11.1714
▁80	-11.1717
▁tornata	-11.1717
▁dormire	-11.1718
▁dangerous	-11.172
▁ple	-11.1722
▁heat	-11.1723
▁leaf	-11.1726
comp	-11.1727
▁dimenticato	-11.1733
▁passioni	-11.1734
noise	-11.1735
▁piemonte	-11.1736
▁republic	-11.1736
▁giulia	-11.1739
▁condannato	-11.1742
▁eighty	-11.1744
▁divenne	-11.1745
uro	-11.1746
▁indicare	-11.1747
▁alte	-11.1747
▁houses	-11.1748
▁finanziare	-11.1748
▁appearance	-11.175
▁scrittori	-11.1752
tate	-11.1753
▁bagno	-11.1756
▁udito	-11.1758
▁contratti	-11.176
lus	-11.176
▁status	-11.1761
▁pleasant	-11.1762
erano	-11.1762
▁regolamentazion	-11.1768
▁regolare	-11.1769
▁contatti	-11.177
▁medesimi	-11.1773
▁scrittura	-11.1773
▁servono	-11.1774
▁avvi	-11.178
▁regular	-11.178
▁valley	-11.1782
▁vien	-11.1782
▁interessanti	-11.1782
▁prender	-11.1787
▁tone	-11.179
▁percentuale	-11.179
▁visitare	-11.1791
▁evento	-11.1791
▁liberamente	-11.1791
▁farci	-11.1794
stiche	-11.1795
▁false	-11.1801
▁mail	-11.1804
▁guardate	-11.1805
▁ripete	-11.1807
▁venerdì	-11.1807
tario	-11.1808
▁finestre	-11.181
▁dollars	-11.1811
▁indu	-11.1812
▁stro	-11.1813
▁ended	-11.1813
corre	-11.1813
▁sesso	-11.1814
▁presidenti	-11.1814
▁giacchè	-11.1819
with	-11.1819
▁swing	-11.1821
▁imperiale	-11.1824
▁immigrati	-11.1824
lata	-11.1825
29	-11.1826
▁usual	-11.1828
ach	-11.1829
▁bas	-11.1832
▁governatore	-11.1838
▁ways	-11.1839
▁carrozza	-11.1843
▁mus	-11.1843
▁separa	-11.1844
▁fuggi	-11.1847
▁strategie	-11.1847
▁founded	-11.1849
▁elevati	-11.185
▁donde	-11.185
▁greca	-11.1851
▁rule	-11.1852
▁duke	-11.1852
nzio	-11.1855
▁duty	-11.1856
▁minima	-11.1856
▁scende	-11.1857
▁condividere	-11.1869
▁ripetere	-11.1869
▁fortezza	-11.1871
▁huge	-11.1873
▁bando	-11.1873
▁convinzione	-11.1882
▁deck	-11.1888
▁lavorando	-11.1888
-19	-11.1889
▁grosse	-11.1889
▁nati	-11.1889
▁offerta	-11.189
▁guido	-11.1894
▁raccoglie	-11.1902
▁roba	-11.1903
▁attraversa	-11.1903
▁sbagliato	-11.1903
▁raggio	-11.1906
cie	-11.1908
▁pericoloso	-11.1908
▁bada	-11.1909
▁affronta	-11.1909
▁empty	-11.191
▁essersi	-11.1911
mate	-11.1911
▁pubblicità	-11.1915
▁grown	-11.1918
▁fault	-11.1919
▁signoria	-11.1921
▁svolgimento	-11.1923
kh	-11.1926
▁treno	-11.1928
fini	-11.1931
▁surprised	-11.1931
▁compresi	-11.1933
▁medicina	-11.1934
▁create	-11.1936
▁sovvenzioni	-11.1939
▁located	-11.1939
▁cristiana	-11.194
▁teoria	-11.1946
▁immediately	-11.1947
▁committee	-11.1951
mal	-11.1951
▁guglielmo	-11.1957
▁laddove	-11.1957
▁meaning	-11.1958
▁forni	-11.1961
▁risolve	-11.1961
▁circonda	-11.1962
▁anywhere	-11.1965
▁cittadinanza	-11.1969
▁speech	-11.1969
▁current	-11.197
▁weather	-11.1974
▁crew	-11.1975
▁angolo	-11.1978
xe	-11.1978
▁nucleari	-11.1982
▁mid	-11.1984
▁sostitui	-11.1985
ndone	-11.1985
▁territori	-11.1986
▁wise	-11.1987
▁generazioni	-11.1988
▁resa	-11.1989
atto	-11.1989
▁throat	-11.1991
▁lacrime	-11.1991
▁brian	-11.1992
▁seppe	-11.1993
▁pitcher	-11.1997
▁published	-11.2004
▁chiamava	-11.2005
▁coste	-11.2006
rbi	-11.201
pen	-11.2014
▁pesante	-11.2014
▁rimasti	-11.2017
▁gian	-11.2018
▁snake	-11.202
▁fond	-11.2022
▁stabili	-11.2026
▁valido	-11.2027
▁naviga	-11.2029
▁sy	-11.203
▁discovered	-11.2031
▁verona	-11.2031
nali	-11.2032
▁filled	-11.2034
▁lamenta	-11.2036
▁fifteen	-11.2038
▁tradizionale	-11.2038
▁writer	-11.204
▁pulled	-11.2042
▁beside	-11.2042
▁author	-11.2044
▁metti	-11.205
▁riprendere	-11.2054
▁componenti	-11.2057
▁accettabile	-11.2057
▁desta	-11.2058
▁tentare	-11.2066
zzata	-11.2066
▁grossa	-11.2067
▁taught	-11.2073
▁novella	-11.2074
▁45	-11.2075
▁pound	-11.2075
▁stazione	-11.2075
▁crowd	-11.2077
ez	-11.2078
▁census	-11.2079
spa	-11.208
▁songs	-11.2082
▁prudenza	-11.2085
ple	-11.2085
ub	-11.209
dici	-11.209
▁lock	-11.209
▁consenti	-11.2092
▁lungi	-11.2094
▁cancer	-11.2097
bit	-11.21
▁guadagna	-11.2104
abili	-11.2105
▁teme	-11.2105
▁asia	-11.2105
▁code	-11.2108
▁bomb	-11.2114
▁sacra	-11.2114
▁pakistan	-11.2114
▁vorremmo	-11.2114
▁feste	-11.2116
▁controlla	-11.2118
▁papi	-11.2118
▁merry	-11.2119
▁moves	-11.212
▁beauty	-11.2121
▁compra	-11.2122
▁protest	-11.2125
here	-11.2127
▁alice	-11.2127
▁tradizioni	-11.2128
▁diversamente	-11.213
tea	-11.2131
▁pò	-11.2131
▁pagamenti	-11.2134
▁pardon	-11.2136
▁espresse	-11.2138
tar	-11.2138
▁mancato	-11.2139
▁marriage	-11.2144
▁potessero	-11.2144
▁awful	-11.2148
ments	-11.2148
▁pencil	-11.215
▁concorda	-11.2152
sol	-11.2153
▁piangere	-11.2153
acco	-11.2154
▁strana	-11.2157
▁spedi	-11.2157
▁tasse	-11.2157
rj	-11.2159
▁varietà	-11.2162
▁invoca	-11.2167
▁2012	-11.2173
▁plebe	-11.2175
ef	-11.2175
esame	-11.2177
▁greek	-11.2179
onda	-11.218
▁fru	-11.2185
toria	-11.2185
▁scritti	-11.2188
aggio	-11.219
▁tongue	-11.219
▁sessione	-11.2195
work	-11.2198
▁spanish	-11.2203
▁titoli	-11.2204
▁giunse	-11.2206
▁feci	-11.2206
▁sovrano	-11.2207
▁vivamente	-11.2207
▁consigliere	-11.2213
▁prosperità	-11.2215
▁penna	-11.2216
▁mancano	-11.2216
▁rings	-11.2216
▁celebra	-11.2218
▁tengo	-11.222
▁doin	-11.2221
▁florida	-11.2221
cho	-11.2227
▁profitto	-11.2231
▁impe	-11.2231
▁texas	-11.2233
▁vedremo	-11.2233
▁cenno	-11.2233
▁sorge	-11.2233
▁fool	-11.2234
▁manifestazione	-11.2239
▁elenco	-11.2239
▁industrie	-11.2239
▁billy	-11.2243
▁ghost	-11.2244
lon	-11.2245
▁mostly	-11.2245
clu	-11.2249
▁continuò	-11.225
▁yay	-11.2251
▁scrittore	-11.2252
▁fondazione	-11.2257
▁esclama	-11.226
▁ph	-11.2263
▁luca	-11.2265
▁accosta	-11.2271
▁obbligo	-11.2272
▁wearing	-11.2273
▁condivide	-11.2275
just	-11.228
▁monitoraggio	-11.228
▁preti	-11.2281
▁incredibile	-11.2282
▁citare	-11.2285
▁mostrato	-11.2285
▁informati	-11.2286
▁contrari	-11.2286
▁debbono	-11.2287
▁supporto	-11.2288
▁pura	-11.2288
▁concerto	-11.2288
▁value	-11.229
singing	-11.229
▁quaranta	-11.2291
▁traffic	-11.2293
▁6,	-11.2294
▁andavano	-11.2295
▁portano	-11.2297
▁frattempo	-11.2298
▁minacce	-11.2299
▁esterna	-11.2304
▁introdotto	-11.2304
▁riunioni	-11.2305
▁farmi	-11.2309
anzi	-11.2311
▁pages	-11.2312
▁roof	-11.2313
rici	-11.2313
90	-11.2313
ball	-11.2315
▁sostanzialmente	-11.2316
▁perche	-11.2319
▁probabile	-11.2322
▁cessa	-11.2323
▁daniel	-11.2323
▁serba	-11.2327
irlanda	-11.2328
▁descrizione	-11.2328
▁vela	-11.233
▁abbandonare	-11.2332
▁lucky	-11.2333
▁1993	-11.2335
cula	-11.2336
▁proclama	-11.2337
▁cata	-11.2338
▁pleased	-11.2339
▁teach	-11.2339
▁easily	-11.234
▁procede	-11.2342
▁watched	-11.2342
▁consola	-11.2344
▁pants	-11.2345
▁grace	-11.2345
▁comunicare	-11.2346
▁formulare	-11.2347
places	-11.2348
▁gola	-11.2351
▁organizzare	-11.2352
▁largest	-11.2354
▁civil	-11.2354
▁hath	-11.2355
▁veloce	-11.2356
▁garanti	-11.2357
▁presently	-11.2358
▁cute	-11.236
pt	-11.2362
▁consider	-11.2364
▁sensazione	-11.2364
▁richiamare	-11.2365
▁concorso	-11.2365
▁esistente	-11.2373
▁ampiamente	-11.2377
▁improvvisamente	-11.2379
▁dimostrano	-11.2381
lie	-11.2383
▁vanta	-11.2384
▁salta	-11.2384
▁officers	-11.2386
▁vene	-11.2389
▁mistero	-11.239
▁caratteri	-11.2392
▁enter	-11.2397
▁mcdonalds	-11.2398
▁ampliamento	-11.2399
▁probabilità	-11.2401
▁strappa	-11.2401
▁pul	-11.2404
▁pack	-11.2404
law	-11.2406
▁believed	-11.2406
dan	-11.2406
▁aperte	-11.2408
▁risk	-11.2412
▁concreta	-11.2415
▁rompe	-11.242
▁consuma	-11.2422
▁offerto	-11.2422
▁temo	-11.2422
▁credi	-11.2423
▁credibilità	-11.2425
▁quadri	-11.2426
▁hum	-11.2426
▁volse	-11.243
mò	-11.2431
▁<	-11.2431
▁yu	-11.2432
▁tesi	-11.244
▁passata	-11.2441
▁300	-11.2446
tosi	-11.2447
▁orienta	-11.245
▁friday	-11.245
▁comanda	-11.2451
▁provoca	-11.2453
cente	-11.2455
▁potendo	-11.2456
▁auspica	-11.2457
▁premi	-11.2457
▁palace	-11.2457
mas	-11.2458
nic	-11.2462
zz	-11.2465
▁lasciate	-11.2466
▁saved	-11.2467
▁polvere	-11.2468
▁motor	-11.2469
▁riflette	-11.2475
▁strettamente	-11.2475
▁stairs	-11.2476
▁virus	-11.2476
▁razza	-11.2479
▁severe	-11.2479
did	-11.248
▁2022	-11.248
▁dra	-11.248
▁giant	-11.2482
▁bert	-11.2483
▁lasci	-11.2484
▁runs	-11.2485
▁nineteen	-11.2486
▁brothers	-11.2491
▁rabbia	-11.2492
▁siti	-11.2498
▁precedenza	-11.2499
head	-11.2499
▁quod	-11.2502
▁corti	-11.2505
▁congiunta	-11.2506
▁sedi	-11.2506
▁parma	-11.2507
▁ruth	-11.251
▁accompagnato	-11.251
rus	-11.251
▁digitale	-11.2511
▁danaro	-11.2511
▁confessa	-11.2512
▁scendere	-11.2513
99	-11.2513
▁visti	-11.2516
▁incontrato	-11.2517
▁fornisce	-11.2517
▁determinati	-11.252
▁restano	-11.252
▁spazi	-11.2524
▁attentamente	-11.2525
▁steps	-11.2527
▁seria	-11.2531
▁operato	-11.2532
▁trovi	-11.2533
ped	-11.2535
gging	-11.2535
▁borsa	-11.2537
dice	-11.2537
▁$	-11.2539
▁orale	-11.2541
▁continuerà	-11.2544
▁lezioni	-11.2545
retti	-11.2545
▁sesto	-11.2547
▁flight	-11.2548
▁ong	-11.2549
▁limitato	-11.255
▁eletti	-11.255
▁cammina	-11.2552
impressione	-11.2552
▁tortura	-11.2553
▁tru	-11.2555
▁profughi	-11.2559
▁adeguate	-11.2559
▁prestare	-11.256
▁affida	-11.2566
▁votazioni	-11.2573
▁enti	-11.2574
▁sorti	-11.2575
▁hadn	-11.2576
ban	-11.258
▁gioca	-11.2582
coli	-11.2582
▁competenti	-11.2586
▁inviato	-11.2587
▁wolf	-11.2587
▁pile	-11.2591
▁godere	-11.2592
▁moda	-11.2593
▁raccolto	-11.2596
▁indipendenti	-11.2596
▁1.	-11.2598
nici	-11.2598
▁paradiso	-11.2603
▁security	-11.2603
▁opening	-11.2603
▁buio	-11.2606
▁search	-11.261
ram	-11.2612
▁squa	-11.2613
sin	-11.2615
▁earlier	-11.2615
▁rilevare	-11.2616
sed	-11.2617
▁oramai	-11.2624
▁deserto	-11.2625
▁suppli	-11.2625
▁donald	-11.2628
tati	-11.2629
▁[3	-11.263
▁tempesta	-11.2631
▁spoken	-11.2632
▁butta	-11.2635
▁correct	-11.2635
look	-11.2636
▁stabile	-11.2639
▁coda	-11.2642
▁ninety	-11.2643
▁mission	-11.2645
pp	-11.2647
flu	-11.2649
ep	-11.2649
▁success	-11.2649
▁hal	-11.265
▁formed	-11.2651
▁intellettuale	-11.2652
▁secretary	-11.2653
▁neat	-11.2654
▁scarsa	-11.2655
▁agricolo	-11.2658
▁rammenta	-11.2659
where	-11.266
▁bontà	-11.266
▁expected	-11.2663
▁core	-11.2663
▁stasera	-11.2665
▁brevemente	-11.2667
▁pit	-11.2667
▁border	-11.2671
▁cerchio	-11.2672
▁legate	-11.2672
▁privilegi	-11.2672
▁gravità	-11.2676
ea	-11.2679
ec	-11.2683
▁brescia	-11.2683
▁inde	-11.2685
*	-11.2685
letti	-11.2686
▁marca	-11.2687
▁mont	-11.2689
▁codecisione	-11.2689
▁eleven	-11.269
▁harm	-11.2692
▁sollevato	-11.2692
▁lisa	-11.2694
▁scott	-11.2696
mes	-11.2696
af	-11.2699
▁laurea	-11.27
▁professionali	-11.27
▁services	-11.2702
▁complessiva	-11.2703
▁task	-11.271
importante	-11.2713
▁carriera	-11.2713
▁infelice	-11.2714
▁debolezza	-11.2716
▁altera	-11.2718
▁elaborato	-11.272
▁evidence	-11.2721
▁vieta	-11.2721
▁rustling	-11.2722
▁promised	-11.2725
▁meridionale	-11.2727
▁dutch	-11.2727
▁pioggia	-11.2728
▁australian	-11.2728
almente	-11.2729
yo	-11.2729
▁dottor	-11.2729
▁rendono	-11.2734
▁kick	-11.2737
▁climb	-11.2737
▁frutta	-11.274
▁angelo	-11.2742
▁consulta	-11.2744
▁spirituale	-11.2744
▁ferrara	-11.2747
▁passava	-11.2749
▁turtle	-11.2752
▁strength	-11.2753
▁conosciamo	-11.2753
▁compresa	-11.2753
▁irrita	-11.2757
▁precisamente	-11.2757
▁transizione	-11.2758
dica	-11.2759
▁screw	-11.2759
▁gentleman	-11.2759
stu	-11.276
▁rivedere	-11.2763
▁alex	-11.2765
▁aged	-11.2768
vio	-11.2768
stato	-11.2769
approccio	-11.277
incontro	-11.2772
▁castel	-11.2774
▁der	-11.2774
▁cambiato	-11.2775
▁regge	-11.2777
▁gerusalemme	-11.2777
▁mena	-11.2778
▁prendendo	-11.2779
▁criminali	-11.2779
▁odd	-11.2784
▁gentlemen	-11.2784
▁esterno	-11.2784
▁entrate	-11.2784
▁xiii	-11.2785
▁activity	-11.2785
▁noticed	-11.2792
▁statue	-11.2796
▁sedere	-11.2798
▁lavorano	-11.2798
rry	-11.2802
igh	-11.2804
▁preda	-11.2806
▁calore	-11.2807
▁tentato	-11.2808
▁link	-11.2809
▁bound	-11.2811
▁uccelli	-11.2815
▁armata	-11.2817
shakes	-11.2818
▁rough	-11.2818
▁agricole	-11.2821
▁esserci	-11.2825
▁recorder	-11.2827
▁sà	-11.2827
▁moderni	-11.2828
▁aspettative	-11.2828
▁prendiamo	-11.2831
▁ami	-11.2831
▁cattura	-11.2831
▁annie	-11.2835
txt	-11.2836
▁commenti	-11.2838
▁bari	-11.2842
fully	-11.2844
▁comandante	-11.2844
eli	-11.2846
gga	-11.2846
▁cle	-11.2849
▁plenty	-11.2853
▁diretti	-11.2853
▁bara	-11.2855
ule	-11.2857
azioni	-11.286
▁tentativi	-11.2866
▁ammettere	-11.2866
▁soddisfatto	-11.2866
▁scadenza	-11.2872
▁religioso	-11.2872
▁incoraggia	-11.2873
▁carni	-11.2873
▁rode	-11.2874
far	-11.2875
▁tetto	-11.2877
box	-11.2878
▁tent	-11.2879
▁diploma	-11.2879
▁tenuti	-11.288
▁tight	-11.2882
▁tagli	-11.2885
▁esportazioni	-11.2885
▁elettori	-11.289
▁traduzione	-11.2891
iran	-11.2895
▁thick	-11.2895
▁blanket	-11.2897
ston	-11.2898
▁punch	-11.2898
▁sovente	-11.2898
▁decisionale	-11.2898
▁osa	-11.2899
▁rimangono	-11.29
▁listening	-11.2901
▁involved	-11.2901
▁boston	-11.2904
▁viaggi	-11.2906
▁uscito	-11.2907
▁commesso	-11.291
▁unita	-11.2912
▁invia	-11.2914
ks	-11.2916
▁attendere	-11.2916
▁direi	-11.2916
esigenza	-11.2922
▁giallo	-11.2924
▁stayed	-11.2924
▁tomo	-11.2928
▁consapevolezza	-11.293
▁eastern	-11.2932
▁rim	-11.2933
cita	-11.2933
▁educa	-11.2936
▁saluti	-11.2941
▁esce	-11.2942
▁rec	-11.2942
▁trionfo	-11.2943
mica	-11.2944
▁aperti	-11.2944
inquinamento	-11.2947
rata	-11.2948
▁calabria	-11.2948
▁cash	-11.2948
ndoci	-11.295
▁woods	-11.2954
▁crown	-11.2955
▁́	-11.2955
uo	-11.2955
▁pmi	-11.296
▁inglesi	-11.2961
▁spagnolo	-11.2961
▁dovuta	-11.2962
▁complessivo	-11.2963
▁resti	-11.2966
▁bestia	-11.2967
tissimo	-11.2968
ov	-11.297
▁accedere	-11.297
▁ravenna	-11.2971
cta	-11.2972
▁var	-11.2973
mpo	-11.2975
▁entusiasmo	-11.2975
▁oil	-11.2976
▁gray	-11.2976
▁blind	-11.2977
▁integra	-11.2978
▁soup	-11.2979
36	-11.2979
▁cappella	-11.298
nale	-11.298
▁cani	-11.2981
▁personaggio	-11.2982
▁andati	-11.2982
▁chiedono	-11.2985
▁migliora	-11.2987
▁content	-11.2987
▁crack	-11.2988
▁ski	-11.299
▁elegante	-11.299
scu	-11.2991
▁immigrazione	-11.2992
>	-11.2992
▁disease	-11.2994
▁assistere	-11.2995
▁pene	-11.2997
▁sanitaria	-11.3004
▁closer	-11.3007
▁minimi	-11.301
▁marie	-11.3011
▁corea	-11.3013
▁dici	-11.3013
▁vergine	-11.3013
▁borgo	-11.3015
▁amicizia	-11.3017
▁ven	-11.3017
▁tip	-11.3018
▁sommo	-11.3018
▁shadow	-11.3019
▁treat	-11.302
dri	-11.3021
▁ducati	-11.3021
▁barca	-11.3023
▁dee	-11.3024
▁pil	-11.3024
▁salt	-11.3024
▁svedese	-11.3025
▁magazine	-11.3026
▁conservare	-11.3031
▁maestà	-11.3032
▁noble	-11.3036
▁mike	-11.3036
press	-11.3036
▁excited	-11.3038
▁lieutenant	-11.3038
▁accumula	-11.3042
▁7,	-11.3042
▁address	-11.3042
▁[2	-11.3044
▁maid	-11.3045
▁energetico	-11.3046
▁replica	-11.3047
▁banco	-11.3048
temporaneamente	-11.3048
▁opposizione	-11.3051
▁schiavi	-11.3054
▁inutili	-11.3054
▁spain	-11.3055
▁necessary	-11.3058
▁rare	-11.3058
low	-11.3062
▁owl	-11.3064
▁desideri	-11.3069
unanimità	-11.307
▁respinto	-11.307
▁settentrionale	-11.307
▁povere	-11.3071
▁normative	-11.3071
▁lasciava	-11.3075
▁bellissima	-11.3078
▁onto	-11.3079
right	-11.3079
nor	-11.3081
▁liberale	-11.3082
old	-11.3083
▁knife	-11.3083
▁agricoltura	-11.3084
▁0,	-11.3086
▁flew	-11.3086
▁destinata	-11.3087
▁identifica	-11.3089
ier	-11.3089
▁esterni	-11.309
▁cardinali	-11.3092
▁marino	-11.3092
roni	-11.3094
▁taci	-11.3095
▁derivanti	-11.3102
▁epi	-11.3105
▁agent	-11.3107
▁uscita	-11.3111
▁abbandonato	-11.3112
▁compi	-11.3113
▁usci	-11.3115
dini	-11.3116
▁foglie	-11.3116
▁---	-11.3122
▁inviare	-11.3122
▁medical	-11.3123
▁negoziato	-11.3123
▁riuni	-11.3123
▁perduta	-11.3125
▁wha	-11.3125
▁association	-11.3126
▁pensione	-11.3127
▁sail	-11.3129
▁riferisce	-11.313
▁calo	-11.3131
▁drinking	-11.3132
▁container	-11.3132
▁giornalisti	-11.3133
▁lap	-11.3133
ign	-11.3134
▁preparato	-11.3135
▁impossible	-11.3135
▁fior	-11.3136
▁acca	-11.3137
▁objects	-11.3138
▁contadini	-11.3142
▁strike	-11.3144
▁fallen	-11.3149
▁energy	-11.3149
▁hug	-11.3149
▁sollecita	-11.315
▁lamb	-11.315
▁joke	-11.3151
▁classifica	-11.3153
▁coinvolgimento	-11.3155
▁contenute	-11.3155
▁kyoto	-11.3155
▁perfetta	-11.3155
▁cifra	-11.3156
▁patti	-11.3157
▁concernente	-11.3157
▁whispered	-11.3159
▁knight	-11.316
▁canzone	-11.316
]!	-11.3161
▁cho	-11.3161
▁indubbiamente	-11.3162
▁respiro	-11.3162
▁cristianesimo	-11.3162
▁vaga	-11.3164
bbi	-11.3165
▁evidenzia	-11.3167
▁excellent	-11.3168
▁dibattiti	-11.3168
▁policy	-11.3169
▁osservato	-11.317
▁indipendenza	-11.3173
▁insistere	-11.3173
▁notato	-11.3174
▁mettiamo	-11.3176
iano	-11.3177
▁celebre	-11.3177
▁affretta	-11.3178
▁fissato	-11.3179
▁fondata	-11.318
▁jumped	-11.318
▁vola	-11.318
▁pilastro	-11.3181
pin	-11.3181
▁supera	-11.3182
row	-11.3185
▁snap	-11.3186
▁funzionare	-11.3189
efficacia	-11.319
board	-11.3193
▁olandese	-11.3194
▁tradizionali	-11.3194
▁attacchi	-11.3195
▁maraviglia	-11.3202
▁struck	-11.3202
▁moo	-11.3204
▁rovescia	-11.3206
▁vende	-11.3209
▁volge	-11.3213
▁ginevra	-11.3214
▁agi	-11.3214
▁2011	-11.3216
isola	-11.3218
telli	-11.3219
▁favor	-11.3219
▁fixed	-11.3223
▁vere	-11.3224
▁lunedì	-11.3227
▁lottare	-11.323
▁collegamento	-11.323
▁canale	-11.3231
rb	-11.3232
▁mix	-11.3234
▁regna	-11.3234
▁disc	-11.3236
▁african	-11.3237
▁range	-11.3239
▁talmente	-11.3239
▁dono	-11.324
▁♫	-11.3241
▁inserito	-11.3242
cor	-11.3245
▁amava	-11.3248
▁fle	-11.325
▁stacca	-11.325
▁mister	-11.3256
ottima	-11.3257
▁mettersi	-11.3259
▁rese	-11.3263
sina	-11.3264
▁ottima	-11.3266
▁suscita	-11.3266
▁trick	-11.3266
▁rallegra	-11.3267
▁lamp	-11.3269
▁wet	-11.3269
▁peekaboo	-11.3273
rc	-11.3275
▁alternativa	-11.3276
vel	-11.3276
96	-11.3279
▁helen	-11.328
▁balls	-11.3282
▁program	-11.3282
▁comunicazioni	-11.3283
55	-11.3284
▁fredda	-11.3284
▁barcellona	-11.3286
▁sandwich	-11.3291
▁cad	-11.3292
▁rapi	-11.3293
▁collabora	-11.3293
▁distinzione	-11.3293
▁impo	-11.3296
▁partecipanti	-11.3297
ala	-11.3302
▁fill	-11.3306
▁ospiti	-11.3306
▁sentiero	-11.3308
▁particularly	-11.3313
▁weird	-11.3315
▁ritiro	-11.3315
▁sfruttare	-11.3316
▁basato	-11.3318
▁plant	-11.332
▁coinvolti	-11.332
torio	-11.332
▁1991	-11.332
▁miglioramenti	-11.3321
umanità	-11.3325
▁legislative	-11.3326
▁milione	-11.3326
▁cadde	-11.3328
▁trovarsi	-11.333
▁bor	-11.3332
▁01	-11.3334
▁inghilterra	-11.3335
▁needta	-11.3337
▁cra	-11.3338
▁quarta	-11.3339
effetto	-11.3339
▁ridotta	-11.334
▁von	-11.334
▁eserciti	-11.3342
▁epoca	-11.3345
▁swimming	-11.3346
▁gratitudine	-11.3346
moving	-11.3349
▁criterio	-11.335
48	-11.3352
▁dancing	-11.3353
▁lookee	-11.336
▁irlanda	-11.3361
▁contraria	-11.3362
▁showing	-11.3363
▁paint	-11.3369
▁eccetera	-11.3373
arsi	-11.3375
▁commander	-11.3375
back	-11.3377
▁rispondeva	-11.3378
gle	-11.3378
▁nesting	-11.3379
▁choose	-11.3381
▁keeping	-11.3381
▁sudden	-11.3384
▁impara	-11.3386
elenco	-11.3386
chuckles	-11.3387
▁odia	-11.3387
▁whi	-11.3388
▁host	-11.3389
▁giulio	-11.3389
▁irre	-11.3389
fri	-11.339
▁cerchi	-11.3399
▁secondi	-11.3401
▁pru	-11.3407
▁ricchezze	-11.3407
▁generally	-11.3409
▁etc	-11.3409
33	-11.3412
▁academy	-11.3413
▁finanze	-11.3413
▁bir	-11.3413
▁turno	-11.3416
▁quietly	-11.3417
▁informato	-11.3422
▁pacifica	-11.3425
sten	-11.3427
rì	-11.3427
ossi	-11.3429
▁treasure	-11.3433
▁rigore	-11.3433
▁motore	-11.3433
port	-11.3436
▁cerchiamo	-11.3436
▁gru	-11.3437
▁bere	-11.344
▁chap	-11.344
▁stir	-11.3441
▁resistere	-11.3442
▁programmazione	-11.3443
▁dirige	-11.3443
▁estero	-11.3444
pola	-11.3444
▁imp	-11.3449
▁marky	-11.345
▁walks	-11.3453
▁gertrude	-11.3453
▁prezioso	-11.3453
▁segreti	-11.3453
▁fiamma	-11.3455
▁servo	-11.3455
▁contact	-11.3456
▁margine	-11.3457
▁justice	-11.3457
lico	-11.3458
▁loves	-11.346
▁ritenuto	-11.3461
▁bacio	-11.3463
▁monday	-11.3463
▁federal	-11.3466
▁swim	-11.3467
scrive	-11.3467
▁growing	-11.3467
▁firm	-11.3468
▁definitely	-11.3469
set	-11.347
forma	-11.3471
▁registra	-11.3471
pia	-11.3472
por	-11.3478
▁straniero	-11.348
lar	-11.3481
▁disperazione	-11.3482
▁appoggiare	-11.3482
▁cosiddett	-11.3488
▁angel	-11.3489
▁custodi	-11.3491
▁sicchè	-11.3491
▁familiari	-11.3491
▁esige	-11.3492
▁illegale	-11.3493
ona	-11.3497
aft	-11.3498
▁dimostrazione	-11.35
▁razzismo	-11.3501
▁clausola	-11.3501
▁allargamento	-11.3502
bs	-11.3505
▁afterwards	-11.3506
▁actress	-11.3507
▁tranquillo	-11.3508
cking	-11.351
▁tolto	-11.351
evole	-11.3513
unità	-11.3513
▁benvenuto	-11.3514
▁stream	-11.3515
▁diventata	-11.3516
▁colour	-11.3519
▁attacca	-11.3519
▁esita	-11.3519
bling	-11.352
▁✿	-11.3521
▁iddio	-11.3521
▁weak	-11.3522
▁alpi	-11.3523
▁portò	-11.3525
oggi	-11.3529
▁chiedendo	-11.3529
▁virginia	-11.3532
▁pittore	-11.3535
▁conseguente	-11.3536
▁serva	-11.3537
ating	-11.3538
▁ancient	-11.3541
▁aspettava	-11.3541
▁novel	-11.3542
▁colonel	-11.3542
▁coltiva	-11.3546
▁ritmo	-11.3548
▁scappa	-11.3549
▁edward	-11.355
▁giudicare	-11.3553
▁trattava	-11.3553
efficienza	-11.3554
cos	-11.3555
▁leonardo	-11.3559
▁selva	-11.3559
▁ourselves	-11.3561
agi	-11.3562
▁bathroom	-11.3562
▁condition	-11.3563
▁compassione	-11.3564
▁convince	-11.3565
▁normal	-11.3566
phone	-11.3567
▁laboratorio	-11.3569
▁production	-11.3569
ence	-11.3572
▁alzò	-11.3575
▁operai	-11.3577
▁critico	-11.3579
▁beads	-11.3579
▁sfrutta	-11.358
▁measure	-11.3582
▁perdona	-11.3582
▁negative	-11.3582
▁aggrava	-11.3588
▁precisione	-11.359
▁mescola	-11.3594
▁occupato	-11.3598
▁albert	-11.3601
▁holy	-11.3602
▁rep	-11.3602
▁upper	-11.3602
ces	-11.3605
▁carriage	-11.3609
▁assi	-11.361
▁parlano	-11.3612
▁records	-11.3613
▁mediatore	-11.3614
yer	-11.3615
▁azienda	-11.3616
▁offered	-11.3617
▁effects	-11.3618
▁fiera	-11.3618
ngono	-11.3618
▁aerei	-11.3619
▁dubita	-11.362
▁restitui	-11.3621
rin	-11.3623
▁medal	-11.3623
esso	-11.3624
▁metteva	-11.3626
▁farla	-11.3626
▁mantova	-11.3628
▁ritira	-11.3629
▁subi	-11.3629
elaborazione	-11.3629
kar	-11.3632
▁amica	-11.3633
▁desk	-11.3634
play	-11.3634
▁finisce	-11.3634
▁remained	-11.3637
▁crudele	-11.3638
▁impegna	-11.3639
mati	-11.3642
▁dovette	-11.3642
▁chilometri	-11.3643
▁kinda	-11.3644
▁composta	-11.3644
▁mettono	-11.3645
▁armati	-11.3645
▁masse	-11.3645
▁finding	-11.3648
yn	-11.365
▁imposto	-11.3651
espressione	-11.3657
▁tunnel	-11.3657
morrow	-11.3658
▁vicende	-11.3658
▁monetari	-11.3661
▁hook	-11.3662
▁identità	-11.3662
rac	-11.3664
▁vigilanza	-11.3665
▁evidenza	-11.3665
▁soffoca	-11.3668
▁flash	-11.3669
▁disgrazia	-11.367
▁pietre	-11.3671
war	-11.3672
▁bald	-11.3688
▁taglio	-11.3692
▁eccellenza	-11.3693
▁lettore	-11.3699
▁cart	-11.3699
▁yummy	-11.3699
▁36	-11.3701
▁intraprendere	-11.3702
▁sake	-11.3703
▁walls	-11.3703
dd	-11.3704
ribu	-11.3706
letto	-11.3708
▁comment	-11.371
fr	-11.3712
▁interpreta	-11.3712
▁sensibilità	-11.3714
▁moderno	-11.3715
▁stanze	-11.3716
▁applicato	-11.3719
▁seduto	-11.372
▁stando	-11.3722
▁tim	-11.3723
▁persuade	-11.3723
▁neo	-11.3725
▁sudditi	-11.3726
rit	-11.3726
gon	-11.3728
▁scudi	-11.373
▁sides	-11.3734
▁educazione	-11.3735
was	-11.3735
rá	-11.3735
▁puro	-11.3736
▁stress	-11.3737
▁sappia	-11.3738
2.	-11.3739
▁calls	-11.3742
▁transito	-11.3744
uda	-11.3745
▁lights	-11.3747
▁whoops	-11.3747
▁perfectly	-11.3747
▁energie	-11.3747
ius	-11.375
cti	-11.3751
▁bike	-11.3751
▁assiste	-11.3752
▁giura	-11.3752
č	-11.3753
▁trunk	-11.3754
num	-11.3757
▁ser	-11.3758
boli	-11.376
▁concentra	-11.376
▁divisa	-11.3761
▁agricoli	-11.3761
▁heads	-11.3764
gro	-11.3765
▁fancy	-11.3765
ev	-11.3768
▁concert	-11.3769
udo	-11.3775
▁lieve	-11.3776
▁abbassa	-11.3777
▁acquistare	-11.3777
▁rispetta	-11.3779
▁eccezione	-11.3779
▁chain	-11.3784
▁cinese	-11.3788
▁licenza	-11.3789
▁tristi	-11.3789
▁denuncia	-11.3789
▁evoluzione	-11.3791
▁crash	-11.3791
▁nick	-11.3794
▁marker	-11.3795
nny	-11.3796
▁siena	-11.3801
▁labour	-11.3803
▁carrying	-11.3804
▁chiamano	-11.3804
▁circolo	-11.3805
tten	-11.3805
▁cd	-11.3807
▁sessuale	-11.3809
▁dettaglio	-11.3812
▁legame	-11.3812
▁clearly	-11.3815
▁difetto	-11.3817
pur	-11.3817
estate	-11.3818
▁maestri	-11.3818
▁attacco	-11.382
▁rime	-11.3828
▁occidentali	-11.383
▁adunque	-11.383
armonizzazione	-11.3837
32	-11.3838
▁students	-11.3839
▁penny	-11.3839
▁popolari	-11.384
▁piange	-11.384
▁comprese	-11.3841
sighs	-11.3841
vvi	-11.3844
▁vendere	-11.3845
▁usando	-11.3845
▁fasi	-11.3847
▁farebbe	-11.3848
▁arca	-11.385
▁honest	-11.385
▁padroni	-11.3851
▁foglio	-11.3852
▁gene	-11.3854
zer	-11.3855
▁esito	-11.3857
▁reati	-11.3858
▁giuridici	-11.3858
▁concetti	-11.3858
39	-11.3859
▁opinion	-11.3861
▁attivi	-11.3865
▁foreign	-11.3865
▁dedicata	-11.3865
▁risparmio	-11.3866
▁testimonianza	-11.3866
rè	-11.3866
▁leading	-11.3867
bbie	-11.3867
▁gil	-11.3867
▁fenomeni	-11.3872
▁stabilisce	-11.3873
cato	-11.3875
▁pesanti	-11.3875
▁saggio	-11.3876
▁capitani	-11.3876
▁pipe	-11.3876
▁matura	-11.3878
▁feroce	-11.3879
▁raccolti	-11.3879
▁equal	-11.388
stone	-11.3881
▁benedetto	-11.3888
▁pad	-11.3889
▁definiti	-11.3891
▁shown	-11.3891
▁weight	-11.3893
▁pieni	-11.3893
▁prigioni	-11.3893
▁knowledge	-11.3893
▁conviene	-11.3897
▁permetta	-11.39
▁frequenta	-11.3901
▁cinquecento	-11.3903
▁modena	-11.3903
▁ipotesi	-11.3904
▁carefully	-11.3904
ieri	-11.3907
▁soddisfacente	-11.3908
▁attivamente	-11.3909
unc	-11.3913
nar	-11.3914
▁blocco	-11.3915
▁cede	-11.3917
▁espressi	-11.392
equilibrio	-11.3922
▁available	-11.3922
sul	-11.3922
▁entire	-11.3923
▁selezione	-11.3923
▁rifugiati	-11.3925
▁capitoli	-11.3927
▁amante	-11.3929
▁diviso	-11.3931
▁source	-11.3936
▁distinti	-11.3936
▁fro	-11.3937
▁determinate	-11.3938
▁orders	-11.3939
▁rivolte	-11.3943
▁recognize	-11.3946
▁younger	-11.3947
▁averlo	-11.3947
nea	-11.395
▁debut	-11.395
gano	-11.3953
ben	-11.3953
▁discarico	-11.3957
▁individuale	-11.3957
▁surface	-11.3957
▁opportunity	-11.3957
este	-11.3959
▁pareri	-11.396
▁ap	-11.3961
▁colli	-11.3963
▁cent	-11.3963
▁spiaggia	-11.3965
▁odierna	-11.3965
▁stradale	-11.3966
▁aspira	-11.397
▁possibly	-11.3971
▁urla	-11.3974
▁coro	-11.3975
▁regimi	-11.3976
▁hero	-11.3977
▁leggermente	-11.3978
▁stavo	-11.3979
▁vorrà	-11.398
▁salvaguardia	-11.3981
▁managed	-11.3982
▁presentano	-11.3982
▁illumina	-11.3983
▁scoppia	-11.3985
▁darsi	-11.3986
venti	-11.3986
▁quartiere	-11.3989
▁dramma	-11.3991
▁relationship	-11.3992
▁economie	-11.3992
year	-11.3993
good	-11.3994
bal	-11.3996
▁collaborare	-11.3997
▁impressione	-11.3999
▁recupero	-11.3999
abbiamo	-11.4003
▁intelligente	-11.4004
ificazione	-11.4006
▁rivolgo	-11.4006
▁sostanziale	-11.4007
▁atte	-11.4007
▁tam	-11.4007
▁onori	-11.401
▁riding	-11.4012
▁rami	-11.4012
▁scriveva	-11.4013
american	-11.4014
▁mirror	-11.4014
▁mountains	-11.4017
▁correttamente	-11.402
▁marine	-11.4023
▁75	-11.4025
▁pole	-11.4026
▁misericordia	-11.4028
▁fondamento	-11.4032
▁chinese	-11.4036
▁tassa	-11.4037
▁guari	-11.4037
▁stette	-11.4039
▁lussemburgo	-11.4042
tan	-11.4042
▁hammer	-11.4043
▁segnala	-11.4044
▁avventura	-11.4044
▁rivolgere	-11.4045
▁groups	-11.4046
▁lettori	-11.4046
▁profonde	-11.4049
▁cercano	-11.405
▁changes	-11.405
bia	-11.4052
▁faranno	-11.4056
▁evil	-11.4058
▁britannica	-11.4064
▁dawn	-11.4065
▁fresco	-11.4065
denti	-11.4066
ingresso	-11.4071
▁menti	-11.4071
▁ron	-11.4074
▁espressa	-11.4074
▁accuse	-11.4075
▁sen	-11.4075
▁supremo	-11.4078
▁calcolo	-11.4078
▁accento	-11.4079
▁avvia	-11.408
mbro	-11.408
▁rito	-11.408
▁soci	-11.4083
▁crayons	-11.4085
▁organization	-11.4085
▁mandare	-11.409
▁elettronica	-11.4093
▁matt	-11.4093
▁spia	-11.4096
▁singolare	-11.4098
▁registrato	-11.4098
▁forgive	-11.41
▁sasso	-11.4103
▁awards	-11.4105
esecuzione	-11.4106
▁guns	-11.4107
bye	-11.4108
▁brutto	-11.4109
▁xiv	-11.4111
▁incomincia	-11.4113
wan	-11.4113
▁pier	-11.4113
▁bianche	-11.4113
▁assistito	-11.4114
pan	-11.4114
▁confermato	-11.4115
offerta	-11.4115
▁mica	-11.4116
▁gitta	-11.4116
▁lift	-11.4122
▁switch	-11.4122
▁debbo	-11.4122
▁andrà	-11.4123
din	-11.4125
▁geni	-11.4127
▁rug	-11.4127
▁tedesca	-11.4128
▁dolls	-11.4131
▁dinosaur	-11.4131
▁sana	-11.4134
▁sostituito	-11.4134
▁tenne	-11.4135
▁fairy	-11.4135
▁limitata	-11.4139
▁plans	-11.4139
▁falsa	-11.4141
▁wheels	-11.4142
▁attempt	-11.4144
tissima	-11.4144
▁comb	-11.4145
▁begins	-11.4145
▁cape	-11.4146
▁avanzata	-11.4146
▁8,	-11.4148
▁riusciremo	-11.4148
▁nozze	-11.4152
▁uguali	-11.4153
alta	-11.4154
otti	-11.4155
▁pool	-11.4158
▁messaggi	-11.4159
▁allorchè	-11.4162
aia	-11.4163
▁istituzionali	-11.4164
▁freedom	-11.4164
▁chase	-11.4165
▁stringe	-11.4165
▁xvi	-11.4169
▁fuggire	-11.4169
▁perpetua	-11.4171
▁ned	-11.4177
estero	-11.4178
▁seguì	-11.4179
▁1980	-11.418
▁camere	-11.4181
▁portando	-11.4181
▁terribili	-11.4183
▁dicevano	-11.4184
▁mole	-11.4185
razione	-11.4186
mino	-11.4186
98	-11.4186
▁patient	-11.4188
▁philip	-11.4188
▁macchia	-11.4189
star	-11.4189
▁determinare	-11.4189
▁carbon	-11.419
minu	-11.4192
▁pesa	-11.4193
▁empire	-11.4193
▁democratiche	-11.4194
▁colonne	-11.4194
té	-11.4195
▁ped	-11.4198
due	-11.4198
▁legali	-11.4201
▁owner	-11.4202
▁tenga	-11.4203
▁alleati	-11.4203
▁nap	-11.4203
▁prossime	-11.4204
▁estende	-11.4205
--"	-11.4206
▁butterfly	-11.4208
▁spiegazione	-11.421
ct	-11.4213
▁soffrire	-11.4215
▁critici	-11.4218
▁branch	-11.4218
para	-11.4221
▁rules	-11.4223
▁rafforza	-11.4226
▁sang	-11.4228
▁parecchie	-11.4229
▁segnali	-11.4231
▁ban	-11.4231
ky	-11.4232
▁mentioned	-11.4236
▁catastrofe	-11.4237
tel	-11.4237
ddy	-11.4239
▁anticipa	-11.424
▁prepared	-11.4244
▁conosceva	-11.4245
▁orgoglio	-11.4247
▁knights	-11.4247
▁glielo	-11.4247
▁loss	-11.4247
lum	-11.4248
▁stefano	-11.4248
▁frequenti	-11.4249
▁sentence	-11.4249
zy	-11.4255
▁ji	-11.4256
opposizione	-11.4258
▁species	-11.4259
▁ramo	-11.4259
▁sott	-11.426
▁stre	-11.426
▁remain	-11.4268
▁pronuncia	-11.4268
▁morali	-11.4268
▁safety	-11.4269
stin	-11.4269
▁inizi	-11.4269
▁bagna	-11.4271
▁shoulder	-11.4272
▁attimo	-11.4272
▁ferito	-11.4273
▁delicato	-11.4273
retto	-11.4273
when	-11.4275
▁rurali	-11.4276
▁forces	-11.4277
▁peggiore	-11.4278
▁trasporta	-11.428
▁somiglia	-11.4286
▁hiding	-11.4286
▁formare	-11.4287
▁fanciullo	-11.4288
▁spaghetti	-11.4288
▁bielorussia	-11.4289
▁considerati	-11.4289
▁esalta	-11.4289
▁investire	-11.4289
vit	-11.429
▁fiamme	-11.4295
▁nascere	-11.4297
▁nin	-11.4297
▁claus	-11.4298
95	-11.4301
▁firmato	-11.4302
ulteriore	-11.4302
▁stadio	-11.4303
▁ostacolo	-11.4303
▁grato	-11.4305
▁spedizione	-11.4306
▁sap	-11.4308
▁maschera	-11.431
▁rappresentanza	-11.4311
▁gel	-11.4311
▁casca	-11.4317
most	-11.4318
▁33	-11.4318
▁smaller	-11.4321
▁scambia	-11.4323
▁mayor	-11.4323
▁solitudine	-11.4325
▁somministra	-11.4325
38	-11.4325
▁zia	-11.4328
parti	-11.4329
▁parli	-11.4334
cou	-11.4334
▁diventi	-11.4335
▁convento	-11.4339
▁laggiù	-11.4339
duca	-11.434
▁cloth	-11.4341
▁vederlo	-11.4344
▁impero	-11.4346
▁cali	-11.4349
▁robin	-11.4352
bli	-11.4353
▁annunzia	-11.4354
▁episode	-11.4357
▁memorie	-11.4357
▁boschi	-11.4358
▁suggest	-11.4361
▁studied	-11.4366
▁agenti	-11.4366
▁furia	-11.4367
▁manfredi	-11.4368
lici	-11.4369
▁falso	-11.4371
▁figures	-11.4373
▁ardi	-11.4374
ncia	-11.4375
▁eric	-11.4376
town	-11.4377
▁predi	-11.4379
▁sapevo	-11.4383
▁muore	-11.4384
▁tan	-11.4386
▁soldier	-11.4388
▁fence	-11.4388
▁boots	-11.4389
▁includere	-11.4391
▁veduta	-11.4391
▁rimette	-11.4393
ré	-11.4393
▁pratico	-11.4393
▁secca	-11.4394
▁torri	-11.4394
▁release	-11.4395
▁greatest	-11.4396
▁ò	-11.4397
istituto	-11.4398
▁differenzia	-11.4399
▁hearing	-11.44
late	-11.44
▁knowing	-11.4405
▁priest	-11.4407
▁ships	-11.4409
▁mag	-11.4409
▁click	-11.4411
▁eseguire	-11.4416
rah	-11.4417
▁manage	-11.442
▁sports	-11.4422
▁integrato	-11.4422
▁pala	-11.4423
▁riuscì	-11.4428
▁sally	-11.443
▁venera	-11.4432
len	-11.4432
▁tasca	-11.4433
enze	-11.4435
bby	-11.4435
▁esagera	-11.4436
erei	-11.4437
whispered	-11.4437
▁respingere	-11.4439
▁tranne	-11.4439
mail	-11.444
8.	-11.4442
▁formulazione	-11.4442
dito	-11.4444
▁ballo	-11.4446
sound	-11.4446
▁tranquilla	-11.4447
▁chiusi	-11.4447
▁desire	-11.4448
▁convinti	-11.445
▁horn	-11.4452
▁robot	-11.4452
▁smiled	-11.4454
▁velo	-11.4454
▁annunciato	-11.4457
▁specchio	-11.4458
▁acc	-11.4458
met	-11.4459
▁pushed	-11.4459
▁fanti	-11.4461
▁wine	-11.4463
▁scandalo	-11.4463
▁introduce	-11.4465
▁riempi	-11.4465
▁sintesi	-11.4466
▁esposto	-11.4466
hv	-11.4466
▁musicale	-11.4467
meri	-11.4468
▁10,	-11.4469
▁liberazione	-11.447
▁indians	-11.447
▁contract	-11.4471
▁contrastare	-11.4474
▁9,	-11.4478
▁catastrofi	-11.448
▁affetti	-11.448
▁alfredo	-11.4481
▁everywhere	-11.4481
▁cord	-11.4482
▁spari	-11.4483
31	-11.4484
▁danza	-11.4485
▁appieno	-11.4487
▁campaign	-11.4487
ifica	-11.4487
▁clever	-11.4488
▁avverti	-11.4489
▁trial	-11.449
▁dust	-11.4491
ray	-11.4491
▁cosiddetto	-11.4494
▁indagini	-11.4495
▁peanut	-11.4495
esterno	-11.4495
lone	-11.4497
▁kim	-11.4498
43	-11.45
▁bump	-11.4501
▁opposite	-11.4502
▁otherwise	-11.4503
▁iscritto	-11.4506
▁apprezza	-11.4506
▁negozio	-11.4507
▁congress	-11.4507
▁edifici	-11.4511
arma	-11.4513
▁prestazioni	-11.4515
▁unknown	-11.4515
cidi	-11.4516
▁raccontare	-11.4517
▁horsie	-11.4518
cino	-11.4519
▁facili	-11.4521
ggiare	-11.4523
▁areas	-11.4524
▁aggiunse	-11.4532
▁competition	-11.4532
▁foreste	-11.4532
ering	-11.4534
▁importo	-11.4537
▁complessa	-11.4539
▁scienziati	-11.4539
▁sl	-11.4543
▁descrive	-11.4543
▁circostanza	-11.4547
▁misero	-11.4551
▁cia	-11.4555
▁belgio	-11.4557
▁calda	-11.456
▁goodbye	-11.456
▁pensioni	-11.4564
▁precise	-11.4566
▁independent	-11.4569
▁rome	-11.457
▁mate	-11.457
moves	-11.4571
▁quack	-11.4571
▁batti	-11.4572
▁buzz	-11.4573
▁nicola	-11.4575
▁troops	-11.4576
▁rie	-11.4578
▁intesa	-11.4579
▁adeguatamente	-11.4583
▁ghe	-11.4585
▁siria	-11.4585
▁railway	-11.4585
▁rope	-11.4588
place	-11.4589
▁guardie	-11.4591
rup	-11.4592
▁fog	-11.4592
▁jan	-11.4595
▁parliament	-11.4599
▁settled	-11.4599
▁frontiera	-11.46
sc	-11.4602
gel	-11.4602
▁medica	-11.4603
▁ras	-11.4603
▁richiamo	-11.4604
▁ombre	-11.4604
▁distruggere	-11.4607
▁vengo	-11.4608
▁stack	-11.4608
▁screen	-11.4608
▁nar	-11.4608
▁target	-11.4609
.5	-11.461
▁utilizzando	-11.461
▁polo	-11.4612
▁genovesi	-11.4615
▁wedding	-11.4615
▁nobiltà	-11.4615
▁log	-11.4616
▁loco	-11.4616
▁tarda	-11.4616
▁bedroom	-11.4616
▁romantic	-11.4619
▁manifestazioni	-11.462
▁elephants	-11.4622
▁affermazioni	-11.4622
sioni	-11.4623
▁1989	-11.4623
▁downstairs	-11.4623
▁esorta	-11.4625
tini	-11.4631
▁sessanta	-11.4632
▁estendere	-11.4633
▁dedica	-11.4634
▁forum	-11.4636
▁legata	-11.4639
▁reaches	-11.4639
▁lusso	-11.464
▁baroni	-11.4641
sure	-11.4641
▁seal	-11.4642
▁trasformare	-11.4642
telo	-11.4643
▁auguriamo	-11.4643
▁darà	-11.4644
▁gift	-11.4645
▁ritratto	-11.4645
▁surely	-11.4646
nus	-11.4653
▁negativi	-11.4654
▁broad	-11.4657
▁grab	-11.4659
▁inf	-11.4663
▁piatto	-11.4663
get	-11.4667
▁tap	-11.4668
▁legittima	-11.4668
bbo	-11.4669
▁alien	-11.4669
▁chron	-11.467
▁bern	-11.467
gin	-11.467
▁insegnanti	-11.4673
▁devasta	-11.4675
▁complain	-11.4676
▁scarica	-11.4676
▁rio	-11.4678
▁documenta	-11.4679
▁num	-11.4679
37	-11.4687
▁disprezzo	-11.4691
▁pesci	-11.4692
▁ac	-11.4696
▁sno	-11.4698
▁volumi	-11.4698
▁imper	-11.47
▁gentle	-11.4704
lies	-11.4704
3/	-11.4705
nz	-11.4705
▁americana	-11.4706
▁sottile	-11.4706
▁sostenibilità	-11.4706
▁radici	-11.4709
▁prendo	-11.471
▁cancro	-11.4715
▁cloud	-11.4715
▁cuori	-11.4715
▁purse	-11.4716
▁individuali	-11.4717
▁attori	-11.4718
▁credit	-11.4718
▁caratterizza	-11.4718
▁lieti	-11.4718
▁spira	-11.4721
hands	-11.4721
down	-11.4722
▁37	-11.4723
face	-11.4724
entrata	-11.4725
▁2000,	-11.4726
▁urgenza	-11.4727
gasp	-11.4728
▁rammarico	-11.4729
▁chicago	-11.4729
▁droga	-11.4729
▁territoriale	-11.473
-1	-11.4733
▁reply	-11.4733
▁rassicura	-11.4736
nello	-11.4736
▁turkey	-11.4736
▁precede	-11.4737
▁pericolosa	-11.4738
▁fal	-11.4738
▁willing	-11.4738
▁costruito	-11.474
▁respinge	-11.474
▁cam	-11.4743
▁worried	-11.4744
▁section	-11.4747
▁negare	-11.4748
sum	-11.4749
▁coperto	-11.4752
▁kong	-11.4754
▁condur	-11.4754
▁frightened	-11.4754
▁temporale	-11.4755
▁muni	-11.4756
▁timori	-11.4757
▁accerta	-11.4758
▁proroga	-11.4759
eccellente	-11.476
▁conforta	-11.4761
▁giornate	-11.4767
esempio	-11.4767
see	-11.4771
▁cambi	-11.4771
vy	-11.4772
ense	-11.4773
▁easier	-11.4775
tella	-11.4779
▁interessato	-11.478
▁silent	-11.4781
rat	-11.4781
▁scal	-11.4782
terà	-11.4785
▁rai	-11.4785
▁tene	-11.4785
ology	-11.4787
▁membra	-11.4787
ski	-11.4788
▁sospetti	-11.4788
▁ville	-11.479
▁appear	-11.4791
▁comunicato	-11.4792
▁altamente	-11.4792
▁chest	-11.4798
▁poet	-11.4799
▁canton	-11.4799
▁riguardante	-11.48
▁mention	-11.48
▁lunghezza	-11.48
cent	-11.4802
▁personalità	-11.4804
▁cercava	-11.4804
▁nigeria	-11.4805
▁bud	-11.4807
▁faint	-11.4807
mio	-11.4813
▁evita	-11.4813
▁serena	-11.4814
▁blo	-11.4815
ami	-11.4816
▁pas	-11.4818
▁percent	-11.4818
▁efficienza	-11.4821
▁impre	-11.4822
▁vestiti	-11.4823
▁frode	-11.4824
▁sig	-11.4825
▁stanca	-11.4828
▁cosiddetta	-11.4828
▁nominato	-11.483
▁massime	-11.4831
ordina	-11.4832
▁sosta	-11.4835
▁papers	-11.4836
▁loose	-11.4837
▁trascura	-11.4839
▁frodi	-11.4839
ann	-11.4842
dire	-11.4843
▁biglietto	-11.4844
▁temple	-11.4845
▁statistiche	-11.4846
▁destro	-11.4847
▁condotti	-11.4847
gress	-11.4849
ions	-11.485
▁spendere	-11.4851
▁affinchè	-11.4852
▁restrizioni	-11.4852
▁dama	-11.4853
▁neuro	-11.4854
tory	-11.4854
▁giappone	-11.4855
▁tradimento	-11.4856
▁attend	-11.4857
▁seventy	-11.4857
▁bringing	-11.4859
▁giuridiche	-11.4859
asi	-11.4862
▁radice	-11.4863
▁ossa	-11.4864
▁nido	-11.4864
uccia	-11.4864
▁fargli	-11.4865
▁familiar	-11.4867
▁forgotten	-11.4868
▁afferra	-11.4868
will	-11.4871
▁aw	-11.4872
▁pericolosi	-11.4874
▁retired	-11.4876
▁colloqui	-11.4878
▁tur	-11.4879
▁museum	-11.4883
▁ingresso	-11.4883
▁seconds	-11.4884
▁soddisfatti	-11.4884
book	-11.4885
▁austriaci	-11.4887
cum	-11.4887
▁repeated	-11.4888
▁temperature	-11.4891
vansi	-11.4893
▁destinate	-11.4896
▁apertamente	-11.4896
▁richiedono	-11.4898
▁barroso	-11.4899
scano	-11.4899
▁malta	-11.4901
▁sviluppato	-11.4901
▁capisce	-11.4903
49	-11.4905
▁convergenza	-11.4906
▁banana	-11.4907
▁uccidere	-11.4909
▁temere	-11.4911
▁discute	-11.4914
▁monarchia	-11.4914
▁cavalleria	-11.4914
▁bimbo	-11.4915
34	-11.4915
▁togliere	-11.4916
▁delinea	-11.4918
▁wales	-11.492
▁schools	-11.4921
asia	-11.4921
▁battaglie	-11.4922
▁disponiamo	-11.4922
▁destroy	-11.4922
▁divino	-11.4923
▁players	-11.4924
▁moti	-11.4925
▁birth	-11.4925
▁faces	-11.493
▁tribunali	-11.4931
▁diverti	-11.4934
▁trasmettere	-11.4935
▁xv	-11.4936
rog	-11.4937
▁domenico	-11.4937
▁regolarmente	-11.4937
▁contraddizione	-11.4938
▁equo	-11.4939
▁preferi	-11.4939
▁madrid	-11.4941
▁giove	-11.4942
▁costantino	-11.4944
▁temp	-11.4944
▁testimoni	-11.4944
▁assedia	-11.4945
ace	-11.4946
▁piacevole	-11.4946
▁esclusi	-11.4947
▁tristezza	-11.4948
ione	-11.4949
▁sper	-11.4949
▁creando	-11.4951
▁distingue	-11.4953
fan	-11.4955
▁xxi	-11.4955
▁rimanda	-11.4956
▁drama	-11.4958
▁rinnovabili	-11.4958
▁weekend	-11.4961
▁angeli	-11.4963
▁prefer	-11.4963
▁pati	-11.4964
▁lois	-11.4964
▁istituti	-11.4965
▁decine	-11.4967
sson	-11.4967
▁lengthened	-11.4969
enne	-11.4969
geri	-11.4972
▁duchessa	-11.4973
▁sollevare	-11.4973
▁maestra	-11.4977
▁direct	-11.4977
▁veni	-11.4981
▁brutta	-11.4981
▁religiosi	-11.4984
▁bellissimo	-11.4986
▁interview	-11.4986
▁animi	-11.4987
ow	-11.499
▁costruttivo	-11.4992
▁ty	-11.4992
gata	-11.4994
▁barone	-11.4994
▁hanging	-11.4995
▁dolcezza	-11.4996
ume	-11.4998
▁mondiali	-11.5001
▁alimenta	-11.5004
▁comfortable	-11.5008
dar	-11.5012
legge	-11.5013
▁applicata	-11.5013
▁narrow	-11.5016
▁pensavo	-11.5018
▁mortale	-11.5019
▁tire	-11.5019
▁invidia	-11.502
▁beatrice	-11.5024
▁fermò	-11.5024
▁carro	-11.5024
vocalization	-11.5024
▁limit	-11.5025
46	-11.5025
▁dipendenza	-11.5026
▁oo	-11.5028
▁visite	-11.5028
▁counter	-11.5029
▁riescono	-11.5031
▁religiose	-11.5031
▁diffusa	-11.5031
▁trasmissione	-11.5031
▁lungamente	-11.5032
▁baseball	-11.5034
wn	-11.5035
▁avvenne	-11.5041
▁metter	-11.5042
▁barbara	-11.5044
▁umilia	-11.5047
▁vittorio	-11.5051
rce	-11.5054
▁uniforme	-11.5054
▁vicepresidente	-11.5055
ucraina	-11.5055
▁solida	-11.5057
▁riesco	-11.5057
▁rinunciare	-11.5057
▁disposta	-11.5057
▁cell	-11.5058
▁giudiziaria	-11.5061
gò	-11.5062
▁fornitura	-11.5064
rella	-11.5064
▁belong	-11.5064
hsl	-11.5065
▁remembered	-11.5066
▁explained	-11.5069
▁char	-11.507
▁inferiori	-11.507
regolamentazione	-11.507
▁hmm	-11.5071
▁sospetta	-11.5072
rp	-11.5072
▁segnalare	-11.5073
lò	-11.5074
▁conforme	-11.5075
▁salotto	-11.5079
▁eroi	-11.5079
▁nonna	-11.508
▁microphone	-11.5081
▁ripara	-11.5082
▁confronta	-11.5084
bis	-11.5086
home	-11.5087
▁1970	-11.5087
▁fisico	-11.5088
▁couch	-11.5089
▁somewhat	-11.5093
▁arro	-11.5093
clo	-11.5094
▁revoca	-11.5095
▁wooden	-11.5095
▁impulso	-11.5096
▁accorge	-11.5098
▁quotidiana	-11.5098
▁jerry	-11.5103
▁curato	-11.5103
ìo	-11.5104
▁andarono	-11.5106
▁racconti	-11.511
hanno	-11.5111
▁consideriamo	-11.5112
▁spavento	-11.5118
▁forever	-11.512
▁pony	-11.5121
▁hy	-11.5123
▁brava	-11.5126
▁spagnuoli	-11.5126
▁sostengo	-11.5127
▁tommy	-11.5129
▁trovata	-11.5135
▁suprema	-11.5136
▁signal	-11.5138
▁anxious	-11.5138
▁kinds	-11.514
▁invano	-11.5141
▁sorveglianza	-11.5143
▁remo	-11.5143
▁sticker	-11.5147
celli	-11.5148
▁events	-11.5149
▁spiriti	-11.5149
▁ritardi	-11.515
▁arthur	-11.515
▁dolori	-11.515
▁perseguire	-11.5151
▁gla	-11.5154
▁arrivò	-11.5158
▁fought	-11.5158
▁decimo	-11.5159
▁gain	-11.516
▁ved	-11.5165
▁farle	-11.5165
▁raggiungimento	-11.5166
▁emozioni	-11.5167
▁verse	-11.5169
gone	-11.5171
rano	-11.5172
▁francesca	-11.5173
▁ken	-11.5174
▁bother	-11.5175
pes	-11.5179
59	-11.5179
▁provocato	-11.5179
▁gamba	-11.5182
▁suggested	-11.5182
▁immobile	-11.5183
▁lucca	-11.5185
▁medicinali	-11.5187
▁protegge	-11.5188
▁goal	-11.5192
▁registro	-11.5193
▁indirizzo	-11.5193
▁pilota	-11.5194
▁gamma	-11.5194
▁rilevato	-11.5195
bet	-11.5195
▁coppia	-11.5199
▁colazione	-11.52
▁omaggio	-11.52
▁candy	-11.5201
▁spoglia	-11.5205
▁hung	-11.5205
▁costringe	-11.5206
▁rabbi	-11.5206
▁ducato	-11.5209
▁imita	-11.5209
▁tassi	-11.5209
▁conformemente	-11.521
47	-11.5213
▁switzerland	-11.5214
▁tin	-11.5215
▁amy	-11.5215
ug	-11.5216
▁reputa	-11.5218
▁forced	-11.5218
sion	-11.5219
▁cedere	-11.5221
▁incendi	-11.5222
sar	-11.5225
▁gale	-11.5228
tone	-11.5229
▁convegno	-11.523
▁sensibili	-11.5231
esercito	-11.5231
▁pol	-11.5233
sky	-11.5234
▁dose	-11.5236
▁importazioni	-11.5237
▁38	-11.5238
▁bug	-11.5238
▁disputa	-11.5238
▁strutturale	-11.5242
▁bloody	-11.5242
mone	-11.5243
▁clero	-11.5243
▁prosegue	-11.5243
▁invitato	-11.5244
▁text	-11.5244
▁attribuire	-11.5244
▁abiti	-11.5244
▁—	-11.5246
▁memory	-11.5246
▁amministrative	-11.5246
▁terroristi	-11.5247
▁possession	-11.5248
▁espressamente	-11.5251
▁fairly	-11.5251
▁fifth	-11.5254
▁nascosto	-11.5254
▁pine	-11.5256
▁discutendo	-11.5257
▁prevent	-11.5258
▁cela	-11.5263
▁adulti	-11.5263
▁schengen	-11.527
▁elizabeth	-11.5271
▁soldo	-11.5272
▁influence	-11.5275
▁clemente	-11.5276
▁esistere	-11.5277
▁undici	-11.5277
▁elected	-11.5279
▁ugualmente	-11.5279
▁decisivo	-11.528
▁walter	-11.528
▁puglia	-11.528
▁restò	-11.5281
▁avvisa	-11.5282
▁rav	-11.5283
▁assist	-11.5284
▁highest	-11.5285
▁folk	-11.5287
▁gravemente	-11.5287
▁arresta	-11.5287
ight	-11.5288
▁tela	-11.529
▁lodi	-11.529
▁incontrare	-11.5291
▁menzionato	-11.5291
▁demand	-11.5291
▁avrete	-11.5295
▁organizza	-11.5295
ï	-11.5297
▁decora	-11.5298
▁dying	-11.5299
▁provo	-11.53
▁drove	-11.5301
▁wagon	-11.5303
▁focus	-11.5304
▁retta	-11.5305
▁blame	-11.5306
▁fortunatamente	-11.5306
yard	-11.5311
▁ruota	-11.5311
▁caduto	-11.5311
▁woo	-11.5312
▁danneggia	-11.5313
▁angeles	-11.5314
aldi	-11.5314
▁pericolose	-11.5317
▁religion	-11.5317
▁google	-11.5319
miss	-11.5322
▁apartment	-11.5324
▁sinistro	-11.5327
▁potevo	-11.5327
▁passing	-11.5328
▁diventano	-11.5329
▁erasi	-11.5329
win	-11.5331
▁comodo	-11.5331
▁signed	-11.5331
▁sensibile	-11.5333
py	-11.5334
▁appartiene	-11.5335
about	-11.5335
▁visibile	-11.5335
▁pillow	-11.5335
▁fund	-11.5336
▁jenny	-11.5336
▁potea	-11.5337
▁rotto	-11.5338
▁consult	-11.5339
▁realize	-11.5342
▁matteo	-11.5345
▁sfera	-11.5346
▁credete	-11.5346
▁splendida	-11.5347
▁successful	-11.5348
▁preferito	-11.535
▁ly	-11.535
▁canti	-11.5351
▁alfonso	-11.5351
▁relax	-11.5351
▁slice	-11.5355
▁savi	-11.5357
▁organismo	-11.5359
ay	-11.5359
▁cattolica	-11.536
▁preghiere	-11.536
▁margaret	-11.536
▁rattle	-11.536
▁qu	-11.5362
▁informare	-11.5364
▁intento	-11.5364
▁degree	-11.5366
▁pareti	-11.5367
▁magistrati	-11.5368
▁fermamente	-11.5369
▁contesta	-11.5369
▁ordinato	-11.537
▁arrive	-11.5372
▁afghanistan	-11.5372
▁hop	-11.5373
fall	-11.5373
▁successi	-11.5374
▁orientamento	-11.5374
run	-11.5376
vidi	-11.5377
▁conversazione	-11.5377
▁ireland	-11.5378
▁esami	-11.5378
over	-11.5379
▁macedonia	-11.5379
ardo	-11.5381
▁baci	-11.5382
▁armate	-11.5382
▁mina	-11.5385
▁asso	-11.5386
▁ladder	-11.5386
▁pressure	-11.5386
▁innalza	-11.5387
ath	-11.5389
hand	-11.5392
▁equilibrata	-11.5392
▁buddy	-11.5393
▁attento	-11.5393
ked	-11.5393
▁recording	-11.5394
▁libere	-11.5396
▁perseguita	-11.5397
sino	-11.54
▁express	-11.5401
▁berlino	-11.5401
dal	-11.5403
▁segui	-11.5403
41	-11.5404
▁killing	-11.5408
▁sacerdote	-11.5409
▁alter	-11.5411
▁render	-11.5415
posta	-11.5415
▁prosegui	-11.5416
▁oxford	-11.5417
▁veda	-11.5417
▁telefono	-11.5417
▁rachel	-11.5417
▁aderire	-11.5418
▁meriti	-11.5421
▁ebbi	-11.5422
▁rilevante	-11.5423
▁tonnellate	-11.5425
▁smiling	-11.5425
▁colpevole	-11.5425
▁dun	-11.5427
▁aspettando	-11.5428
long	-11.5429
▁compensa	-11.543
▁totally	-11.5432
▁shopping	-11.5434
tola	-11.5434
▁decenni	-11.5436
zzati	-11.5439
uccio	-11.5439
▁teste	-11.5442
▁zelo	-11.5442
▁apportare	-11.5445
anche	-11.5445
▁considero	-11.5445
lf	-11.5448
dere	-11.545
sser	-11.5451
ìa	-11.5452
bol	-11.5452
▁doveri	-11.5455
▁giardini	-11.5458
▁¶	-11.5458
▁riveste	-11.546
/02	-11.5462
▁dere	-11.5462
▁bunch	-11.5463
▁levò	-11.5467
▁sieno	-11.5468
▁feriti	-11.5469
▁knee	-11.5471
▁ragiona	-11.5473
▁ripercussioni	-11.5474
▁active	-11.5475
ize	-11.5475
influenza	-11.5475
▁pretende	-11.5476
▁sviluppa	-11.5481
insieme	-11.5483
42	-11.5484
▁queer	-11.5484
▁settlement	-11.5485
▁comunista	-11.5485
▁emergenza	-11.5489
ncy	-11.549
▁vietnam	-11.5491
▁proper	-11.5491
▁popola	-11.5492
fal	-11.5492
▁tax	-11.5494
ctor	-11.5495
▁accenna	-11.5495
▁articola	-11.5497
▁flessibile	-11.5499
▁creek	-11.5499
▁avvocato	-11.55
▁pian	-11.5503
▁dame	-11.5504
▁orecchie	-11.5505
▁superato	-11.5507
▁chiamò	-11.5507
▁oscura	-11.5507
▁alarm	-11.5508
mark	-11.5508
▁bou	-11.5509
▁lanciare	-11.5509
▁persiste	-11.5509
▁registrazione	-11.5511
▁legami	-11.5515
▁copertura	-11.5515
▁desert	-11.5515
▁expression	-11.5517
▁sigh	-11.5521
▁tolse	-11.5521
cate	-11.5521
friend	-11.5522
▁sanitari	-11.5523
▁mezzogiorno	-11.5524
▁sed	-11.5524
▁profondità	-11.5525
▁ideali	-11.5525
mont	-11.5527
▁muri	-11.5527
vola	-11.5529
▁roger	-11.5529
▁hong	-11.5532
▁mini	-11.5532
▁rush	-11.5534
▁gatto	-11.5534
sono	-11.5537
gola	-11.5538
▁dunno	-11.5539
▁scorta	-11.554
▁vicerè	-11.554
▁cel	-11.5542
▁prendi	-11.5543
▁150	-11.5547
versa	-11.5547
▁danimarca	-11.5549
▁dispetto	-11.5549
▁confida	-11.5549
tries	-11.555
dale	-11.5551
▁offrono	-11.5553
▁dora	-11.5554
▁confermare	-11.5557
▁possiede	-11.5557
▁colonnello	-11.5558
▁doors	-11.5563
▁costituzionali	-11.5565
▁spiegato	-11.5566
44	-11.5573
▁canali	-11.5574
▁giustificare	-11.5578
án	-11.5579
▁organo	-11.5579
▁intendono	-11.5582
▁kar	-11.5583
▁bandi	-11.5584
▁pensano	-11.5584
▁dum	-11.5585
gs	-11.5586
▁puni	-11.5586
aci	-11.5586
illa	-11.5587
▁cominciava	-11.5587
▁sticks	-11.5589
▁successiva	-11.5589
▁riduce	-11.5593
65	-11.5593
mette	-11.5593
▁34	-11.5595
ido	-11.5596
▁velocemente	-11.5596
▁tollera	-11.5596
▁sguardi	-11.5598
1,	-11.5601
▁score	-11.5602
▁compare	-11.5603
▁artista	-11.5604
▁lasciata	-11.5605
▁talun	-11.5606
▁costanza	-11.5611
key	-11.5612
▁agenda	-11.5613
▁padrona	-11.5614
▁bosnia	-11.5616
▁introduzione	-11.5617
▁boats	-11.5618
esa	-11.5622
▁compre	-11.5622
iana	-11.5623
▁gallo	-11.5624
▁vibra	-11.5624
▁onora	-11.5624
▁presero	-11.5625
aco	-11.5626
door	-11.5628
▁spare	-11.563
▁arrivano	-11.5632
▁reciproco	-11.5632
▁worst	-11.5632
centi	-11.5633
▁attiene	-11.5633
chiamo	-11.5634
▁management	-11.5635
▁cooking	-11.5639
▁spaventa	-11.5639
plo	-11.564
▁shell	-11.5642
▁grey	-11.5642
pet	-11.5643
▁matters	-11.5644
▁marchio	-11.5645
▁spezza	-11.5646
▁serata	-11.5646
▁minoranza	-11.5649
▁temperatura	-11.5649
▁coinvolgere	-11.565
▁viaggia	-11.5651
▁exist	-11.5651
▁thin	-11.5651
▁colonia	-11.5651
▁pausa	-11.5651
▁circo	-11.5653
eating	-11.5655
▁accennato	-11.5656
continues	-11.5658
58	-11.5661
▁congratula	-11.5661
▁considerate	-11.5662
▁separazione	-11.5662
bird	-11.5662
▁connessi	-11.5665
▁rei	-11.5667
break	-11.5667
hy	-11.5669
▁incidente	-11.5672
▁curva	-11.5672
▁provvedere	-11.5672
75	-11.5675
▁solita	-11.5677
▁precisare	-11.5677
▁included	-11.5678
anza	-11.5679
▁attra	-11.5679
▁nascondere	-11.5682
▁dinamica	-11.5682
▁receive	-11.5683
pos	-11.5686
▁radicale	-11.5688
▁prato	-11.5688
▁diego	-11.5689
▁strinse	-11.5691
▁400	-11.5693
ett	-11.5693
tsu	-11.5694
▁riusci	-11.5694
▁route	-11.5695
▁candida	-11.5695
ggono	-11.5696
▁chat	-11.5698
▁garantisce	-11.57
▁soviet	-11.57
▁rapidità	-11.57
▁cities	-11.5701
▁dovessero	-11.5702
▁senior	-11.5702
▁jar	-11.5702
▁compiace	-11.5703
▁gentili	-11.5704
▁madame	-11.5704
▁cc	-11.5704
▁richiedere	-11.5707
▁wound	-11.5708
▁delicata	-11.571
▁stretti	-11.571
▁vota	-11.5711
▁spagnola	-11.5716
▁48	-11.5717
▁finalità	-11.5718
▁directly	-11.572
▁iran	-11.5723
▁cotesto	-11.5724
▁ribelli	-11.5726
▁professionisti	-11.5726
▁painting	-11.5727
▁disegna	-11.5729
▁12,	-11.5729
cip	-11.573
▁abb	-11.573
round	-11.5732
▁portati	-11.5732
▁bucket	-11.5733
▁guardi	-11.5733
▁jackson	-11.5735
▁applicazioni	-11.5736
▁concerned	-11.5737
▁voices	-11.5738
▁concittadini	-11.5741
▁11,	-11.5743
▁severo	-11.5744
tani	-11.5746
▁farvi	-11.5746
zzate	-11.5747
▁intelligenza	-11.5752
▁effort	-11.5752
▁credono	-11.5753
▁friendly	-11.5754
▁veneto	-11.5755
dam	-11.5756
▁definita	-11.5758
▁marittima	-11.5758
▁sogna	-11.5758
▁marocco	-11.5759
▁dick	-11.5759
▁42	-11.5766
▁hay	-11.5768
▁drawn	-11.5772
▁bolla	-11.5773
▁aliens	-11.5777
▁shouted	-11.578
▁rocca	-11.5781
▁umanitari	-11.5783
▁copenaghen	-11.5784
▁elettrica	-11.5784
▁sosteniamo	-11.5784
▁finlandia	-11.5784
essa	-11.5784
sings	-11.5785
pass	-11.5788
zar	-11.5789
▁facciano	-11.5791
66	-11.5791
teristituzionale	-11.5792
▁svolgono	-11.5792
▁zealand	-11.5792
▁junior	-11.5792
▁aware	-11.5793
ā	-11.5796
▁tempera	-11.5797
▁frasi	-11.5798
tello	-11.5801
▁feels	-11.5801
▁tomba	-11.5801
▁artist	-11.5801
▁towel	-11.5802
▁rifugio	-11.5803
▁colombia	-11.5805
asso	-11.5807
▁champion	-11.5809
▁2019,	-11.5811
▁amministrativa	-11.5811
▁negozi	-11.5812
▁riflessioni	-11.5818
▁authority	-11.5818
▁valere	-11.582
▁lin	-11.5821
▁sacri	-11.5821
▁sedia	-11.5822
56	-11.5823
α	-11.5824
▁parziale	-11.5826
▁wrestling	-11.5826
▁graham	-11.5827
▁bruno	-11.5828
▁claim	-11.5832
▁unanime	-11.5833
▁grandissima	-11.5833
▁cig	-11.5834
assi	-11.5835
▁carenze	-11.5835
▁ringrazia	-11.5836
▁beve	-11.5839
assenza	-11.5841
▁dritto	-11.5843
▁amazing	-11.5844
▁uccisi	-11.5846
▁integrare	-11.585
esito	-11.585
▁favour	-11.5852
▁venticinque	-11.5852
ever	-11.5852
▁camminare	-11.5852
ccie	-11.5853
▁vanità	-11.5854
▁ceased	-11.5855
▁somehow	-11.5858
▁pagato	-11.5858
▁ill	-11.586
lette	-11.586
▁affaccia	-11.5861
▁elevata	-11.5865
▁trecento	-11.5866
▁mossa	-11.5866
zionale	-11.5867
▁coinvolge	-11.5868
▁addietro	-11.5869
▁schiaccia	-11.5869
92	-11.587
▁apparently	-11.587
▁spicca	-11.5871
▁opposto	-11.5871
▁plants	-11.5872
▁shame	-11.5874
▁related	-11.5874
▁shook	-11.5878
▁library	-11.5878
▁troppi	-11.5878
▁spider	-11.5879
▁cy	-11.5879
▁babe	-11.5882
simo	-11.5882
ô	-11.5883
▁legittimo	-11.5886
▁magnifico	-11.5886
▁understood	-11.5886
gate	-11.5889
▁rein	-11.589
▁ferroviario	-11.5891
▁formale	-11.5894
▁tratte	-11.5896
overlap	-11.5896
▁victory	-11.5898
▁wished	-11.5898
▁raise	-11.5899
▁delight	-11.59
▁studente	-11.59
▁peccati	-11.5902
▁salvezza	-11.5904
▁bottega	-11.5905
▁sembrare	-11.5905
▁coal	-11.5905
▁reciproca	-11.5908
bert	-11.5909
fort	-11.5909
▁dovea	-11.5909
▁helping	-11.5911
elecomunicazioni	-11.5912
▁haha	-11.5914
▁rivede	-11.5915
▁shoulders	-11.5916
▁moltiplica	-11.5919
dò	-11.5921
▁yard	-11.5923
▁convincere	-11.5924
▁metalli	-11.5925
▁dargli	-11.5927
ably	-11.5928
▁censura	-11.5929
▁madri	-11.593
▁nacque	-11.5934
▁cavalca	-11.5934
▁commento	-11.5934
▁attenti	-11.5935
▁dott	-11.5939
▁scri	-11.594
▁posse	-11.5946
▁bishop	-11.5946
▁wondering	-11.5947
▁provvede	-11.5948
aro	-11.5949
▁edit	-11.5951
▁terror	-11.5954
▁contribuenti	-11.5955
▁fermezza	-11.5955
cini	-11.5958
▁occuparsi	-11.5961
▁ponti	-11.5964
▁pittura	-11.5964
_,	-11.5966
lock	-11.5967
▁cantare	-11.5968
rian	-11.5971
▁coperta	-11.5972
▁copy	-11.5973
dì	-11.5978
▁danari	-11.598
▁bretagna	-11.5981
▁svizzera	-11.5981
▁avoid	-11.5981
▁gino	-11.5981
▁dotato	-11.5982
▁tickle	-11.5982
▁pugno	-11.5983
▁vedova	-11.5983
▁salita	-11.5988
▁advantage	-11.5989
▁mount	-11.599
▁nazi	-11.599
▁conosci	-11.5992
▁offri	-11.5993
▁vision	-11.5994
▁riposa	-11.5994
new	-11.5996
▁hills	-11.5996
▁scotland	-11.5998
▁scientists	-11.5998
▁contenti	-11.5999
asilo	-11.5999
▁rocks	-11.5999
▁avanzate	-11.5999
ō	-11.6
▁divertente	-11.6
▁operano	-11.6
▁established	-11.6001
▁citata	-11.6003
▁risale	-11.6003
1.	-11.6003
bba	-11.6006
▁residenza	-11.6007
▁famosa	-11.6007
▁learning	-11.6013
▁wings	-11.6014
▁bid	-11.6016
▁lasciamo	-11.6017
▁tray	-11.6018
▁pointing	-11.6019
▁significativa	-11.6019
▁equi	-11.602
may	-11.602
vu	-11.602
85	-11.6023
▁ambedue	-11.6024
▁emperor	-11.6024
▁generoso	-11.6025
▁corrispondenza	-11.6026
lati	-11.6026
▁geneticamente	-11.6027
▁veglia	-11.6029
▁beast	-11.603
▁impegnarsi	-11.603
▁arg	-11.6032
ampia	-11.6033
pla	-11.6036
▁adozione	-11.6037
▁photo	-11.6037
▁ammoni	-11.6037
▁battere	-11.6037
shire	-11.6037
▁terreni	-11.6039
▁ricorre	-11.6039
▁require	-11.6039
▁condiziona	-11.604
▁leggenda	-11.604
▁trent	-11.6042
▁prestigio	-11.6042
▁budget	-11.6042
▁persia	-11.6043
ingly	-11.6044
▁cases	-11.6044
▁complessi	-11.6046
51	-11.6048
▁picnic	-11.6051
▁lumi	-11.6051
▁usi	-11.6052
▁successivi	-11.6054
▁russa	-11.6054
▁immobili	-11.6054
▁spar	-11.6056
▁pray	-11.6059
▁conoscono	-11.6059
▁1988	-11.606
▁faci	-11.6061
▁traverso	-11.6066
mai	-11.6066
▁teams	-11.6066
▁colloquio	-11.6067
▁pitch	-11.6069
▁illustra	-11.6069
▁semplificazione	-11.6071
▁fired	-11.6071
ily	-11.6074
bor	-11.6076
----------------	-11.6077
▁sistematica	-11.6077
▁rescue	-11.6078
▁adatto	-11.6078
▁toccare	-11.608
omi	-11.6082
▁effettuato	-11.6082
▁matches	-11.6084
▁fondato	-11.6085
▁rappresenti	-11.6085
impiego	-11.6087
▁mestiere	-11.6088
▁russo	-11.6089
bla	-11.6092
▁fantastico	-11.6092
▁student	-11.6093
▁tribù	-11.6094
▁sospeso	-11.6094
▁metro	-11.6096
▁modificato	-11.6097
93	-11.6098
europe	-11.6099
▁improvvisa	-11.61
wed	-11.61
▁empi	-11.6101
▁corda	-11.6103
▁susan	-11.6104
▁woof	-11.6104
▁mostrò	-11.6105
▁villani	-11.6105
pote	-11.6106
▁rude	-11.6108
ddle	-11.6108
▁colpiti	-11.6109
▁febbre	-11.6112
▁parlò	-11.6112
▁distributed	-11.6113
▁amministrazioni	-11.6113
▁impression	-11.6113
▁armonizzazione	-11.6115
nova	-11.6116
▁musical	-11.6119
▁permetterà	-11.612
▁condividiamo	-11.612
▁response	-11.612
▁fiumi	-11.612
remmo	-11.6121
▁diedero	-11.6122
▁cardinal	-11.6123
▁pause	-11.6124
▁pasta	-11.6126
▁schia	-11.6128
▁ros	-11.6129
▁organizzati	-11.613
▁annulla	-11.6132
rî	-11.6133
▁livorno	-11.6138
▁portoghese	-11.6138
▁tengono	-11.6138
▁redditi	-11.6139
▁convenzioni	-11.614
▁rilevanza	-11.614
▁attentati	-11.614
▁adeguati	-11.6141
▁combina	-11.6141
▁plot	-11.6142
▁jon	-11.6143
▁legal	-11.6143
cut	-11.6147
▁aeree	-11.6148
▁somethin	-11.6151
▁tank	-11.6151
▁riguardi	-11.6156
essi	-11.6156
▁realizzati	-11.6158
▁latter	-11.6159
▁guasta	-11.6159
▁presence	-11.616
▁throughout	-11.616
moni	-11.6161
▁acting	-11.6163
▁mosca	-11.6164
▁tuesday	-11.6164
▁material	-11.6169
▁privo	-11.617
▁cabin	-11.6171
▁airport	-11.6174
▁interpretazione	-11.6174
▁stupi	-11.6175
▁patten	-11.6175
ezza	-11.6176
ery	-11.6178
68	-11.618
▁issue	-11.6182
▁zebra	-11.6183
▁client	-11.6186
point	-11.6186
▁vizio	-11.6186
▁fatale	-11.619
▁prendono	-11.6191
▁steve	-11.6191
▁dna	-11.6195
▁calde	-11.6195
▁annuncia	-11.6195
▁knocked	-11.6201
▁accrescere	-11.6201
▁developed	-11.6204
▁riusciva	-11.6208
▁divenuto	-11.6209
▁sentivo	-11.621
ix	-11.6211
▁metto	-11.6212
▁curious	-11.6213
cul	-11.6214
▁13,	-11.6214
▁julia	-11.6215
▁immenso	-11.6217
▁corri	-11.6219
▁dichiarare	-11.6221
▁furore	-11.6223
▁rapidi	-11.6223
▁pubblicata	-11.6223
▁2004.	-11.6224
▁doggy	-11.6224
nca	-11.6225
▁fastidio	-11.6226
▁tender	-11.6229
▁appar	-11.623
dine	-11.6231
▁inganna	-11.6233
▁trovavano	-11.6234
bru	-11.6237
▁ecu	-11.6237
▁parallel	-11.6238
▁riscontra	-11.6238
▁irene	-11.6241
▁dozen	-11.6245
▁ricordiamo	-11.6246
▁oli	-11.6249
▁rimaneva	-11.625
▁ideas	-11.625
▁passate	-11.6251
▁lanciato	-11.6252
▁impegnata	-11.6252
▁tha	-11.6253
▁convinta	-11.6253
▁umanità	-11.6253
▁mozione	-11.6257
▁archi	-11.6257
▁languages	-11.6257
▁muovere	-11.6258
usi	-11.6258
▁operation	-11.6264
▁handsome	-11.6265
▁infra	-11.6266
ip	-11.6267
▁thinks	-11.6269
▁mistress	-11.6271
▁jimmy	-11.6272
▁giudiziario	-11.6276
▁rientrare	-11.6277
ical	-11.6278
▁fresca	-11.6282
avano	-11.6284
guard	-11.6284
▁sussidi	-11.6284
dent	-11.6286
▁paragona	-11.6287
▁chamber	-11.6289
▁innocenti	-11.6289
▁hunt	-11.629
▁rientrano	-11.6291
take	-11.6292
▁estremo	-11.6293
▁echo	-11.6294
tele	-11.6294
▁doge	-11.6295
▁salad	-11.6297
▁olympics	-11.63
ucce	-11.6303
▁gang	-11.6306
▁vini	-11.6307
▁soddisfa	-11.6308
spir	-11.6308
▁mancata	-11.631
▁waited	-11.6311
▁complimenti	-11.6312
mare	-11.6314
▁emana	-11.6315
▁tessuto	-11.6316
▁courage	-11.6316
occhi	-11.6316
▁motto	-11.6317
izzazione	-11.6317
▁impegnato	-11.6318
▁senno	-11.6319
▁occupati	-11.632
▁lento	-11.632
tent	-11.6322
▁alba	-11.6323
▁jam	-11.6326
▁profit	-11.6327
mani	-11.6327
▁reported	-11.6329
▁risa	-11.6329
▁rota	-11.6332
▁distinguere	-11.6333
▁catholic	-11.6333
▁structure	-11.6333
▁sospesa	-11.6333
operazione	-11.6334
▁inevitabile	-11.6334
▁companion	-11.6334
`	-11.6335
▁oste	-11.6336
▁dishes	-11.6336
▁crawl	-11.6337
sauri	-11.6338
cons	-11.6339
▁severi	-11.6341
bed	-11.6341
▁equivale	-11.6344
▁patri	-11.6344
▁killer	-11.6345
▁sbaglia	-11.635
7/	-11.6351
▁smooth	-11.6351
▁ardente	-11.6355
▁classico	-11.6356
bell	-11.6357
▁slip	-11.6358
▁chiedeva	-11.6358
▁sostengono	-11.6359
▁ordinò	-11.636
▁concludo	-11.6361
▁ferrovie	-11.6361
▁picking	-11.6361
silver	-11.6362
▁discriminazioni	-11.6362
▁appuntamento	-11.6363
▁sanitario	-11.6366
▁consacra	-11.6366
▁passano	-11.6367
▁programme	-11.6367
▁crudeltà	-11.6369
▁arme	-11.6369
▁considerevole	-11.637
▁bandiere	-11.6371
▁invade	-11.6371
▁cera	-11.6371
tal	-11.6372
missione	-11.6373
▁tenore	-11.6373
▁pazzo	-11.6374
posi	-11.6375
▁ritenere	-11.6375
▁arco	-11.6375
▁quinta	-11.6377
▁motori	-11.6379
▁chairman	-11.6379
▁respira	-11.638
▁flo	-11.6381
▁dimmi	-11.6383
▁importi	-11.6384
-2	-11.6384
▁fleet	-11.6385
fil	-11.6386
▁cavi	-11.6387
▁comprare	-11.6387
▁franzesi	-11.6388
▁ottenne	-11.6388
▁mostrava	-11.6388
▁1960	-11.6388
▁abito	-11.6391
diti	-11.6392
▁blocca	-11.6393
volmente	-11.6397
▁dotazione	-11.6398
retta	-11.6398
▁tiranno	-11.64
▁applicate	-11.6401
▁martino	-11.6402
▁tace	-11.6404
iglia	-11.6405
▁dub	-11.6406
▁economic	-11.6408
▁ugo	-11.6408
tari	-11.6408
▁ricava	-11.641
▁ambizione	-11.641
▁ambienti	-11.6411
▁upset	-11.6412
▁paesaggio	-11.6412
▁becoming	-11.6413
▁motivazione	-11.6415
▁federazione	-11.6416
▁burst	-11.6416
▁brevetti	-11.6418
▁powerful	-11.6418
ult	-11.6419
▁ul	-11.6421
laugh	-11.6422
▁sardegna	-11.6424
▁maggie	-11.6424
▁vincitore	-11.6424
▁height	-11.6425
▁uses	-11.6425
▁rimasero	-11.6426
▁lasciano	-11.6427
▁grandissimo	-11.6427
▁premier	-11.6427
▁barriere	-11.6427
olio	-11.6429
▁seriously	-11.6432
▁approvati	-11.6432
89	-11.6433
-3	-11.6434
▁perdite	-11.6435
▁bastard	-11.6437
▁escludere	-11.644
▁originali	-11.644
▁ambasciatori	-11.6442
▁palestina	-11.6442
▁potenze	-11.6442
▁impiego	-11.6442
▁galli	-11.6443
▁soffer	-11.6448
cries	-11.6449
/01	-11.645
▁muoversi	-11.6452
▁federale	-11.6454
▁sorridendo	-11.6455
▁negozia	-11.6455
▁mentale	-11.6456
attiva	-11.6457
▁resiste	-11.6458
▁burocrazia	-11.646
gente	-11.6461
▁ammette	-11.6463
mun	-11.6464
54	-11.6465
stan	-11.6468
▁possi	-11.6469
▁singole	-11.6469
▁crimini	-11.6469
▁troppe	-11.647
▁rinnova	-11.6471
▁65	-11.6474
▁averne	-11.6474
▁frogs	-11.6475
▁provinciale	-11.6475
▁innovazione	-11.6481
▁analizzare	-11.6482
▁proved	-11.6482
▁cancella	-11.6483
▁eterna	-11.6483
▁regi	-11.6484
53	-11.6484
▁corr	-11.6484
▁feri	-11.6486
▁avversari	-11.6487
▁fanciulli	-11.6487
▁risolto	-11.6487
▁sisters	-11.6487
▁gelosia	-11.6487
▁vincenzo	-11.6488
▁prolunga	-11.6488
▁udire	-11.6488
▁sorprende	-11.6489
inchiesta	-11.6489
indipendenza	-11.6489
▁ascolto	-11.6489
▁obbedi	-11.649
ago	-11.6492
▁attesta	-11.6492
▁illustri	-11.6498
oc	-11.6499
▁continuava	-11.6499
▁chuck	-11.65
▁scientifici	-11.65
57	-11.6501
▁carbone	-11.6501
▁denari	-11.6501
giggles	-11.6502
▁immediata	-11.6503
▁sussiste	-11.6504
▁britannici	-11.6505
▁televisione	-11.6506
▁rank	-11.6506
ride	-11.6507
▁causato	-11.6509
▁veleno	-11.6509
▁ker	-11.6511
▁drug	-11.6511
▁davano	-11.6515
▁noti	-11.6516
anna	-11.6517
▁dona	-11.6517
▁ridotti	-11.6517
▁sorprendente	-11.6518
▁garage	-11.652
▁xx	-11.6521
▁average	-11.6522
▁owned	-11.6523
▁trasferi	-11.6523
▁balza	-11.6523
▁larger	-11.6523
▁rolling	-11.6524
▁incremento	-11.6527
▁luisa	-11.6528
▁promette	-11.6529
▁tormenta	-11.653
▁reg	-11.6531
ttare	-11.6532
▁tang	-11.6532
▁hamburger	-11.6533
▁seg	-11.6533
▁aspettiamo	-11.6533
▁vendica	-11.6535
▁saggi	-11.6536
▁recarsi	-11.6536
▁concordato	-11.6538
▁voli	-11.6539
▁olio	-11.6542
▁lode	-11.6544
▁castelli	-11.6544
▁lies	-11.6546
▁innocente	-11.6547
▁ferita	-11.6549
▁tribu	-11.6551
▁ottenuti	-11.6551
▁shh	-11.6554
▁rob	-11.6557
▁quotidiano	-11.656
▁religious	-11.656
▁avanzare	-11.6561
▁moltitudine	-11.6562
▁beth	-11.6562
▁touched	-11.6562
▁bol	-11.6563
your	-11.6564
▁principal	-11.6565
▁2021	-11.6565
mpe	-11.6566
▁intese	-11.6567
▁vul	-11.6568
▁delicate	-11.6569
▁failed	-11.6569
▁impu	-11.6569
▁avvenga	-11.657
▁scratch	-11.657
▁suoni	-11.6574
ik	-11.6574
bin	-11.6575
▁decise	-11.6575
▁wounded	-11.6578
▁latin	-11.6578
▁trovarono	-11.6579
▁exercise	-11.6579
▁mercoledì	-11.6579
▁assunti	-11.6579
▁inclina	-11.6579
▁utilizzate	-11.658
▁sinceramente	-11.6582
▁occorrono	-11.6588
▁ribadito	-11.6588
▁fasci	-11.6588
▁sofferenza	-11.6588
▁inclusi	-11.6588
▁teo	-11.6589
▁tornava	-11.6592
hr	-11.6592
▁admit	-11.6593
▁dem	-11.6594
▁thrown	-11.6596
logica	-11.6596
▁frequenza	-11.6597
▁lassù	-11.6597
▁diminuzione	-11.6597
▁rivista	-11.6598
ego	-11.6599
▁massimi	-11.6599
osservazione	-11.66
▁inca	-11.6601
ón	-11.6602
ington	-11.6602
▁sheet	-11.6605
▁località	-11.6605
▁conference	-11.6606
▁equilibrato	-11.6606
▁filosofo	-11.6606
▁14,	-11.6607
ral	-11.6607
▁egualmente	-11.6607
▁theory	-11.6609
▁precisi	-11.6609
▁profitti	-11.6609
▁spre	-11.6612
▁tag	-11.6615
▁companies	-11.6616
▁delicious	-11.6616
▁sg	-11.6617
▁mixed	-11.6617
▁darkness	-11.6619
verse	-11.6619
altezza	-11.6621
▁tenebre	-11.6625
▁strategico	-11.6628
mber	-11.6629
▁belga	-11.6632
▁spinto	-11.6632
▁chess	-11.6636
▁cortile	-11.6637
▁consentirà	-11.6637
ible	-11.6638
▁salvatore	-11.6639
▁tear	-11.6642
▁gl	-11.6643
▁sb	-11.6643
▁contribuisce	-11.6643
▁trovar	-11.6643
▁democratic	-11.6645
▁salvi	-11.6645
▁giovinezza	-11.6646
ardi	-11.6651
▁cruel	-11.6651
▁commission	-11.6652
▁scolastico	-11.6653
▁arri	-11.6653
▁appo	-11.6653
▁reato	-11.6653
▁distribu	-11.6658
▁brilla	-11.6659
▁poc	-11.6659
▁sfuggi	-11.6662
▁planning	-11.6663
▁kissed	-11.6663
▁awake	-11.6663
▁stones	-11.6664
pper	-11.6665
▁loda	-11.6667
▁potersi	-11.6669
▁sum	-11.667
▁ricercatori	-11.667
▁affa	-11.6671
▁cortesia	-11.6671
▁hurried	-11.6671
▁sublime	-11.6671
▁ottiene	-11.6671
▁bessie	-11.6671
▁vangelo	-11.6672
cello	-11.6673
▁drops	-11.6675
▁creata	-11.6678
▁illinois	-11.668
▁conforto	-11.6681
▁notevolmente	-11.6681
▁damage	-11.6682
enorme	-11.6682
▁spalla	-11.6685
▁tough	-11.6685
▁intima	-11.6686
▁islands	-11.6687
▁families	-11.669
▁interruppe	-11.669
▁biggest	-11.669
▁dovrei	-11.669
▁picchia	-11.6691
▁permettono	-11.6695
dipendentemente	-11.6697
dano	-11.6697
▁accelerare	-11.6697
▁estremi	-11.6697
▁equa	-11.6697
▁concernenti	-11.6699
▁virgilio	-11.6699
▁privilegio	-11.6702
▁ignorare	-11.6703
▁wave	-11.6704
vver	-11.6704
▁emigra	-11.6707
▁bone	-11.6708
▁esposti	-11.6708
▁cieco	-11.6709
▁2023	-11.6709
▁bimba	-11.671
▁intro	-11.6711
uf	-11.6711
▁folle	-11.6711
▁quoth	-11.6712
▁55	-11.6712
▁egitto	-11.6713
▁veloci	-11.6717
▁grandfather	-11.6718
----"	-11.672
▁sottoposto	-11.672
▁nec	-11.6722
▁desiderano	-11.6724
quo	-11.6725
iv	-11.6726
▁maurizio	-11.6727
▁sconfitta	-11.6727
▁petizioni	-11.6727
hal	-11.673
▁habit	-11.673
▁slave	-11.6732
▁attira	-11.6732
▁2005.	-11.6733
▁porge	-11.6733
▁streets	-11.6734
lic	-11.6735
▁clown	-11.6736
rna	-11.6737
care	-11.6738
▁collegati	-11.6739
▁illustrato	-11.6741
▁sentir	-11.6741
▁sentirsi	-11.6742
▁challenge	-11.6746
▁deficit	-11.6746
▁collettiva	-11.6746
▁nail	-11.6748
▁investimento	-11.6751
gare	-11.6754
▁sofferenze	-11.6755
▁inventa	-11.6757
celle	-11.6758
ologia	-11.676
▁currently	-11.6761
▁wore	-11.6762
▁au	-11.6763
▁institute	-11.6764
▁statistics	-11.6764
▁scopi	-11.6764
▁ogm	-11.6766
▁meritano	-11.6766
▁frati	-11.6771
94	-11.6773
′	-11.6774
▁thursday	-11.6774
▁piero	-11.6774
▁consentono	-11.6774
▁proponiamo	-11.6774
▁tolleranza	-11.6775
uma	-11.6775
▁hearts	-11.6776
atura	-11.6777
mici	-11.6779
-20	-11.6781
▁ends	-11.6781
▁arde	-11.6781
▁print	-11.6783
▁lodovico	-11.6783
▁manifesto	-11.6783
▁britain	-11.6783
▁1986	-11.6785
▁desideriamo	-11.6786
volo	-11.6787
▁semplicità	-11.6787
▁istituito	-11.6788
▁doria	-11.6789
▁indicati	-11.679
▁increase	-11.6791
▁aid	-11.6791
fl	-11.6793
▁soap	-11.6794
▁beep	-11.6794
▁ringraziamento	-11.6795
▁osservatori	-11.6797
▁sentono	-11.68
▁contenere	-11.6802
meno	-11.6804
▁pity	-11.6806
▁progressiva	-11.6806
▁condusse	-11.6807
▁glance	-11.681
▁cards	-11.6812
▁sentiamo	-11.6812
▁giovanna	-11.6813
▁fascia	-11.6814
▁wondered	-11.6816
▁location	-11.6816
cità	-11.6819
▁slept	-11.6821
▁afford	-11.6821
67	-11.6821
▁split	-11.6822
▁ec	-11.6823
▁pag	-11.6824
▁ruin	-11.6829
▁duo	-11.683
▁operazione	-11.6831
visi	-11.6833
▁dacchè	-11.6834
▁mancava	-11.6834
▁assente	-11.6835
▁bounce	-11.6836
questo	-11.6838
▁espone	-11.6838
▁trionfa	-11.6839
▁detenuti	-11.684
▁dispositivo	-11.684
▁tend	-11.6842
▁descritto	-11.6844
▁[4	-11.6845
▁2005,	-11.6845
▁servito	-11.6846
▁cortese	-11.6847
2/	-11.6848
▁danese	-11.6851
aff	-11.6853
▁collera	-11.6856
▁piene	-11.6858
▁cowboy	-11.6859
▁cieca	-11.6859
▁tells	-11.6859
▁espressioni	-11.6859
▁tendenze	-11.6861
▁concentrazione	-11.6863
▁rifle	-11.6863
▁fil	-11.6864
▁piè	-11.6865
aglia	-11.6866
▁spu	-11.6868
▁eventualmente	-11.6868
▁claudia	-11.6868
▁porterà	-11.6868
▁dollhouse	-11.6869
▁sentite	-11.6872
lea	-11.6873
▁ol	-11.6874
▁witch	-11.6877
▁mormora	-11.6877
▁repubblicani	-11.6878
▁troppa	-11.6878
▁defini	-11.6878
▁scientifiche	-11.6878
▁israel	-11.6878
▁protagonista	-11.6879
▁defend	-11.6882
▁keeps	-11.6882
▁newspaper	-11.6884
water	-11.6887
▁alexander	-11.6887
▁physical	-11.6887
▁auspicabile	-11.6889
▁trasse	-11.689
▁bomba	-11.689
ously	-11.6892
▁vicine	-11.6894
▁originally	-11.6894
▁rappresentati	-11.6895
▁prede	-11.6895
▁profeta	-11.6896
▁advice	-11.6896
▁pavia	-11.6898
▁violet	-11.69
qu	-11.69
▁riga	-11.6901
▁insegnato	-11.6903
mat	-11.6905
▁semina	-11.6906
▁experiment	-11.6906
▁insufficiente	-11.6906
▁colpisce	-11.6907
▁mostro	-11.6908
▁nest	-11.6911
▁strategica	-11.6912
ratner	-11.6913
tec	-11.6915
▁poem	-11.6915
▁sostenuta	-11.6915
▁milizie	-11.6915
91	-11.6915
▁(;	-11.6917
▁torn	-11.6918
▁2001,	-11.6919
▁diaper	-11.6919
▁johnson	-11.6919
▁sciagura	-11.6925
▁matematica	-11.6925
▁bodies	-11.6925
▁accelera	-11.6926
▁shock	-11.6926
media	-11.6927
▁emerso	-11.6928
shing	-11.6929
▁bitch	-11.6931
llino	-11.6933
▁clip	-11.6933
▁sviluppati	-11.6933
▁vir	-11.6933
▁beans	-11.6935
▁usati	-11.6937
▁socio	-11.6938
newman	-11.6938
▁sacrificio	-11.6942
▁lascio	-11.6942
▁prudente	-11.6944
▁soffermarmi	-11.6945
▁opens	-11.6946
▁squadre	-11.6948
▁abilità	-11.6952
▁rivelato	-11.6953
▁definisce	-11.6954
▁request	-11.6956
▁16,	-11.6957
▁istituto	-11.6959
▁austriaco	-11.6959
▁previous	-11.6959
▁inizialmente	-11.6964
▁rinuncia	-11.6964
▁stabiliti	-11.6964
▁continuità	-11.6965
▁correggere	-11.6966
▁gon	-11.6968
▁edna	-11.6969
ered	-11.6969
▁ritengono	-11.6971
▁sopravvivenza	-11.6973
76	-11.6973
▁plates	-11.6975
▁locked	-11.6975
▁rendendo	-11.6975
▁grant	-11.6981
.9	-11.6981
▁deplorevole	-11.6982
mbra	-11.6983
▁allarga	-11.6983
▁permettetemi	-11.6983
▁eleva	-11.6983
▁attenta	-11.6984
▁cm	-11.6984
▁rispettivi	-11.6985
▁steel	-11.6986
▁rent	-11.6986
zed	-11.6987
luc	-11.699
▁diffuso	-11.6992
▁positivamente	-11.6993
dotti	-11.6994
▁labor	-11.6995
▁viviamo	-11.6997
▁bravi	-11.6998
▁ruba	-11.6998
▁stuffed	-11.6999
▁fed	-11.6999
▁preliminare	-11.7001
▁dicevo	-11.7002
2000	-11.7002
▁destinazione	-11.7003
▁stende	-11.7003
▁12.00.	-11.7006
▁useful	-11.701
▁sacerdoti	-11.7011
▁correva	-11.7012
▁kh	-11.7012
▁remind	-11.7013
▁mosche	-11.7015
▁glasses	-11.7016
ists	-11.7019
▁zimbabwe	-11.702
▁soave	-11.7022
bur	-11.7023
accento	-11.7023
ensi	-11.7023
▁access	-11.7024
▁andrew	-11.7024
▁traversa	-11.7027
▁destroyed	-11.703
▁rondini	-11.703
▁mud	-11.7033
zj	-11.7036
tia	-11.7036
▁simula	-11.7037
▁instant	-11.7037
▁diamond	-11.704
▁generi	-11.7042
▁basse	-11.7049
▁basically	-11.705
▁stephen	-11.705
▁mostrano	-11.7051
▁tavole	-11.7052
▁pulling	-11.7055
▁pun	-11.7056
▁venite	-11.7057
▁passage	-11.7057
▁regard	-11.7057
atta	-11.7059
▁stomach	-11.706
▁property	-11.706
▁quiete	-11.7061
▁congratulazioni	-11.7061
▁ceca	-11.7065
▁tregua	-11.7065
▁sweetie	-11.7067
▁cuor	-11.7068
▁favori	-11.7068
▁canadian	-11.7069
▁mormorò	-11.7069
▁eighteen	-11.7069
▁hidden	-11.7069
▁spinta	-11.7071
▁republican	-11.7074
▁attua	-11.7074
▁residenti	-11.7076
▁serbia	-11.7076
"?	-11.7077
▁contrasta	-11.7078
▁industry	-11.7078
▁exchange	-11.7079
▁oppone	-11.7079
orum	-11.7079
▁nam	-11.7081
vità	-11.7082
▁obbligatoria	-11.7082
▁approach	-11.7083
▁whenever	-11.7085
▁session	-11.7088
▁cadavere	-11.7088
▁florence	-11.7088
▁arrest	-11.7089
▁trap	-11.709
▁aduna	-11.7093
wer	-11.7094
▁disappeared	-11.7094
▁+/	-11.7095
▁fourteen	-11.7098
▁ambizioni	-11.7099
▁polite	-11.71
acquisto	-11.71
77	-11.7101
▁stands	-11.7103
▁negativa	-11.7104
▁sink	-11.7106
▁claudio	-11.7107
▁austriaca	-11.7111
▁valutazioni	-11.7112
▁archivio	-11.7112
▁berg	-11.7114
▁ridendo	-11.7116
▁scrap	-11.7116
▁cinesi	-11.7117
▁ridicolo	-11.7117
▁ospite	-11.7117
vesti	-11.7118
▁vinci	-11.7118
▁scarcely	-11.7119
▁campione	-11.7122
▁riesca	-11.7122
▁trovate	-11.7126
▁fedeltà	-11.7127
▁wednesday	-11.7127
▁sottoscritto	-11.7129
▁francisco	-11.7129
▁€	-11.713
▁occasion	-11.7132
▁opzioni	-11.7133
▁tac	-11.7133
▁map	-11.7134
▁nepal	-11.7135
▁referendum	-11.7136
▁simpatia	-11.7136
▁concezione	-11.7137
▁compiuta	-11.7137
▁jones	-11.7141
▁rispetti	-11.7142
▁coprire	-11.7143
▁suspect	-11.7145
ntu	-11.7145
▁castella	-11.7146
▁lance	-11.7147
▁immensa	-11.7147
▁console	-11.7147
intenzione	-11.7149
universo	-11.7149
▁stanco	-11.7149
relli	-11.7154
▁cottage	-11.7156
▁ces	-11.7156
▁breast	-11.7157
69	-11.7158
otta	-11.7159
▁verte	-11.716
▁ric	-11.7161
gnò	-11.7162
▁favella	-11.7163
▁installa	-11.7163
▁2020,	-11.7164
▁compete	-11.7165
▁imperciocchè	-11.7166
▁ribellione	-11.7167
▁towns	-11.7169
▁mosso	-11.7169
▁sceglie	-11.7169
▁indirizza	-11.7172
▁allunga	-11.7172
▁nelson	-11.7174
▁sw	-11.7175
▁medesime	-11.7175
▁pavimento	-11.7175
burg	-11.7177
▁brad	-11.7181
▁mandava	-11.7181
dda	-11.7183
ual	-11.7183
▁aut	-11.7184
▁tenerezza	-11.7185
▁soffre	-11.7186
▁ambizioso	-11.7186
▁calci	-11.7186
▁bimbi	-11.7187
▁associa	-11.7188
▁rear	-11.7188
▁nation	-11.7188
63	-11.7189
▁ferite	-11.719
▁rights	-11.7192
▁violenze	-11.7195
▁riciclaggio	-11.7195
▁effettua	-11.7196
▁scritte	-11.7196
fla	-11.7198
▁definitivo	-11.7199
▁oneri	-11.7199
▁enjoyed	-11.72
▁studiato	-11.7201
▁fie	-11.7202
git	-11.7203
▁tecnologico	-11.7205
▁cecenia	-11.7207
vert	-11.7207
ig	-11.7208
pit	-11.7208
▁toast	-11.7209
▁commessi	-11.721
▁woke	-11.7212
fore	-11.7212
▁logico	-11.7213
▁innamorato	-11.7214
▁discipline	-11.7215
▁azzurro	-11.7215
▁nervous	-11.7215
▁dirlo	-11.7215
▁stranger	-11.7217
gives	-11.7217
▁consultazioni	-11.7218
give	-11.722
▁faster	-11.7224
▁fanciulle	-11.7224
▁rubrica	-11.7225
▁44	-11.7227
▁splendid	-11.7227
▁propongo	-11.7229
▁componente	-11.723
▁jail	-11.7232
gged	-11.7233
▁cotesta	-11.7234
▁ott	-11.7235
▁calcola	-11.7235
▁altezza	-11.7236
▁vizi	-11.7237
▁tematiche	-11.7238
▁vendite	-11.7239
▁discrimina	-11.724
▁advance	-11.7243
done	-11.7244
▁sorpreso	-11.7244
▁dreams	-11.7245
▁madam	-11.7246
▁vano	-11.7249
▁15,	-11.7249
▁fuma	-11.725
▁colonie	-11.7253
▁procedimento	-11.7254
▁sospensione	-11.7254
▁transport	-11.7254
▁inv	-11.7255
▁manovra	-11.7255
▁results	-11.7256
▁prisoners	-11.7257
▁descrivere	-11.726
ified	-11.726
iere	-11.7261
▁salve	-11.7264
aggi	-11.7265
▁puo	-11.7265
gere	-11.7266
▁aldo	-11.7271
▁beneficiari	-11.7272
▁95	-11.7272
▁brilliant	-11.7274
▁assunta	-11.7274
▁deplora	-11.7274
▁tommaso	-11.7274
identità	-11.7276
tale	-11.7278
64	-11.7278
▁indicate	-11.7279
sole	-11.7283
▁chimney	-11.7283
▁evidenziato	-11.7284
▁2000.	-11.7286
▁vetri	-11.7287
▁statement	-11.729
▁biglietti	-11.7293
▁confuso	-11.7293
▁segnatamente	-11.7294
rich	-11.7294
▁nut	-11.7295
▁mancare	-11.7295
ique	-11.7296
▁knees	-11.7297
▁dormi	-11.7297
▁rad	-11.7298
cens	-11.7298
coughs	-11.73
2,	-11.73
▁paying	-11.73
▁guidare	-11.7301
▁apparire	-11.7301
▁gigante	-11.7302
zzu	-11.7302
▁cupcake	-11.7303
▁avuta	-11.7303
▁regni	-11.7304
▁qualificata	-11.7305
▁hor	-11.7306
▁20,	-11.7306
▁operativo	-11.7307
etica	-11.7309
▁2006,	-11.7311
▁definitivamente	-11.7313
▁reasons	-11.7314
▁bronzo	-11.7314
bon	-11.7317
▁chimiche	-11.7318
▁semplifica	-11.7321
▁autorizzazione	-11.7323
▁setting	-11.7324
▁legittimità	-11.7324
▁fermare	-11.7324
▁ginocchio	-11.7325
▁gatti	-11.7325
▁ricon	-11.7325
▁impiegati	-11.7326
oth	-11.7326
▁holes	-11.7326
▁comedy	-11.7328
thank	-11.7331
▁technology	-11.7333
▁forms	-11.7334
▁mercanti	-11.7334
▁compila	-11.7336
88	-11.7339
▁piatti	-11.7342
▁fork	-11.7344
▁naughty	-11.7344
mic	-11.7345
▁normali	-11.7345
▁guardiamo	-11.7346
▁scomp	-11.7348
▁regolari	-11.7349
stand	-11.735
▁reserve	-11.7353
▁southwestern	-11.7353
▁deco	-11.7353
cide	-11.7354
▁socks	-11.7354
▁saremmo	-11.7355
▁burning	-11.7356
▁giornalista	-11.7357
▁giuste	-11.7358
▁items	-11.7361
▁bilaterali	-11.7363
▁grano	-11.7364
▁costituita	-11.7364
▁compensazione	-11.7367
▁efficacemente	-11.7369
▁fred	-11.737
ppy	-11.7371
▁videro	-11.7372
▁calamità	-11.7373
▁augura	-11.7373
▁amanti	-11.7376
▁problematica	-11.7376
▁rompere	-11.7379
▁risparmia	-11.7379
▁(20	-11.738
▁magnifica	-11.7383
▁pubblicamente	-11.7383
▁saddam	-11.7383
▁winning	-11.7384
▁albero	-11.7388
▁comic	-11.7389
▁mainly	-11.7389
▁chop	-11.7389
▁radi	-11.7389
▁determined	-11.739
2003	-11.739
▁augusto	-11.739
▁determinata	-11.7391
▁licenzia	-11.7391
▁sano	-11.7392
▁removed	-11.7392
87	-11.7392
utente	-11.7392
▁catene	-11.7393
▁settimo	-11.7393
▁dovuti	-11.7393
▁chiamate	-11.7394
loni	-11.7394
▁ripartizione	-11.7395
▁adempi	-11.7395
whispers	-11.7395
cera	-11.7399
▁confonde	-11.7399
▁quadrato	-11.7401
▁cereal	-11.7402
▁illustre	-11.7403
▁feelings	-11.7403
▁affairs	-11.7403
▁spill	-11.7404
▁climatico	-11.7404
▁rocket	-11.7405
▁vigilia	-11.7408
▁oop	-11.7408
▁decisa	-11.7409
▁ristruttura	-11.7409
▁spiace	-11.741
anda	-11.7411
▁buried	-11.7413
▁torture	-11.7413
ø	-11.7415
▁assegnato	-11.7416
▁sarai	-11.7416
▁cominciarono	-11.7417
▁bicchiere	-11.7417
▁apparve	-11.7419
1/	-11.7419
pc	-11.742
▁diventando	-11.7421
▁iscritti	-11.7422
▁addormenta	-11.7423
▁monastero	-11.7423
▁balance	-11.7423
pho	-11.7425
▁panni	-11.7425
“	-11.7425
▁compie	-11.7426
▁spie	-11.7429
▁sofferto	-11.7429
▁fishing	-11.7431
▁giuoco	-11.7433
▁1984	-11.7433
▁vittorie	-11.7433
▁tacere	-11.7434
▁vor	-11.7434
▁riservato	-11.7436
ntur	-11.7441
▁stupore	-11.7443
gru	-11.7444
dro	-11.7444
▁percorrere	-11.7445
have	-11.7447
▁invitare	-11.7447
▁circolare	-11.7447
▁ritirarsi	-11.745
▁proprietari	-11.7452
▁freno	-11.7452
pr	-11.7453
pide	-11.7453
▁mantenuto	-11.7454
▁salvaguardare	-11.7454
▁teaching	-11.7455
ame	-11.7459
color	-11.7461
▁corto	-11.7462
▁maddalena	-11.7463
▁treatment	-11.7466
▁eager	-11.747
▁rilascio	-11.7473
▁grandmother	-11.7474
▁divario	-11.7475
▁buttons	-11.7476
▁contest	-11.7479
▁2002,	-11.7481
▁completare	-11.7482
▁arre	-11.7482
cee	-11.7482
▁stan	-11.7482
▁pronunzia	-11.7483
▁raccolte	-11.7483
▁riconosciuta	-11.7483
▁venissero	-11.7484
▁monaco	-11.7485
educazione	-11.7486
5/	-11.7486
▁balloon	-11.7489
viti	-11.7491
▁trump	-11.7492
▁invited	-11.7493
▁appointed	-11.7493
▁svolte	-11.7493
▁parent	-11.7494
▁throws	-11.7495
▁39	-11.7495
▁intensi	-11.7497
▁deroga	-11.7499
▁temporanea	-11.7499
▁grati	-11.7499
▁poison	-11.7501
▁17,	-11.7501
aids	-11.7502
▁definite	-11.7502
▁waste	-11.7504
▁registrati	-11.7505
▁shark	-11.7505
dic	-11.7506
▁quarant	-11.7508
▁entirely	-11.7509
▁sven	-11.7512
ggiato	-11.7512
duci	-11.7512
▁giurisdizione	-11.7513
▁circus	-11.7513
▁parete	-11.7513
ison	-11.7515
▁vederla	-11.7516
▁gam	-11.7517
hard	-11.7518
count	-11.752
▁partendo	-11.7521
▁condannati	-11.7523
▁abitudini	-11.7523
▁rinvio	-11.7524
▁associati	-11.7526
▁wh	-11.7527
▁gathered	-11.7528
orario	-11.753
▁xviii	-11.7531
▁propose	-11.7531
▁scintilla	-11.7533
▁cugino	-11.7533
▁commedia	-11.7534
zionali	-11.7535
▁strette	-11.7535
▁squi	-11.7535
▁dirigenti	-11.7537
produ	-11.7538
ttle	-11.7539
ι	-11.754
bly	-11.7541
▁subire	-11.7542
▁raggiunti	-11.7543
▁approfondire	-11.7543
▁nova	-11.7544
▁incorpora	-11.7544
▁infinite	-11.7544
▁crimine	-11.7544
pina	-11.7544
atteggiamento	-11.7544
▁characters	-11.7545
▁investi	-11.7545
▁ordinary	-11.7545
▁modificati	-11.7547
▁significativi	-11.7547
▁holiday	-11.7547
▁vessel	-11.7548
▁auntie	-11.7548
▁tappa	-11.7549
▁rame	-11.7553
▁orribile	-11.7553
▁domando	-11.7554
▁aside	-11.7555
▁minime	-11.7556
▁promuove	-11.7557
▁kara	-11.7561
bio	-11.7562
rale	-11.7562
▁farina	-11.7563
▁romanzi	-11.7565
▁impedisce	-11.7565
▁evidently	-11.7566
▁global	-11.7567
▁impeto	-11.7569
▁ladro	-11.7569
▁elimina	-11.757
▁impiega	-11.757
▁talora	-11.7573
▁vuota	-11.7574
▁mexico	-11.7574
▁orbit	-11.7574
▁sapienza	-11.7574
▁amministrativo	-11.7574
▁steal	-11.7575
▁facilità	-11.7576
▁slightly	-11.7577
▁mile	-11.7577
▁cotal	-11.7577
▁savio	-11.7577
▁cairo	-11.7579
▁siate	-11.758
▁complica	-11.7582
▁detective	-11.7584
▁carolina	-11.7585
spor	-11.7587
▁highway	-11.7588
78	-11.7588
▁esporre	-11.7589
cchino	-11.7589
▁landed	-11.7591
▁mora	-11.7593
▁penali	-11.7594
▁giá	-11.7596
▁regolamenta	-11.7596
▁cab	-11.7596
▁fully	-11.7598
▁fort	-11.7599
▁usciva	-11.7602
▁ottimi	-11.7602
▁francis	-11.7604
▁caratterizzato	-11.7604
hm	-11.7604
▁jacob	-11.7605
▁ringraziamenti	-11.7605
dico	-11.7606
▁quit	-11.7606
▁immediato	-11.7607
▁uk	-11.7608
▁colpite	-11.7608
▁stimola	-11.7608
cole	-11.7608
▁garantito	-11.7609
▁lit	-11.761
ssen	-11.761
▁combat	-11.7612
▁visitato	-11.7612
▁roz	-11.7612
▁moro	-11.7613
▁kings	-11.7613
▁cassi	-11.7613
▁described	-11.7614
▁cerimonia	-11.7614
▁coinvolte	-11.7614
▁nucleo	-11.7614
▁distrutto	-11.7614
▁salerno	-11.7615
▁giacché	-11.7615
esse	-11.7616
▁quam	-11.7616
tain	-11.7617
▁vincolante	-11.7617
wo	-11.7618
▁gaza	-11.7618
▁attacked	-11.7619
aki	-11.7621
▁natali	-11.7621
erai	-11.7624
even	-11.7624
▁canzoni	-11.7625
▁salto	-11.7628
▁seguono	-11.7628
▁seek	-11.7628
▁stretch	-11.7628
has	-11.763
▁realized	-11.7631
▁apparecchia	-11.7633
▁chairs	-11.7633
▁paglia	-11.7634
▁impedito	-11.7634
▁progress	-11.7635
▁furon	-11.7635
▁urgenti	-11.7636
cky	-11.7637
▁2006.	-11.764
▁calca	-11.764
nziale	-11.764
▁distrugge	-11.7641
▁trattative	-11.7641
▁eroga	-11.7641
stic	-11.7642
doro	-11.7644
▁classica	-11.7644
▁preceduto	-11.7645
▁ribadisco	-11.7645
▁suddetto	-11.7645
▁nico	-11.7646
▁~	-11.7647
▁wing	-11.7648
aba	-11.7649
▁bande	-11.7653
▁upside	-11.7653
▁spunta	-11.7656
▁pensionati	-11.7656
▁suonare	-11.7658
austria	-11.7658
▁morgan	-11.7659
▁fiato	-11.7661
pari	-11.7662
▁apostoli	-11.7664
3.	-11.7665
▁dapprima	-11.7666
▁provincie	-11.7666
▁incentivi	-11.7666
▁multinazionali	-11.7666
▁cancelliere	-11.7666
▁1987	-11.7666
▁testimonia	-11.7668
▁argento	-11.7669
4/	-11.7671
tali	-11.7673
▁romagna	-11.7677
ibi	-11.7677
▁magnetic	-11.7677
▁ritirata	-11.7677
▁listened	-11.7683
▁problematiche	-11.7685
▁molteplici	-11.7685
▁egypt	-11.7686
avi	-11.7686
▁suggestion	-11.7686
▁rum	-11.7688
▁concern	-11.7691
hum	-11.7692
▁sales	-11.7695
▁annuncio	-11.7696
▁comportamenti	-11.77
▁vetro	-11.7702
bbing	-11.7702
▁document	-11.7703
▁fellows	-11.7705
▁simone	-11.7706
▁auguri	-11.7706
▁stove	-11.7707
▁sussistono	-11.7707
▁gordon	-11.7707
▁ghiaccio	-11.7707
▁puppy	-11.7707
▁1985	-11.7707
▁shelter	-11.7708
▁ultra	-11.7709
▁fio	-11.7712
▁pregiudizi	-11.7713
ndere	-11.7715
▁powder	-11.7717
▁sorelle	-11.7717
▁function	-11.7718
▁capua	-11.7719
▁allargata	-11.7721
ologi	-11.7722
verso	-11.7725
▁tensione	-11.7725
▁regalo	-11.7727
▁cattolici	-11.7727
▁kit	-11.7728
▁aggira	-11.7729
tp	-11.773
▁andrebbe	-11.7736
▁palazzi	-11.7738
▁capriccio	-11.7739
yan	-11.7742
▁presenterà	-11.7744
▁treated	-11.7746
▁spara	-11.7746
▁zan	-11.7747
▁conquiste	-11.7748
▁automaticamente	-11.7749
lam	-11.775
▁usano	-11.775
▁angela	-11.7752
▁molle	-11.7753
▁policeman	-11.7754
▁reazioni	-11.7756
▁profumo	-11.7758
▁monumenti	-11.7762
▁merce	-11.7764
▁europol	-11.7765
52	-11.7765
▁marketing	-11.7765
▁vivente	-11.7768
▁consultare	-11.7768
▁chiamiamo	-11.777
▁accadere	-11.7771
▁compera	-11.7771
▁idol	-11.7773
▁ricordate	-11.7774
▁bona	-11.7776
▁strip	-11.7777
▁prestito	-11.7779
▁piattaforma	-11.7779
pita	-11.7779
▁intendeva	-11.778
iani	-11.778
chu	-11.778
▁eterno	-11.7781
▁progettazione	-11.7782
▁palco	-11.7785
▁successore	-11.7787
▁2003.	-11.7787
▁eventually	-11.7789
▁parametri	-11.779
▁entertainment	-11.779
▁peek	-11.7792
▁lucy	-11.7792
▁2020)	-11.7795
▁studies	-11.7795
▁defeat	-11.7796
▁wipe	-11.7798
▁revolution	-11.78
▁pic	-11.78
▁federigo	-11.78
▁construction	-11.7801
▁integrati	-11.7801
▁adventure	-11.7802
▁ridi	-11.7802
sun	-11.7802
▁celeste	-11.7803
▁victor	-11.7804
▁arts	-11.7806
lga	-11.781
▁broadcast	-11.781
▁governative	-11.7811
lfo	-11.7812
▁michel	-11.7813
▁apprezzamento	-11.7813
▁clouds	-11.7814
▁irish	-11.7814
▁rifa	-11.7814
cosa	-11.7814
▁toccato	-11.7816
▁1950	-11.7817
fice	-11.782
▁scomparsa	-11.7821
▁teresa	-11.7821
▁vincitori	-11.7822
▁pacifico	-11.7823
▁guerri	-11.7825
▁eddie	-11.7826
▁socialisti	-11.7828
▁fr	-11.7828
▁scenario	-11.783
▁21,	-11.783
▁excitement	-11.7831
▁previsioni	-11.7831
▁sapevano	-11.7832
▁adottati	-11.7832
▁nol	-11.7833
▁delitti	-11.7833
alleanza	-11.7834
▁moltissimi	-11.7834
▁bark	-11.7835
▁slancio	-11.7835
▁cock	-11.7837
▁dorme	-11.7838
▁averla	-11.7839
▁pr	-11.7839
gari	-11.7839
▁throwing	-11.7839
▁esaminato	-11.7839
ë	-11.7841
▁vacanza	-11.7841
▁savoia	-11.7841
▁striscia	-11.7842
▁1976	-11.7842
▁abbandonata	-11.7844
iii	-11.7846
▁riferito	-11.7846
nger	-11.7847
uscita	-11.7851
▁urbano	-11.7852
▁intenso	-11.7852
▁guest	-11.7853
▁generosa	-11.7855
vie	-11.7856
eni	-11.7858
▁elezione	-11.7859
▁istruzioni	-11.7862
▁ful	-11.7862
pio	-11.7862
▁ahhah	-11.7863
lton	-11.7864
▁“‘	-11.7865
▁vedrà	-11.7865
ncio	-11.7865
mission	-11.7865
▁pasqua	-11.7871
▁sixteen	-11.7873
▁tiranni	-11.7874
▁costrui	-11.7875
▁flussi	-11.7876
▁usate	-11.7877
▁proprietario	-11.7877
▁lotte	-11.7878
▁appro	-11.7879
ccu	-11.788
▁seta	-11.7881
▁viveva	-11.7883
▁flusso	-11.7884
▁speaker	-11.7886
▁santità	-11.7887
▁indole	-11.7891
▁talento	-11.7891
▁schema	-11.7892
▁abbiate	-11.7892
▁script	-11.7893
▁marittimo	-11.7894
▁pianura	-11.7894
▁erba	-11.7895
▁bless	-11.7896
gun	-11.7896
▁recently	-11.7897
▁rib	-11.7897
▁comprendo	-11.7899
icamente	-11.79
▁rimprovera	-11.79
▁truly	-11.79
rose	-11.7902
▁belt	-11.7903
▁tied	-11.7904
▁executive	-11.7904
▁presupposto	-11.7904
▁1979	-11.7905
▁ugly	-11.7906
▁marian	-11.7906
▁43	-11.7907
▁utilizzata	-11.7908
▁rappresentata	-11.7909
▁restava	-11.7911
▁seminario	-11.7911
▁consentitemi	-11.7915
▁parlar	-11.7915
'11	-11.7915
▁repressione	-11.7915
▁pride	-11.7917
▁continuiamo	-11.7918
▁reign	-11.7923
▁girare	-11.7925
rare	-11.7925
▁producono	-11.7925
▁golfo	-11.7925
▁difetti	-11.7925
▁suggerimenti	-11.7926
chan	-11.7926
colare	-11.7927
▁divided	-11.7928
▁sostituzione	-11.793
▁drum	-11.793
▁domini	-11.7931
india	-11.7932
▁2002.	-11.7933
▁rendersi	-11.7933
▁assurdo	-11.7936
▁misera	-11.7937
▁accoglienza	-11.7942
▁shooting	-11.7943
▁dish	-11.7944
▁bare	-11.7945
▁staying	-11.7945
▁usata	-11.7946
▁eugenio	-11.7946
▁ripreso	-11.7946
▁regala	-11.7947
▁eccessivo	-11.7948
▁interrompe	-11.7951
▁veneti	-11.7951
▁quae	-11.7953
▁drugs	-11.7955
▁geografica	-11.7957
▁colpevoli	-11.7957
▁deliver	-11.7958
▁barrel	-11.7958
▁idiot	-11.796
▁splendore	-11.7964
▁giovanile	-11.7965
▁losing	-11.7965
▁piggy	-11.7968
script	-11.7969
▁salda	-11.7969
▁offende	-11.797
▁instrument	-11.7971
▁fotografia	-11.7972
▁restaurant	-11.7972
leg	-11.7972
▁adotta	-11.7972
cata	-11.7975
▁curioso	-11.7978
▁energetiche	-11.7978
▁debiti	-11.7978
▁contengono	-11.7979
mur	-11.7981
ndovi	-11.7983
▁tranquillamente	-11.7984
pic	-11.7985
ottica	-11.7987
▁meco	-11.7988
▁raymond	-11.7989
▁specula	-11.7991
adeguata	-11.7992
▁serietà	-11.7992
▁fornite	-11.7992
▁desiderava	-11.7993
lazione	-11.7993
▁dirvi	-11.7995
▁reggio	-11.7996
▁diletta	-11.7996
86	-11.7997
▁rosse	-11.7997
▁wee	-11.7998
▁breaking	-11.7999
▁autorizza	-11.8
▁eccezionale	-11.8
▁protection	-11.8
var	-11.8001
▁barche	-11.8003
▁chiamo	-11.8006
evento	-11.8007
▁baker	-11.8007
pot	-11.8008
▁portate	-11.8009
▁intervenuti	-11.801
▁majesty	-11.801
berto	-11.8012
▁politicamente	-11.8015
▁custom	-11.8016
▁gr	-11.8018
▁arrivata	-11.8018
gato	-11.8019
▁passion	-11.802
▁indispensabili	-11.802
▁sorrise	-11.802
▁hockey	-11.802
▁esplicitamente	-11.8023
▁individuo	-11.8023
▁episodio	-11.8024
pidi	-11.8026
▁leggero	-11.8026
▁sarete	-11.8026
▁eaten	-11.8028
▁rushed	-11.8031
▁conferenze	-11.8031
▁integrata	-11.8032
▁stipula	-11.8032
▁sereno	-11.8033
giamo	-11.8033
▁bce	-11.8034
▁lasciati	-11.8036
cat	-11.8039
cted	-11.804
▁potresti	-11.8042
▁privi	-11.8043
▁load	-11.8043
▁cotone	-11.8044
nziali	-11.8045
▁partì	-11.8045
▁vile	-11.8045
▁impiegato	-11.8047
▁evidenziare	-11.8049
▁bruce	-11.805
▁fortifica	-11.8052
▁cattolico	-11.8052
▁ricusa	-11.8053
hood	-11.8056
▁tese	-11.8059
▁appari	-11.806
▁archivi	-11.8061
▁ble	-11.8061
tratte	-11.8062
▁horrible	-11.8063
▁devil	-11.8064
▁seme	-11.8065
▁collection	-11.8066
▁scream	-11.8066
▁agenzia	-11.8066
▁ferra	-11.807
▁fissati	-11.8071
▁pooh	-11.8071
▁validi	-11.8073
▁persecuzione	-11.8074
▁fc	-11.8074
▁jacket	-11.8076
▁entrance	-11.8076
▁sapesse	-11.8077
cari	-11.8078
▁foresta	-11.8078
▁disney	-11.8079
▁edificio	-11.808
▁parevano	-11.808
▁episodi	-11.8082
▁conditions	-11.8082
▁malati	-11.8082
▁fail	-11.8083
▁filosofi	-11.8084
▁thunder	-11.8085
▁ramp	-11.8085
▁prussia	-11.8085
▁amata	-11.8088
eliminazione	-11.8088
zing	-11.8088
▁photograph	-11.809
▁modesto	-11.8094
▁accolta	-11.8095
▁gates	-11.8095
▁jazz	-11.8097
▁schiavo	-11.8098
father	-11.8098
▁observed	-11.8099
▁remark	-11.81
▁appoggiato	-11.8103
▁producer	-11.8103
▁lacera	-11.8104
▁peculiar	-11.8105
▁appreciate	-11.8106
▁merchant	-11.8106
▁applaud	-11.8106
▁ricevuta	-11.8106
▁carceri	-11.8106
▁ampie	-11.8106
▁dispute	-11.8106
▁stabilimento	-11.8109
▁implicazioni	-11.8111
▁rovine	-11.8111
sort	-11.8115
▁squeeze	-11.8116
gy	-11.8116
▁complessità	-11.8118
occhio	-11.8119
▁condannare	-11.8121
▁earl	-11.8122
▁ammazza	-11.8127
▁rosalie	-11.8128
cine	-11.8129
▁neu	-11.8129
▁connection	-11.8129
▁fisso	-11.8131
under	-11.8131
onore	-11.8132
hel	-11.8132
▁lione	-11.8133
▁sposo	-11.8134
▁greatly	-11.8134
▁2017,	-11.8135
stò	-11.8136
ndra	-11.8136
▁vana	-11.8137
▁compenso	-11.8138
▁pallido	-11.8138
▁mental	-11.8139
▁cito	-11.8139
▁saprà	-11.8141
▁trasmette	-11.8141
▁testamento	-11.8142
▁ricade	-11.8146
▁sperimenta	-11.8146
▁kra	-11.8148
▁competitiva	-11.8149
▁accomoda	-11.8149
▁gala	-11.8149
ulo	-11.8149
▁difese	-11.8149
▁rispettato	-11.8151
▁brillante	-11.8153
dina	-11.8154
▁fazioni	-11.8154
▁forniti	-11.8155
▁tornando	-11.8155
▁piove	-11.8156
▁balla	-11.8156
▁pregare	-11.8157
▁borse	-11.8158
▁assembly	-11.8159
ibus	-11.8161
urgenza	-11.8164
▁raff	-11.8164
▁folks	-11.8165
boy	-11.8165
/1	-11.8165
▁grade	-11.8166
mr	-11.8166
▁divisi	-11.8167
▁lupo	-11.8171
▁metta	-11.8171
▁mighty	-11.8172
▁attirare	-11.8174
▁avanzato	-11.8174
▁disperato	-11.8174
▁aggiunta	-11.8174
▁benefit	-11.8174
▁frequente	-11.8175
song	-11.8175
▁br	-11.8176
▁menzione	-11.8177
▁nearer	-11.8177
accio	-11.8178
▁incident	-11.8179
list	-11.8179
▁simboli	-11.8179
▁cough	-11.8179
▁colpe	-11.8179
▁potrete	-11.8182
▁pointed	-11.8182
▁esamina	-11.8183
▁esplora	-11.8185
▁pattern	-11.8186
cap	-11.8187
▁performed	-11.8187
▁concretamente	-11.8188
▁2018,	-11.8189
▁ernie	-11.8189
▁mostri	-11.819
▁sorts	-11.8191
▁disparità	-11.8192
▁dipartimento	-11.8192
vò	-11.8194
rni	-11.8194
boo	-11.8195
eria	-11.8197
nut	-11.82
▁cambiate	-11.8201
▁platform	-11.8203
▁risiede	-11.8203
▁lifted	-11.8203
▁argomentazioni	-11.8204
▁cats	-11.8205
dino	-11.8208
▁volontario	-11.8208
▁intere	-11.821
▁esercizi	-11.8211
▁saliva	-11.8212
▁successive	-11.8212
▁williams	-11.8213
▁appartenenti	-11.8213
▁financial	-11.8213
▁intervengo	-11.8213
▁scatola	-11.8214
▁sapore	-11.8214
throws	-11.8215
▁assumersi	-11.8216
..."	-11.8217
▁occupano	-11.8218
▁peggiora	-11.822
▁fallo	-11.8221
grafo	-11.8222
▁fatiche	-11.8223
▁represent	-11.8223
▁simon	-11.8224
▁ospedali	-11.8224
▁caterina	-11.8224
▁penisola	-11.8225
▁brenda	-11.8226
▁patsy	-11.8227
▁beau	-11.8227
▁sexual	-11.8227
▁accorse	-11.8228
eventuale	-11.8228
▁origini	-11.8228
belli	-11.8229
▁grava	-11.823
fin	-11.8232
ross	-11.8234
▁spoons	-11.8234
▁chimica	-11.8235
▁appariva	-11.8235
▁verrebbe	-11.8235
▁consulenza	-11.8235
▁scuote	-11.8235
▁cercò	-11.8236
▁sabbia	-11.8236
▁protagonisti	-11.8239
▁facea	-11.824
▁vadano	-11.824
▁innocent	-11.824
angolo	-11.8241
▁fermi	-11.8244
▁tirare	-11.8245
mag	-11.8246
▁cronica	-11.8247
▁graduale	-11.8249
▁imprenditori	-11.825
phi	-11.8251
▁daily	-11.8251
boat	-11.8252
▁jobs	-11.8253
▁manutenzione	-11.8257
zon	-11.826
▁americans	-11.8262
▁rod	-11.8262
▁roar	-11.8265
▁violenta	-11.8265
▁psico	-11.8265
▁contamina	-11.8265
▁ricupera	-11.8266
▁individua	-11.8267
▁maastricht	-11.8268
▁responsible	-11.8268
▁sospiro	-11.8268
▁evidenti	-11.8268
rosa	-11.8269
modo	-11.8273
▁polish	-11.8275
▁compensare	-11.8276
▁regret	-11.8279
▁discesa	-11.8279
table	-11.8281
▁giuramento	-11.8281
▁wit	-11.8283
▁trace	-11.8284
▁documentazione	-11.8285
▁imputa	-11.8287
psi	-11.8289
▁auspichiamo	-11.8289
▁kangaroo	-11.8289
▁quattordici	-11.8289
▁universe	-11.829
▁formano	-11.8291
▁bullet	-11.8291
▁wire	-11.8293
▁pompa	-11.8293
avvio	-11.8293
▁hoc	-11.8299
▁reputo	-11.8301
▁beer	-11.8302
▁electric	-11.8304
▁craft	-11.8305
fast	-11.8307
▁altogether	-11.8311
▁globali	-11.8312
▁codici	-11.8314
2005	-11.8315
▁legislativi	-11.8322
▁reference	-11.8322
▁nations	-11.8324
importo	-11.8326
▁bold	-11.8328
▁costituisca	-11.8329
▁fissi	-11.8329
▁pse	-11.833
▁tavolino	-11.833
▁mol	-11.833
▁manifestare	-11.8331
▁puramente	-11.8333
▁peste	-11.8333
▁mostrando	-11.8334
pha	-11.8334
voice	-11.8334
▁malato	-11.8337
▁chosen	-11.8339
erete	-11.834
▁jumping	-11.8341
ela	-11.8343
▁gained	-11.8344
▁dispositivi	-11.8344
▁requisito	-11.8344
▁infantile	-11.8344
▁onesto	-11.8348
▁austrian	-11.8348
▁suffering	-11.8351
▁dolorosa	-11.8351
▁netherlands	-11.8355
▁criminal	-11.8356
▁formulate	-11.8356
▁bavaria	-11.8357
▁superbia	-11.8357
uga	-11.8358
▁rail	-11.8359
estensione	-11.8359
▁features	-11.8359
▁desiderare	-11.836
▁sperava	-11.8365
▁regio	-11.8365
▁giurisprudenza	-11.8366
▁lontane	-11.8366
▁casse	-11.8367
▁1972	-11.8367
▁planned	-11.8367
▁carri	-11.8368
▁elaborazione	-11.8368
▁scatena	-11.8369
▁frances	-11.837
▁discende	-11.8372
▁ira	-11.8372
▁sottoposti	-11.8377
▁quality	-11.8378
▁engaged	-11.838
▁prae	-11.838
▁maschi	-11.8382
▁slaves	-11.8382
ille	-11.8383
▁continuato	-11.8383
▁badly	-11.8383
▁breathing	-11.8384
▁struggle	-11.8388
▁vani	-11.8388
untranscribed	-11.8388
▁visconti	-11.8388
▁uova	-11.8388
▁cita	-11.8389
▁tradurre	-11.8389
▁scozia	-11.839
▁progetta	-11.8391
▁autonomia	-11.8391
▁pulls	-11.8393
▁convert	-11.8396
▁marvel	-11.8397
vida	-11.8398
▁schiavitù	-11.8399
▁includes	-11.84
bbia	-11.84
▁voteremo	-11.84
▁affermazione	-11.8401
▁ventura	-11.8401
ttò	-11.8402
atmosfera	-11.8403
ngen	-11.8405
▁africani	-11.8406
▁sf	-11.8407
▁refused	-11.8408
▁notes	-11.8409
▁novelle	-11.841
▁reagire	-11.8411
▁sultan	-11.8411
▁tenda	-11.8411
▁kidding	-11.8411
▁allen	-11.8411
▁eccezioni	-11.8412
▁hoping	-11.8413
▁eccessivamente	-11.8414
▁introduced	-11.8416
cast	-11.8416
lect	-11.8416
pino	-11.8417
▁nervi	-11.8417
▁bisognerebbe	-11.8422
▁modesta	-11.8423
▁donatori	-11.8423
▁entrava	-11.8423
appoggio	-11.8425
▁recorded	-11.8425
▁kat	-11.8427
mbri	-11.8428
▁evoca	-11.843
lé	-11.8431
▁avrò	-11.8433
▁eroe	-11.8433
az	-11.8435
▁contemporanea	-11.8436
▁19,	-11.8436
▁gabriele	-11.844
▁ammonta	-11.8441
▁passiamo	-11.8443
▁coinvolto	-11.8443
▁arrabbia	-11.8443
▁camicia	-11.8444
▁curtain	-11.8444
▁propo	-11.8445
cod	-11.8445
▁accepted	-11.8447
72	-11.8449
▁warning	-11.8451
▁riferire	-11.8451
▁horror	-11.8455
▁net	-11.8455
▁stepped	-11.8455
▁trovati	-11.8457
▁infinito	-11.8458
▁palle	-11.8458
▁weapon	-11.8458
ciò	-11.8459
▁cherry	-11.8462
▁pelo	-11.8462
▁carabinieri	-11.8466
▁furniture	-11.8466
[...]
