<unk>	0
<s>	0
</s>	0
.	-3.34341
,	-3.52886
▁di	-3.98104
'	-4.0587
:	-4.0676
▁*	-4.19009
▁e	-4.21784
▁a	-4.25289
▁in	-4.41462
▁the	-4.44069
▁che	-4.4727
s	-4.55173
▁la	-4.55847
▁i	-4.61582
▁il	-4.71112
mot	-5.03041
▁per	-5.04276
?	-5.07225
chi	-5.0739
▁and	-5.10943
▁un	-5.12063
▁to	-5.13404
▁you	-5.15263
▁non	-5.15511
▁è	-5.35554
▁of	-5.35819
▁del	-5.37757
▁si	-5.42035
▁le	-5.42178
▁it	-5.43755
▁della	-5.54017
▁l	-5.57909
t	-5.60285
▁that	-5.60404
▁una	-5.61113
▁con	-5.66599
re	-5.7811
▁da	-5.85062
▁al	-5.96833
▁come	-5.96897
▁is	-5.97498
▁he	-5.98952
▁ma	-6.02817
▁=	-6.02894
▁was	-6.04207
▁"	-6.08823
▁dei	-6.11724
i	-6.15273
▁[	-6.19085
▁più	-6.1945
▁on	-6.19535
▁-	-6.21352
▁gli	-6.23664
▁what	-6.23853
!	-6.26438
▁alla	-6.26661
▁all	-6.26863
▁se	-6.27958
▁sono	-6.28396
▁for	-6.30347
▁questo	-6.3222
▁delle	-6.32956
▁dell	-6.33308
▁nel	-6.34525
▁we	-6.40951
▁ha	-6.41253
-	-6.41371
▁no	-6.41654
▁me	-6.42309
e	-6.43085
▁o	-6.43479
no	-6.44909
o	-6.46924
▁this	-6.48946
]	-6.5188
▁anche	-6.52455
▁with	-6.5281
▁lo	-6.53181
a	-6.53343
to	-6.54329
▁do	-6.54985
▁.	-6.56959
▁they	-6.58072
m	-6.59977
▁be	-6.62394
▁mi	-6.63428
ta	-6.63841
▁have	-6.64578
’	-6.64597
▁so	-6.67056
▁ad	-6.67612
▁not	-6.71709
▁at	-6.72219
▁ed	-6.72369
...	-6.73537
te	-6.73596
▁there	-6.7393
▁she	-6.74398
▁ci	-6.74521
▁one	-6.7539
ti	-6.77543
▁(	-6.78025
▁but	-6.78587
▁can	-6.79602
▁are	-6.80253
▁his	-6.8218
▁nella	-6.82906
d	-6.83471
▁as	-6.83908
▁questa	-6.86332
va	-6.87674
▁commissione	-6.90533
▁don	-6.91412
;	-6.92052
▁era	-6.93887
▁dal	-6.94142
▁her	-6.94184
fat	-6.95299
▁oh	-6.97459
▁essere	-6.98822
▁loro	-6.99629
▁cui	-6.99636
▁had	-7.00499
▁yeah	-7.01507
▁my	-7.01735
▁your	-7.02564
▁know	-7.03754
▁up	-7.06323
▁	-7.07731
▁sua	-7.07785
▁like	-7.0816
▁tutti	-7.0988
▁suo	-7.10102
r	-7.10829
▁d	-7.11244
▁go	-7.11247
▁su	-7.1125
)	-7.11484
▁alle	-7.11837
▁ai	-7.14052
▁degli	-7.16374
▁from	-7.169
▁de	-7.19607
▁out	-7.19885
ll	-7.20056
ve	-7.20308
ndo	-7.20807
ed	-7.2093
▁io	-7.24355
▁sia	-7.2451
▁vi	-7.24665
▁stato	-7.24805
▁ne	-7.24895
ing	-7.25671
▁tra	-7.26105
▁here	-7.263
▁or	-7.27367
▁presidente	-7.2827
▁dalla	-7.28313
▁by	-7.28404
▁were	-7.2868
▁due	-7.29232
▁così	-7.29877
"	-7.30184
▁an	-7.30362
▁ho	-7.30832
▁get	-7.31031
▁him	-7.31098
▁if	-7.31229
▁stati	-7.33978
▁just	-7.34542
▁parte	-7.35462
▁quanto	-7.3635
▁tutto	-7.36574
▁cosa	-7.37426
▁sul	-7.38041
▁now	-7.3886
▁quando	-7.38867
▁signor	-7.39256
▁fatto	-7.39298
▁chi	-7.4046
▁see	-7.40632
▁right	-7.41363
▁then	-7.41387
▁about	-7.41392
▁when	-7.41751
▁said	-7.42263
▁europea	-7.4234
▁c	-7.42423
▁who	-7.42626
▁well	-7.43376
▁them	-7.43395
▁molto	-7.44206
▁'	-7.44673
▁solo	-7.45566
▁sulla	-7.45713
▁prima	-7.46229
▁hanno	-7.472
inv	-7.48192
▁did	-7.48867
▁modo	-7.49208
▁senza	-7.49416
▁think	-7.50897
▁ancora	-7.50906
▁parlamento	-7.54009
▁ciò	-7.54233
▁quale	-7.54389
▁some	-7.55607
▁ogni	-7.5625
▁quella	-7.56412
▁would	-7.56436
▁poi	-7.57039
n	-7.57207
▁xxx	-7.57367
▁?	-7.57848
▁noi	-7.5826
▁abbiamo	-7.58261
▁perché	-7.58443
▁dopo	-7.58477
▁“	-7.58596
▁where	-7.59062
▁consiglio	-7.59101
▁può	-7.59285
▁got	-7.59318
▁mio	-7.59737
▁sempre	-7.61211
si	-7.61264
▁fa	-7.61613
▁fu	-7.62259
▁altri	-7.62654
rsi	-7.62758
▁relazione	-7.6289
▁fare	-7.63122
▁how	-7.63782
▁uno	-7.64715
▁will	-7.65549
▁re	-7.65768
▁già	-7.66664
▁quello	-7.66687
▁tempo	-7.66778
▁questi	-7.68057
▁okay	-7.68101
."	-7.68171
▁qui	-7.68629
▁little	-7.68784
na	-7.68815
▁good	-7.69079
le	-7.6951
▁s	-7.712
▁look	-7.71217
▁nei	-7.71371
▁,	-7.71685
▁more	-7.72602
unione	-7.72635
▁anni	-7.73149
▁ora	-7.73325
vano	-7.74023
▁two	-7.74173
▁time	-7.74385
▁want	-7.74393
▁nell	-7.74441
▁which	-7.74522
ne	-7.75069
▁quindi	-7.75136
▁been	-7.75514
].	-7.75692
l	-7.76219
▁politica	-7.76651
▁their	-7.76987
▁aveva	-7.77416
▁very	-7.78116
▁going	-7.78175
▁put	-7.78207
▁yes	-7.78644
▁paesi	-7.78866
ni	-7.80091
▁b	-7.80282
▁tale	-7.80752
▁down	-7.80999
▁nelle	-7.81117
▁quel	-7.81511
▁back	-7.82638
sse	-7.8274
ro	-7.83014
▁quali	-7.8339
▁over	-7.84142
mente	-7.84577
y	-7.84613
▁mia	-7.85874
▁fra	-7.86757
ly	-7.86786
▁has	-7.86839
▁egli	-7.87345
▁dove	-7.87685
è	-7.87825
▁lavoro	-7.87998
ri	-7.88006
▁could	-7.88328
▁vita	-7.88395
nte	-7.90514
▁ti	-7.92128
▁contro	-7.92269
▁lui	-7.92948
la	-7.94565
▁fine	-7.96025
er	-7.96886
▁man	-7.96919
▁tutte	-7.96943
▁suoi	-7.97086
,"	-7.97088
▁let	-7.97584
▁why	-7.97724
▁europeo	-7.97893
▁volta	-7.97904
▁secondo	-7.98054
▁far	-7.98132
▁membri	-7.98205
▁say	-7.98289
li	-7.98649
▁perchè	-7.9887
▁altro	-7.99259
▁deve	-7.99972
▁punto	-7.99975
in	-8.00885
▁people	-8.01201
▁other	-8.01275
▁bene	-8.02175
▁mai	-8.02269
▁dall	-8.02308
zione	-8.02378
▁queste	-8.024
▁nostro	-8.03428
▁li	-8.03698
▁proprio	-8.05094
▁grande	-8.05824
▁make	-8.06295
▁siamo	-8.07366
▁lei	-8.07482
▁into	-8.07589
▁oggi	-8.07774
▁allora	-8.09023
▁tu	-8.093
▁sotto	-8.09688
▁take	-8.10092
▁off	-8.10879
▁tre	-8.10893
c	-8.11396
▁giorno	-8.1148
▁gonna	-8.11511
▁col	-8.11595
vi	-8.1172
▁tanto	-8.12383
▁us	-8.12563
▁because	-8.13067
/	-8.13437
▁nostra	-8.1349
▁dai	-8.13814
▁sarà	-8.13821
▁stesso	-8.14176
▁mondo	-8.14215
▁first	-8.14423
▁too	-8.14537
▁via	-8.1467
▁primo	-8.14743
▁dire	-8.1517
▁sta	-8.15205
▁qualche	-8.15551
▁way	-8.15635
lo	-8.15732
rono	-8.1641
ò	-8.16473
▁sarebbe	-8.16984
▁sue	-8.17379
▁alcuni	-8.17425
▁these	-8.18694
▁agli	-8.18799
▁detto	-8.19722
▁po	-8.1981
ci	-8.19887
mo	-8.19985
▁uh	-8.20801
▁after	-8.20808
▁any	-8.21094
▁erano	-8.21607
▁sì	-8.21903
▁però	-8.22145
▁vorrei	-8.22546
nti	-8.22779
▁stata	-8.23283
▁caso	-8.2352
▁proposta	-8.23625
mi	-8.24605
▁dobbiamo	-8.24689
▁va	-8.24836
▁casa	-8.25695
▁only	-8.25815
▁dalle	-8.2621
co	-8.26595
▁our	-8.27152
mar	-8.27295
--	-8.27577
▁cose	-8.27604
vo	-8.27917
▁meno	-8.28094
▁tell	-8.28631
▁nome	-8.28639
▁er	-8.28652
▁problema	-8.28705
▁te	-8.30118
▁tratta	-8.30339
▁forse	-8.30482
▁voi	-8.31106
▁commissario	-8.31979
▁paese	-8.32158
▁altre	-8.32591
▁persone	-8.33218
▁momento	-8.33489
▁didn	-8.33631
▁poco	-8.33884
es	-8.34094
se	-8.34719
▁importante	-8.34727
▁fosse	-8.34825
▁diritti	-8.34945
rlo	-8.35165
▁something	-8.35198
▁really	-8.35382
▁ben	-8.36436
▁verso	-8.36865
▁much	-8.36963
▁made	-8.37027
▁sulle	-8.37241
de	-8.37371
▁tutta	-8.37554
▁possibile	-8.38183
▁base	-8.38523
▁nuovo	-8.38589
▁signora	-8.38792
▁questione	-8.38869
▁three	-8.38978
di	-8.39152
▁città	-8.39483
▁onorevole	-8.39566
▁sviluppo	-8.39587
▁than	-8.39853
▁avere	-8.41304
▁n	-8.41436
▁again	-8.41546
▁molti	-8.41721
▁gruppo	-8.41976
▁!	-8.42157
▁%	-8.4279
▁new	-8.42839
▁tuttavia	-8.42896
▁before	-8.43424
▁comune	-8.43549
▁big	-8.43642
?"	-8.43867
▁gran	-8.44085
▁quelle	-8.44405
▁dello	-8.44519
▁nostri	-8.44894
rà	-8.45759
▁certo	-8.458
▁sa	-8.46043
▁mentre	-8.46315
so	-8.46614
▁day	-8.46774
▁sicurezza	-8.46801
▁should	-8.46842
▁situazione	-8.46938
▁particolare	-8.46955
onorevole	-8.4715
▁sui	-8.47215
▁diritto	-8.4736
▁cittadini	-8.4769
▁ri	-8.47745
▁invece	-8.47837
▁luogo	-8.48102
▁esempio	-8.48124
▁came	-8.48769
▁governo	-8.48843
▁went	-8.49419
▁those	-8.49694
zioni	-8.49803
ra	-8.49819
▁quasi	-8.49952
ca	-8.50282
▁vero	-8.50554
▁rispetto	-8.50913
▁mean	-8.51066
▁livello	-8.51175
▁nè	-8.51566
▁um	-8.52168
▁long	-8.52613
▁home	-8.53033
▁sistema	-8.53115
▁fino	-8.53416
▁sull	-8.53608
▁wanna	-8.53927
mento	-8.54344
▁car	-8.54496
▁still	-8.55326
▁away	-8.55336
▁never	-8.554
▁roma	-8.56025
laughs	-8.56068
b	-8.56248
▁inoltre	-8.56614
▁materia	-8.56655
▁does	-8.56694
▁possono	-8.56788
▁through	-8.56864
▁mano	-8.58222
▁credo	-8.58367
▁viene	-8.5842
al	-8.5866
▁house	-8.58671
▁doing	-8.58912
▁need	-8.59049
▁old	-8.59064
▁also	-8.59174
p	-8.59614
▁troppo	-8.5963
▁give	-8.59684
▁guerra	-8.59768
▁settore	-8.59866
▁state	-8.59971
▁mercato	-8.60155
▁co	-8.60246
▁many	-8.6082
▁allo	-8.60866
▁sopra	-8.61229
▁another	-8.61466
sa	-8.61621
amo	-8.61754
▁aver	-8.61804
▁thing	-8.622
▁work	-8.62541
x	-8.62654
▁tali	-8.62691
▁parole	-8.62712
_	-8.63063
▁ah	-8.63761
▁play	-8.63862
us	-8.64265
ma	-8.64318
▁great	-8.64342
▁unione	-8.64652
rla	-8.6509
▁negli	-8.65232
the	-8.65517
▁last	-8.65535
u	-8.65751
▁volte	-8.65791
▁things	-8.65856
▁even	-8.6654
▁thought	-8.66755
▁dio	-8.66759
che	-8.67096
▁siano	-8.67114
rmi	-8.67186
▁generale	-8.67204
▁2	-8.67212
▁anno	-8.67642
▁1	-8.67681
▁am	-8.67774
▁riguarda	-8.68216
▁sei	-8.68253
sis	-8.68263
▁problemi	-8.68495
on	-8.69152
▁occhi	-8.6937
▁must	-8.69496
▁may	-8.69661
".	-8.69733
▁terra	-8.69985
▁oltre	-8.70257
▁stessa	-8.70747
bro	-8.70877
▁dice	-8.71031
▁baby	-8.71128
▁quelli	-8.71256
▁favore	-8.71507
▁meglio	-8.71552
▁grandi	-8.71654
rci	-8.71794
da	-8.72148
▁donne	-8.72213
▁colleghi	-8.72383
▁men	-8.72636
▁called	-8.72802
▁pertanto	-8.72976
▁name	-8.72995
▁soltanto	-8.73138
▁boy	-8.73248
▁programma	-8.73643
▁dato	-8.73744
).	-8.73919
▁dunque	-8.7392
▁direttiva	-8.73936
▁possiamo	-8.73989
do	-8.74077
▁nuova	-8.74114
▁3	-8.74387
▁processo	-8.7451
▁book	-8.74789
th	-8.74801
▁mr	-8.75111
▁discussione	-8.75788
▁mother	-8.75842
g	-8.7619
”	-8.76247
▁conto	-8.76259
▁uomini	-8.76398
▁numero	-8.7656
▁sociale	-8.77071
▁donna	-8.77123
▁vedere	-8.77148
▁nulla	-8.77321
▁won	-8.77327
▁necessario	-8.77376
w	-8.77747
▁dare	-8.77851
▁find	-8.77937
▁porta	-8.78006
▁popolo	-8.7802
▁alcune	-8.78082
▁son	-8.78833
▁vista	-8.7888
▁mezzo	-8.79171
h	-8.7934
▁ce	-8.79552
tta	-8.79607
▁avrebbe	-8.79775
▁europa	-8.80081
▁insieme	-8.80369
ce	-8.80436
▁morte	-8.8052
▁parti	-8.80766
▁night	-8.80842
▁quest	-8.8116
▁lungo	-8.81297
▁essi	-8.81409
europa	-8.816
▁senso	-8.81671
▁soprattutto	-8.81706
▁società	-8.81884
▁possa	-8.82083
go	-8.82093
▁sembra	-8.82143
▁libertà	-8.82793
▁done	-8.83236
▁erm	-8.83306
▁devono	-8.83509
▁maggiore	-8.83673
▁onorevoli	-8.83892
int	-8.83908
▁might	-8.84054
▁disse	-8.84161
▁bilancio	-8.84185
▁water	-8.84426
▁storia	-8.84447
▁futuro	-8.84464
▁most	-8.84501
▁giorni	-8.84512
▁essa	-8.84616
▁legge	-8.84653
▁head	-8.84812
▁better	-8.85111
▁hey	-8.85121
▁bisogno	-8.85224
▁posizione	-8.85351
▁eat	-8.85481
▁campo	-8.85576
▁cuore	-8.85689
it	-8.85792
sta	-8.85853
▁forma	-8.8598
▁around	-8.86184
▁emendamenti	-8.86185
▁infatti	-8.86311
▁being	-8.86364
▁uomo	-8.86376
▁huh	-8.86886
▁help	-8.86891
ssero	-8.86943
▁fuori	-8.87311
▁pace	-8.87435
▁potrebbe	-8.87966
me	-8.88034
▁possibilità	-8.88086
sti	-8.88386
▁forza	-8.88485
▁san	-8.88747
anno	-8.88785
▁ecco	-8.89073
man	-8.89078
▁place	-8.89176
▁m	-8.89177
▁ricerca	-8.89332
!"	-8.89692
▁sure	-8.8983
rne	-8.9008
▁while	-8.90596
▁risposta	-8.9072
▁pro	-8.9072
▁capo	-8.90974
▁four	-8.9106
▁thank	-8.91087
▁please	-8.91179
▁years	-8.91461
▁t	-8.9179
▁corso	-8.92144
il	-8.92297
▁pure	-8.92395
▁presente	-8.92788
▁durante	-8.928
▁buona	-8.92801
▁grazie	-8.93001
f	-8.93061
▁nostre	-8.93135
▁nice	-8.93148
▁school	-8.9332
▁such	-8.93416
▁proposte	-8.93553
▁poter	-8.9356
▁posto	-8.93562
▁father	-8.93849
▁propria	-8.93942
an	-8.94222
▁abbia	-8.94281
▁pur	-8.94301
▁life	-8.94612
▁mommy	-8.94664
tà	-8.94808
▁trattato	-8.94953
▁là	-8.94983
k	-8.95128
▁piano	-8.95187
▁misure	-8.95236
▁né	-8.9526
▁fronte	-8.95301
tti	-8.95377
▁dovrebbe	-8.95379
▁mm	-8.95433
▁part	-8.95549
▁causa	-8.95593
▁world	-8.9602
▁tal	-8.96103
▁girl	-8.96186
▁grado	-8.96247
▁next	-8.96255
▁presso	-8.96561
▁male	-8.96681
▁principio	-8.96799
▁mhm	-8.96891
▁necessità	-8.96946
▁–	-8.97165
zza	-8.97174
▁appena	-8.97175
▁visto	-8.97179
▁ella	-8.97328
ndosi	-8.97376
▁hand	-8.9746
▁mani	-8.97668
▁4	-8.97723
▁adesso	-8.97753
▁found	-8.97851
▁posso	-8.97896
▁spesso	-8.9794
▁18	-8.97976
▁fece	-8.98171
▁doesn	-8.98178
▁ragione	-8.98258
▁anything	-8.98269
▁isn	-8.98434
▁same	-8.98437
▁hai	-8.99062
▁seconda	-8.99064
ssi	-8.99091
v	-8.99374
▁servizi	-8.99399
▁5	-8.99442
▁under	-8.99463
io	-8.99507
),	-8.99544
▁five	-8.99587
▁buon	-8.99619
▁«	-8.99677
▁parola	-8.99722
▁cioè	-8.99746
▁dagli	-9.00067
▁domanda	-9.0046
▁molte	-9.00465
▁condizioni	-9.00638
rò	-9.00811
tte	-9.01076
▁love	-9.01168
▁lot	-9.01273
▁quei	-9.01433
▁kind	-9.01537
▁padre	-9.01674
▁avuto	-9.01908
altro	-9.01923
▁quadro	-9.01967
tion	-9.02072
▁call	-9.02094
▁told	-9.02149
▁circa	-9.02264
azione	-9.02603
▁own	-9.02642
▁always	-9.02664
▁controllo	-9.02886
▁realtà	-9.03456
▁gente	-9.03552
▁davvero	-9.03587
and	-9.03691
▁papa	-9.03913
▁voce	-9.04067
▁room	-9.04302
▁end	-9.04384
▁used	-9.04538
▁attività	-9.04601
▁saw	-9.05105
▁tempi	-9.05128
▁occorre	-9.05372
▁voglio	-9.05461
▁p	-9.05491
▁internazionale	-9.05554
▁idea	-9.05632
he	-9.05909
▁diversi	-9.06038
▁cooperazione	-9.06354
▁else	-9.06406
que	-9.06572
▁ever	-9.06622
en	-9.0678
gli	-9.06848
▁qualità	-9.07033
ranno	-9.07076
▁merito	-9.07212
▁miei	-9.07253
um	-9.0771
▁quattro	-9.0774
▁tuo	-9.07769
▁andare	-9.08043
▁show	-9.08214
▁accordo	-9.08612
▁tipo	-9.0862
▁europei	-9.08648
▁comunque	-9.0869
▁nuovi	-9.08702
bile	-9.08896
▁saranno	-9.08897
▁nuove	-9.08959
z	-9.08968
▁italia	-9.09009
▁its	-9.09184
ria	-9.09312
ga	-9.09377
▁regolamento	-9.09431
▁nothing	-9.09436
tori	-9.09546
▁luce	-9.09639
▁avevano	-9.09664
▁strada	-9.09738
▁risoluzione	-9.09856
nza	-9.10006
ato	-9.1002
tto	-9.1018
▁eh	-9.10462
▁subito	-9.1059
▁talk	-9.10601
▁politiche	-9.1075
▁qualcosa	-9.10829
▁face	-9.10877
▁qua	-9.10899
▁every	-9.10907
▁pre	-9.10991
▁number	-9.11246
▁passo	-9.11251
▁desidero	-9.11793
▁comunità	-9.11898
▁left	-9.12032
▁bit	-9.12078
one	-9.12466
yes	-9.12501
▁prodotti	-9.12561
ssimo	-9.12736
▁keep	-9.12773
rle	-9.13146
▁regno	-9.13216
are	-9.13342
▁once	-9.13402
▁course	-9.13916
rli	-9.13928
j	-9.14065
▁termine	-9.14079
▁informazioni	-9.14161
▁took	-9.14173
▁nazionale	-9.14173
▁nessuno	-9.14364
▁use	-9.14382
▁vengono	-9.14421
▁sorry	-9.14495
▁v	-9.14617
▁progetto	-9.14792
▁fin	-9.14964
▁attraverso	-9.14974
▁forte	-9.1501
▁guarda	-9.15119
▁seguito	-9.15176
rvi	-9.15244
era	-9.15273
▁milioni	-9.15299
▁fondo	-9.15417
▁miss	-9.15487
▁ruolo	-9.15522
▁bisogna	-9.15552
menti	-9.15765
▁nazionali	-9.15875
▁money	-9.15902
▁u	-9.15993
▁red	-9.16186
▁et	-9.16208
▁black	-9.16237
▁persona	-9.16247
▁fatti	-9.16358
▁year	-9.16458
▁presidenza	-9.16625
▁10	-9.16698
▁imprese	-9.168
▁maggior	-9.16803
▁wait	-9.17177
▁riguardo	-9.17554
▁infine	-9.17612
▁decisione	-9.17913
▁colla	-9.18089
▁furono	-9.18194
▁pubblico	-9.18264
▁esso	-9.18508
▁bella	-9.18641
ha	-9.18642
ted	-9.18647
▁bad	-9.18668
▁pubblica	-9.18672
▁god	-9.18755
▁autorità	-9.18821
▁though	-9.1894
▁read	-9.18945
▁prendere	-9.19164
▁dog	-9.19281
ty	-9.19367
▁anzi	-9.19381
▁maybe	-9.19903
▁natura	-9.19937
accordo	-9.2003
▁city	-9.20097
▁pare	-9.20138
▁dati	-9.20404
",	-9.20438
or	-9.20942
▁studio	-9.20954
▁until	-9.21033
▁stop	-9.21121
▁enough	-9.21443
▁parlare	-9.21512
▁coloro	-9.21576
▁famiglia	-9.21586
▁libro	-9.216
as	-9.21769
▁corte	-9.21879
▁lotta	-9.21903
▁almeno	-9.21977
you	-9.22088
un	-9.22152
▁try	-9.22188
is	-9.22221
▁ritengo	-9.22233
▁remember	-9.22306
▁responsabilità	-9.22478
▁ve	-9.22596
▁parere	-9.22627
▁case	-9.22693
▁avanti	-9.22731
▁cos	-9.22797
▁testa	-9.22808
▁poteva	-9.2281
fi	-9.22894
▁significa	-9.23303
▁euro	-9.23445
▁prova	-9.23447
▁pi	-9.23473
▁punti	-9.23721
▁turn	-9.23728
▁tua	-9.23971
▁g	-9.24002
▁potuto	-9.24327
▁coming	-9.24379
▁sede	-9.2444
▁chiesa	-9.24561
▁vuole	-9.24592
▁open	-9.24603
▁x	-9.24655
▁shall	-9.2485
▁ore	-9.24863
▁signore	-9.24991
▁ii	-9.25075
▁francia	-9.25189
▁garantire	-9.25451
▁pesca	-9.25513
ers	-9.25561
▁altra	-9.25607
▁uniti	-9.25634
▁mesi	-9.25683
▁aiuti	-9.25722
▁both	-9.25754
▁diverse	-9.25801
▁says	-9.25811
▁umani	-9.25845
▁relazioni	-9.25923
▁...	-9.25923
ge	-9.25939
▁fondi	-9.26069
▁gone	-9.26104
▁proposito	-9.26315
▁corpo	-9.26322
▁hi	-9.26379
▁qual	-9.26439
▁door	-9.26657
▁mare	-9.26827
▁best	-9.26931
▁king	-9.27255
ie	-9.27286
▁together	-9.2731
▁fanno	-9.27338
▁side	-9.27458
▁asked	-9.27485
▁relatore	-9.27828
▁trovare	-9.27837
ia	-9.27873
▁goes	-9.28011
▁hard	-9.28167
,”	-9.28335
▁politico	-9.28509
▁daddy	-9.28586
ano	-9.28771
▁children	-9.28823
▁ball	-9.29
▁20	-9.2917
▁dibattito	-9.2921
em	-9.29327
▁morning	-9.29376
▁faccia	-9.2963
▁difficile	-9.2966
car	-9.29924
▁mo	-9.30231
▁sera	-9.30342
▁giustizia	-9.3051
▁fire	-9.30783
▁motivo	-9.31001
▁seen	-9.31086
▁r	-9.31091
▁intorno	-9.31105
▁assai	-9.31116
▁periodo	-9.31138
altra	-9.31268
▁servizio	-9.31317
▁breve	-9.31329
▁between	-9.31376
▁norme	-9.31765
▁second	-9.31868
▁each	-9.31917
▁sola	-9.31923
▁leave	-9.32069
▁procedura	-9.32113
▁quite	-9.32127
▁casi	-9.32383
▁mettere	-9.32483
per	-9.3267
nt	-9.32693
▁madre	-9.32801
ry	-9.32806
▁obiettivi	-9.32965
▁mom	-9.32981
▁hear	-9.33045
▁salute	-9.33162
▁few	-9.33214
»	-9.33243
▁united	-9.33292
bili	-9.333
▁veramente	-9.33353
▁today	-9.33444
▁sapere	-9.33589
ng	-9.33731
▁attenzione	-9.33776
▁15	-9.33817
ch	-9.33863
be	-9.33914
▁notte	-9.33972
▁without	-9.34004
▁nello	-9.3412
▁himself	-9.34158
▁round	-9.34309
▁rappresenta	-9.344
we	-9.34401
▁sostegno	-9.34407
▁effetti	-9.34632
▁tema	-9.34718
ale	-9.34727
ter	-9.34757
▁misura	-9.34774
▁upon	-9.34927
▁data	-9.35031
▁vogliamo	-9.35262
▁cinque	-9.35389
▁pari	-9.35439
▁later	-9.35449
▁trova	-9.35471
▁resto	-9.3564
▁looking	-9.3567
▁penso	-9.35701
▁stiamo	-9.35774
urs	-9.35798
▁successo	-9.35801
▁testo	-9.35956
▁poiché	-9.36048
▁questioni	-9.36073
▁everything	-9.36177
(	-9.36236
.”	-9.36292
▁devo	-9.36337
▁young	-9.36446
▁eyes	-9.36446
mmo	-9.36525
▁alcun	-9.36734
ba	-9.36829
▁dentro	-9.36885
▁giovani	-9.36888
▁sole	-9.36901
▁hafta	-9.36933
▁looks	-9.36982
▁against	-9.37056
▁serie	-9.37079
▁soluzione	-9.37177
▁potere	-9.3721
▁bambini	-9.3721
▁linea	-9.37401
ate	-9.3764
tore	-9.3765
ck	-9.37751
▁avesse	-9.37924
▁sè	-9.3795
gi	-9.38
▁heard	-9.38
▁el	-9.38023
▁getting	-9.38086
▁top	-9.38149
▁sir	-9.38157
po	-9.38169
pa	-9.38207
▁feel	-9.38217
▁6	-9.38244
▁pochi	-9.38249
▁nonché	-9.38256
▁hm	-9.3827
ʼ	-9.3845
rio	-9.38508
▁different	-9.38605
▁ultimi	-9.38631
▁economica	-9.38643
▁principi	-9.38668
▁real	-9.38687
add	-9.3878
▁bar	-9.38857
▁migliore	-9.38875
lla	-9.39037
▁risorse	-9.39077
▁passato	-9.39237
▁deputati	-9.39474
▁aspetti	-9.39491
▁avete	-9.39524
▁alright	-9.39558
▁yet	-9.3961
▁bed	-9.39704
▁half	-9.39766
▁primi	-9.4003
▁affinché	-9.4014
▁piuttosto	-9.40207
▁terzo	-9.40275
▁spirito	-9.4028
▁since	-9.4035
▁chiaro	-9.40382
▁sociali	-9.40576
▁live	-9.40613
▁known	-9.40939
cause	-9.41046
▁vostra	-9.41049
▁mrs	-9.41229
▁lettera	-9.41365
▁watch	-9.41444
▁armi	-9.41619
▁having	-9.41625
▁table	-9.41677
▁mind	-9.41683
▁istituzioni	-9.41707
4	-9.41721
▁parla	-9.4183
▁ten	-9.4186
▁care	-9.41928
▁presto	-9.42129
▁carlo	-9.42142
▁pretty	-9.42152
interno	-9.42169
▁_	-9.42233
▁high	-9.42254
▁centro	-9.42531
▁cento	-9.42552
ar	-9.42568
▁wanted	-9.42574
▁atto	-9.42667
▁happened	-9.42677
▁opera	-9.42828
▁set	-9.43139
▁six	-9.43143
bo	-9.43202
▁regioni	-9.43313
est	-9.43355
rti	-9.43411
▁tanti	-9.43674
▁amici	-9.43795
▁mamma	-9.43959
▁facendo	-9.44116
▁stessi	-9.44132
▁grave	-9.4424
▁naturalmente	-9.44315
▁sangue	-9.44536
▁qualsiasi	-9.44776
▁light	-9.44888
▁amore	-9.44938
▁spero	-9.44964
▁white	-9.45008
iamo	-9.45053
▁finalmente	-9.45139
▁valore	-9.45223
▁ca	-9.45242
▁talking	-9.45342
▁partito	-9.45365
▁dietro	-9.45463
▁small	-9.45477
▁creare	-9.45663
▁innanzi	-9.45849
▁importanti	-9.4589
▁story	-9.45959
▁ask	-9.45975
sco	-9.46043
▁lì	-9.46062
▁vale	-9.46063
▁conte	-9.46067
rie	-9.46081
▁party	-9.46436
▁niente	-9.465
.)	-9.46523
▁move	-9.46526
▁spazio	-9.4662
▁occasione	-9.46654
▁fede	-9.46675
▁believe	-9.46723
▁camera	-9.4685
▁girls	-9.46868
oh	-9.46914
▁alcuna	-9.47134
▁knew	-9.47169
cha	-9.47257
pi	-9.47277
▁repubblica	-9.47346
▁interno	-9.47541
▁protezione	-9.47617
▁milano	-9.47753
ho	-9.47766
▁termini	-9.47997
▁titolo	-9.48253
▁looked	-9.48258
▁perciò	-9.48325
▁cat	-9.48401
▁soon	-9.48445
▁hundred	-9.48519
▁confronti	-9.48614
▁actually	-9.48657
▁risultati	-9.48663
▁hold	-9.48753
▁whole	-9.48833
▁importanza	-9.48897
▁bo	-9.48928
ting	-9.49058
▁piece	-9.49095
ambiente	-9.49164
▁richiesta	-9.49234
▁stay	-9.49277
▁difficoltà	-9.49307
▁preso	-9.49579
▁piedi	-9.49658
▁blue	-9.49691
▁ordine	-9.49711
▁consumatori	-9.49953
.]	-9.50128
▁maniera	-9.5019
▁vede	-9.50301
▁vostro	-9.50302
▁12	-9.50316
▁figlio	-9.5034
sca	-9.50612
▁ready	-9.50613
▁team	-9.50638
▁regione	-9.50913
▁pel	-9.50968
▁bel	-9.51029
▁wasn	-9.51069
▁giusto	-9.51071
▁pensiero	-9.51096
▁states	-9.51101
▁basta	-9.51188
▁7	-9.51217
ata	-9.51274
▁cup	-9.51484
▁domani	-9.51567
▁stanno	-9.51702
▁war	-9.51772
▁guy	-9.51835
▁dear	-9.51916
sib	-9.52014
rebbe	-9.52038
▁formazione	-9.52163
▁collega	-9.52176
pe	-9.5228
▁animali	-9.52308
▁american	-9.52323
▁semplice	-9.52356
▁making	-9.52419
▁hands	-9.52481
▁fatta	-9.52507
▁gestione	-9.52592
▁f	-9.52777
▁essendo	-9.52793
▁mal	-9.52882
uomo	-9.5291
▁tom	-9.53019
▁cura	-9.53157
▁tutela	-9.53368
ste	-9.53388
▁color	-9.53407
▁food	-9.53499
▁na	-9.53605
▁ottenere	-9.53643
▁coi	-9.53761
▁bear	-9.53915
▁run	-9.54051
▁gave	-9.54056
▁politici	-9.54082
▁entro	-9.54114
▁posti	-9.54173
▁sit	-9.5431
ambito	-9.5445
&	-9.54549
▁mente	-9.54617
ling	-9.54734
▁green	-9.54781
▁scuola	-9.54789
▁mie	-9.54844
▁esiste	-9.54896
▁personale	-9.54897
▁programmi	-9.54976
▁maria	-9.55068
▁produzione	-9.55076
▁family	-9.55117
▁vari	-9.55168
▁contrario	-9.55169
▁dì	-9.552
▁ringrazio	-9.55256
at	-9.55279
▁days	-9.55325
▁doveva	-9.55442
▁volontà	-9.55445
▁comunicazione	-9.55472
▁dovuto	-9.55603
lli	-9.5562
1	-9.55753
▁riforma	-9.5577
▁box	-9.55904
▁mondiale	-9.56012
▁specie	-9.56016
▁intende	-9.56106
▁difesa	-9.56111
sce	-9.56218
▁dieci	-9.56311
▁convenzione	-9.56444
but	-9.56559
▁ministro	-9.56641
▁sappiamo	-9.56824
▁moglie	-9.5685
▁continua	-9.57027
zze	-9.57116
▁aspetto	-9.57432
2	-9.57456
ant	-9.57477
▁during	-9.57527
▁venne	-9.57825
▁game	-9.57854
▁popolazione	-9.57875
▁ex	-9.57972
▁affrontare	-9.58371
▁ormai	-9.58431
▁pratica	-9.58514
▁scopo	-9.58537
▁saying	-9.58598
▁secolo	-9.58607
articolo	-9.58831
▁assolutamente	-9.58903
▁almost	-9.58927
llo	-9.5897
▁inter	-9.58984
▁commercio	-9.59065
▁giovane	-9.59098
▁friend	-9.59238
▁genere	-9.59283
▁start	-9.59496
am	-9.59525
▁piccolo	-9.59624
▁lavoratori	-9.59656
▁faceva	-9.59665
▁ya	-9.59713
▁presentato	-9.59801
ue	-9.59825
▁mese	-9.5994
▁alto	-9.59987
ali	-9.60033
▁ro	-9.60217
▁seno	-9.60404
el	-9.60419
▁davanti	-9.60428
▁mine	-9.60558
▁point	-9.60771
▁letto	-9.60838
▁pensare	-9.60871
▁gruppi	-9.60993
▁sort	-9.60998
▁interessi	-9.61015
▁risultato	-9.61069
▁started	-9.61157
▁fondamentale	-9.61201
▁cut	-9.61301
▁venga	-9.61461
▁haven	-9.61503
ness	-9.61613
▁debba	-9.61672
▁30	-9.6168
▁verità	-9.61681
▁leggi	-9.61722
▁rischio	-9.61763
▁libera	-9.61941
ment	-9.61979
gna	-9.62067
▁played	-9.62179
▁duca	-9.62252
▁pa	-9.6229
▁onde	-9.62327
bi	-9.62396
▁attualmente	-9.62423
▁wouldn	-9.62458
▁ebbe	-9.6251
▁conferenza	-9.62549
▁sugli	-9.62644
▁colle	-9.63072
▁national	-9.63132
▁fossero	-9.63203
▁area	-9.63338
▁piú	-9.63432
▁crisi	-9.63463
oni	-9.63661
▁economico	-9.63852
▁trying	-9.63986
exp	-9.64044
▁nazioni	-9.64092
▁country	-9.64176
▁already	-9.643
▁person	-9.64425
▁possano	-9.64486
▁16	-9.645
▁santa	-9.64558
▁democrazia	-9.64598
▁unico	-9.64619
▁k	-9.64652
▁azioni	-9.64695
▁tratto	-9.64735
▁prese	-9.64876
▁mezzi	-9.64915
▁chiede	-9.64931
ì	-9.64936
▁paper	-9.64946
▁carattere	-9.64983
▁guess	-9.65043
▁+	-9.6515
tu	-9.65154
▁along	-9.65259
rgli	-9.65349
ke	-9.65365
▁potrà	-9.65423
▁presenza	-9.6551
▁vera	-9.65515
▁riferimento	-9.65568
▁mark	-9.65607
col	-9.65613
▁capacità	-9.65631
▁concorrenza	-9.65694
▁cielo	-9.65803
▁accordi	-9.65845
▁farlo	-9.65939
▁close	-9.65989
ora	-9.65994
▁word	-9.66
▁proprie	-9.66004
▁picture	-9.66009
▁rendere	-9.66026
▁comuni	-9.66081
▁progetti	-9.66082
▁ta	-9.66232
▁heart	-9.66233
▁rende	-9.66273
▁moment	-9.66277
▁esse	-9.66341
▁fondamentali	-9.66364
▁giovanni	-9.66393
▁forze	-9.66471
▁boys	-9.66567
ere	-9.66627
eri	-9.66737
▁interesse	-9.66752
▁woman	-9.66767
▁air	-9.66768
▁esser	-9.6681
fa	-9.6697
▁born	-9.67033
▁presenti	-9.67052
du	-9.67199
don	-9.6722
▁8	-9.67303
▁vecchio	-9.6736
▁dovrà	-9.67378
▁john	-9.67431
▁principe	-9.67539
▁passi	-9.67553
ati	-9.676
▁votazione	-9.67638
▁certamente	-9.67754
▁obiettivo	-9.67803
▁ove	-9.67838
▁lunga	-9.67911
3	-9.68016
▁17	-9.68054
▁playing	-9.68106
nze	-9.68302
▁scorso	-9.68368
▁times	-9.68402
▁settori	-9.68459
nce	-9.68587
▁ra	-9.68612
▁decisioni	-9.6869
▁probably	-9.68764
▁rispose	-9.68788
▁lavori	-9.68905
▁13	-9.68916
▁capi	-9.6905
▁purtroppo	-9.69185
▁tante	-9.69195
▁com	-9.692
▁articolo	-9.69257
▁sistemi	-9.69343
▁lost	-9.69392
▁dubbio	-9.69399
gra	-9.69429
▁town	-9.6965
▁media	-9.69687
▁direzione	-9.69723
▁bring	-9.69729
▁popoli	-9.69736
▁sea	-9.6975
▁write	-9.69805
▁hope	-9.6988
▁pan	-9.6988
▁mette	-9.69933
▁avendo	-9.69984
▁carta	-9.70005
▁crescita	-9.70039
▁voleva	-9.70062
▁matter	-9.70283
▁bro	-9.70326
▁dad	-9.70349
▁wrong	-9.70376
▁carica	-9.70534
ordine	-9.70537
▁settembre	-9.7058
▁oggetto	-9.7059
▁lady	-9.7075
▁strumenti	-9.70785
▁club	-9.70836
▁9	-9.70966
▁vicino	-9.70979
▁voto	-9.71034
▁ni	-9.71177
▁evitare	-9.71201
▁ovviamente	-9.71264
▁qualcuno	-9.71275
▁sun	-9.71374
ssima	-9.71401
glia	-9.71449
▁14	-9.71495
▁paura	-9.7161
▁vanno	-9.71699
▁speranza	-9.71861
▁front	-9.71877
▁sleep	-9.72003
▁disposizione	-9.72041
▁prossimo	-9.72065
▁understand	-9.7209
▁reca	-9.72109
▁twenty	-9.72204
▁gioco	-9.72224
ur	-9.72293
▁resta	-9.72314
▁trasporto	-9.72387
▁anti	-9.72431
▁minute	-9.72474
▁creazione	-9.72525
▁near	-9.72541
▁dialogo	-9.72572
▁week	-9.72598
▁settimana	-9.72602
▁sto	-9.72729
00	-9.7282
▁happy	-9.72847
▁chiedere	-9.72933
▁affari	-9.72935
well	-9.72936
rs	-9.73013
▁full	-9.73024
▁propri	-9.73095
▁voice	-9.73134
▁europee	-9.7322
▁spese	-9.73276
▁varie	-9.73296
▁vivere	-9.73335
▁par	-9.7335
▁avevo	-9.73413
▁friends	-9.73427
tura	-9.73526
▁floor	-9.7355
▁death	-9.73652
▁iii	-9.73752
▁francese	-9.73829
▁costi	-9.73947
▁mummy	-9.73994
▁rest	-9.74065
▁song	-9.74109
▁began	-9.74327
▁hello	-9.74343
▁silver	-9.74367
▁simile	-9.74406
▁became	-9.74423
▁valutazione	-9.74499
▁messo	-9.74616
▁francesco	-9.74635
▁line	-9.74738
▁maggio	-9.748
▁sostenere	-9.74861
▁south	-9.74913
▁vuoi	-9.74958
▁diceva	-9.74959
▁chiama	-9.74992
gma	-9.74998
▁quanti	-9.75007
▁mar	-9.75013
▁child	-9.75085
▁facile	-9.75106
▁presentata	-9.75167
▁died	-9.75181
▁progressi	-9.75189
▁capire	-9.75215
▁mille	-9.7526
▁elementi	-9.75285
▁qualunque	-9.75385
con	-9.75511
▁fase	-9.75557
▁amico	-9.75584
▁train	-9.75638
▁vertice	-9.7567
▁poor	-9.75685
▁conseguenze	-9.75814
▁ambito	-9.75865
▁stava	-9.759
▁civile	-9.75943
▁voluto	-9.76031
▁france	-9.76087
▁cause	-9.7611
▁legislazione	-9.76125
▁figli	-9.76197
▁hair	-9.76199
▁strumento	-9.76223
tra	-9.76312
▁migliorare	-9.76456
▁brother	-9.76649
▁que	-9.76688
▁atti	-9.76699
▁considerazione	-9.7674
▁music	-9.76788
▁napoli	-9.76847
▁fe	-9.76954
what	-9.77026
▁abbastanza	-9.77136
▁contesto	-9.77194
▁means	-9.77215
▁disposizioni	-9.77258
ino	-9.77445
▁ba	-9.77477
qui	-9.77736
▁pena	-9.77807
▁venire	-9.78075
▁scritto	-9.78093
▁tenere	-9.78097
▁fall	-9.78105
hi	-9.78123
▁conseguenza	-9.78134
▁bi	-9.78174
▁fini	-9.78199
▁page	-9.78216
▁cap	-9.78223
▁chiaramente	-9.78284
za	-9.78284
▁membro	-9.78305
ana	-9.78363
▁giudizio	-9.78367
▁raggiungere	-9.78403
▁tanta	-9.78487
▁semplicemente	-9.78723
ster	-9.78794
▁firenze	-9.78805
▁able	-9.78909
that	-9.79056
▁comunitario	-9.79084
emendamento	-9.79155
▁fi	-9.79173
▁someone	-9.79318
▁lord	-9.79364
▁lingua	-9.79376
men	-9.79385
▁25	-9.79436
▁avea	-9.79465
▁dichiarazione	-9.79525
—	-9.79551
▁priorità	-9.79562
ine	-9.79586
fe	-9.79608
▁partire	-9.79765
▁prime	-9.79826
▁19	-9.79897
▁piccoli	-9.79912
trice	-9.80013
▁maggioranza	-9.80109
ver	-9.80126
▁soldati	-9.80135
▁intervento	-9.80138
▁sai	-9.80213
▁siete	-9.80314
▁centrale	-9.80396
é	-9.804
▁beautiful	-9.80508
▁sicuro	-9.80633
▁territorio	-9.80797
▁mostra	-9.80881
▁turned	-9.81163
▁destra	-9.81274
▁north	-9.8129
▁brought	-9.81337
▁video	-9.81386
▁phone	-9.81442
à	-9.81444
▁monte	-9.81452
▁positivo	-9.81463
▁hot	-9.81626
▁emendamento	-9.81753
▁rispondere	-9.81765
▁regole	-9.81843
▁nord	-9.81959
▁musica	-9.8196
▁passare	-9.81993
▁gravi	-9.82001
▁star	-9.82075
ton	-9.82081
ture	-9.82085
▁impegno	-9.82093
▁hungry	-9.82098
▁pericolo	-9.82125
▁poichè	-9.82153
▁film	-9.82188
▁avviso	-9.82209
▁pen	-9.82303
▁however	-9.82308
▁ragioni	-9.8235
▁gotta	-9.82474
▁feet	-9.82517
▁nonostante	-9.8253
▁sito	-9.82552
▁portare	-9.82676
▁strategia	-9.82683
▁fun	-9.82688
▁negoziati	-9.82711
fo	-9.82829
▁ok	-9.82848
▁11	-9.82858
▁dà	-9.82859
▁dico	-9.82926
▁cerca	-9.82933
▁prodotto	-9.82942
▁principali	-9.82954
▁sometimes	-9.8297
5-0	-9.82994
▁nemmeno	-9.83016
▁noise	-9.83093
▁outside	-9.831
non	-9.83188
▁drink	-9.8319
cca	-9.83253
▁fact	-9.83432
▁cultura	-9.83436
▁couldn	-9.83474
▁stuff	-9.83565
▁ricordo	-9.83566
▁svolto	-9.83634
▁fiducia	-9.83737
▁scelta	-9.83763
▁patria	-9.83973
▁ossia	-9.84106
▁esprimere	-9.8414
▁probabilmente	-9.84152
▁sé	-9.84171
▁migliori	-9.84368
▁dovrebbero	-9.84379
sh	-9.84397
▁dicembre	-9.84517
▁ricordare	-9.84606
▁nessun	-9.84658
▁mouth	-9.8471
▁oppure	-9.84725
▁documento	-9.84739
erà	-9.84753
▁bianco	-9.84778
”.	-9.84842
tri	-9.84868
▁van	-9.84908
▁women	-9.84938
▁ran	-9.84979
▁sound	-9.85048
▁seemed	-9.85104
ssa	-9.85104
occupazione	-9.85134
▁ride	-9.85189
▁giugno	-9.85277
▁piccola	-9.85279
▁giuridica	-9.8534
ja	-9.85356
uso	-9.85373
sso	-9.85378
▁seven	-9.85394
▁maggiori	-9.85421
▁ero	-9.85641
▁compito	-9.85653
com	-9.85665
▁chiedo	-9.85725
▁taken	-9.85758
▁yellow	-9.8586
▁motivi	-9.85918
▁intanto	-9.85987
▁idee	-9.85993
▁stand	-9.86026
02	-9.86095
▁piccole	-9.86156
lt	-9.86194
der	-9.86275
▁auto	-9.86401
▁♪	-9.86411
▁often	-9.86513
▁age	-9.86575
▁fuoco	-9.86625
▁viaggio	-9.86627
▁governi	-9.86642
▁river	-9.86689
▁relative	-9.86755
▁verde	-9.86799
▁certa	-9.86832
▁stick	-9.86982
▁behind	-9.86995
▁pieno	-9.8715
▁silenzio	-9.87198
▁piena	-9.87202
et	-9.87267
▁estremamente	-9.87276
▁bocca	-9.87279
▁modello	-9.87299
▁principale	-9.87397
▁candidati	-9.87438
▁pay	-9.87483
son	-9.87551
▁trasporti	-9.8756
▁sinistra	-9.87668
ccio	-9.87749
▁continuare	-9.87755
▁bus	-9.87806
▁danno	-9.87914
▁bello	-9.87942
▁partecipazione	-9.87998
▁piace	-9.88066
▁chiesto	-9.88097
tico	-9.88106
▁land	-9.88143
▁gi	-9.88254
zi	-9.88273
▁felt	-9.88283
▁french	-9.88289
▁guys	-9.88306
inizio	-9.88356
▁pe	-9.88439
▁aiuto	-9.88565
▁chair	-9.88593
▁dead	-9.88608
up	-9.88672
lle	-9.88673
idea	-9.88693
▁vigore	-9.88701
▁stampa	-9.88807
▁tri	-9.88853
▁true	-9.88854
▁words	-9.8891
▁york	-9.88937
▁aren	-9.88976
5	-9.89026
▁pubblici	-9.89123
▁fell	-9.89132
▁cercare	-9.89303
▁forme	-9.89307
▁rather	-9.89349
▁job	-9.89365
▁milk	-9.89396
▁marzo	-9.89405
▁facciamo	-9.89454
▁business	-9.89526
▁visita	-9.89651
▁gas	-9.89653
▁sent	-9.89722
▁short	-9.89742
▁studi	-9.8983
▁desiderio	-9.89838
▁ieri	-9.89967
▁attuale	-9.90011
1:	-9.90056
▁verrà	-9.90127
land	-9.90199
▁uhhuh	-9.9036
▁rimane	-9.9037
▁lato	-9.90415
ns	-9.90419
▁nota	-9.90422
▁collaborazione	-9.90483
▁mattina	-9.9057
▁y	-9.90601
▁bensì	-9.90645
▁j	-9.90703
▁eight	-9.90751
▁pareva	-9.90813
cco	-9.90835
▁ancor	-9.90849
▁fortuna	-9.90926
ndi	-9.90951
▁ringraziare	-9.90959
▁makes	-9.90997
▁concetto	-9.91028
▁libero	-9.91163
▁efficace	-9.91191
▁affatto	-9.91224
▁h	-9.91366
▁dovremmo	-9.91419
▁conoscenza	-9.91482
▁guida	-9.91545
▁presenta	-9.91569
▁serve	-9.91621
remo	-9.91668
▁uso	-9.91735
▁volto	-9.9179
▁azione	-9.91796
▁english	-9.91953
▁deciso	-9.92006
tur	-9.92049
▁caro	-9.92065
ka	-9.92089
▁particolarmente	-9.92123
▁virtù	-9.92146
▁anima	-9.92206
▁trovato	-9.92207
zio	-9.9221
▁seduta	-9.92232
▁reale	-9.92263
▁ultimo	-9.92307
▁ministri	-9.92429
▁group	-9.92433
▁sufficiente	-9.92473
▁piacere	-9.92479
industria	-9.9257
▁perhaps	-9.92719
▁lavorare	-9.92719
▁fight	-9.92771
▁conti	-9.92774
▁dar	-9.928
▁sicuramente	-9.92867
▁nessuna	-9.92897
▁rose	-9.92945
mel	-9.93034
▁sottolineare	-9.93096
▁sette	-9.93113
▁vedi	-9.93133
▁county	-9.93188
▁medesimo	-9.93221
▁presentare	-9.93368
▁esame	-9.93398
▁italiana	-9.93432
▁condizione	-9.93449
lu	-9.935
▁fratello	-9.93542
▁necessaria	-9.93554
▁ago	-9.93688
▁post	-9.93756
▁movie	-9.93807
▁prende	-9.93808
▁dolore	-9.93921
▁en	-9.93959
ble	-9.93978
▁sebbene	-9.9402
▁umana	-9.94072
▁inside	-9.94075
▁iniziative	-9.94079
▁canto	-9.94125
▁avrà	-9.94135
▁lettura	-9.94207
▁pick	-9.94273
▁alta	-9.94446
▁24	-9.94519
▁contributo	-9.9457
▁seguente	-9.94584
▁passa	-9.94605
▁acqua	-9.94619
▁tardi	-9.94641
▁super	-9.94714
▁potrebbero	-9.9474
▁italiano	-9.94778
▁sforzi	-9.94825
▁rete	-9.9484
▁militare	-9.94985
▁diventa	-9.95155
▁sarebbero	-9.95187
▁piazza	-9.95252
▁gennaio	-9.95405
▁luglio	-9.95466
▁listen	-9.95559
▁mandato	-9.95573
▁football	-9.95644
▁funny	-9.95683
▁change	-9.95765
ggio	-9.95889
▁minutes	-9.9591
▁sub	-9.95941
rum	-9.96028
▁yourself	-9.96053
ssimi	-9.96136
▁naturale	-9.96221
▁battaglia	-9.96221
▁early	-9.96244
▁horse	-9.96397
▁taking	-9.96401
▁ovvero	-9.96426
▁parlato	-9.96431
▁internazionali	-9.96486
▁vuol	-9.96676
▁seguire	-9.96696
▁wants	-9.96699
▁sensi	-9.96709
▁anch	-9.96724
▁sister	-9.96771
▁relativa	-9.96828
▁metà	-9.9694
able	-9.97074
▁riduzione	-9.97133
▁lontano	-9.97163
▁locali	-9.97241
▁camp	-9.97298
▁lu	-9.97314
▁hurt	-9.9744
▁morto	-9.97494
▁#	-9.9761
▁massima	-9.97631
smo	-9.97631
▁coscienza	-9.97637
▁figura	-9.97682
▁break	-9.97731
▁marito	-9.97755
▁letter	-9.97785
▁regime	-9.97864
▁lascia	-9.97921
▁fiori	-9.98031
▁body	-9.98036
▁comitato	-9.98053
▁sentire	-9.98219
▁dimostra	-9.98271
▁contra	-9.98327
ki	-9.9833
▁prove	-9.98379
▁appunto	-9.98417
acqua	-9.98436
▁quegli	-9.98457
▁risulta	-9.98598
▁opportunità	-9.986
▁venezia	-9.98621
▁--	-9.9868
zzo	-9.98687
▁zzz	-9.98894
▁road	-9.98945
▁somebody	-9.98958
▁poveri	-9.99018
▁question	-9.99101
▁stesse	-9.99134
▁manca	-9.99163
ero	-9.992
▁rapporto	-9.99254
▁vogliono	-9.99352
▁pensa	-9.99375
▁altresì	-9.99381
▁felice	-9.99427
▁porre	-9.99438
bu	-9.99459
▁opere	-9.99564
▁voglia	-9.99567
obiettivo	-9.99593
▁either	-9.99651
cchi	-9.99702
▁brown	-9.99734
▁toys	-9.99798
nia	-9.99809
▁violenza	-9.99829
jo	-9.99837
▁entrare	-9.99855
gt	-9.99872
▁walk	-10.0005
▁stare	-10.0008
▁iv	-10.0012
▁kill	-10.0022
▁denaro	-10.0029
▁ragazzi	-10.0041
▁ambiente	-10.0043
▁paul	-10.0054
▁w	-10.0054
▁regionale	-10.0056
ru	-10.0061
▁several	-10.0072
▁street	-10.0073
▁lettere	-10.0075
▁campagna	-10.0081
cu	-10.0087
▁meet	-10.0094
▁simili	-10.0102
▁myself	-10.0103
▁thomas	-10.0105
huh	-10.0118
▁umano	-10.0119
▁cold	-10.0124
8	-10.0141
▁novembre	-10.0142
▁minuti	-10.0145
▁tree	-10.0148
▁least	-10.015
▁giù	-10.0158
▁applicazione	-10.016
▁terrorismo	-10.0161
▁ridurre	-10.0165
▁abbiano	-10.0166
▁ambientale	-10.0173
▁criteri	-10.0173
▁test	-10.0175
▁working	-10.0176
▁germania	-10.0179
▁zona	-10.0179
▁struttura	-10.0183
▁posta	-10.0188
||	-10.0189
▁ch	-10.0191
ex	-10.0191
ultimo	-10.0193
▁signori	-10.0194
▁romani	-10.0199
▁ka	-10.02
▁doctor	-10.0203
▁est	-10.0206
▁company	-10.021
▁mantenere	-10.0212
born	-10.0213
▁general	-10.0216
▁costituisce	-10.0216
▁ross	-10.0218
▁accettare	-10.0219
stra	-10.022
▁esperienza	-10.023
▁tea	-10.0236
▁vediamo	-10.0241
▁power	-10.0249
rai	-10.0252
▁large	-10.0252
zzi	-10.0261
▁procedure	-10.0263
▁prezzo	-10.0268
▁economici	-10.027
▁direttamente	-10.0278
▁given	-10.0279
▁carne	-10.0293
▁george	-10.0294
▁crede	-10.0298
▁free	-10.0299
glio	-10.0303
▁dat	-10.0308
▁unite	-10.031
▁order	-10.031
▁nine	-10.0311
ini	-10.032
▁internet	-10.0329
▁wish	-10.0342
▁proposto	-10.0342
▁sala	-10.0344
▁government	-10.0345
▁definizione	-10.0345
▁present	-10.0346
▁domande	-10.0354
▁sin	-10.0358
▁band	-10.0361
ner	-10.0371
▁libri	-10.0383
▁modi	-10.0389
▁zone	-10.039
▁palazzo	-10.0398
▁terzi	-10.0402
▁avrebbero	-10.0406
▁promuovere	-10.041
▁documenti	-10.0411
bbe	-10.0417
▁dicendo	-10.0426
▁tenuto	-10.0427
▁dr	-10.0432
▁stabilità	-10.0432
▁captain	-10.044
▁past	-10.0443
▁adottare	-10.0444
▁essenziale	-10.0453
▁memoria	-10.0455
▁fo	-10.0455
▁credere	-10.0458
pro	-10.0462
▁soli	-10.0469
▁propone	-10.0478
ina	-10.0484
▁discorso	-10.0487
▁vengano	-10.0492
ah	-10.0495
▁chance	-10.0505
tò	-10.0505
▁usa	-10.051
gia	-10.0511
▁parlamentari	-10.0516
▁generali	-10.0526
▁veniva	-10.0526
▁mancanza	-10.0527
▁coraggio	-10.0527
▁2000	-10.053
▁ricorda	-10.0549
▁fornire	-10.0554
▁medio	-10.0565
▁pietro	-10.0584
▁risolvere	-10.059
▁lived	-10.0611
▁valori	-10.0621
ous	-10.0626
▁banca	-10.0626
▁moon	-10.0644
▁favorevole	-10.0646
▁conclusione	-10.0657
▁certi	-10.0658
▁vol	-10.0661
▁organizzazioni	-10.0662
▁belle	-10.0665
▁parlamentare	-10.0671
▁alone	-10.0673
▁opportuno	-10.0674
▁italiani	-10.0678
gno	-10.0686
▁puoi	-10.0699
▁molta	-10.0699
▁avrei	-10.0704
▁ground	-10.0704
▁faccio	-10.0713
▁truck	-10.0715
▁utile	-10.072
ente	-10.072
economia	-10.0721
▁figure	-10.0729
▁detta	-10.073
▁temi	-10.0732
▁massimo	-10.0739
▁wife	-10.074
▁march	-10.0742
▁note	-10.0746
▁herself	-10.0747
▁paragrafo	-10.0749
▁jo	-10.075
▁costo	-10.0759
▁effetto	-10.0761
nda	-10.0762
▁fish	-10.0765
▁venuto	-10.077
▁art	-10.0782
▁modifica	-10.0791
▁bunny	-10.0799
sci	-10.0804
6	-10.0818
▁totale	-10.082
▁giro	-10.0824
▁siccome	-10.0825
▁scrivere	-10.0825
line	-10.0826
▁jack	-10.0837
ggia	-10.0841
▁prevede	-10.0841
▁important	-10.0843
▁procedere	-10.0846
▁across	-10.0848
▁park	-10.0853
▁nemico	-10.0859
▁50	-10.0861
▁killed	-10.0863
?”	-10.0864
▁master	-10.0865
▁precedente	-10.0865
▁santo	-10.0868
▁sapete	-10.0875
▁lor	-10.0877
▁braccia	-10.0883
▁chiara	-10.0884
▁portato	-10.0884
▁joe	-10.0889
▁buy	-10.0889
tive	-10.0902
▁incontro	-10.0906
▁trasparenza	-10.0908
▁riteniamo	-10.0925
▁boat	-10.0928
▁sco	-10.093
▁febbraio	-10.0935
▁maestro	-10.0938
▁funzione	-10.0952
tivo	-10.0956
by	-10.0962
▁nato	-10.0968
▁francesi	-10.0973
▁giornata	-10.0975
▁necessarie	-10.0991
▁till	-10.0992
▁ate	-10.0993
▁cristo	-10.0996
▁ga	-10.1002
▁thanks	-10.1007
▁costa	-10.1008
▁sud	-10.1022
▁tried	-10.1024
▁everybody	-10.1025
▁povero	-10.1026
▁dovere	-10.1036
▁grazia	-10.104
▁segno	-10.1041
▁toy	-10.1043
▁votato	-10.1053
▁living	-10.1054
▁iniziativa	-10.1056
→	-10.1062
▁navi	-10.1062
▁fai	-10.1064
▁capitolo	-10.1065
▁aprile	-10.1067
▁otto	-10.1072
▁somma	-10.1078
▁informazione	-10.1086
▁books	-10.1095
▁aziende	-10.1096
▁earth	-10.11
▁capitano	-10.1101
▁conoscere	-10.1102
▁ricevuto	-10.1103
▁messa	-10.1107
▁department	-10.111
▁president	-10.111
▁superiore	-10.1112
».	-10.1114
▁problem	-10.1119
for	-10.1125
▁accesso	-10.1129
glo	-10.113
▁album	-10.1135
points	-10.1135
▁cried	-10.1139
▁arriva	-10.1142
ico	-10.1143
rra	-10.1145
▁deal	-10.115
▁basso	-10.1161
▁differenza	-10.1161
▁aperto	-10.1169
▁fast	-10.1177
she	-10.1203
2:	-10.1204
▁january	-10.1206
▁single	-10.1214
▁competenze	-10.1216
less	-10.1216
nina	-10.1217
30	-10.1219
tor	-10.1225
ghi	-10.1233
im	-10.1237
▁completamente	-10.1243
í	-10.1245
▁hit	-10.1246
▁acque	-10.1249
▁du	-10.1252
▁interventi	-10.1254
ld	-10.1259
▁argomento	-10.1261
ful	-10.1265
▁russia	-10.1266
▁quell	-10.1267
▁giusta	-10.1269
tá	-10.1269
▁standard	-10.1275
▁ru	-10.1278
▁relatrice	-10.1285
▁chiese	-10.1285
▁history	-10.1287
▁vittime	-10.1302
▁rock	-10.1305
▁devi	-10.1318
▁mama	-10.133
▁luoghi	-10.133
▁others	-10.1334
informazione	-10.1335
▁polizia	-10.134
nde	-10.1346
▁strutturali	-10.1348
▁scala	-10.1352
▁presa	-10.1363
▁potesse	-10.1364
▁aggiungere	-10.1368
▁trouble	-10.1379
ultima	-10.1384
▁senti	-10.1399
▁richiede	-10.1399
▁yep	-10.1401
▁capitale	-10.1402
▁west	-10.1404
bc	-10.1408
▁province	-10.1417
▁spagna	-10.1424
▁comincia	-10.1428
▁potete	-10.1435
▁innanzitutto	-10.1438
▁investimenti	-10.1438
▁scrive	-10.1439
▁evidente	-10.144
▁bag	-10.1441
▁bambino	-10.1464
▁numerosi	-10.1473
▁metodo	-10.1478
▁neppure	-10.1479
▁win	-10.1486
▁hat	-10.1487
▁sentito	-10.1488
zzazione	-10.1496
▁morti	-10.1504
▁nero	-10.1506
▁poche	-10.1508
nd	-10.1511
▁solamente	-10.1514
▁animals	-10.1523
gni	-10.1525
cci	-10.1525
▁tener	-10.1528
▁scienza	-10.153
▁turchia	-10.1534
▁contenuto	-10.1537
▁indi	-10.1544
▁energia	-10.1547
▁val	-10.155
▁diverso	-10.1552
▁mira	-10.1557
▁reti	-10.1565
▁computer	-10.1569
▁nemici	-10.157
▁america	-10.1589
my	-10.159
▁less	-10.1598
▁minaccia	-10.1607
▁spalle	-10.1616
▁vive	-10.1621
0	-10.1622
▁servi	-10.1632
▁become	-10.1633
▁castello	-10.1634
▁dark	-10.1636
▁gloria	-10.1644
▁ferma	-10.1645
▁answer	-10.1647
ggi	-10.1648
▁tramite	-10.1651
▁kids	-10.1658
▁tomorrow	-10.166
▁dallo	-10.1673
▁glad	-10.1674
▁trattamento	-10.1674
▁adam	-10.1675
▁visit	-10.1679
▁‘	-10.1695
▁ottobre	-10.1695
▁opinione	-10.1706
ley	-10.1708
▁famiglie	-10.1713
▁strong	-10.172
▁&	-10.1726
▁sguardo	-10.1727
▁relativi	-10.1727
tro	-10.1727
▁morire	-10.1731
ccia	-10.1735
▁radio	-10.1736
▁addirittura	-10.1737
▁colore	-10.1742
ya	-10.1749
ppo	-10.1749
▁porto	-10.1754
▁assicurare	-10.1754
▁office	-10.1763
ring	-10.1766
▁region	-10.1771
▁voler	-10.1772
▁rischi	-10.1774
▁special	-10.1781
▁mercati	-10.1785
br	-10.1792
▁leader	-10.1795
▁diventare	-10.1797
▁sarah	-10.1803
▁held	-10.1804
▁21	-10.1806
den	-10.1808
▁finanziari	-10.1808
▁indietro	-10.1814
▁commerciali	-10.1822
▁whether	-10.1825
▁riconoscimento	-10.1832
▁prezzi	-10.1833
▁trattati	-10.1834
▁ritorno	-10.1834
anti	-10.1834
childes	-10.1835
▁afraid	-10.1847
▁codice	-10.1851
▁childes	-10.1852
importanza	-10.1853
▁mary	-10.1854
ber	-10.1863
▁vantaggio	-10.187
▁hour	-10.1882
▁dinanzi	-10.1883
▁impossibile	-10.1887
▁finale	-10.1892
▁nomi	-10.1904
ul	-10.1905
▁occupazione	-10.1908
▁100	-10.1919
ari	-10.1925
▁farsi	-10.1928
▁pu	-10.1934
▁sino	-10.1939
▁class	-10.1947
▁series	-10.1959
▁rapporti	-10.1964
▁ama	-10.1966
▁chiamato	-10.1974
▁among	-10.1976
▁date	-10.1978
▁necessari	-10.1979
▁costruzione	-10.1983
▁wow	-10.1984
▁stanza	-10.1988
led	-10.1988
▁recente	-10.1995
tici	-10.2002
▁vide	-10.2005
▁kept	-10.2005
▁potenza	-10.2017
▁reason	-10.2019
▁unito	-10.202
▁ulteriori	-10.2042
tica	-10.2044
▁late	-10.2049
▁ones	-10.205
obs	-10.2051
▁vittoria	-10.2054
▁dinner	-10.2054
cia	-10.2054
▁foot	-10.2055
▁comunitaria	-10.2059
▁st	-10.2063
▁honey	-10.2064
▁permette	-10.2076
▁coordinamento	-10.2076
▁speak	-10.2085
▁consenso	-10.2087
▁ultima	-10.2089
▁elemento	-10.2095
▁easy	-10.2099
▁età	-10.2099
▁ice	-10.2103
▁discutere	-10.2106
▁partner	-10.2107
▁running	-10.2111
▁university	-10.2114
▁chiusa	-10.212
▁wind	-10.2122
▁figlia	-10.2124
applicazione	-10.2128
▁clear	-10.2132
all	-10.2139
▁christmas	-10.2151
▁named	-10.2156
▁osservazioni	-10.2156
▁fit	-10.2158
▁afferma	-10.2158
▁esistono	-10.2162
▁forti	-10.2164
▁buono	-10.2174
▁conosce	-10.2179
▁altrimenti	-10.218
▁aumento	-10.2185
▁movimento	-10.2185
essere	-10.219
attività	-10.2193
▁percento	-10.2198
▁terza	-10.2204
▁wonder	-10.2228
ze	-10.2231
uto	-10.2232
▁vecchia	-10.224
▁previsto	-10.2246
▁usare	-10.2246
▁thinking	-10.2253
▁marco	-10.2253
▁themselves	-10.2257
▁globale	-10.2264
▁summer	-10.2275
▁dicono	-10.2275
▁sostenibile	-10.2276
▁future	-10.228
▁stra	-10.228
▁elezioni	-10.2281
▁cavallo	-10.2281
▁tape	-10.229
▁sing	-10.2293
nto	-10.23
▁whatever	-10.2308
▁volume	-10.2311
aria	-10.2312
▁daughter	-10.2326
ion	-10.2328
▁eye	-10.234
▁limiti	-10.235
▁finora	-10.2354
▁ship	-10.2354
▁religione	-10.2357
▁league	-10.2358
▁entra	-10.2358
▁fat	-10.2359
osa	-10.237
▁figliuolo	-10.2377
▁anyway	-10.2379
▁intervenire	-10.238
▁sapeva	-10.2381
▁scena	-10.2382
▁leggere	-10.2388
▁finished	-10.239
▁23	-10.2393
▁lives	-10.2397
▁para	-10.2399
▁affermato	-10.2406
▁sicilia	-10.2407
▁esigenze	-10.2407
ità	-10.2412
▁aspetta	-10.2418
▁porte	-10.2421
▁pat	-10.2422
ff	-10.2433
▁finanziario	-10.2436
▁pienamente	-10.2436
▁rappresentanti	-10.2437
▁raggiunto	-10.2446
+	-10.2449
▁comes	-10.2454
▁massa	-10.2454
▁fifty	-10.2458
ko	-10.246
zia	-10.2474
▁happen	-10.2479
▁david	-10.2481
ad	-10.2486
▁preoccupazione	-10.2488
▁effettivamente	-10.2493
art	-10.2494
▁public	-10.2501
▁1,	-10.2509
▁troviamo	-10.2517
tiva	-10.252
▁dovranno	-10.2521
▁sale	-10.2521
of	-10.2521
▁rer	-10.2533
▁regola	-10.2533
▁birthday	-10.254
lia	-10.2556
▁antonio	-10.2564
▁braccio	-10.2565
▁andava	-10.2565
▁police	-10.2573
if	-10.2576
▁za	-10.258
▁altrettanto	-10.2584
▁form	-10.2587
▁combattere	-10.2588
▁solito	-10.2601
▁svolgere	-10.2609
▁risponde	-10.2611
▁mu	-10.2617
▁sforzo	-10.2618
▁soldi	-10.2619
▁beni	-10.2621
▁compromesso	-10.2622
au	-10.2627
way	-10.2632
ic	-10.2634
▁colpa	-10.2641
▁gets	-10.2649
▁army	-10.2662
▁ritiene	-10.267
▁definire	-10.2674
▁alimentare	-10.2674
▁th	-10.2679
ita	-10.2689
▁save	-10.2693
▁paolo	-10.2694
▁buoni	-10.2698
▁sport	-10.2699
iniziativa	-10.2701
▁caccia	-10.2705
▁instead	-10.2708
▁news	-10.2708
▁within	-10.2709
▁wall	-10.2712
▁dura	-10.2717
▁sullo	-10.2719
▁peccato	-10.2731
▁met	-10.2739
▁quantità	-10.2744
▁peso	-10.2745
▁vedo	-10.2748
eranno	-10.2749
▁pass	-10.275
▁realizzare	-10.2751
▁controlli	-10.2752
uti	-10.2755
▁career	-10.2755
▁window	-10.2763
▁system	-10.2774
▁torna	-10.2775
▁entrambi	-10.2778
▁salva	-10.2781
▁sat	-10.2781
▁cavalli	-10.2782
▁seems	-10.2786
▁court	-10.2787
ler	-10.2788
▁ital	-10.2791
▁inglese	-10.2795
▁arrivare	-10.2805
assemblea	-10.2809
▁origine	-10.2813
▁economiche	-10.2822
▁morale	-10.2826
▁usually	-10.2831
▁prossima	-10.2834
▁moneta	-10.2836
▁eating	-10.2843
▁dante	-10.2844
▁richieste	-10.285
▁fatte	-10.2855
▁pone	-10.2858
▁vento	-10.2864
7	-10.2872
▁rivoluzione	-10.2874
▁send	-10.2875
▁thousand	-10.2875
let	-10.2875
▁1999	-10.2876
zo	-10.2882
▁pounds	-10.2883
ndolo	-10.2883
▁trovano	-10.2889
▁tratti	-10.2894
▁spiega	-10.2895
▁excuse	-10.2899
▁third	-10.29
bus	-10.29
▁errore	-10.2902
▁pop	-10.2902
▁40	-10.2905
▁condotta	-10.2907
loi	-10.2907
▁villa	-10.2909
▁sitting	-10.2909
▁andò	-10.2911
nu	-10.2922
etto	-10.2923
▁board	-10.2924
▁costituzione	-10.2927
#	-10.2931
▁campi	-10.2935
▁arm	-10.2937
cche	-10.2938
mp	-10.2939
▁succede	-10.2939
▁human	-10.2939
▁august	-10.2943
▁betty	-10.2947
▁punta	-10.2957
▁filippo	-10.296
▁bellezza	-10.2962
▁importa	-10.2971
▁bye	-10.2972
▁nazione	-10.2975
▁suppose	-10.2982
▁locale	-10.2984
▁domenica	-10.2989
▁unica	-10.2992
▁aperta	-10.2993
▁caterpillar	-10.2997
▁talvolta	-10.3005
▁venti	-10.302
ù	-10.3021
▁above	-10.3022
▁compagnia	-10.3026
▁teatro	-10.3026
▁gar	-10.3028
▁tonight	-10.303
▁diede	-10.3033
▁dolce	-10.3037
▁competenza	-10.3038
▁stood	-10.3046
▁station	-10.3052
▁povertà	-10.3054
▁contribuire	-10.3059
▁responsabile	-10.3063
▁bu	-10.3065
▁agire	-10.3065
ute	-10.3074
▁miglioramento	-10.3076
▁fame	-10.3077
▁british	-10.3087
▁22	-10.309
▁linee	-10.3097
▁concerne	-10.3099
▁throw	-10.31
▁fate	-10.3101
▁proprietà	-10.3103
▁buone	-10.3103
su	-10.3108
▁bologna	-10.3112
▁september	-10.3113
°	-10.3115
ist	-10.3124
▁sounds	-10.3126
▁arte	-10.3128
ssime	-10.3135
▁marchese	-10.3138
▁lasciato	-10.3142
time	-10.3155
▁member	-10.3163
chè	-10.3171
ando	-10.3175
▁realizzazione	-10.3177
▁hours	-10.3178
▁pie	-10.3182
▁ciascuno	-10.3184
▁culturale	-10.3184
▁parlando	-10.3185
oso	-10.3186
▁perdere	-10.3194
ose	-10.3195
▁quick	-10.3197
▁parigi	-10.3202
▁espresso	-10.3204
▁distanza	-10.3208
▁accanto	-10.3217
▁approvato	-10.3218
▁england	-10.3221
▁finanziamento	-10.3222
▁east	-10.3222
▁parve	-10.3226
▁tv	-10.3226
▁provvedimenti	-10.3238
▁october	-10.3238
▁crea	-10.3247
▁fecero	-10.3254
▁analisi	-10.3255
▁exactly	-10.3255
sto	-10.3263
▁considerare	-10.3272
dio	-10.3281
▁capelli	-10.3281
▁player	-10.3284
▁27	-10.3286
▁miliardi	-10.3288
▁gioia	-10.329
▁classe	-10.3296
▁utilizzare	-10.3299
▁popolare	-10.3301
▁gra	-10.3304
▁provincia	-10.3304
▁revisione	-10.3305
▁cambiamento	-10.3311
▁riconoscere	-10.3324
▁cur	-10.3329
▁wood	-10.3329
▁potranno	-10.3336
▁rosso	-10.3352
ica	-10.3352
▁traffico	-10.3354
▁vostri	-10.3356
▁worked	-10.3358
▁lay	-10.3359
▁middle	-10.336
ante	-10.3368
ation	-10.3369
▁spa	-10.3373
▁porti	-10.3377
bra	-10.3377
agricoltura	-10.3378
▁diversa	-10.3379
▁cara	-10.338
▁nose	-10.3381
▁collo	-10.3382
▁fratelli	-10.3384
▁lasciare	-10.3386
▁livelli	-10.3388
10	-10.3389
▁č	-10.3389
▁ognuno	-10.3391
▁main	-10.3394
▁migliaia	-10.3395
▁cari	-10.3399
les	-10.3403
▁mura	-10.3408
▁gold	-10.3415
▁fri	-10.3415
▁festa	-10.3417
▁clothes	-10.3421
▁fair	-10.3423
▁everyone	-10.3424
can	-10.3424
▁coffee	-10.3424
▁militari	-10.3426
scono	-10.3428
▁doll	-10.3432
▁partecipare	-10.3436
▁cercando	-10.3436
▁volle	-10.3437
▁drive	-10.3439
▁pensato	-10.3444
come	-10.3447
▁web	-10.345
attuale	-10.345
▁passione	-10.3456
▁church	-10.3469
-0	-10.3473
▁viva	-10.3473
▁sostanze	-10.3476
▁commune	-10.3477
▁chiave	-10.348
ut	-10.3486
▁pubbliche	-10.3493
▁concludere	-10.3496
▁secret	-10.3497
▁ko	-10.3497
▁capito	-10.3499
bri	-10.3507
▁foto	-10.351
▁apple	-10.3512
ura	-10.3513
▁ja	-10.3514
▁shot	-10.3517
nta	-10.3517
▁ring	-10.3522
▁solidarietà	-10.3523
▁tornare	-10.3525
▁colpo	-10.3527
▁months	-10.3528
▁bilanci	-10.3534
▁island	-10.3536
▁married	-10.3536
▁26	-10.3539
▁approccio	-10.3541
▁draw	-10.3543
▁dover	-10.355
▁disciplina	-10.355
▁forget	-10.3552
▁esattamente	-10.3554
▁viso	-10.3554
▁season	-10.3555
▁normativa	-10.3558
▁vie	-10.3562
▁shut	-10.3564
▁materiale	-10.3568
▁corre	-10.3569
▁guardare	-10.3569
▁padrone	-10.3572
▁)	-10.3576
nato	-10.3577
▁romano	-10.3578
▁impegni	-10.3578
▁sfida	-10.358
▁pot	-10.3581
▁corona	-10.3589
▁manda	-10.359
euro	-10.359
ismo	-10.3596
▁district	-10.3597
▁touch	-10.3599
▁28	-10.3601
▁debito	-10.3602
▁television	-10.3603
▁modalità	-10.3606
▁relativo	-10.361
▁povera	-10.3615
organizzazione	-10.3621
▁ahead	-10.3621
▁quiet	-10.3629
uri	-10.3638
▁portata	-10.3639
▁whose	-10.364
qua	-10.3646
▁mangia	-10.3655
▁patto	-10.3657
▁seem	-10.3659
11	-10.3659
▁speciale	-10.3661
▁certe	-10.3663
▁giungere	-10.367
▁bal	-10.3672
enti	-10.3673
▁longer	-10.3685
▁terre	-10.3687
▁soluzioni	-10.3689
id	-10.3695
▁points	-10.3696
▁creato	-10.3699
▁partiti	-10.3701
▁space	-10.3701
▁tuoi	-10.3706
iti	-10.3712
9	-10.3717
▁pull	-10.3719
energia	-10.3721
q	-10.3725
▁cool	-10.3725
▁dimostrato	-10.3727
▁appoggio	-10.3729
▁mediante	-10.3732
▁antichi	-10.3733
▁clean	-10.3736
▁peter	-10.3737
▁sentiva	-10.3739
▁rispettare	-10.374
▁riunione	-10.3749
▁od	-10.3755
ps	-10.3755
▁act	-10.3757
▁offre	-10.3757
eremo	-10.3762
▁circolazione	-10.3769
▁tira	-10.3773
▁certain	-10.3776
▁decidere	-10.3779
cri	-10.3784
▁cambiare	-10.3787
▁guardia	-10.3791
▁volete	-10.3794
▁terreno	-10.3802
▁forward	-10.3806
▁uncle	-10.3808
takes	-10.3816
▁conflitto	-10.3818
▁interessante	-10.3829
!”	-10.3831
▁carico	-10.3832
▁bird	-10.3833
tivi	-10.3838
▁nuovamente	-10.3838
ir	-10.3842
▁indispensabile	-10.3845
▁strade	-10.3845
▁rapidamente	-10.3847
▁amsterdam	-10.3849
▁secoli	-10.3854
▁nobili	-10.3857
▁thirty	-10.3858
▁consiste	-10.3858
▁farà	-10.3866
▁college	-10.3866
mer	-10.3869
▁bottle	-10.387
▁complesso	-10.3871
▁warm	-10.3872
▁bright	-10.3877
▁&-	-10.3878
▁auguro	-10.3885
▁vivo	-10.3887
▁danni	-10.3888
▁cittadino	-10.3894
gne	-10.3898
▁storico	-10.3899
▁riforme	-10.3903
▁indeed	-10.3903
▁couple	-10.3904
▁position	-10.3908
▁wear	-10.3912
á	-10.3916
ish	-10.3919
▁gesù	-10.3921
▁april	-10.3925
▁certainly	-10.3939
▁medico	-10.3939
italia	-10.394
▁regina	-10.3941
▁match	-10.3943
▁frog	-10.3944
▁service	-10.3945
ito	-10.3958
▁sento	-10.396
▁dimensione	-10.3967
▁evening	-10.3969
▁rosa	-10.397
attenzione	-10.3971
▁decide	-10.3976
▁macchina	-10.3979
▁file	-10.398
▁eppure	-10.3984
▁design	-10.3992
▁ge	-10.4
▁aumentare	-10.4001
▁moved	-10.4002
▁although	-10.4006
▁genova	-10.4011
▁cake	-10.4015
▁andrea	-10.4017
▁merita	-10.4018
▁assistenza	-10.402
▁mor	-10.4022
▁ampio	-10.4024
▁sci	-10.4024
”,	-10.4025
▁dichiarazioni	-10.4026
▁leva	-10.4028
▁aiuta	-10.4028
▁scuole	-10.4038
▁lib	-10.4039
▁stabilire	-10.404
▁progresso	-10.4042
▁waiting	-10.4044
▁sha	-10.4047
▁list	-10.4048
▁weeks	-10.4049
▁nina	-10.4051
▁conclusioni	-10.4051
▁sogno	-10.4051
▁uscire	-10.4062
▁possibili	-10.4064
▁plan	-10.4074
▁catch	-10.4075
▁tocca	-10.4076
▁sick	-10.4079
▁spetta	-10.408
▁building	-10.4082
▁]	-10.4092
▁cammino	-10.4096
▁quarto	-10.4096
▁built	-10.4098
▁bra	-10.4099
uta	-10.41
▁million	-10.4104
▁passed	-10.4111
▁takes	-10.4112
▁novità	-10.4116
▁written	-10.4121
▁chief	-10.4123
20	-10.4129
ghe	-10.4142
▁persino	-10.4142
▁count	-10.4143
▁settimane	-10.4144
▁paga	-10.4146
ity	-10.4146
▁paio	-10.4148
▁putting	-10.4155
▁pagare	-10.4161
▁ricorso	-10.4162
▁enorme	-10.4165
▁commerciale	-10.4166
▁snow	-10.4169
▁facilmente	-10.4176
▁careful	-10.4179
▁former	-10.4193
▁gun	-10.4196
▁precedenti	-10.42
▁immediatamente	-10.4205
makes	-10.4206
▁visione	-10.4206
▁tecnologia	-10.4208
▁vecchi	-10.4213
▁ver	-10.4215
ava	-10.4217
▁partenza	-10.4219
▁responsabili	-10.4226
▁rafforzare	-10.4228
▁je	-10.4232
opinione	-10.4237
▁hu	-10.424
▁possible	-10.4241
▁quindici	-10.4245
▁strange	-10.4247
cce	-10.4252
▁london	-10.4261
▁serio	-10.4264
▁civili	-10.4265
▁poeta	-10.4273
▁spesa	-10.4275
▁bell	-10.4279
ary	-10.428
▁village	-10.428
▁consigli	-10.4282
▁comporta	-10.431
▁comprende	-10.4313
▁lega	-10.4314
▁kitty	-10.432
▁vai	-10.4326
▁jump	-10.4338
▁ricevere	-10.4342
▁percorso	-10.4344
rebbero	-10.4347
ché	-10.4349
▁votare	-10.435
▁colori	-10.4352
pri	-10.4352
▁critica	-10.4353
▁broke	-10.4354
▁disponibili	-10.4356
▁vino	-10.4361
▁finanziaria	-10.4362
▁blood	-10.4373
▁attuazione	-10.4375
▁tired	-10.4376
nsi	-10.4377
▁puzzle	-10.438
▁sam	-10.4386
▁queen	-10.4397
▁insomma	-10.44
▁luigi	-10.4401
▁sca	-10.4403
▁tavola	-10.441
▁studenti	-10.4412
▁applicare	-10.4424
▁major	-10.4424
▁aree	-10.4425
▁cosí	-10.4425
▁ambientali	-10.4429
ani	-10.4434
▁bob	-10.4434
▁pieces	-10.4434
▁messaggio	-10.444
ppi	-10.444
▁funzionamento	-10.4444
▁released	-10.4446
▁afternoon	-10.4447
▁petto	-10.4462
▁compagni	-10.4464
ger	-10.4471
▁caught	-10.4476
▁ponte	-10.4488
▁passaggio	-10.4494
▁notizia	-10.4495
▁esistenti	-10.4497
▁replied	-10.45
▁contiene	-10.45
▁particolari	-10.4502
ron	-10.4503
how	-10.4504
▁hall	-10.4506
▁peggio	-10.4507
▁cannot	-10.4512
▁coesione	-10.4514
laughing	-10.4514
▁sentimento	-10.4517
▁chiari	-10.4528
▁costruire	-10.4529
▁trees	-10.4529
▁2020	-10.4529
▁bill	-10.453
▁nobody	-10.4536
op	-10.4537
▁yo	-10.454
mini	-10.4549
▁dov	-10.455
▁torre	-10.4557
▁kitchen	-10.4562
▁garden	-10.4562
▁elephant	-10.4563
tamente	-10.4564
▁orange	-10.4572
▁dignità	-10.4581
▁consentire	-10.4585
▁games	-10.4586
▁dress	-10.4586
▁pig	-10.4587
ties	-10.459
▁cor	-10.4595
lin	-10.4596
▁egg	-10.4599
▁29	-10.4601
▁june	-10.4601
▁occupa	-10.4608
▁monti	-10.4608
▁chiunque	-10.461
▁pane	-10.4614
gio	-10.4618
▁31	-10.4621
▁international	-10.4625
▁agricola	-10.4639
▁desidera	-10.4641
▁inizio	-10.4641
▁assemblea	-10.4644
▁cre	-10.4648
▁mum	-10.465
vol	-10.4651
age	-10.4652
▁ue	-10.4655
▁andiamo	-10.4655
▁ricordato	-10.4661
▁fiume	-10.4663
▁quickly	-10.4668
unica	-10.4669
tus	-10.4669
▁toscana	-10.4678
▁answered	-10.4678
▁genitori	-10.4678
▁sposa	-10.4683
mother	-10.4683
▁nor	-10.4686
▁telling	-10.4689
▁tosto	-10.4691
▁prossimi	-10.4693
▁attuali	-10.4697
▁battle	-10.47
iche	-10.4705
▁disoccupazione	-10.4706
una	-10.4707
▁sanità	-10.4709
▁report	-10.4714
▁compiere	-10.4716
▁finanziarie	-10.4719
▁utili	-10.472
▁vo	-10.4722
▁broken	-10.4724
ori	-10.4725
▁mila	-10.4725
there	-10.4726
▁moto	-10.4726
▁bri	-10.4732
▁economia	-10.4734
▁permesso	-10.4736
▁voci	-10.4737
▁pezzo	-10.4738
▁aria	-10.4743
▁tecnologie	-10.4746
▁sorta	-10.4747
▁standing	-10.4749
▁noto	-10.4751
▁affermare	-10.4751
▁private	-10.4759
spi	-10.477
▁pagina	-10.4781
▁yup	-10.4783
▁anna	-10.4784
▁arms	-10.4787
▁husband	-10.479
▁liberalizzazion	-10.4796
▁magnet	-10.48
mbo	-10.4801
▁feeling	-10.4801
▁democratico	-10.4805
▁conquista	-10.4807
amp	-10.4807
▁2,	-10.4808
▁finger	-10.4819
▁eventi	-10.4821
▁cross	-10.4822
▁grecia	-10.4824
▁app	-10.4824
ning	-10.4829
%	-10.4836
▁é	-10.4841
▁specifica	-10.4843
▁noises	-10.4844
▁anyone	-10.4845
▁completa	-10.4847
▁towards	-10.485
▁whom	-10.4855
▁diciamo	-10.4856
▁valle	-10.4857
ac	-10.4859
]?	-10.4862
▁immagini	-10.4869
▁sweet	-10.4869
▁shoes	-10.4877
▁tende	-10.4877
▁facoltà	-10.4879
▁potevano	-10.488
▁seguenti	-10.4881
▁asilo	-10.4883
▁produttori	-10.4884
▁july	-10.4887
▁giu	-10.4893
▁sforza	-10.4894
▁messi	-10.4901
▁return	-10.4904
▁law	-10.4905
▁check	-10.4911
▁supposed	-10.4917
▁triste	-10.4919
▁giustamente	-10.4924
▁ottenuto	-10.4929
▁anymore	-10.493
ndola	-10.4931
▁racconta	-10.4936
▁peraltro	-10.4937
king	-10.4937
▁strutture	-10.4938
▁onore	-10.494
▁bobby	-10.4944
▁medesima	-10.4948
▁heavy	-10.4948
▁bassi	-10.495
▁rimanere	-10.4953
▁hospital	-10.4953
▁limite	-10.4955
▁2001	-10.4958
▁marcia	-10.4962
▁notizie	-10.4969
▁learn	-10.497
▁sol	-10.4975
wa	-10.4978
erò	-10.498
▁ordini	-10.4982
▁stima	-10.4986
▁preoccupazioni	-10.4989
▁eleanor	-10.5004
▁ab	-10.5005
tiche	-10.5009
▁level	-10.5009
ent	-10.5029
▁lie	-10.5031
▁grosso	-10.5035
ser	-10.5036
▁specialmente	-10.5039
▁vostre	-10.5044
▁aula	-10.5048
▁following	-10.5055
▁low	-10.5061
ppe	-10.5066
▁wild	-10.5069
▁scambio	-10.5069
▁africa	-10.5072
▁singoli	-10.5074
▁vicini	-10.5076
▁places	-10.5092
▁posizioni	-10.5095
▁lunch	-10.5095
▁contempo	-10.5096
▁returned	-10.5097
▁stile	-10.51
▁2003	-10.5105
▁piani	-10.5108
▁turismo	-10.5109
▁minimo	-10.5114
stri	-10.5115
▁narra	-10.5119
▁pronto	-10.5126
pre	-10.5128
97	-10.5133
▁finish	-10.5135
▁meeting	-10.5146
▁pictures	-10.5149
▁adottato	-10.5154
▁finito	-10.5157
▁giuridico	-10.516
▁andato	-10.5161
▁using	-10.5162
▁miles	-10.5163
▁personali	-10.5165
▁sky	-10.5166
▁common	-10.5167
▁funzioni	-10.5169
▁profondo	-10.517
▁1998	-10.5175
▁sanno	-10.5176
▁decided	-10.5177
▁offrire	-10.5182
▁dovesse	-10.5194
▁dominio	-10.5197
▁ke	-10.5198
▁significato	-10.5198
▁situazioni	-10.5201
▁luna	-10.5209
nne	-10.5209
▁scusa	-10.521
▁rifiuti	-10.521
▁kid	-10.5217
▁medici	-10.523
▁dev	-10.5232
▁rumore	-10.5233
occasione	-10.5249
▁labbra	-10.5257
▁sviluppare	-10.5268
▁semi	-10.5275
▁tenta	-10.528
▁ferro	-10.5284
▁primavera	-10.5288
endo	-10.529
ici	-10.529
▁veduto	-10.5294
▁mangiare	-10.5294
ampliamento	-10.5301
▁dipende	-10.5309
▁minori	-10.5311
why	-10.5313
▁mon	-10.5315
▁scegliere	-10.5316
ny	-10.5319
▁cervello	-10.5319
▁frontiere	-10.532
▁rain	-10.5321
▁vendita	-10.5322
▁pelle	-10.5324
nna	-10.5325
▁intenzione	-10.5327
▁gradi	-10.5331
▁vesti	-10.5332
▁chiarezza	-10.5336
▁notevole	-10.5336
▁quante	-10.5339
▁cane	-10.5343
▁condanna	-10.5346
fer	-10.535
▁pei	-10.5351
▁chapter	-10.5351
▁darling	-10.5352
red	-10.5355
▁scene	-10.5356
▁guerre	-10.5357
▁metodi	-10.5358
▁store	-10.536
▁viola	-10.5362
▁nearly	-10.5364
▁cheese	-10.5365
ten	-10.537
▁changed	-10.5376
▁segreto	-10.5377
▁bianca	-10.5382
▁force	-10.5383
gai	-10.5384
▁estera	-10.5384
▁comprendere	-10.5385
▁conferma	-10.5385
▁verifica	-10.539
▁2015	-10.5394
ism	-10.5395
▁discussioni	-10.5398
▁straight	-10.5401
▁errori	-10.5401
▁naturali	-10.5406
▁works	-10.5408
▁attiva	-10.5413
▁build	-10.5425
▁ministero	-10.5431
▁beh	-10.5432
▁sorriso	-10.5434
▁sense	-10.5434
▁plate	-10.5441
▁versione	-10.5445
▁avviene	-10.545
▁facevano	-10.5451
▁tecnica	-10.5451
gu	-10.5451
san	-10.5452
▁neanche	-10.5463
▁verranno	-10.5467
▁pietra	-10.5472
adesione	-10.5472
cio	-10.5473
anni	-10.5474
▁riconosce	-10.5475
ard	-10.5475
ula	-10.5476
▁agosto	-10.5477
▁aiutare	-10.5479
▁disegno	-10.5481
▁december	-10.5482
▁stars	-10.5485
50	-10.5486
ol	-10.5488
▁pensieri	-10.5489
▁aprire	-10.5491
▁tecniche	-10.5502
▁divieto	-10.5502
▁giunto	-10.5503
area	-10.5507
▁push	-10.5508
▁1996	-10.5509
▁trans	-10.551
▁reso	-10.5515
▁scarpe	-10.5517
▁prevenzione	-10.5518
attuazione	-10.552
▁safe	-10.5523
▁pratiche	-10.5524
▁presta	-10.5525
▁lieto	-10.5534
accesso	-10.5536
▁missione	-10.554
▁prince	-10.5543
▁circostanze	-10.5545
▁cookie	-10.5547
▁worry	-10.555
▁wrote	-10.5555
▁zi	-10.5559
▁comunitarie	-10.5559
▁muta	-10.556
▁yesterday	-10.556
▁israele	-10.5567
▁truth	-10.5572
ane	-10.5588
▁nu	-10.5589
▁cu	-10.5591
zzare	-10.5592
▁chiediamo	-10.5593
lly	-10.5594
▁nasce	-10.5595
istruzione	-10.5597
▁ste	-10.5602
▁testi	-10.5604
▁croce	-10.561
▁soggetti	-10.5614
▁arti	-10.5614
▁cha	-10.5614
▁sal	-10.5615
▁contatto	-10.5615
▁alcuno	-10.5617
▁blow	-10.5619
erebbe	-10.5621
▁animo	-10.5623
ario	-10.5624
▁holding	-10.5625
▁ufficiale	-10.5625
▁stai	-10.5628
▁avessero	-10.5632
▁wi	-10.5634
▁giuseppe	-10.5635
▁raccolta	-10.5635
▁debbano	-10.5638
▁union	-10.5639
▁clima	-10.564
mila	-10.5641
▁magari	-10.5642
▁malattia	-10.5646
▁anybody	-10.5646
▁prego	-10.5648
▁adesione	-10.5649
▁contenuti	-10.5656
rdi	-10.5659
▁presentazione	-10.5659
▁deep	-10.5659
▁interna	-10.566
▁blu	-10.566
▁fraser	-10.5662
▁profonda	-10.5663
▁(19	-10.5668
▁sposta	-10.5668
▁equilibrio	-10.5673
▁cars	-10.5676
▁prospettiva	-10.5678
ls	-10.5679
▁carte	-10.5682
▁democratica	-10.5683
▁svolgerà	-10.5685
ola	-10.5686
etta	-10.5686
▁accade	-10.5687
rd	-10.5687
▁numerose	-10.5688
▁universale	-10.5692
tes	-10.5702
ndomi	-10.5714
▁interni	-10.5715
▁uguale	-10.5715
▁seat	-10.5716
▁cro	-10.5719
ping	-10.5719
▁fellow	-10.572
▁ain	-10.5721
▁grida	-10.5723
▁legno	-10.5727
▁direttive	-10.573
▁esprime	-10.5731
▁formula	-10.5733
▁confini	-10.5733
ven	-10.5734
▁tribunale	-10.5738
▁sorte	-10.5739
colo	-10.574
▁sente	-10.5741
glie	-10.5741
stro	-10.5748
▁china	-10.5757
▁perch	-10.5757
▁rappresentano	-10.5758
▁opened	-10.5759
▁impresa	-10.5759
▁ritorna	-10.5767
▁penale	-10.5771
▁inizia	-10.5771
▁cina	-10.5778
▁maggiormente	-10.578
▁german	-10.578
▁modifiche	-10.5786
▁americani	-10.5786
aula	-10.5793
▁suddenly	-10.5793
▁colui	-10.5793
▁rimase	-10.5794
▁professionale	-10.5794
▁piu	-10.5797
▁november	-10.5797
▁hell	-10.5799
▁sight	-10.5804
allargamento	-10.581
▁tentativo	-10.5813
▁cibo	-10.5817
▁consente	-10.5819
▁z	-10.582
▁trovo	-10.5821
puts	-10.5823
not	-10.5824
van	-10.5824
voli	-10.5829
▁oriente	-10.5835
▁perfettamente	-10.5842
▁momenti	-10.5842
impegno	-10.5843
▁ragazza	-10.5846
bilità	-10.585
▁presentati	-10.5851
")	-10.5852
▁introdurre	-10.5853
▁sonno	-10.5853
▁cry	-10.5855
▁ar	-10.5859
▁laughing	-10.5859
dia	-10.5861
▁dance	-10.5865
▁finire	-10.5866
olo	-10.5866
cy	-10.5874
▁lovely	-10.5875
interesse	-10.5876
▁attack	-10.5876
▁poesia	-10.5878
▁promozione	-10.5878
▁ultime	-10.5879
▁alquanto	-10.5885
▁fiscale	-10.5889
▁support	-10.589
▁metri	-10.5897
▁interessati	-10.5899
▁pio	-10.59
16	-10.59
▁sanzioni	-10.59
▁operazioni	-10.5901
▁agricoltori	-10.5906
▁wand	-10.5908
je	-10.591
▁condurre	-10.591
ista	-10.5911
▁council	-10.5917
▁oggetti	-10.5917
▁lingue	-10.5922
▁attesa	-10.5925
▁attorno	-10.5928
▁doubt	-10.5931
▁regionali	-10.5932
▁pressione	-10.5939
intera	-10.5939
▁control	-10.594
▁fonte	-10.5942
▁toward	-10.5943
▁terribile	-10.5945
▁indian	-10.5947
ies	-10.5949
▁veri	-10.5954
▁malgrado	-10.5955
▁produce	-10.5964
▁serra	-10.5965
ham	-10.597
▁materiali	-10.5971
▁cover	-10.5977
▁rimasto	-10.5978
▁stopped	-10.5978
▁nn	-10.598
gre	-10.598
▁hill	-10.5981
▁imp	-10.5982
day	-10.5982
▁hang	-10.5983
▁lots	-10.5986
▁vedete	-10.5988
▁requisiti	-10.5988
▁saputo	-10.5989
▁soddisfazione	-10.599
opera	-10.5994
risate	-10.5998
▁merci	-10.6001
▁fucking	-10.6003
▁vieni	-10.601
▁riceve	-10.6014
▁potremmo	-10.6016
▁impedire	-10.6017
▁ooh	-10.6019
▁malattie	-10.6022
esperienza	-10.6024
▁vantaggi	-10.6029
▁meant	-10.6033
▁giving	-10.6034
▁beat	-10.6034
▁appello	-10.6035
▁gara	-10.6038
dy	-10.6042
▁logica	-10.6044
▁capital	-10.6045
▁trust	-10.6049
▁mise	-10.6059
▁segue	-10.6061
▁fix	-10.6063
ttu	-10.6063
▁record	-10.6071
▁gu	-10.6074
▁difendere	-10.6077
▁juice	-10.6078
▁card	-10.6087
▁flowers	-10.6088
▁sottolineato	-10.6089
▁aunt	-10.6093
sione	-10.6101
▁2004	-10.6107
▁ricordi	-10.6109
▁dodici	-10.6113
▁considerato	-10.6113
▁decreto	-10.6117
▁manifesta	-10.612
they	-10.6122
▁unità	-10.6123
▁sostanza	-10.6123
via	-10.6129
applausi	-10.6131
▁specifico	-10.6132
ud	-10.6133
▁poli	-10.6136
▁invito	-10.6137
sia	-10.6139
fu	-10.6141
▁por	-10.6146
▁michael	-10.615
▁dimostrare	-10.6152
▁deriva	-10.6152
▁espressione	-10.6155
▁sabato	-10.6158
▁rin	-10.6161
poli	-10.6169
ding	-10.617
▁vedeva	-10.6179
▁step	-10.6179
▁sembrava	-10.6183
▁extra	-10.6186
▁race	-10.6189
▁bruxelles	-10.619
▁freddo	-10.619
▁rovina	-10.6192
▁esperti	-10.6195
rsene	-10.62
▁abitanti	-10.6203
▁promise	-10.6203
ono	-10.6203
▁fermo	-10.6203
▁valutare	-10.6208
▁matrimonio	-10.6211
tum	-10.6211
▁quantunque	-10.6212
ene	-10.6218
▁february	-10.6219
▁disponibilità	-10.622
▁incontra	-10.6222
▁fear	-10.6224
▁stupid	-10.6224
cal	-10.623
▁goin	-10.624
▁sign	-10.6241
▁hole	-10.6243
▁pagine	-10.6247
▁dan	-10.6247
▁members	-10.6253
▁fenomeno	-10.6258
▁reached	-10.6258
▁chicken	-10.6259
mba	-10.6262
▁fly	-10.6269
▁bottom	-10.6271
▁durata	-10.6277
▁kingdom	-10.6281
▁riesce	-10.6281
ello	-10.6286
▁carry	-10.6287
▁tradizione	-10.6292
sque	-10.6294
▁account	-10.6298
▁lavora	-10.6303
tic	-10.6304
▁preparazione	-10.6306
▁anco	-10.6306
▁farm	-10.6311
▁parità	-10.6315
▁associazione	-10.6316
▁semplici	-10.6319
▁ze	-10.632
nata	-10.6325
▁fianco	-10.6332
▁followed	-10.6333
▁writing	-10.6339
enza	-10.6341
▁local	-10.6342
ric	-10.6342
▁ought	-10.6345
trici	-10.6346
▁vescovo	-10.6355
▁ufficio	-10.6356
▁2002	-10.6358
▁needs	-10.6359
▁opinioni	-10.636
▁esercito	-10.6365
iva	-10.6367
▁volevo	-10.6367
▁view	-10.6382
▁appare	-10.6382
▁consumatore	-10.6382
▁dimenticare	-10.6391
▁contratto	-10.6397
stica	-10.6399
▁duck	-10.6407
▁potente	-10.6407
▁tecnico	-10.6408
▁pretend	-10.6408
▁finestra	-10.6414
▁washington	-10.6419
▁rientra	-10.6421
▁tasso	-10.6423
ite	-10.6423
▁vada	-10.6424
▁lisbona	-10.643
▁cava	-10.6433
▁block	-10.6434
mpa	-10.6436
▁field	-10.6436
▁follow	-10.6437
▁spi	-10.6439
aun	-10.6439
▁romana	-10.6441
▁wa	-10.6451
▁perde	-10.6462
▁vii	-10.6462
▁received	-10.6463
▁pontefice	-10.6465
▁comunitari	-10.6482
▁giacomo	-10.6489
▁monta	-10.6493
▁teneva	-10.6493
▁quota	-10.6493
▁dimensioni	-10.6496
▁reali	-10.6496
▁except	-10.6501
▁esseri	-10.6502
▁added	-10.6509
▁bru	-10.651
▁intendo	-10.651
mma	-10.6511
▁corner	-10.6518
introduzione	-10.652
▁protocollo	-10.6523
▁tenendo	-10.6526
▁miglior	-10.6526
▁categoria	-10.6529
12	-10.6533
▁comma	-10.6537
▁alessandro	-10.6537
▁ju	-10.6539
▁capace	-10.6541
▁bow	-10.6542
▁tro	-10.6546
▁social	-10.6551
▁silly	-10.6561
▁tiene	-10.6561
▁india	-10.6562
ju	-10.6567
▁personalmente	-10.6568
▁appeared	-10.6573
cor	-10.6575
▁cesare	-10.6576
▁copia	-10.6578
▁cucina	-10.6587
tevi	-10.6592
▁spettacolo	-10.6594
▁venuta	-10.6596
▁tower	-10.6596
▁lose	-10.6597
▁km	-10.66
esercizio	-10.6602
▁minore	-10.6603
▁risposte	-10.6605
▁esteri	-10.6608
▁hotel	-10.6608
tz	-10.6609
etti	-10.6613
gue	-10.6615
▁deputato	-10.6617
▁des	-10.6619
▁spada	-10.6621
▁japan	-10.6623
▁lunghi	-10.6623
isce	-10.6623
▁continuo	-10.6627
▁esempi	-10.6627
▁avremo	-10.6629
▁inutile	-10.6629
▁hurry	-10.6629
▁brand	-10.6635
▁forty	-10.6644
▁congratularmi	-10.6653
▁00	-10.6653
▁zio	-10.6656
unt	-10.6659
ak	-10.666
▁dream	-10.6661
▁poteri	-10.6661
ffi	-10.6661
▁compiti	-10.6663
▁distance	-10.6664
▁circle	-10.6666
▁ulteriore	-10.6668
▁include	-10.667
sing	-10.6672
▁timore	-10.6673
▁nove	-10.6675
▁argomenti	-10.6676
▁fatica	-10.6679
▁ufficiali	-10.6682
▁sunday	-10.6694
▁conta	-10.6695
▁dava	-10.6696
▁corsi	-10.6697
▁»	-10.6699
▁giunta	-10.67
rica	-10.6706
▁cominciò	-10.6712
▁parco	-10.6715
▁accompagna	-10.672
▁perfect	-10.6721
mon	-10.6725
▁wonderful	-10.6731
▁leone	-10.6731
▁richard	-10.6736
ris	-10.6754
▁accogliere	-10.6755
▁segnale	-10.6757
▁castle	-10.6759
▁further	-10.6759
▁sti	-10.676
unico	-10.6768
▁happens	-10.677
▁cala	-10.6771
▁example	-10.6774
▁eccellente	-10.6775
▁osserva	-10.6776
▁spring	-10.6783
ville	-10.6793
▁breakfast	-10.6795
▁2005	-10.6799
▁bath	-10.6803
▁cream	-10.6806
▁lista	-10.6806
▁montagna	-10.6808
▁umane	-10.6808
zie	-10.6809
▁sali	-10.6811
▁felici	-10.6812
▁versi	-10.6813
mb	-10.6816
▁funziona	-10.6818
▁popolazioni	-10.682
▁fiore	-10.6823
▁sospetto	-10.6825
▁altrove	-10.6827
▁avvicina	-10.6828
ide	-10.6828
▁sembrano	-10.683
pu	-10.6831
▁dichiara	-10.6835
▁direttore	-10.6838
▁seguita	-10.6838
▁multi	-10.6838
▁assume	-10.6839
▁knows	-10.6843
▁rich	-10.6844
▁cambia	-10.6847
nk	-10.6847
▁sentenza	-10.6851
▁trovò	-10.6855
▁dovremo	-10.6862
▁diretto	-10.6866
▁destinati	-10.6866
▁tue	-10.6868
▁indica	-10.687
▁avevamo	-10.6876
13	-10.6877
▁vergogna	-10.688
▁caratteristiche	-10.6886
▁delegazione	-10.6886
▁atteggiamento	-10.6889
▁cavaliere	-10.6889
▁differenze	-10.6898
▁potremo	-10.6898
▁voti	-10.6899
vasi	-10.69
▁operatori	-10.6901
▁fre	-10.6901
▁spot	-10.6904
▁organi	-10.6906
▁arma	-10.6907
▁frank	-10.691
ens	-10.6914
▁intero	-10.6918
▁monetaria	-10.692
cla	-10.6923
▁bank	-10.6929
▁ascolta	-10.6934
▁emissioni	-10.6934
▁leg	-10.6937
▁grow	-10.694
▁yours	-10.6943
▁dichiarato	-10.6944
tions	-10.6945
▁considera	-10.6949
▁legato	-10.6951
▁moving	-10.6954
▁fuck	-10.6956
stico	-10.6956
▁trovava	-10.6957
▁ostacoli	-10.6965
▁stock	-10.6968
▁gira	-10.6969
▁language	-10.697
▁esclamò	-10.6983
▁intergovernativ	-10.6983
▁articoli	-10.6983
▁orientamenti	-10.6983
▁positivi	-10.6985
▁odio	-10.6997
▁pla	-10.6997
▁fila	-10.7
▁presi	-10.7001
▁sar	-10.7009
▁legs	-10.7011
ppa	-10.7017
▁stia	-10.702
▁possesso	-10.7021
▁squadra	-10.7021
▁cercato	-10.7023
▁pin	-10.7026
▁1995	-10.7027
▁continue	-10.703
▁notare	-10.703
▁ragazzo	-10.7032
▁bought	-10.7033
▁strano	-10.7033
▁60	-10.7035
▁vivi	-10.7035
15	-10.7037
▁grand	-10.7037
▁lasciò	-10.704
▁track	-10.7042
▁accetta	-10.7043
▁sorella	-10.7043
mus	-10.7045
▁busy	-10.7047
▁tail	-10.7051
▁vado	-10.7051
▁positiva	-10.7059
▁ricchi	-10.7062
▁consumo	-10.7069
▁flessibilità	-10.7069
▁cambiamenti	-10.707
▁pietà	-10.7072
udi	-10.7075
▁conserva	-10.708
▁napoleone	-10.7081
arte	-10.7082
▁lead	-10.7082
▁greci	-10.7091
▁mala	-10.7092
▁statua	-10.7094
▁beginning	-10.7094
▁including	-10.71
▁2008	-10.7104
▁soft	-10.7105
ux	-10.7106
▁parents	-10.7106
▁riuscire	-10.7106
▁medie	-10.7106
▁watching	-10.7107
ken	-10.7111
▁concrete	-10.7112
▁approvazione	-10.7115
▁iniziare	-10.7116
▁tipi	-10.7121
side	-10.7123
14	-10.7127
▁carried	-10.7127
▁cow	-10.713
▁comunale	-10.7131
out	-10.7136
▁population	-10.7137
▁garanzia	-10.7137
▁reading	-10.7139
▁permettere	-10.7154
▁dissi	-10.7155
ian	-10.7155
▁specifiche	-10.7156
▁machine	-10.7161
▁considerando	-10.7162
▁orientale	-10.7165
▁perdita	-10.7169
▁vennero	-10.717
▁grass	-10.7179
tene	-10.7181
▁influenza	-10.7184
▁esperienze	-10.7187
▁nondimeno	-10.7187
▁amministrazione	-10.7188
▁nucleare	-10.7191
▁lancia	-10.7192
▁stone	-10.7195
▁cristiani	-10.7197
▁teacher	-10.7198
▁welcome	-10.7199
▁<	-10.7206
▁interrogazioni	-10.7207
▁pranzo	-10.7209
▁drop	-10.7211
▁ut	-10.7212
amore	-10.7214
gan	-10.7218
▁diretta	-10.7224
▁senato	-10.7224
▁giornali	-10.723
▁prospettive	-10.7231
▁liked	-10.7232
▁vedendo	-10.7235
▁nobile	-10.7235
▁comando	-10.724
auto	-10.7244
▁laugh	-10.7246
▁basi	-10.725
▁sand	-10.7251
▁bravo	-10.7259
▁potè	-10.7261
▁avviare	-10.7263
▁esclusivamente	-10.7263
▁robert	-10.7267
▁aspettare	-10.7267
otto	-10.7271
▁unicamente	-10.7287
sche	-10.7289
▁integrazione	-10.7297
then	-10.7299
▁taluni	-10.7299
her	-10.73
▁constatare	-10.7302
▁somewhere	-10.7303
wi	-10.7305
▁privati	-10.7307
▁trip	-10.7307
▁modificare	-10.7307
▁information	-10.7308
kin	-10.7311
▁saint	-10.7313
▁chiuso	-10.7315
▁premio	-10.7317
▁hate	-10.7317
▁latte	-10.7321
rone	-10.7323
▁pensi	-10.7324
▁norma	-10.7325
▁finchè	-10.7327
▁alti	-10.7328
▁stage	-10.7329
▁quivi	-10.7329
▁leaving	-10.7331
▁exclaimed	-10.7332
▁organizzazione	-10.7333
▁dolly	-10.7335
▁professional	-10.7342
▁pianta	-10.7343
▁antico	-10.7345
▁riguardano	-10.7345
▁ebbene	-10.7351
▁mad	-10.7353
▁cost	-10.7354
▁gio	-10.7356
▁parecchi	-10.7358
ku	-10.736
▁shop	-10.7362
▁prete	-10.7364
▁viii	-10.7365
▁speciali	-10.7365
▁2013	-10.737
spe	-10.7371
▁sad	-10.7372
▁alimentari	-10.7374
▁riserva	-10.7378
▁industria	-10.7382
www	-10.7385
▁giardino	-10.739
ance	-10.7391
▁based	-10.7393
▁rivela	-10.7393
▁eravamo	-10.7397
ella	-10.7397
▁linguaggio	-10.7397
▁costituiscono	-10.7401
▁conciliazione	-10.7402
▁teeth	-10.7402
▁james	-10.7403
▁rappresentante	-10.7409
▁bread	-10.7416
▁taglia	-10.7417
nes	-10.7418
▁prevista	-10.7421
▁interesting	-10.7424
▁riconosciuto	-10.7427
▁fonda	-10.7432
▁rabbit	-10.7435
▁3,	-10.7436
▁2007	-10.7437
▁benessere	-10.7437
▁compiuto	-10.744
▁resistenza	-10.7441
▁torino	-10.7442
▁legislativo	-10.7446
▁osservazione	-10.7446
mine	-10.7451
▁condotto	-10.7459
▁final	-10.746
▁taste	-10.7467
▁seeing	-10.7471
▁scale	-10.7471
▁ulteriormente	-10.7472
▁attention	-10.7472
▁fonti	-10.7477
▁frutto	-10.7479
▁vivono	-10.7481
▁ritardo	-10.7484
▁favorire	-10.7486
▁prodi	-10.7487
▁disco	-10.749
▁numeri	-10.7491
▁lasciando	-10.7492
▁istruzione	-10.7495
ship	-10.7496
▁convinto	-10.7497
▁sarei	-10.7498
▁morta	-10.7498
▁charge	-10.7501
▁telephone	-10.7504
▁interest	-10.7507
▁stuck	-10.7512
▁pia	-10.7513
▁esercitare	-10.7514
▁proporre	-10.7517
▁industriale	-10.7519
▁itself	-10.7519
▁senz	-10.7523
sha	-10.7525
▁professione	-10.7525
cur	-10.7529
ese	-10.7531
▁stretta	-10.7533
▁giochi	-10.7534
▁speranze	-10.7537
▁2012	-10.7537
▁online	-10.7537
▁invita	-10.7539
▁ampliamento	-10.7541
▁period	-10.755
▁pagamento	-10.7552
▁nizza	-10.7553
▁riusciti	-10.7554
▁2010	-10.7562
40	-10.7564
▁produrre	-10.7568
▁filo	-10.7574
07	-10.7576
▁lion	-10.7577
▁minister	-10.758
▁relativamente	-10.7583
▁acquista	-10.7583
▁adatta	-10.7584
▁avranno	-10.7588
▁chiamata	-10.7591
now	-10.7594
▁month	-10.7595
sen	-10.7597
▁century	-10.7601
▁cagione	-10.7604
▁share	-10.7607
▁gre	-10.7608
▁gusto	-10.7608
oli	-10.7611
xi	-10.7617
▁cadere	-10.7619
▁verificare	-10.7619
▁sacco	-10.7622
▁comportamento	-10.7623
room	-10.7626
▁operare	-10.7631
▁spent	-10.7633
▁felicità	-10.7635
▁pose	-10.7637
▁frase	-10.764
▁autori	-10.7641
nzia	-10.7643
▁sà	-10.7645
shi	-10.7646
▁disponibile	-10.7647
ngo	-10.765
▁spend	-10.7651
▁germany	-10.7658
▁animal	-10.766
▁imporre	-10.766
▁lume	-10.7661
music	-10.7662
ai	-10.7662
▁benissimo	-10.7662
▁esaminare	-10.7663
america	-10.7664
▁self	-10.7668
▁fuga	-10.767
elli	-10.7672
▁laughed	-10.768
▁minuto	-10.7686
▁privato	-10.7691
▁austria	-10.7695
▁zo	-10.7698
▁cook	-10.7699
▁legati	-10.7699
▁letters	-10.7702
integrazione	-10.7704
uno	-10.7706
ufficio	-10.771
▁starts	-10.7711
vole	-10.7713
▁ria	-10.7713
▁shi	-10.7721
▁professore	-10.7723
▁lake	-10.7728
▁parlamenti	-10.7729
>	-10.773
▁tall	-10.7732
▁grew	-10.7734
▁tabacco	-10.7738
stru	-10.7739
▁port	-10.774
▁iniziato	-10.7741
▁dispone	-10.7742
▁sottolinea	-10.7742
▁riso	-10.7743
▁processi	-10.7747
▁condivido	-10.7749
▁pacchetto	-10.7752
▁han	-10.7756
▁originale	-10.7759
▁consultazione	-10.7761
▁aggiunge	-10.7762
▁ears	-10.7767
▁verdi	-10.7772
▁wash	-10.7776
▁stu	-10.7777
▁created	-10.778
▁ampia	-10.7782
idi	-10.7785
▁piede	-10.7788
▁cum	-10.7793
▁nomina	-10.7798
▁term	-10.7798
▁palla	-10.7804
▁california	-10.7805
▁stagione	-10.7806
▁quo	-10.7808
▁allowed	-10.7811
rro	-10.7812
▁appoggia	-10.7816
cker	-10.7826
▁insegna	-10.7827
▁riflettere	-10.7828
▁blocks	-10.7831
▁fabbrica	-10.7832
▁sí	-10.7833
▁problems	-10.7834
▁storie	-10.7838
▁bassa	-10.7838
intero	-10.7841
▁www	-10.7841
▁paris	-10.7848
▁fama	-10.7849
▁procura	-10.7849
dra	-10.785
▁tedesco	-10.7851
ther	-10.7854
▁questions	-10.786
▁venisse	-10.7865
▁aereo	-10.7873
▁inferiore	-10.7878
▁vince	-10.7878
▁lire	-10.7882
▁dry	-10.7883
▁ricco	-10.7883
▁entrambe	-10.7885
ned	-10.7887
▁worth	-10.789
▁dovevano	-10.7891
▁garibaldi	-10.7891
▁evidentemente	-10.7892
▁cambio	-10.7893
▁accoglie	-10.7895
▁finally	-10.7896
▁centinaia	-10.7898
▁avvenire	-10.7899
▁assumere	-10.7906
▁corretto	-10.7907
▁ottimo	-10.7907
▁fanciulla	-10.7911
mme	-10.7912
▁municipality	-10.7912
hu	-10.7912
▁difficult	-10.7914
zzato	-10.7915
▁favorite	-10.7917
▁nurse	-10.7918
▁segna	-10.7921
▁assicura	-10.7921
▁pet	-10.7922
▁compiuti	-10.7925
▁honor	-10.7925
▁autore	-10.7926
▁accusa	-10.7929
amente	-10.793
zion	-10.7934
06	-10.7951
▁gambe	-10.7954
▁weren	-10.7955
▁pink	-10.7956
▁bre	-10.7968
▁pronti	-10.7969
▁enormi	-10.7974
▁utilizza	-10.7976
▁dollari	-10.7979
▁zero	-10.7981
noise	-10.7982
▁spe	-10.7984
▁conflitti	-10.7985
▁difficili	-10.7985
▁especially	-10.7985
▁japanese	-10.7986
▁shoot	-10.7986
▁knock	-10.7986
ucci	-10.7988
▁cominciare	-10.799
adozione	-10.7992
▁chocolate	-10.7992
▁ger	-10.7993
▁stabilito	-10.7997
mina	-10.7997
▁gua	-10.8
vin	-10.8
▁accident	-10.8002
▁segretario	-10.8015
▁marky	-10.8018
▁inteso	-10.8022
▁qualora	-10.8022
▁roberto	-10.8023
this	-10.8025
cle	-10.8027
▁wan	-10.8028
▁considerazioni	-10.8028
▁approva	-10.803
▁monkey	-10.8033
▁papà	-10.8033
ek	-10.8035
▁firma	-10.8038
▁bridge	-10.8041
▁spoke	-10.8041
▁center	-10.8042
▁character	-10.8044
autorità	-10.8045
▁dettagli	-10.8048
illustration	-10.805
▁distribuzione	-10.8053
▁svezia	-10.8053
▁verbale	-10.8053
▁recentemente	-10.8054
▁bet	-10.8056
▁funzionari	-10.8056
▁roll	-10.8057
mor	-10.806
▁wide	-10.8062
▁brevi	-10.8063
nie	-10.8065
▁svolta	-10.807
▁greco	-10.8077
▁avremmo	-10.808
▁rapida	-10.8083
▁beach	-10.8083
▁interessa	-10.8089
▁forest	-10.8093
▁truppe	-10.8094
▁square	-10.8095
▁spoon	-10.81
▁riflessione	-10.8101
▁sleeping	-10.8101
▁criminalità	-10.8102
25	-10.8102
▁costante	-10.8105
ung	-10.8106
▁title	-10.8106
▁indicato	-10.8108
▁press	-10.8116
▁veste	-10.8116
▁chè	-10.8117
▁shouldn	-10.8123
▁barba	-10.8125
▁annuale	-10.8126
▁trenta	-10.8128
▁sostiene	-10.8128
▁manager	-10.8131
▁championship	-10.8134
ji	-10.8135
▁venivano	-10.8137
▁walked	-10.8138
▁benefici	-10.814
ndogli	-10.814
▁destino	-10.8142
bat	-10.8143
▁patrimonio	-10.8149
▁partita	-10.8151
▁lago	-10.8152
▁tiger	-10.8154
▁muove	-10.8161
▁crazy	-10.8163
▁fer	-10.8164
î	-10.8166
▁bis	-10.8175
▁sostenuto	-10.8176
▁speriamo	-10.8177
▁sentimenti	-10.8179
▁farò	-10.8179
use	-10.8183
▁fretta	-10.8185
▁ram	-10.8195
▁corn	-10.8196
▁ivi	-10.8196
▁babbo	-10.8198
▁osservare	-10.8198
▁elevato	-10.8199
▁plays	-10.82
▁servire	-10.8204
▁piglia	-10.8205
▁capisco	-10.8212
▁forgot	-10.8216
▁project	-10.8218
▁walking	-10.822
▁dette	-10.822
▁antica	-10.8221
ade	-10.8221
rse	-10.8222
opportunità	-10.8223
cola	-10.8227
▁compagnie	-10.8228
▁riferisco	-10.8231
▁turchi	-10.8232
▁perduto	-10.8232
hai	-10.8233
rico	-10.8234
▁type	-10.8234
▁vidi	-10.8237
▁istituzione	-10.8238
▁tecnici	-10.8239
▁animale	-10.8241
▁bigger	-10.8243
▁attuare	-10.8244
▁cavalieri	-10.8244
▁lunghe	-10.8244
▁ritrova	-10.8251
▁richiesto	-10.8253
▁domina	-10.8255
▁spin	-10.8257
▁turns	-10.8261
▁indipendente	-10.8262
des	-10.827
▁cast	-10.8271
▁sugar	-10.8284
▁suona	-10.8286
▁twelve	-10.8287
▁situation	-10.8288
▁dirty	-10.829
▁recenti	-10.8291
▁denti	-10.8291
▁reach	-10.8295
▁staff	-10.8297
▁dubbi	-10.8297
temi	-10.83
utilizzo	-10.83
▁stranieri	-10.8301
05	-10.8302
▁velocità	-10.8302
▁contempla	-10.8303
▁australia	-10.8303
▁zoo	-10.8307
▁statuto	-10.8308
txt	-10.831
▁profilo	-10.8322
▁’	-10.8328
▁ragionevole	-10.8331
ugh	-10.8334
▁cardinale	-10.8334
età	-10.8336
▁puts	-10.8341
▁horses	-10.8345
▁ted	-10.8346
▁dragon	-10.8349
▁whoa	-10.8349
▁alza	-10.835
▁fornito	-10.8351
▁natale	-10.8354
min	-10.8358
▁rise	-10.8358
▁officer	-10.8372
▁torto	-10.8378
gg	-10.8379
▁cena	-10.8381
▁key	-10.8381
▁passò	-10.8383
lità	-10.8384
▁anzitutto	-10.8386
▁getta	-10.8387
▁pomeriggio	-10.8392
▁tiny	-10.8392
▁madonna	-10.8392
▁muro	-10.8392
▁valuta	-10.8396
01	-10.84
▁exp	-10.8403
▁ascoltare	-10.8406
▁tutt	-10.8406
▁previsti	-10.8406
rk	-10.8414
▁bio	-10.8415
▁emerge	-10.8417
▁quote	-10.8417
▁2018	-10.8417
▁dropped	-10.8421
▁raccomandazione	-10.8423
ore	-10.8424
intervento	-10.8426
▁liberi	-10.843
▁scelto	-10.8435
▁debole	-10.844
▁divina	-10.844
tina	-10.8444
nga	-10.8445
▁poca	-10.8446
▁risposto	-10.8449
▁giova	-10.8455
▁guardando	-10.8462
▁corsa	-10.8463
▁op	-10.8468
▁assieme	-10.847
▁surprise	-10.8474
▁vent	-10.8474
▁health	-10.8474
▁consegna	-10.8475
▁interested	-10.8478
▁reazione	-10.8479
▁trattare	-10.8481
▁mountain	-10.8482
▁corrente	-10.8483
nica	-10.8483
▁mouse	-10.8486
lio	-10.8487
▁distruzione	-10.8488
▁eliminare	-10.849
▁potrei	-10.8491
▁fattori	-10.8503
▁0	-10.8505
tine	-10.8506
▁2009	-10.8508
▁scritta	-10.8508
▁caffè	-10.8513
▁hasn	-10.8513
▁canada	-10.8514
▁interrogazione	-10.8516
▁riprese	-10.8522
▁mezza	-10.8523
▁controllare	-10.8523
▁spera	-10.8535
▁solleva	-10.8539
000	-10.8541
04	-10.8542
▁normale	-10.8542
▁superare	-10.8542
▁thus	-10.8545
▁soggiunse	-10.8563
lini	-10.8566
▁nave	-10.8569
▁inserire	-10.8574
▁central	-10.8577
▁fox	-10.8578
▁pezzi	-10.8578
▁principalmente	-10.8579
▁occasioni	-10.8593
▁profondamente	-10.8597
▁saremo	-10.8597
▁aggiunto	-10.8599
▁rivolta	-10.8599
▁genti	-10.86
▁calling	-10.86
▁capitali	-10.8609
▁realmente	-10.8612
▁altrui	-10.8613
▁cade	-10.8616
▁raccogliere	-10.8617
▁punch	-10.8619
picks	-10.862
▁disporre	-10.8621
▁segni	-10.8632
▁arrivato	-10.8636
80	-10.8637
▁andar	-10.864
▁bur	-10.8641
isti	-10.8641
▁leaf	-10.8642
▁giovine	-10.8644
house	-10.8645
▁flat	-10.8647
rda	-10.8647
▁crescente	-10.8652
▁royal	-10.8655
▁crying	-10.866
rri	-10.8661
▁showed	-10.8663
▁ecc	-10.8663
▁impatto	-10.8664
▁ciao	-10.8665
▁market	-10.8667
▁intera	-10.8667
▁laughs	-10.8667
▁respect	-10.8672
▁imparare	-10.8672
gar	-10.8673
▁toglie	-10.8673
▁sovra	-10.8675
▁min	-10.8676
▁confronto	-10.8678
▁realizzato	-10.8679
▁rossa	-10.8679
▁alimenti	-10.868
▁slowly	-10.8682
▁consentito	-10.8687
▁italy	-10.8689
▁filosofia	-10.8691
▁trarre	-10.8691
▁professor	-10.8693
lina	-10.8696
▁leaves	-10.8696
▁2014	-10.8697
▁correre	-10.8699
▁colà	-10.8702
▁den	-10.8706
▁nature	-10.8706
▁popular	-10.8707
▁scar	-10.8709
▁chiamare	-10.8713
▁provenienti	-10.8714
▁mess	-10.8717
▁pensava	-10.8717
▁spirit	-10.8717
▁critiche	-10.8722
▁roman	-10.8726
▁scared	-10.8726
▁veder	-10.8731
▁fossi	-10.8738
▁continued	-10.8742
▁famous	-10.8743
▁according	-10.8744
▁asking	-10.8747
▁resi	-10.8753
▁stella	-10.8758
▁sviluppi	-10.8758
▁competitività	-10.8758
rge	-10.8758
▁raccomandazioni	-10.876
▁cogli	-10.8761
▁à	-10.8761
▁iron	-10.8766
▁soggetto	-10.8767
▁londra	-10.877
▁alternative	-10.8773
nelli	-10.8773
▁previste	-10.878
lino	-10.8783
▁scor	-10.8786
▁futura	-10.8788
▁calma	-10.8789
▁glass	-10.8789
▁parlava	-10.8789
cchia	-10.879
17	-10.8794
▁addosso	-10.8795
cra	-10.8799
▁determinato	-10.8799
▁eventuali	-10.8801
ure	-10.8801
▁guard	-10.8802
▁tedeschi	-10.8802
tato	-10.8806
▁riuscito	-10.8807
▁efficaci	-10.8809
▁caduta	-10.8809
▁lorenzo	-10.8812
gen	-10.8816
▁ricchezza	-10.8817
▁rive	-10.8817
▁fissa	-10.8822
just	-10.8823
▁assunto	-10.8824
▁scoprire	-10.8826
▁grido	-10.8829
▁implica	-10.8829
▁xi	-10.8831
▁figliuoli	-10.8836
sol	-10.8836
▁concede	-10.8838
▁efficacia	-10.8844
▁parts	-10.8845
▁creature	-10.8845
aiuto	-10.8846
▁accolto	-10.8846
▁caldo	-10.8846
▁utenti	-10.8846
▁edizione	-10.8849
▁approvare	-10.885
nzi	-10.8851
▁pianeta	-10.8853
▁ki	-10.8854
nico	-10.8857
▁tour	-10.8857
0.000	-10.8859
▁disposto	-10.8862
▁ann	-10.8867
▁usci	-10.887
▁pac	-10.8871
▁volere	-10.8878
▁stavano	-10.888
▁guisa	-10.8885
▁fla	-10.8887
▁joined	-10.889
▁pencil	-10.889
▁paid	-10.8892
▁vinto	-10.8894
ward	-10.8896
ffa	-10.8904
ssu	-10.8915
▁brush	-10.8915
▁/	-10.8921
▁sezione	-10.8922
▁served	-10.8926
▁riposo	-10.8928
▁discriminazione	-10.8929
▁prevedere	-10.8929
▁pisa	-10.8932
▁adottata	-10.8932
▁colpi	-10.8933
abile	-10.8934
▁inaccettabile	-10.8935
▁immagine	-10.8935
▁dogs	-10.894
▁neck	-10.894
▁volentieri	-10.8942
▁expect	-10.8942
field	-10.8949
▁neve	-10.8949
▁below	-10.8949
▁traccia	-10.8952
▁mattino	-10.8955
abili	-10.8957
▁larga	-10.8957
▁impianti	-10.8957
▁ow	-10.8958
▁price	-10.8963
▁banche	-10.8965
▁ix	-10.8966
▁definitiva	-10.8967
▁shit	-10.8972
▁avvenuto	-10.8972
▁cal	-10.8973
die	-10.8974
▁andando	-10.8976
▁ciascun	-10.8979
▁bisogni	-10.8983
▁unless	-10.8984
▁chiarire	-10.8985
▁costume	-10.8987
▁compreso	-10.8988
▁cure	-10.8993
▁loud	-10.8994
▁riprende	-10.8998
▁particular	-10.8999
▁saturday	-10.9002
▁status	-10.9007
▁approvata	-10.9009
▁centre	-10.901
▁volo	-10.9015
▁gentile	-10.9016
▁tenuta	-10.9018
▁scambi	-10.9018
▁danger	-10.9019
ara	-10.9019
▁democratici	-10.9021
▁miseria	-10.9022
▁volesse	-10.9022
▁rice	-10.9026
▁scientifica	-10.9028
▁adottate	-10.9029
▁giorgio	-10.9036
▁hide	-10.9037
▁andata	-10.9039
▁canta	-10.904
▁rifiuta	-10.904
▁sicura	-10.9042
▁belli	-10.9045
▁needed	-10.9045
▁alive	-10.9046
▁speed	-10.9047
▁centrali	-10.9052
▁vicenda	-10.9055
▁row	-10.9056
▁winter	-10.9057
▁process	-10.9058
03	-10.906
▁kiss	-10.9065
▁allontana	-10.9066
▁fan	-10.9068
▁serious	-10.9069
▁4,	-10.9071
ally	-10.9072
▁experience	-10.9074
▁storica	-10.9074
clock	-10.9078
▁offer	-10.9082
ving	-10.9089
bb	-10.9091
▁posa	-10.9091
▁contessa	-10.9095
▁loved	-10.9096
▁estrema	-10.9097
–	-10.91
inter	-10.9101
▁1.	-10.9105
▁cer	-10.9109
▁scrisse	-10.9109
▁lying	-10.9112
▁sf	-10.9114
▁fresh	-10.9116
▁names	-10.9121
▁apertura	-10.9121
▁vendetta	-10.9123
▁avessi	-10.9128
▁education	-10.9129
▁scoperto	-10.913
▁explain	-10.913
▁pra	-10.9137
▁calcio	-10.9141
▁credito	-10.9142
med	-10.9148
▁jean	-10.9149
▁restare	-10.9151
▁positive	-10.9153
▁smell	-10.9153
▁venir	-10.9155
▁therefore	-10.9157
▁mediterraneo	-10.916
▁costui	-10.916
▁vincere	-10.9163
▁culturali	-10.9163
▁singing	-10.9168
▁dedicato	-10.917
▁generazione	-10.917
▁jane	-10.9171
like	-10.9172
08	-10.9175
hv	-10.9176
▁gui	-10.9178
cro	-10.9181
tch	-10.9181
▁spell	-10.9185
off	-10.9187
▁ur	-10.9201
▁governa	-10.9202
▁cosi	-10.9204
▁conosciuto	-10.9206
ran	-10.9206
▁parliamo	-10.9209
▁eletto	-10.9212
▁padri	-10.9213
▁composto	-10.9214
▁applica	-10.9215
▁nera	-10.9215
▁political	-10.9216
▁ocean	-10.9221
▁rid	-10.9221
▁fiorentini	-10.9221
▁flotta	-10.9222
▁certezza	-10.9224
▁stelle	-10.9224
▁pensando	-10.9234
▁futuri	-10.9236
▁pubblicato	-10.9237
▁fur	-10.9237
▁perfino	-10.9238
▁concreti	-10.9238
▁contrasto	-10.9241
▁bang	-10.9245
▁western	-10.9245
▁stretto	-10.9245
▁provare	-10.9248
interrogazione	-10.9251
▁associazioni	-10.9253
▁adeguato	-10.9254
▁specifici	-10.9254
▁moderna	-10.9255
immagine	-10.9259
▁ricerche	-10.9267
▁wake	-10.9267
▁mosse	-10.9268
pie	-10.9272
dor	-10.9275
▁anziani	-10.9277
▁favorevoli	-10.9277
▁similar	-10.9279
▁difference	-10.9283
ok	-10.9285
▁cima	-10.9286
ü	-10.9288
▁civiltà	-10.9291
▁precisa	-10.9291
▁trono	-10.9294
▁countries	-10.9298
▁poscia	-10.93
▁rica	-10.9301
rato	-10.9302
▁giunti	-10.9303
▁anime	-10.9308
▁giudice	-10.931
fica	-10.9312
▁ali	-10.9312
▁slow	-10.9313
▁ppe	-10.9314
▁spiegare	-10.9317
ded	-10.9318
asse	-10.9321
ann	-10.9323
val	-10.9323
▁oro	-10.9324
▁brave	-10.9332
vamo	-10.9338
▁passati	-10.9338
▁chiude	-10.934
▁determinazione	-10.9341
▁softly	-10.9341
▁vicina	-10.9343
esistenza	-10.9343
▁coast	-10.9346
▁piega	-10.9347
▁svolge	-10.9353
cella	-10.9358
▁discorsi	-10.9358
▁essenziali	-10.936
▁presentate	-10.9362
▁pain	-10.9368
▁bat	-10.9374
▁gestire	-10.9376
▁bite	-10.9376
▁prega	-10.9378
▁rotta	-10.9381
▁terrible	-10.9383
▁pressioni	-10.9383
18	-10.9384
▁magic	-10.9389
▁vite	-10.9392
▁competente	-10.9393
▁permanente	-10.9395
æ	-10.9398
▁entrò	-10.9399
▁utilizzato	-10.9401
▁agita	-10.9403
▁mc	-10.9403
ated	-10.9404
autore	-10.9405
▁diventato	-10.9405
ans	-10.9407
▁lavorato	-10.9408
ira	-10.9412
▁santi	-10.9412
▁fuor	-10.9415
▁giusti	-10.9419
▁discusso	-10.942
▁mori	-10.9422
▁chiusura	-10.9422
▁ragazze	-10.9422
▁consiglia	-10.9423
▁mali	-10.9423
▁suono	-10.9424
rate	-10.9427
▁costituire	-10.9431
▁occhio	-10.9433
▁tengo	-10.9434
▁naso	-10.9434
▁election	-10.9439
▁eighty	-10.9441
▁rate	-10.9441
▁dipendenti	-10.9442
▁totalmente	-10.9442
▁sixty	-10.9442
pen	-10.9444
▁coat	-10.9444
sk	-10.9445
▁costretto	-10.9446
▁metti	-10.9447
▁shore	-10.9447
▁tornò	-10.9447
▁supper	-10.945
▁largo	-10.9453
▁esecuzione	-10.9459
▁bay	-10.9459
▁stories	-10.946
analisi	-10.9461
▁size	-10.9461
bar	-10.9463
▁contare	-10.9467
▁coerente	-10.9469
▁vuoto	-10.9469
▁bianchi	-10.9469
alto	-10.947
▁basa	-10.9473
epoca	-10.9476
feri	-10.9477
=	-10.9477
▁colonna	-10.9479
ap	-10.948
▁2021	-10.9481
▁eggs	-10.9488
▁martin	-10.9488
▁gregorio	-10.9493
▁riserve	-10.9493
▁software	-10.9493
▁brain	-10.9495
▁infrastrutture	-10.95
▁concessione	-10.9501
▁ear	-10.9503
nan	-10.9503
▁folla	-10.9505
▁neri	-10.9515
▁william	-10.9515
▁obblighi	-10.9516
▁stanziamenti	-10.9516
hsl	-10.9518
▁thou	-10.9519
▁object	-10.952
usa	-10.9521
▁barbari	-10.9524
▁promessa	-10.9525
▁likely	-10.9525
gger	-10.9526
▁teddy	-10.9526
▁led	-10.9529
▁proseguire	-10.953
▁vorrebbe	-10.9536
▁violazione	-10.9537
nder	-10.9537
▁preghiera	-10.954
▁aumenta	-10.9543
▁200	-10.9543
▁contributi	-10.9549
▁plastic	-10.9551
▁lengthened	-10.9556
▁join	-10.9558
nge	-10.9562
▁detti	-10.9563
▁dando	-10.9563
▁murder	-10.9565
argomento	-10.9573
▁rafforzamento	-10.9573
▁intendere	-10.9576
▁proteggere	-10.9579
av	-10.9579
▁simple	-10.9581
▁storm	-10.9581
ford	-10.9582
▁background	-10.9588
▁rileva	-10.959
▁crescere	-10.9591
▁perso	-10.9593
▁studiare	-10.9594
▁closed	-10.9595
▁risoluzioni	-10.9595
▁ye	-10.9599
▁zu	-10.96
▁director	-10.9603
▁nascita	-10.9603
lmente	-10.9604
▁35	-10.9604
▁aye	-10.9605
▁ned	-10.9606
▁scorsa	-10.9606
wing	-10.9611
▁letteratura	-10.9614
▁stor	-10.9617
nò	-10.9618
▁ciascuna	-10.9619
▁precipita	-10.9619
▁giornale	-10.9621
▁bowl	-10.9622
▁politician	-10.9623
▁saluta	-10.9626
▁soddisfare	-10.9628
▁total	-10.963
▁giunge	-10.9638
▁giudica	-10.9639
▁intendiamo	-10.964
nch	-10.9641
▁legale	-10.9645
▁scia	-10.9646
▁britannico	-10.9651
▁sussidiarietà	-10.9651
▁pubblicità	-10.9655
amministrazione	-10.9659
▁tuttora	-10.966
▁italiane	-10.9661
▁continente	-10.9662
rati	-10.9664
▁ovunque	-10.9667
▁chiare	-10.9668
▁passando	-10.9668
cò	-10.9672
▁facesse	-10.9676
▁benchè	-10.9681
▁seguendo	-10.9683
▁dottore	-10.9685
▁nutri	-10.9688
▁gioventù	-10.9691
▁ucciso	-10.9691
▁rossi	-10.9691
▁alberi	-10.9692
▁annie	-10.9693
▁definito	-10.9693
▁1997	-10.9698
▁turning	-10.9699
▁henry	-10.9699
▁superiori	-10.97
▁ideale	-10.9701
▁partenariato	-10.9707
▁diversità	-10.9708
▁plus	-10.971
nio	-10.9712
▁fingers	-10.9713
▁fantasia	-10.9715
▁science	-10.9715
▁1994	-10.9715
▁worse	-10.9715
▁ebbero	-10.9716
▁study	-10.9718
▁oratori	-10.9719
▁meat	-10.972
▁piante	-10.9722
stre	-10.9724
▁lentamente	-10.9725
▁fruit	-10.9725
▁various	-10.9727
▁elaborare	-10.9728
▁pale	-10.973
▁veneziani	-10.9734
▁effettuare	-10.9738
▁termina	-10.9738
▁concreto	-10.9739
nare	-10.9741
▁pesce	-10.9742
▁diavolo	-10.9744
▁istituzionale	-10.9747
▁phil	-10.9752
ffer	-10.9752
▁sufficienti	-10.9754
▁confusione	-10.976
▁birds	-10.9764
▁racconto	-10.9766
▁soccorso	-10.9771
▁negozi	-10.9772
▁ebrei	-10.9772
▁result	-10.9773
▁sfide	-10.9781
▁incidenti	-10.9781
▁learned	-10.9783
09	-10.9784
▁istante	-10.9785
▁priva	-10.9787
▁versa	-10.9788
mbi	-10.9789
▁michele	-10.9789
rn	-10.979
▁latina	-10.9796
▁conversation	-10.9796
▁absolutely	-10.9797
▁action	-10.9798
▁destinato	-10.9799
rac	-10.9801
▁marina	-10.9802
▁beyond	-10.9804
▁ordina	-10.9804
▁reddito	-10.9805
gui	-10.9808
▁abbandona	-10.9809
▁plenaria	-10.9812
mmi	-10.9817
tezza	-10.9818
▁ter	-10.9819
▁tavolo	-10.982
▁desideri	-10.9821
▁smile	-10.9824
▁svedese	-10.9828
nni	-10.983
▁differenti	-10.983
▁inde	-10.9833
sum	-10.9834
▁sara	-10.9837
▁conduce	-10.9837
▁pensiamo	-10.9837
▁corretta	-10.9843
▁rurale	-10.9847
▁perdono	-10.9847
▁utilizzo	-10.9849
▁calendario	-10.9853
▁ob	-10.9853
▁xii	-10.9855
▁debbono	-10.9855
uk	-10.9855
▁upstairs	-10.9861
▁congresso	-10.9863
▁catena	-10.9864
▁bin	-10.9864
▁vecchie	-10.9865
▁soul	-10.9866
▁iniziale	-10.9868
▁usato	-10.9868
▁soggiorno	-10.9869
▁boo	-10.987
▁organismi	-10.9871
▁cominciato	-10.9873
▁mass	-10.9874
21	-10.9874
▁rip	-10.9876
▁trade	-10.9876
▁2017	-10.9881
▁sharp	-10.9882
ller	-10.9882
▁sicuri	-10.9884
▁meccanismi	-10.9885
▁nipote	-10.9886
▁double	-10.9886
▁centri	-10.9887
▁mandò	-10.9887
▁genio	-10.989
▁helen	-10.9892
associazione	-10.9893
▁finanziamenti	-10.9894
▁conosco	-10.9894
cer	-10.9895
▁commissioni	-10.9897
▁europe	-10.9901
▁necessariamente	-10.9905
▁contento	-10.9911
▁poste	-10.9912
▁apre	-10.9912
dis	-10.9916
▁amare	-10.9916
▁esercizio	-10.992
▁string	-10.9922
▁2016	-10.9923
rini	-10.9923
▁wo	-10.9924
▁accaduto	-10.9926
▁ripresa	-10.9926
▁disegni	-10.9926
▁ridotto	-10.9926
▁concilio	-10.9927
▁pazienza	-10.9928
▁basti	-10.993
shed	-10.993
▁imagine	-10.9932
▁movimenti	-10.9934
▁bordo	-10.9935
▁agreed	-10.9936
imp	-10.9937
▁clock	-10.9939
▁impegnati	-10.9942
▁pericoli	-10.9943
▁adult	-10.9943
▁periodi	-10.9944
▁pò	-10.9946
▁immagina	-10.9946
▁figliuola	-10.9947
▁raggiunge	-10.9947
▁cinquanta	-10.995
▁peace	-10.995
▁smith	-10.995
ab	-10.9957
▁profughi	-10.9959
▁network	-10.9959
▁doppio	-10.996
▁ciclo	-10.9962
mpi	-10.9963
▁bull	-10.9964
▁direction	-10.9964
▁relatori	-10.9967
▁sovranità	-10.9968
▁dolci	-10.9968
zz	-10.9968
▁spinge	-10.997
▁princess	-10.997
diamo	-10.9972
▁esterne	-10.9976
▁raccomanda	-10.9976
▁limita	-10.9977
▁assoluta	-10.9981
▁bei	-10.9982
ph	-10.9984
▁salvo	-10.9988
▁damn	-10.999
▁amount	-10.9991
▁artisti	-10.9992
▁gia	-10.9993
▁pensate	-10.9994
▁alberto	-10.9997
▁esistenza	-10.9997
▁continuano	-10.9999
▁ricorrere	-11
▁prepara	-11
▁corse	-11.0001
▁franchi	-11.0002
▁tiro	-11.0003
lato	-11.0005
▁scopri	-11.0005
singing	-11.0006
▁inf	-11.0008
▁enjoy	-11.0011
▁helped	-11.0012
▁q	-11.0015
▁duke	-11.002
▁vasta	-11.0021
▁meta	-11.0022
▁lontani	-11.0025
▁dirò	-11.0028
▁recita	-11.003
▁giocare	-11.0031
▁clienti	-11.0036
▁salire	-11.0037
▁beneficio	-11.0037
▁straordinaria	-11.0039
▁cave	-11.0041
▁domandò	-11.0042
▁appresso	-11.0042
▁riferi	-11.0043
▁tendenza	-11.0044
▁sold	-11.0049
▁grandezza	-11.0051
▁judge	-11.0051
▁purpose	-11.0051
▁farne	-11.0057
▁costumi	-11.0058
▁scienze	-11.0059
▁personal	-11.006
▁sorpresa	-11.0067
▁community	-11.0067
▁preme	-11.0068
▁esercita	-11.0068
▁ripeto	-11.0071
vis	-11.0072
immigrazione	-11.0075
▁arrivati	-11.0078
▁metal	-11.0082
▁delitto	-11.0085
▁actor	-11.0086
istituzione	-11.0087
gri	-11.0091
▁completo	-11.0092
▁meccanismo	-11.0092
▁higher	-11.0093
▁ò	-11.0096
▁picked	-11.0097
▁partecipa	-11.01
ndole	-11.0101
▁completely	-11.0104
▁pescatori	-11.0107
▁estate	-11.0107
▁ispira	-11.0109
▁manner	-11.011
▁talked	-11.0116
▁basket	-11.0117
▁quinto	-11.012
▁natural	-11.0122
▁butter	-11.0124
▁composizione	-11.0126
▁chris	-11.013
looks	-11.0132
▁modelli	-11.0134
▁turba	-11.0138
▁carcere	-11.0143
▁volevano	-11.0144
▁coach	-11.0144
▁shows	-11.0152
gua	-11.0152
▁stri	-11.0153
19	-11.0153
▁sperare	-11.0153
▁conclude	-11.0156
▁channel	-11.0159
▁pretesto	-11.0159
▁consenta	-11.016
▁message	-11.0161
▁comunica	-11.0162
▁mobili	-11.0163
▁charles	-11.0167
impatto	-11.0168
▁sarò	-11.017
▁ladies	-11.0172
▁organizzata	-11.0175
▁covered	-11.0178
nzo	-11.0179
▁sell	-11.018
▁intra	-11.0182
aspetto	-11.0184
fra	-11.0185
▁salvare	-11.0188
▁offerte	-11.0189
▁potenti	-11.0189
azienda	-11.0192
▁sindaco	-11.0192
▁costantinopoli	-11.0192
▁dressed	-11.0197
▁somme	-11.0199
▁gode	-11.0201
▁cresce	-11.0209
▁estero	-11.0209
▁prize	-11.0222
▁capaci	-11.0224
pping	-11.0227
▁fortemente	-11.0227
▁museo	-11.0228
▁asia	-11.0228
▁smart	-11.0231
▁immaginare	-11.0232
lus	-11.0232
▁difende	-11.0239
rino	-11.0239
▁superficie	-11.024
▁mantenimento	-11.0243
▁missing	-11.0246
bilmente	-11.0247
▁personaggi	-11.0248
▁sostituire	-11.0249
▁lawyer	-11.0252
▁♫	-11.0253
▁liberali	-11.0256
▁bon	-11.0261
▁joy	-11.0262
▁delibera	-11.0262
▁dere	-11.0263
cou	-11.0263
▁sex	-11.0266
▁rilievo	-11.0268
▁successivamente	-11.0271
▁motion	-11.0272
▁informa	-11.0276
▁nega	-11.0279
▁chiamati	-11.0279
▁soglia	-11.0282
▁driver	-11.0291
▁2011	-11.0291
▁butterfly	-11.0294
▁enrico	-11.0295
▁crime	-11.0295
▁nata	-11.0295
▁plane	-11.0297
▁cattivo	-11.0298
torio	-11.0301
▁command	-11.0302
▁agricoltura	-11.0302
▁scelte	-11.0303
uli	-11.0303
▁rat	-11.0304
iraq	-11.0306
uff	-11.0311
▁culture	-11.0311
▁marchesa	-11.0312
▁verona	-11.0317
▁messer	-11.0319
▁gesti	-11.0319
▁ribadire	-11.032
▁famoso	-11.032
▁predica	-11.032
▁corrisponde	-11.0321
▁volendo	-11.0322
del	-11.0323
▁sur	-11.0324
▁capita	-11.0324
ole	-11.0326
ieri	-11.0329
▁grandma	-11.033
▁sch	-11.0332
▁elephants	-11.0335
▁proposti	-11.0337
▁attende	-11.0338
▁pri	-11.0339
▁fighting	-11.0341
▁divide	-11.0341
▁caused	-11.0341
elo	-11.0341
▁latino	-11.0345
▁tragedia	-11.0345
▁tempio	-11.0347
▁gro	-11.035
▁research	-11.0354
▁bandiera	-11.0354
▁tar	-11.0357
▁90	-11.0357
anima	-11.036
▁uffici	-11.0363
▁friday	-11.0371
▁gian	-11.0372
▁notice	-11.0376
▁partecipato	-11.0378
▁dottrina	-11.038
▁division	-11.038
obbligo	-11.0381
▁acp	-11.0382
▁accettato	-11.0385
▁prigione	-11.0388
▁engine	-11.039
ges	-11.0393
]!	-11.0395
▁università	-11.0396
▁potenziale	-11.0398
▁comp	-11.0398
▁volontari	-11.0398
▁teme	-11.0399
▁materie	-11.0406
▁giulia	-11.0409
▁andate	-11.041
▁meraviglia	-11.0411
▁impone	-11.0412
▁mistake	-11.0415
▁antiche	-11.0415
▁shirt	-11.0416
cina	-11.0417
▁flu	-11.0417
▁ricca	-11.042
▁obbliga	-11.042
ating	-11.042
▁european	-11.0421
▁ingegno	-11.0423
▁rappresentato	-11.0423
▁event	-11.0423
who	-11.0431
▁terrore	-11.0432
▁(20	-11.0436
gasps	-11.0438
▁christian	-11.0438
▁quanta	-11.0441
▁luci	-11.0445
▁richiama	-11.0447
▁adeguata	-11.045
60	-11.0451
sio	-11.0451
▁older	-11.0455
▁apri	-11.046
oro	-11.0462
gh	-11.0462
ey	-11.0469
samente	-11.047
▁cinema	-11.047
8.	-11.0471
▁limitare	-11.0472
▁gen	-11.0474
▁pazienti	-11.0474
▁military	-11.0475
▁ambiti	-11.0476
▁minor	-11.0477
▁russian	-11.0478
▁volti	-11.0481
▁ritornare	-11.0482
nate	-11.0483
▁kosovo	-11.0483
▁heaven	-11.0483
▁messe	-11.0485
▁hardly	-11.0488
▁studia	-11.0489
▁butta	-11.049
▁ghi	-11.049
▁code	-11.0491
esi	-11.0495
▁contenta	-11.0495
sur	-11.0496
bre	-11.05
▁soldato	-11.0502
toria	-11.0505
pped	-11.0511
▁spread	-11.0514
ren	-11.0515
segui	-11.0516
▁industriali	-11.0518
▁venerdì	-11.0518
▁conservazione	-11.0522
▁collegio	-11.0522
▁society	-11.0527
atto	-11.0529
▁rassegna	-11.0531
▁ratifica	-11.0533
iscono	-11.0538
▁iraq	-11.0538
▁pronta	-11.0543
▁praticamente	-11.0544
▁simply	-11.0544
▁dec	-11.055
▁singolo	-11.0553
▁lines	-11.0554
▁imposte	-11.0556
cano	-11.0557
▁avanza	-11.0559
▁soldiers	-11.0569
▁festival	-11.057
▁owl	-11.0571
▁announced	-11.0572
spa	-11.0575
▁saper	-11.0576
▁villaggio	-11.0577
▁garanzie	-11.0579
▁categorie	-11.0579
▁crediamo	-11.0581
▁mario	-11.0581
▁fumo	-11.0582
▁scientifico	-11.0584
▁scoperta	-11.0588
nse	-11.0589
ffe	-11.0594
▁model	-11.0594
▁colpito	-11.0596
▁dispiace	-11.0597
▁diffusione	-11.0597
23	-11.0597
▁romanzo	-11.0599
▁prof	-11.0601
approvazione	-11.0605
▁decision	-11.0609
▁arrivo	-11.0612
▁congratulo	-11.0614
assistenza	-11.0615
▁poeti	-11.0617
▁brian	-11.0618
▁cipro	-11.062
▁hal	-11.0624
▁vote	-11.0626
▁tele	-11.0627
▁portava	-11.0628
▁70	-11.0628
▁ritira	-11.063
▁legislativa	-11.0632
▁compagno	-11.0632
erano	-11.0632
96	-11.0633
▁bambina	-11.0633
▁medicine	-11.0633
▁terrà	-11.0634
▁privata	-11.0637
▁sessione	-11.0638
▁florida	-11.0641
cc	-11.0641
▁sp	-11.0643
▁miglia	-11.0644
▁faremo	-11.0646
▁lucia	-11.0646
dono	-11.0648
▁scu	-11.0649
▁brucia	-11.065
▁golden	-11.0654
nella	-11.0654
▁concesso	-11.0658
▁finché	-11.066
▁begin	-11.0661
▁continuamente	-11.0667
more	-11.0667
▁complete	-11.0671
mbe	-11.0672
▁choice	-11.0676
▁monster	-11.0678
▁saluto	-11.068
gie	-11.0684
▁urgente	-11.0684
▁obbligo	-11.0684
▁assenza	-11.0685
▁journey	-11.0685
▁provvedimento	-11.0685
▁sc	-11.0685
ette	-11.0689
▁produced	-11.0693
▁fle	-11.0693
▁mettiamo	-11.0695
▁cappello	-11.0696
▁guido	-11.0699
▁storici	-11.07
han	-11.0702
▁disastro	-11.0703
▁prassi	-11.0704
▁cousin	-11.0704
▁gesto	-11.0705
▁ignora	-11.0705
▁agree	-11.0708
▁picks	-11.0709
cus	-11.071
▁edge	-11.0713
▁subject	-11.0713
ndoli	-11.0714
pt	-11.0714
▁chiudere	-11.0716
cli	-11.0719
▁trasferimento	-11.072
▁rappresentare	-11.0721
▁guide	-11.0724
▁trick	-11.0725
nc	-11.0727
▁chiuse	-11.0729
▁plebe	-11.073
ffo	-11.0732
▁scan	-11.0733
ball	-11.0735
▁fiscali	-11.0737
tano	-11.0738
▁original	-11.074
▁benché	-11.0743
▁award	-11.0744
▁utilizzati	-11.0744
▁entered	-11.0752
▁drawing	-11.0752
▁barcellona	-11.0756
scio	-11.0756
▁flower	-11.0757
▁fisica	-11.0761
▁fattore	-11.0763
▁colloca	-11.0765
▁valida	-11.0765
▁nasconde	-11.0767
22	-11.0771
wn	-11.0773
▁parenti	-11.0773
▁pocket	-11.0773
▁individui	-11.0774
▁shoe	-11.0774
▁venuti	-11.0774
▁occidentale	-11.0774
▁mari	-11.0774
▁mobilità	-11.0776
▁preparare	-11.078
app	-11.0781
▁mono	-11.0782
▁confine	-11.0782
▁frate	-11.0782
▁avvenimenti	-11.0783
▁interessanti	-11.0786
mal	-11.0789
▁bagno	-11.0791
▁ché	-11.0791
▁assoluto	-11.0791
▁coerenza	-11.0791
▁montagne	-11.0792
▁mettendo	-11.0793
▁proud	-11.0794
▁straordinario	-11.0795
▁ravenna	-11.0796
▁solenne	-11.0798
▁contribuito	-11.0801
▁disposti	-11.0801
▁bando	-11.0802
▁concedere	-11.0804
▁lower	-11.0805
▁bosco	-11.0805
mato	-11.0806
▁femminile	-11.0809
▁practice	-11.0818
▁turco	-11.0821
▁batte	-11.0828
▁jim	-11.0831
▁cattiva	-11.0832
▁ecu	-11.0832
24	-11.0832
▁marmo	-11.0832
▁path	-11.0833
▁promesse	-11.0837
▁asleep	-11.084
▁mus	-11.0843
▁tutelare	-11.0844
▁treno	-11.0846
ö	-11.0854
▁5,	-11.0859
▁refer	-11.086
ea	-11.0863
▁ghost	-11.0863
▁1990	-11.0864
▁calm	-11.0865
▁servono	-11.0866
▁dovete	-11.0867
▁lombardia	-11.0869
▁ku	-11.0869
▁()	-11.087
ena	-11.087
▁varia	-11.0875
▁visitare	-11.0876
▁vescovi	-11.0881
▁northern	-11.0881
▁obviously	-11.0882
▁impar	-11.089
▁angry	-11.089
▁enemy	-11.0891
agenzia	-11.0891
▁luck	-11.0893
▁placed	-11.0897
▁lontana	-11.0898
rete	-11.0899
▁debut	-11.09
▁effect	-11.0903
▁mail	-11.0906
▁pesante	-11.0907
▁classi	-11.0908
▁affetto	-11.0909
▁speaking	-11.0909
▁consigliere	-11.0911
ama	-11.0913
▁vice	-11.0913
▁fol	-11.0913
gono	-11.0914
ó	-11.0916
▁ovvio	-11.0918
har	-11.092
menta	-11.0923
ons	-11.0925
▁besides	-11.0926
▁conoscenze	-11.0928
▁realizza	-11.0928
sch	-11.093
▁adora	-11.0931
▁scrittura	-11.0936
▁negativo	-11.0936
▁organizzato	-11.0944
▁pleasure	-11.0945
▁determinati	-11.0946
▁breath	-11.0946
▁cata	-11.0954
▁bla	-11.0956
▁scende	-11.0957
▁giant	-11.0957
▁pair	-11.0958
sal	-11.0961
▁farmaci	-11.0962
▁prescindere	-11.0963
▁sheep	-11.0963
▁onto	-11.0964
▁mostrare	-11.0964
▁lucky	-11.0967
▁conseguire	-11.0967
▁incoraggia	-11.0969
▁insiste	-11.097
▁falling	-11.0972
▁vedono	-11.0972
mu	-11.0974
▁isole	-11.0979
università	-11.0982
▁sacro	-11.0984
▁gives	-11.0986
/20	-11.0986
▁dimentica	-11.0988
▁cop	-11.099
▁trasforma	-11.0991
▁feed	-11.0992
▁flying	-11.0992
▁significativo	-11.0993
▁feci	-11.0995
▁biblioteca	-11.1
▁creatura	-11.1001
▁imperatore	-11.1001
▁degno	-11.1002
▁farci	-11.1003
▁apart	-11.1003
ced	-11.1003
rina	-11.1004
▁morì	-11.1005
▁sig	-11.1013
lan	-11.1013
▁giudici	-11.1014
▁rivolto	-11.1018
▁terms	-11.1019
▁banda	-11.102
▁pianto	-11.1024
▁penetra	-11.1024
▁quarter	-11.1025
▁notevoli	-11.1026
ging	-11.1026
omc	-11.1029
▁shape	-11.1031
▁guardava	-11.1031
▁ammira	-11.1031
▁riuscita	-11.1034
▁tentare	-11.1036
▁manfredi	-11.1036
▁signoria	-11.1036
▁robin	-11.1038
cher	-11.1039
▁trasformazione	-11.1039
▁impedi	-11.1042
▁pubblicazione	-11.1048
▁incontri	-11.1049
pul	-11.105
num	-11.1051
▁lagrime	-11.1054
▁brescia	-11.1055
▁neither	-11.106
▁christ	-11.1063
▁portogallo	-11.1064
▁puppet	-11.1064
silver	-11.1064
▁acca	-11.1066
▁gate	-11.1069
scia	-11.1073
▁frattempo	-11.1073
▁suit	-11.1074
▁skin	-11.1074
rog	-11.1075
ized	-11.1076
port	-11.1076
mann	-11.108
▁razzismo	-11.1082
▁seriamente	-11.1086
▁bush	-11.1087
▁lasciar	-11.1088
▁rapido	-11.109
▁veicoli	-11.1091
▁sor	-11.1092
tea	-11.1092
▁fida	-11.1094
tino	-11.1102
▁dovette	-11.1105
▁nope	-11.1106
▁padova	-11.111
cchio	-11.1111
▁transfrontalier	-11.1119
▁intenzioni	-11.1119
▁rischia	-11.1119
▁procede	-11.1121
▁drew	-11.1124
▁rimedio	-11.1125
▁deboli	-11.1126
▁guai	-11.1126
sten	-11.1128
fici	-11.1129
▁navigazione	-11.1131
▁indicazioni	-11.1131
▁contratti	-11.1132
▁fui	-11.1133
▁add	-11.1137
▁motor	-11.1139
▁pardon	-11.1141
▁abbraccia	-11.1146
▁finita	-11.1146
▁sostanzialmente	-11.1147
▁uccide	-11.1149
len	-11.115
▁prison	-11.1152
▁pal	-11.1153
ang	-11.1154
▁spedi	-11.1155
▁pizza	-11.1157
▁tornata	-11.1158
▁boss	-11.1169
ker	-11.1171
▁georgia	-11.1171
▁nati	-11.1171
ez	-11.1173
ise	-11.1178
▁driving	-11.1184
▁paint	-11.1184
▁handle	-11.1185
▁negoziato	-11.1186
esame	-11.119
▁ripete	-11.1193
▁forth	-11.1195
▁rap	-11.1195
▁costituito	-11.1199
▁carità	-11.1201
▁huge	-11.1201
▁laddove	-11.1203
▁raggi	-11.1203
▁arrived	-11.1207
pin	-11.1208
▁considered	-11.1209
wood	-11.121
▁diversamente	-11.1211
▁cliente	-11.1216
put	-11.1218
▁tam	-11.122
▁nineteen	-11.1221
▁babies	-11.1221
▁1992	-11.1221
▁corea	-11.1222
▁successivo	-11.1223
▁dormire	-11.1226
▁combatte	-11.1231
▁imposta	-11.1232
fri	-11.1233
ye	-11.1237
▁length	-11.1242
▁doppia	-11.1243
▁pound	-11.1245
▁riporta	-11.1247
▁compra	-11.1247
70	-11.1248
▁sentì	-11.1254
eli	-11.1258
▁bacia	-11.1258
▁promesso	-11.1259
▁tradizionale	-11.1259
▁ombra	-11.126
tru	-11.1262
roni	-11.1265
rat	-11.1266
▁--&	-11.127
tati	-11.1274
▁dimora	-11.1277
▁vestito	-11.1278
▁parlo	-11.1279
▁starting	-11.1285
pp	-11.1285
▁allow	-11.1286
▁threw	-11.1287
▁nan	-11.1288
▁declared	-11.1289
▁wheel	-11.129
▁laurea	-11.1292
▁billy	-11.1295
▁giulio	-11.1297
▁cifre	-11.1304
▁happening	-11.1304
▁angelo	-11.1305
▁familiare	-11.1307
▁offerta	-11.1311
uro	-11.1313
▁restano	-11.1317
mas	-11.1319
98	-11.1322
▁tie	-11.1324
▁prigionieri	-11.1325
▁considerata	-11.1328
▁americano	-11.133
cto	-11.133
▁condannato	-11.1335
▁style	-11.1336
▁edna	-11.1339
▁basata	-11.1341
vir	-11.1342
▁eccetera	-11.1343
▁fissare	-11.1345
▁franco	-11.1345
▁role	-11.1349
▁descrizione	-11.1353
▁flag	-11.1354
▁bari	-11.1361
▁vittima	-11.1362
▁yyy	-11.1362
par	-11.1367
▁gioca	-11.1368
▁roba	-11.1369
▁premi	-11.137
▁numbers	-11.1374
▁papi	-11.1375
▁concernente	-11.138
▁modern	-11.1381
▁monday	-11.1383
▁travel	-11.1384
▁blanket	-11.1391
▁rimasta	-11.1391
▁pol	-11.1398
▁retro	-11.1398
▁titoli	-11.1402
▁amato	-11.1407
▁sfruttamento	-11.1411
▁costoro	-11.1412
▁founded	-11.1416
▁stazione	-11.1418
▁borsa	-11.1421
▁corpi	-11.1421
▁violazioni	-11.1423
▁castel	-11.1428
▁sventura	-11.1429
▁duro	-11.1429
▁inghilterra	-11.1431
berg	-11.1431
▁condivide	-11.1433
▁liberale	-11.1434
▁governatore	-11.1435
apertura	-11.1438
▁vedremo	-11.1439
▁manifestazione	-11.1444
▁andati	-11.1445
rdo	-11.1447
▁preciso	-11.1448
▁medicina	-11.1449
▁ninety	-11.1451
▁official	-11.1455
▁protesta	-11.1455
▁dangerous	-11.1455
▁micro	-11.1456
▁vissuto	-11.1457
▁presidenti	-11.1458
▁attivo	-11.1459
▁regolamentazion	-11.1461
▁prender	-11.1463
▁separate	-11.1463
dice	-11.1464
▁sogni	-11.1464
▁dinosaur	-11.1468
▁decisamente	-11.1469
▁cammina	-11.1469
home	-11.1474
▁scrittori	-11.1476
▁campagne	-11.1477
▁macchine	-11.1477
▁trovi	-11.1478
▁addio	-11.1478
▁pagamenti	-11.1479
▁republic	-11.1479
▁memorie	-11.148
▁45	-11.1482
tosi	-11.1483
▁burn	-11.1484
0,000	-11.1484
▁immigrazione	-11.1486
▁rifiuto	-11.1487
▁frutti	-11.1488
▁falls	-11.1496
▁crowd	-11.1498
▁auspica	-11.1499
▁bisognava	-11.1499
▁awful	-11.1503
▁throat	-11.1505
▁balls	-11.1509
▁2019	-11.1511
▁colors	-11.1513
▁essersi	-11.1514
ach	-11.1515
▁creduto	-11.1515
▁carrozza	-11.1516
evoluzione	-11.1516
giu	-11.152
▁joke	-11.1521
▁deck	-11.1523
▁valley	-11.1524
▁preti	-11.1525
▁wise	-11.1528
▁scorre	-11.1528
▁dimenticato	-11.153
pos	-11.154
▁mena	-11.1543
▁accettabile	-11.1546
▁sveglia	-11.1548
end	-11.1548
▁congiunta	-11.155
▁sensazione	-11.1554
▁sapendo	-11.1554
▁genera	-11.1554
night	-11.1563
▁believed	-11.1563
▁cogliere	-11.1564
▁finestre	-11.1569
▁medesimi	-11.1573
▁indicare	-11.1573
▁fault	-11.1576
▁("	-11.1578
▁vasto	-11.1579
▁mobile	-11.158
▁imparato	-11.1586
▁tesi	-11.1587
▁novella	-11.1588
▁culto	-11.1588
▁500	-11.1589
▁pulled	-11.1589
▁$	-11.159
▁divisione	-11.1592
▁tesoro	-11.1594
▁32	-11.1594
▁salta	-11.1595
ndone	-11.1595
▁guardò	-11.1596
▁riprendere	-11.1596
▁accorda	-11.1597
▁liberamente	-11.1601
geni	-11.1606
▁consapevole	-11.161
▁lasciava	-11.161
▁entrata	-11.1612
▁harry	-11.1615
▁runs	-11.1619
▁udi	-11.1623
▁cani	-11.1624
▁ripetere	-11.1626
▁directed	-11.1627
▁rompe	-11.1628
▁regolare	-11.1629
▁interne	-11.1631
▁giustifica	-11.1631
▁airplane	-11.1631
▁fifteen	-11.1631
▁flew	-11.1633
▁slice	-11.1634
▁caratteri	-11.1635
lata	-11.1635
▁penna	-11.1639
stiche	-11.164
▁border	-11.1641
▁concluso	-11.1641
90	-11.1644
ug	-11.1645
▁flo	-11.1646
2.	-11.1647
▁fourth	-11.1647
▁fru	-11.1648
▁trascina	-11.1649
▁sedi	-11.165
▁esistente	-11.1651
▁sh	-11.1651
▁avviato	-11.1652
▁rivolge	-11.1652
▁comunicazioni	-11.1653
▁citato	-11.1657
▁woods	-11.166
▁tasse	-11.1661
▁isola	-11.1664
▁ducati	-11.1669
▁rimasti	-11.1673
▁scritti	-11.1673
▁raised	-11.1677
▁rilevare	-11.1678
▁pilastro	-11.168
▁bomb	-11.1681
▁bellissima	-11.1681
gro	-11.1682
ré	-11.1683
▁entrato	-11.1687
▁hadn	-11.1689
▁discarico	-11.169
▁costituzionale	-11.169
▁commissari	-11.1694
▁interroga	-11.17
▁raccoglie	-11.1701
▁+/	-11.1703
▁regular	-11.1705
▁doggie	-11.1707
▁security	-11.1709
▁agent	-11.171
▁sesso	-11.171
▁contatti	-11.1712
▁abita	-11.1712
uch	-11.1712
▁escape	-11.1718
▁minima	-11.172
▁transito	-11.1721
▁anywhere	-11.1722
▁nin	-11.1722
▁dici	-11.1727
▁appearance	-11.1729
▁bimbo	-11.173
dini	-11.1734
▁segui	-11.1735
▁acco	-11.1735
▁strength	-11.1739
▁teoria	-11.1739
▁scrittore	-11.1739
zu	-11.174
▁divenne	-11.1741
▁lieta	-11.1741
▁pensione	-11.1741
▁affrontato	-11.1743
▁interamente	-11.1745
▁bessie	-11.1749
▁ascoltato	-11.1749
▁stayed	-11.1749
▁riguardanti	-11.1751
▁houses	-11.1752
▁amor	-11.1756
▁dica	-11.1757
▁profitto	-11.1757
▁sbagliato	-11.1758
▁shadow	-11.1759
▁ridere	-11.176
fr	-11.176
▁version	-11.1761
▁tony	-11.1762
letta	-11.1763
▁sorti	-11.1765
▁shake	-11.1766
▁rule	-11.1768
▁essenzialmente	-11.1768
▁1993	-11.1769
▁schiera	-11.1769
nati	-11.1771
▁lock	-11.1772
▁80	-11.1773
▁vienna	-11.1776
▁movement	-11.1776
boli	-11.1777
friend	-11.1777
▁istituire	-11.1778
▁strasburgo	-11.1778
▁continui	-11.1778
▁trasparente	-11.1779
▁ricostruzione	-11.1779
bbi	-11.178
/02	-11.178
26	-11.1784
▁cassa	-11.1786
▁tornato	-11.1787
▁comanda	-11.1788
▁texas	-11.1788
▁cru	-11.1789
▁votazioni	-11.179
ky	-11.1799
eu	-11.1802
▁gay	-11.1806
▁lussemburgo	-11.1808
▁industrie	-11.1808
tten	-11.1808
▁incoraggiare	-11.1811
▁stadio	-11.1815
▁resa	-11.1816
did	-11.1817
▁twice	-11.1818
▁swimming	-11.1818
▁plain	-11.1818
▁walks	-11.1821
▁simbolo	-11.1829
▁usual	-11.183
▁ended	-11.1831
▁discovered	-11.1831
ened	-11.1833
ua	-11.1833
▁condividere	-11.1834
▁agricolo	-11.1838
▁performance	-11.1838
▁cristiano	-11.1839
▁cio	-11.184
▁marino	-11.1845
▁irlanda	-11.1846
▁provide	-11.1846
▁formato	-11.1846
pra	-11.1848
▁watched	-11.185
ida	-11.1856
▁consapevoli	-11.1858
▁elettorale	-11.1858
▁donde	-11.1858
▁eran	-11.1858
▁sorge	-11.1858
▁enti	-11.186
▁frutta	-11.186
▁salt	-11.1863
▁appoggiare	-11.1864
▁avvi	-11.1864
▁seco	-11.1866
▁ospita	-11.1869
▁duty	-11.187
irlanda	-11.1871
rus	-11.1872
▁pil	-11.1873
ped	-11.1873
bil	-11.1875
▁lezione	-11.1875
▁female	-11.1877
▁percentuale	-11.1878
▁italian	-11.1878
▁singer	-11.188
▁sy	-11.1881
bit	-11.1886
▁maestà	-11.1887
▁territori	-11.1888
cho	-11.1891
cula	-11.1892
▁sesto	-11.1894
▁ser	-11.1897
▁attendere	-11.1897
aggio	-11.1898
▁accept	-11.19
ries	-11.1901
box	-11.1905
▁seppe	-11.1906
letto	-11.1906
▁traduzione	-11.1907
▁meaning	-11.1908
▁author	-11.1908
▁accosta	-11.1909
▁sword	-11.1909
▁teach	-11.1911
▁greater	-11.1911
▁vien	-11.1912
▁scendere	-11.1912
nel	-11.1913
▁gridò	-11.1918
play	-11.1918
▁sed	-11.1918
▁competenti	-11.1919
ces	-11.1919
▁entrate	-11.1922
▁windows	-11.1925
▁pack	-11.1926
▁consulta	-11.1931
▁fuggi	-11.1932
duc	-11.1935
onu	-11.1935
▁pericoloso	-11.1936
▁parma	-11.1938
ncy	-11.1944
45	-11.1946
▁valido	-11.1948
▁stairs	-11.195
▁concerto	-11.1951
▁formulare	-11.1954
▁passioni	-11.1956
▁pour	-11.1957
▁disgrazia	-11.1957
▁southern	-11.1958
▁curiosità	-11.1958
uni	-11.196
▁opposizione	-11.1963
▁ampiamente	-11.1964
▁create	-11.1965
origine	-11.1972
▁razza	-11.1973
▁ghe	-11.1977
▁disabili	-11.1977
▁smoke	-11.1978
ney	-11.198
▁rico	-11.1982
▁weather	-11.1988
▁dir	-11.1988
▁scadenza	-11.1988
▁preoccupa	-11.1989
▁cerchi	-11.1993
▁mancano	-11.1994
▁tradizioni	-11.1998
▁sce	-11.2001
▁risolve	-11.2001
almente	-11.2002
▁potendo	-11.2004
▁digitale	-11.2005
▁attraversa	-11.2005
▁direi	-11.2006
vit	-11.2006
▁offered	-11.201
▁clo	-11.2018
▁6,	-11.2022
sp	-11.2025
▁risk	-11.2026
▁spazi	-11.2027
▁evidence	-11.2028
▁andavano	-11.2031
lie	-11.2037
▁expected	-11.2038
▁giovedì	-11.2038
▁generazioni	-11.204
vent	-11.2041
▁concorso	-11.2048
▁development	-11.2049
impresa	-11.205
▁ty	-11.2052
▁search	-11.2053
▁lips	-11.2055
▁guardate	-11.2058
▁holds	-11.2059
▁amicizia	-11.2063
▁diana	-11.2069
▁classifica	-11.207
board	-11.2072
▁prendiamo	-11.2074
▁cau	-11.2077
▁feste	-11.2078
▁guglielmo	-11.2079
rj	-11.2081
▁eccita	-11.2082
▁federal	-11.2084
coli	-11.2087
ag	-11.2088
▁codecisione	-11.2089
cos	-11.2089
▁choo	-11.209
▁uhoh	-11.2095
▁wearing	-11.2095
▁current	-11.2096
▁suolo	-11.2096
▁veloce	-11.2096
net	-11.2105
▁protect	-11.2106
▁provato	-11.211
▁pensò	-11.2111
▁ferrara	-11.2111
▁prevenire	-11.2113
▁mostrato	-11.2115
▁riva	-11.2116
▁dollars	-11.2119
tate	-11.212
▁comprensione	-11.212
mm	-11.2121
tar	-11.2125
▁luca	-11.213
▁socialista	-11.2133
▁evento	-11.2133
dotti	-11.2137
▁consola	-11.2139
▁collabora	-11.2143
▁laid	-11.2143
onda	-11.2145
▁alte	-11.2151
▁grossa	-11.2153
▁individuare	-11.2155
▁portano	-11.2157
▁individual	-11.2157
▁angolo	-11.2166
▁ottima	-11.2169
▁abusi	-11.217
▁piemonte	-11.2173
uh	-11.2176
▁contrari	-11.2177
▁quietly	-11.218
▁giacchè	-11.2181
▁eleven	-11.2182
▁african	-11.2183
back	-11.2184
▁nonna	-11.2185
▁raggio	-11.2186
▁ong	-11.2188
▁religiosa	-11.2192
▁concordo	-11.2192
▁riunioni	-11.2192
▁federico	-11.2193
▁cam	-11.2194
▁attentamente	-11.2194
▁chiamava	-11.2196
celli	-11.2196
▁rallegra	-11.2197
▁nucleari	-11.2197
ada	-11.2201
▁uscì	-11.2202
▁costretti	-11.2202
▁purple	-11.2203
▁aveano	-11.2211
▁au	-11.2211
▁polvere	-11.2212
▁avv	-11.2214
▁moderni	-11.2215
▁indipendenza	-11.2217
▁listening	-11.2217
▁concreta	-11.2219
▁esclama	-11.2221
▁grossi	-11.2222
▁elena	-11.2226
▁farmi	-11.2227
▁sap	-11.2227
▁address	-11.223
▁immediately	-11.2234
▁fortezza	-11.2235
gge	-11.2237
▁coda	-11.2237
▁evoluzione	-11.2242
where	-11.2242
▁barca	-11.2245
▁value	-11.2246
▁spagnolo	-11.2254
▁componenti	-11.2255
35	-11.2256
▁sostitui	-11.2258
▁scappa	-11.226
▁core	-11.226
▁interessate	-11.2261
▁governor	-11.2261
▁fia	-11.2263
▁saved	-11.2263
▁globalizzazione	-11.2264
▁brevemente	-11.227
amento	-11.2273
▁training	-11.2274
fully	-11.2277
▁citare	-11.2277
▁ways	-11.2278
▁organizzare	-11.2278
▁noble	-11.2283
gola	-11.2284
▁ros	-11.2284
▁credeva	-11.2285
dici	-11.2288
▁writer	-11.2288
plo	-11.2289
▁moda	-11.229
incontro	-11.2292
▁elenco	-11.2292
looking	-11.2292
▁eletti	-11.2293
▁esce	-11.2294
▁scon	-11.2295
▁empty	-11.2295
▁statistics	-11.2295
▁statue	-11.2295
▁fool	-11.2297
evole	-11.2303
aft	-11.2304
▁probabilità	-11.2306
▁strike	-11.2306
▁ray	-11.2309
some	-11.2309
▁farmer	-11.231
▁lasci	-11.2311
▁banco	-11.2314
▁decisionale	-11.2317
eh	-11.2326
▁ginevra	-11.2326
▁policy	-11.2327
▁aperte	-11.2327
▁esserci	-11.2328
▁anziché	-11.2329
▁grosse	-11.2331
▁selva	-11.2334
ius	-11.2334
▁vende	-11.2335
▁evidenzia	-11.2337
▁largest	-11.2338
▁temo	-11.2342
▁passeggeri	-11.2347
▁earlier	-11.2347
▁conformità	-11.2348
set	-11.2348
▁corruzione	-11.2348
▁giallo	-11.2348
▁rabbia	-11.235
▁grown	-11.2352
▁desk	-11.2352
▁consuma	-11.2352
unità	-11.2353
▁lunedì	-11.2358
▁indipendenti	-11.2358
▁generalmente	-11.2361
▁siena	-11.2361
▁costantemente	-11.2364
▁trattava	-11.2364
▁lasciate	-11.2368
▁dovuta	-11.2369
▁lamp	-11.2369
▁credi	-11.2373
▁cad	-11.2373
▁mid	-11.2376
▁knife	-11.2379
▁azienda	-11.238
▁coste	-11.2382
▁vel	-11.2383
▁bike	-11.2385
▁giunse	-11.2386
▁cerchiamo	-11.2392
▁quod	-11.2392
▁cri	-11.2393
▁compi	-11.2393
▁guadagna	-11.2396
▁mac	-11.2396
▁paziente	-11.24
sings	-11.2401
▁matura	-11.2401
unc	-11.2402
▁bee	-11.2405
▁louis	-11.2405
▁imperiale	-11.2406
▁piangere	-11.2408
dent	-11.2409
▁perfetto	-11.241
▁clever	-11.2411
▁rivedere	-11.2411
▁officers	-11.2411
▁potessero	-11.2411
africa	-11.2412
stato	-11.2414
▁brothers	-11.2417
▁cute	-11.2417
stici	-11.2418
▁fedeli	-11.2419
▁easily	-11.2421
▁palestinese	-11.2421
▁danaro	-11.2421
▁canton	-11.2422
▁services	-11.2423
▁circonda	-11.2423
▁dramma	-11.2424
▁concert	-11.2426
▁serba	-11.2426
▁armata	-11.2426
▁severe	-11.2427
▁dirige	-11.2427
nus	-11.2427
▁hum	-11.243
kay	-11.2435
▁edward	-11.2438
▁afterwards	-11.2439
▁strana	-11.244
▁australian	-11.2441
▁mike	-11.2444
nny	-11.2445
▁success	-11.2447
▁epi	-11.2447
▁300	-11.2448
▁nido	-11.2449
▁1991	-11.2453
▁flight	-11.2453
azioni	-11.2454
▁monetari	-11.2455
▁anne	-11.2457
▁speech	-11.2458
▁von	-11.246
▁charlie	-11.2463
▁commesso	-11.2463
▁camere	-11.2468
▁treat	-11.2473
▁agricole	-11.2473
▁esterni	-11.2474
▁published	-11.2474
▁efficiente	-11.2476
bs	-11.2476
▁sticks	-11.2476
▁capitoli	-11.2478
yo	-11.2479
▁geo	-11.2481
▁palestinesi	-11.2485
▁circolo	-11.2486
▁rib	-11.2487
▁spirituale	-11.249
▁fondazione	-11.249
gon	-11.2494
▁plenty	-11.2495
▁straniero	-11.2495
▁likes	-11.2496
▁limitato	-11.2496
fini	-11.2497
▁amo	-11.2497
work	-11.2497
▁tent	-11.2499
▁affronta	-11.2501
▁pensioni	-11.2501
▁traffic	-11.2503
▁meal	-11.2509
▁esterno	-11.2513
ngu	-11.2514
▁mancato	-11.2515
ov	-11.2519
▁cerchio	-11.2522
▁bestia	-11.2528
▁vorremmo	-11.2537
ben	-11.2539
▁oli	-11.2542
▁carriera	-11.2544
▁comunicare	-11.2544
▁lavorando	-11.2547
▁determina	-11.2548
▁surface	-11.2548
▁sovrano	-11.255
▁regolamenti	-11.2551
▁pala	-11.2552
▁diretti	-11.2553
▁spo	-11.2553
▁fedele	-11.2553
▁railway	-11.2559
▁tip	-11.2559
▁wales	-11.2562
▁partecipanti	-11.2562
▁separa	-11.2562
▁consenti	-11.2563
▁movies	-11.2565
mate	-11.2565
▁volge	-11.2568
▁prudenza	-11.2569
▁espresse	-11.2569
▁sacra	-11.2569
▁monete	-11.2569
▁cittadinanza	-11.257
▁supporto	-11.2571
oth	-11.2574
▁richiamare	-11.2575
▁accedere	-11.2579
▁precedenza	-11.2581
▁benedetto	-11.2581
▁2006	-11.2582
▁objects	-11.2583
▁perdona	-11.2589
▁sovvenzioni	-11.2591
▁tim	-11.2592
▁involved	-11.2594
▁bada	-11.2595
▁gravità	-11.2596
ple	-11.2597
▁eserciti	-11.26
▁oil	-11.2601
zzata	-11.2602
▁youth	-11.2603
▁seria	-11.2604
▁viaggi	-11.2604
turns	-11.2605
▁pleased	-11.2606
▁sollecita	-11.261
▁scarsa	-11.2611
▁amy	-11.2611
▁esterna	-11.2612
▁irlandese	-11.2612
▁degna	-11.2612
▁necessary	-11.2612
▁strappa	-11.2613
▁lucca	-11.262
▁pier	-11.2622
▁debolezza	-11.2625
▁plant	-11.2625
ments	-11.2627
▁---	-11.2629
▁cambiato	-11.263
▁tentato	-11.2634
▁desta	-11.2634
▁entusiasmo	-11.2635
▁accompagnato	-11.2636
▁mettono	-11.2638
ins	-11.2638
retti	-11.2638
▁whispered	-11.264
▁consider	-11.2643
▁dancing	-11.2644
▁stasera	-11.2645
▁tenuti	-11.2647
▁gola	-11.2649
▁regna	-11.2655
lon	-11.2663
▁criminali	-11.2665
▁gift	-11.2666
▁inglesi	-11.2666
▁sovente	-11.2666
▁pura	-11.2666
cum	-11.2669
bbo	-11.2669
▁sedere	-11.2674
▁rigore	-11.2677
▁gentlemen	-11.2677
▁7,	-11.2678
▁struck	-11.2679
▁turtle	-11.268
▁tempesta	-11.2682
▁tears	-11.2683
▁uhuh	-11.2683
ndoci	-11.2685
lar	-11.2686
▁stro	-11.2686
▁udito	-11.2686
▁vela	-11.269
▁scudi	-11.2691
▁merry	-11.2702
▁cattura	-11.2702
▁forum	-11.2704
▁strettamente	-11.2705
rá	-11.2705
▁destinata	-11.2706
▁accolgo	-11.2709
▁schengen	-11.2709
▁petrolio	-11.2709
▁bontà	-11.2711
gging	-11.2713
ier	-11.2713
gga	-11.2714
▁xiii	-11.2716
▁dra	-11.2717
▁excellent	-11.272
▁pmi	-11.2721
▁forces	-11.2722
unanimità	-11.2722
▁association	-11.2724
-20	-11.2726
▁perfectly	-11.2727
▁virus	-11.2728
giggles	-11.2729
▁soffoca	-11.2731
flu	-11.2735
▁cardinali	-11.2739
▁climb	-11.2741
▁songs	-11.2743
sson	-11.2747
▁surprised	-11.2747
▁segnala	-11.2748
nali	-11.2749
aumento	-11.2749
▁supera	-11.2752
▁secretary	-11.2753
▁replica	-11.2754
▁fallimento	-11.2754
▁celebra	-11.2763
▁reati	-11.2767
▁signorina	-11.2769
▁dump	-11.2769
▁medita	-11.2769
▁rendono	-11.2771
▁oops	-11.2773
▁oramai	-11.2774
rici	-11.2775
▁frode	-11.2776
▁quaranta	-11.2777
▁inv	-11.2778
▁gl	-11.2778
99	-11.2779
▁passata	-11.2782
▁impressione	-11.2783
▁lettori	-11.2783
▁kick	-11.2785
▁pakistan	-11.2785
▁raccolto	-11.2785
▁deserto	-11.2786
▁correct	-11.2786
▁laura	-11.2793
▁adunque	-11.2796
▁students	-11.28
acco	-11.2801
▁particularly	-11.2802
▁monarchia	-11.2803
▁adopera	-11.2804
ction	-11.2805
▁closer	-11.2805
▁loco	-11.2806
▁hero	-11.2807
▁tone	-11.2807
▁introdotto	-11.2807
▁flash	-11.2809
▁promised	-11.2809
▁wolf	-11.281
▁showing	-11.2816
▁cessa	-11.2816
▁convinzione	-11.2818
▁inutili	-11.2823
▁programmazione	-11.2825
▁vaga	-11.2826
▁legate	-11.2828
▁chiedono	-11.2828
▁casca	-11.2829
tario	-11.283
▁matteo	-11.283
▁trionfo	-11.2831
▁perche	-11.2832
▁capitani	-11.2835
▁assiste	-11.2836
▁filled	-11.2836
▁cellule	-11.284
▁pittore	-11.2841
▁cloth	-11.2842
▁vola	-11.2844
▁abbandonare	-11.2848
▁located	-11.2851
▁bucket	-11.2851
▁thick	-11.2851
▁conosciamo	-11.2852
▁bara	-11.2859
sc	-11.2859
▁conservare	-11.2861
▁difetto	-11.2862
▁compresi	-11.2866
▁passava	-11.287
▁serva	-11.2872
▁“‘	-11.2874
▁lungi	-11.2878
light	-11.2879
▁cent	-11.288
▁lacrime	-11.2884
▁ritmo	-11.2884
▁sentiero	-11.2886
▁mountains	-11.2887
mpo	-11.2888
▁finisce	-11.2889
▁marca	-11.2891
▁ji	-11.2891
▁suscita	-11.2891
▁lottare	-11.2892
▁pleasant	-11.2895
▁button	-11.2897
anzi	-11.2897
▁formed	-11.2898
ston	-11.2898
▁link	-11.2899
▁canzone	-11.29
rgi	-11.2904
▁taught	-11.2906
▁incredibile	-11.2907
▁altera	-11.2912
book	-11.2915
▁milione	-11.2917
▁cristiana	-11.2919
▁roof	-11.2919
▁attend	-11.2921
▁professionali	-11.2922
ross	-11.2922
▁heads	-11.2923
▁ammettere	-11.2928
▁spagnola	-11.2928
▁rode	-11.2929
▁daniel	-11.2929
▁fili	-11.293
here	-11.293
agi	-11.2931
▁wet	-11.2933
27	-11.2934
▁incontrato	-11.2937
mia	-11.294
▁finanziare	-11.2944
temporaneamente	-11.2948
▁transizione	-11.295
▁quadri	-11.2952
arsi	-11.2954
▁stabile	-11.2955
▁forni	-11.2958
▁lavorano	-11.2959
▁empire	-11.2964
▁rom	-11.2966
row	-11.2967
▁missed	-11.2968
▁tetto	-11.2969
▁alpi	-11.2972
▁beauty	-11.2973
▁pioggia	-11.2974
▁neo	-11.2974
▁frodi	-11.2976
▁patti	-11.2976
▁quarta	-11.2978
▁confessa	-11.2978
▁invoca	-11.2979
▁vitale	-11.298
vansi	-11.2983
▁impo	-11.2984
nci	-11.2986
▁sentence	-11.2986
▁fashion	-11.299
▁insistere	-11.299
▁snake	-11.2991
▁determinate	-11.2993
▁jesus	-11.2995
over	-11.2995
▁gentleman	-11.2996
▁36	-11.2999
▁stacca	-11.2999
▁tries	-11.3003
▁affi	-11.3006
▁boston	-11.3007
▁inviato	-11.3008
▁lamenta	-11.3013
▁prestare	-11.3015
▁abbandonato	-11.3015
▁impossible	-11.3017
▁elettronica	-11.3017
▁maestra	-11.3018
abbiamo	-11.3018
▁miracolo	-11.302
▁ph	-11.302
▁custodi	-11.302
▁cenno	-11.3029
▁vigilanza	-11.3029
▁credibilità	-11.3029
▁precisione	-11.3029
▁operato	-11.3029
▁registra	-11.3031
▁compila	-11.3036
clu	-11.3038
▁spanish	-11.304
▁rachel	-11.3041
▁consapevolezza	-11.3041
▁stabili	-11.3043
▁provoca	-11.3043
▁baci	-11.3049
ec	-11.3051
▁povere	-11.3052
ram	-11.3054
para	-11.3054
cente	-11.3055
▁rese	-11.3056
▁keeping	-11.3057
▁acquistare	-11.3058
▁rag	-11.306
▁virginia	-11.306
▁istituzionali	-11.3062
1.	-11.3062
▁rammenta	-11.3066
▁migliora	-11.3066
▁mistero	-11.3066
▁mel	-11.3067
ioni	-11.3071
▁eric	-11.3073
iano	-11.3073
▁lezioni	-11.3076
▁vene	-11.308
▁chiamano	-11.308
rry	-11.3085
▁deficit	-11.3085
▁tentativi	-11.3085
▁vorrà	-11.3086
▁minimi	-11.309
▁remained	-11.3091
▁tratte	-11.3092
▁resti	-11.3092
▁indubbiamente	-11.3096
▁finanze	-11.3096
▁collegamento	-11.3096
denti	-11.3098
▁metto	-11.3099
▁rifugiati	-11.3099
▁derivanti	-11.3101
▁gale	-11.3102
▁stream	-11.3102
▁vanta	-11.3106
nods	-11.3106
▁ritenuto	-11.3107
▁tunnel	-11.3107
▁irrita	-11.3107
▁contadini	-11.3107
▁perduta	-11.3109
▁odd	-11.311
igh	-11.3111
▁program	-11.3118
▁calabria	-11.3118
▁immigrati	-11.3118
▁lieutenant	-11.3118
▁barn	-11.3119
▁armati	-11.3119
▁commenti	-11.312
stu	-11.3122
tissimo	-11.3122
▁operai	-11.3123
▁giura	-11.313
▁tranquillo	-11.313
▁fairy	-11.3132
▁heat	-11.3132
▁prendendo	-11.3132
▁fallen	-11.3133
▁sollevato	-11.3136
▁intellettuale	-11.3141
▁probabile	-11.3141
▁esportazioni	-11.3142
bol	-11.3143
zionali	-11.3144
▁fixed	-11.3144
▁bere	-11.3146
▁foreign	-11.3152
elecomunicazioni	-11.3152
▁secondi	-11.3153
▁brutto	-11.3155
▁orale	-11.3157
ele	-11.3157
tis	-11.3159
▁mont	-11.3163
▁contenute	-11.3164
▁lights	-11.3164
▁mescola	-11.3168
▁prendo	-11.317
▁giudicare	-11.3171
mont	-11.3171
▁oxford	-11.3175
▁ricchezze	-11.3175
▁contraria	-11.3177
▁vieta	-11.3177
▁vere	-11.3178
late	-11.3181
get	-11.3186
▁misericordia	-11.3186
▁strategie	-11.3186
▁southwestern	-11.3187
▁blind	-11.319
▁needta	-11.3191
▁bas	-11.3191
▁calo	-11.3192
▁steps	-11.3193
zer	-11.3194
▁convergenza	-11.3198
▁danneggia	-11.3201
▁aerei	-11.3206
▁meridionale	-11.3209
▁fiera	-11.3211
▁bagna	-11.3211
▁crew	-11.3215
▁2000,	-11.3219
▁coinvolti	-11.3221
▁range	-11.3223
▁rimangono	-11.3224
▁perfetta	-11.3228
▁census	-11.3232
▁negative	-11.3233
ggiare	-11.3235
▁ipotesi	-11.3236
▁greca	-11.3236
▁uscita	-11.3237
▁riferisce	-11.3244
▁soddisfatto	-11.3244
▁avventura	-11.3246
impressione	-11.3246
ngono	-11.3247
▁choose	-11.325
▁differenzia	-11.3253
▁sensibilità	-11.3257
▁gri	-11.3257
▁chain	-11.3258
▁concorda	-11.3259
▁ap	-11.3261
▁denuncia	-11.3262
--"	-11.3262
▁pene	-11.3263
▁cookies	-11.3264
▁bomba	-11.3265
▁criterio	-11.3265
▁swim	-11.3266
▁infelice	-11.3266
▁relationship	-11.3266
▁contact	-11.3267
▁cups	-11.3267
af	-11.3268
▁greek	-11.3277
▁farla	-11.3277
▁disease	-11.3278
▁conseguente	-11.3279
▁selezione	-11.3279
▁nec	-11.328
gano	-11.3282
▁sen	-11.3284
▁brava	-11.3284
▁distinzione	-11.3289
▁preparato	-11.329
▁downstairs	-11.329
▁fiamma	-11.329
▁parliament	-11.329
▁esalta	-11.3291
ks	-11.3292
▁buio	-11.3293
▁dettaglio	-11.3294
bis	-11.3295
▁dicevano	-11.33
▁contract	-11.33
▁spiaggia	-11.3301
▁aggrava	-11.3303
▁persia	-11.3304
▁stefano	-11.3304
▁fondamento	-11.3304
▁continuerà	-11.3305
▁occupato	-11.3305
▁margine	-11.3306
▁eccezione	-11.3306
ace	-11.3309
▁sappia	-11.3312
▁wal	-11.3313
▁committee	-11.3313
▁epoca	-11.3313
our	-11.3315
▁gallo	-11.3316
▁foglio	-11.3316
▁afghanistan	-11.3317
▁introduzione	-11.3317
▁garanti	-11.3318
▁affretta	-11.3319
▁metteva	-11.3323
▁gerusalemme	-11.3324
▁continues	-11.3328
▁ristrutturazion	-11.3333
▁vivamente	-11.3335
▁celebre	-11.3335
▁claus	-11.3335
▁blocco	-11.3336
▁licenza	-11.3336
▁esige	-11.3337
▁favor	-11.3338
essa	-11.3338
erei	-11.3342
▁rim	-11.3347
▁religioso	-11.3347
▁energie	-11.3347
▁balcani	-11.3347
▁saluti	-11.3347
▁bern	-11.3349
▁sang	-11.3349
▁dimostrano	-11.335
▁pushed	-11.3352
tin	-11.3353
▁rough	-11.3356
▁dum	-11.3357
ude	-11.3357
sì	-11.3361
▁improvvisamente	-11.3362
▁confronta	-11.3364
▁37	-11.3366
▁tolto	-11.3368
▁stando	-11.3369
▁tradizionali	-11.337
▁́	-11.337
▁aspettative	-11.3371
▁uscito	-11.3372
▁vendere	-11.3372
▁reputa	-11.3377
oggi	-11.3377
▁siti	-11.3383
▁weight	-11.3387
bal	-11.3387
▁rare	-11.3388
rata	-11.3389
▁entire	-11.339
▁impara	-11.3392
▁legislative	-11.3393
▁padroni	-11.3397
▁belgio	-11.3398
▁medical	-11.3402
▁tight	-11.3402
ala	-11.3405
▁testimonianza	-11.3406
▁assistere	-11.3406
good	-11.341
▁opening	-11.3415
▁spaventa	-11.3417
▁jerry	-11.3417
▁piange	-11.3417
▁funzionare	-11.3417
▁rito	-11.342
▁tagli	-11.3422
▁impegna	-11.3423
tel	-11.3426
▁sommo	-11.3427
▁ly	-11.3427
uo	-11.3427
▁fissato	-11.3428
▁mandare	-11.3429
▁personaggio	-11.3431
▁aperti	-11.3431
sighs	-11.3432
▁giappone	-11.3432
▁godere	-11.3433
▁quartiere	-11.3433
▁stavo	-11.3435
▁aff	-11.3437
▁stress	-11.344
▁sostanziale	-11.344
▁magazine	-11.344
▁puglia	-11.3442
▁walls	-11.3444
▁seventy	-11.3444
▁drinking	-11.3448
▁managed	-11.3449
▁dose	-11.345
▁weak	-11.345
▁shown	-11.345
▁averlo	-11.345
▁false	-11.3454
▁resistere	-11.3457
▁corti	-11.3458
▁integra	-11.346
▁rispondeva	-11.3461
▁talmente	-11.3461
▁cra	-11.3462
▁switzerland	-11.3463
▁schiavi	-11.3463
▁composta	-11.3464
▁andrà	-11.3464
▁knight	-11.3464
▁priest	-11.3464
▁lettore	-11.3466
▁proclama	-11.3466
tp	-11.3472
▁belga	-11.3472
▁sudden	-11.3473
▁cart	-11.3473
▁negozio	-11.3474
▁available	-11.3475
▁paradiso	-11.3475
▁riscontra	-11.3475
▁florence	-11.3475
▁fiamme	-11.3475
▁smaller	-11.3475
utf	-11.3477
▁tan	-11.3478
▁muore	-11.3487
▁snap	-11.3488
▁disperazione	-11.3488
▁beside	-11.3489
▁rising	-11.349
▁sosta	-11.3492
▁cape	-11.3493
▁seconds	-11.3496
▁svolgimento	-11.3499
▁maestri	-11.35
▁leading	-11.35
▁trovarsi	-11.3502
year	-11.3503
▁quae	-11.3503
town	-11.3507
▁elevati	-11.3508
▁prendi	-11.351
▁mica	-11.3513
▁hammer	-11.3514
child	-11.3517
▁stradale	-11.3517
▁content	-11.3524
▁geneticamente	-11.3524
▁marine	-11.3526
▁urgenza	-11.3528
▁bound	-11.353
lf	-11.353
▁cd	-11.3531
▁lamb	-11.3532
▁saddam	-11.3534
▁virgilio	-11.3534
▁naviga	-11.3534
sed	-11.3534
▁mediatore	-11.3538
▁irre	-11.3542
/01	-11.3542
▁segnalare	-11.3543
28	-11.3545
▁tradimento	-11.3545
▁groups	-11.3546
▁ris	-11.3551
▁debbo	-11.3551
▁evil	-11.3551
▁civil	-11.3552
▁candidato	-11.3553
▁unita	-11.3555
▁tongue	-11.3557
▁normal	-11.3559
▁francesca	-11.3564
▁carni	-11.3565
▁moti	-11.3565
▁scriveva	-11.3566
▁riflette	-11.3567
▁concetti	-11.3569
▁greatest	-11.3569
▁brenda	-11.357
ui	-11.3573
▁capisce	-11.3574
▁amica	-11.3574
▁cosiddett	-11.3574
▁morali	-11.3578
lum	-11.3579
▁volse	-11.3582
▁section	-11.3583
▁silence	-11.3584
▁conviene	-11.3584
▁incomincia	-11.3588
▁laboratorio	-11.3589
ìa	-11.3591
▁tenga	-11.3591
▁monitoraggio	-11.3593
mò	-11.3594
lò	-11.3595
▁mix	-11.3597
▁offerto	-11.3597
ense	-11.3598
▁mettersi	-11.3599
▁giuridici	-11.3604
▁ospiti	-11.3604
▁noticed	-11.3608
▁crudele	-11.3608
▁adozione	-11.3608
▁equal	-11.3609
cked	-11.3611
▁arca	-11.3613
▁giornalisti	-11.3615
▁informato	-11.3616
▁attacchi	-11.3617
▁taglio	-11.3618
▁crayon	-11.3618
▁familiari	-11.3619
95	-11.3619
venti	-11.362
▁abbassa	-11.3622
▁bathroom	-11.3629
▁distinti	-11.3629
▁raccontare	-11.3629
▁jumped	-11.3635
dri	-11.3635
offerta	-11.3636
▁soddisfacente	-11.364
▁ridotta	-11.364
▁accento	-11.364
▁calcolo	-11.364
▁dimostrazione	-11.3641
29	-11.3641
bout	-11.3645
▁fond	-11.3647
bel	-11.3651
▁amava	-11.3653
▁richiamo	-11.3654
▁crown	-11.3654
▁pants	-11.3654
▁orientamento	-11.3657
▁mission	-11.3664
▁protest	-11.3673
▁stre	-11.3674
▁rub	-11.3674
▁convince	-11.3676
▁bretagna	-11.3676
▁olandese	-11.3676
▁salvaguardia	-11.3676
▁sessuale	-11.3676
▁energy	-11.3676
▁invidia	-11.3676
▁dedicata	-11.3677
▁generally	-11.3679
▁cancer	-11.368
▁coro	-11.3681
▁giudiziaria	-11.3681
ona	-11.3683
▁sic	-11.3685
▁mantova	-11.3687
▁padrona	-11.3688
star	-11.3689
▁0,	-11.3694
▁darsi	-11.3697
nici	-11.3697
cita	-11.3698
▁pipe	-11.3698
▁carrying	-11.3702
esigenza	-11.3703
▁riding	-11.3704
▁sfruttare	-11.3712
▁campaign	-11.3712
▁opportunity	-11.3712
▁falsa	-11.3713
ev	-11.3713
▁stanze	-11.3715
ep	-11.3715
yn	-11.3717
▁dubita	-11.3718
mes	-11.3718
▁educazione	-11.372
▁spain	-11.3721
▁scott	-11.3723
▁coinvolgimento	-11.3724
▁bug	-11.3724
▁weird	-11.3725
pet	-11.3725
▁slide	-11.3732
▁fredda	-11.3733
▁domenico	-11.3736
▁kyoto	-11.3736
▁rivolte	-11.3736
▁tedesca	-11.3736
▁danari	-11.3737
▁lift	-11.3737
▁brutta	-11.3739
elenco	-11.374
▁parli	-11.3744
3/	-11.3746
▁catastrofe	-11.3748
▁neat	-11.3748
▁fortune	-11.3748
▁task	-11.3749
uda	-11.375
holds	-11.3752
cking	-11.3756
▁limitata	-11.376
▁normative	-11.376
lic	-11.3763
ule	-11.3771
▁comfort	-11.3772
▁continuò	-11.3772
▁possibly	-11.3772
▁production	-11.3773
▁ugo	-11.3775
▁visti	-11.3776
▁calls	-11.3776
▁cinquecento	-11.3777
▁correttamente	-11.3778
▁segnali	-11.3779
▁calore	-11.378
▁individuale	-11.3781
▁importo	-11.3783
▁danimarca	-11.3784
▁lap	-11.3784
▁vergine	-11.3784
▁pile	-11.3786
effetto	-11.3787
▁boom	-11.3788
nzio	-11.3789
▁seal	-11.379
▁espressa	-11.3792
▁inserito	-11.3793
▁ac	-11.3794
▁changes	-11.3795
▁trasporta	-11.3798
▁chiedendo	-11.3804
arco	-11.3804
▁venera	-11.3805
▁impre	-11.3806
▁couch	-11.3808
▁anticipa	-11.381
▁fill	-11.3813
▁menti	-11.3815
nic	-11.3818
▁gitta	-11.382
▁inizi	-11.382
▁affinchè	-11.382
▁patten	-11.3822
▁elegante	-11.3824
▁alfonso	-11.3832
▁minacce	-11.3833
▁fornisce	-11.3833
▁compresa	-11.3833
36	-11.3834
▁auntie	-11.3835
▁danese	-11.3837
▁applicato	-11.3837
▁fancy	-11.3839
▁lid	-11.3839
▁rondini	-11.384
▁dorothy	-11.3844
▁ringrazia	-11.3845
▁labour	-11.3845
▁benvenuto	-11.3846
▁bottega	-11.3846
▁borgo	-11.3846
▁pages	-11.3847
armonizzazione	-11.3848
▁sospetta	-11.3849
▁attacca	-11.385
▁precisamente	-11.3851
▁preda	-11.3853
mark	-11.3853
▁ritiro	-11.3855
▁mostly	-11.3856
▁iscritto	-11.3859
▁pesanti	-11.3859
▁acc	-11.386
▁sides	-11.386
▁render	-11.3864
▁diverti	-11.3864
▁furia	-11.3865
▁sanitaria	-11.3866
▁collaborare	-11.3868
▁competition	-11.3869
▁ritardi	-11.3869
▁imposto	-11.3871
▁manifestazioni	-11.3873
bia	-11.3875
phone	-11.3879
ï	-11.388
▁ambedue	-11.3881
esecuzione	-11.3885
▁critico	-11.3885
▁owner	-11.3885
▁condition	-11.3886
song	-11.3887
▁formulazione	-11.3888
▁agenda	-11.3891
▁determinare	-11.3891
▁adeguate	-11.3891
▁swing	-11.3893
▁livorno	-11.3893
▁measure	-11.3893
▁aspettava	-11.3893
comp	-11.3893
▁plans	-11.3893
▁riuni	-11.3894
▁pacifica	-11.3897
▁hiding	-11.3898
kh	-11.3901
▁membra	-11.3902
▁banana	-11.3906
▁democratiche	-11.3906
▁diventata	-11.391
law	-11.3913
udo	-11.3914
ors	-11.3917
▁legata	-11.3917
▁agricoli	-11.3917
▁source	-11.3917
▁pian	-11.3918
▁musicale	-11.3919
*	-11.3924
▁opinion	-11.3926
▁cappella	-11.3926
▁chron	-11.3928
▁mappamondo	-11.393
▁supremo	-11.393
▁clearly	-11.393
▁servo	-11.3931
▁odierna	-11.3931
▁rug	-11.3931
▁modena	-11.3932
▁identifica	-11.3933
▁comunicato	-11.3935
▁diploma	-11.3936
39	-11.3937
▁moderno	-11.3938
▁intima	-11.3942
▁tranne	-11.3946
▁pool	-11.3947
pan	-11.3947
,--	-11.3947
right	-11.3948
▁controlla	-11.395
▁cruciale	-11.3956
▁comment	-11.3956
▁alter	-11.3963
▁sapevo	-11.3967
▁uguali	-11.3967
assi	-11.3968
▁rocket	-11.3968
▁rapi	-11.3969
▁tene	-11.3973
▁varietà	-11.3975
tini	-11.3978
elaborazione	-11.3978
▁battaglie	-11.3979
▁gratitudine	-11.3979
▁rispetta	-11.3979
▁convinti	-11.3979
▁notato	-11.3981
cate	-11.3985
efficacia	-11.3987
rit	-11.3989
▁fro	-11.3989
▁ourselves	-11.3991
▁perpetua	-11.3991
▁cercano	-11.3993
gin	-11.3994
▁attimo	-11.3994
▁spia	-11.3997
importante	-11.3997
▁sdegno	-11.3999
▁babe	-11.4002
▁nut	-11.4003
▁crash	-11.4003
▁ancient	-11.4003
▁agenzie	-11.4003
▁jimmy	-11.4004
▁parlano	-11.4006
see	-11.4006
espressione	-11.4007
▁pad	-11.4008
▁darà	-11.4008
▁colour	-11.4008
▁intesa	-11.4012
▁armonizzazione	-11.4014
ø	-11.402
▁farebbe	-11.4025
▁honest	-11.4026
▁bacio	-11.4028
▁complessa	-11.4028
▁pieni	-11.4029
▁esposto	-11.4029
▁growing	-11.403
▁serata	-11.4031
▁cadde	-11.4031
▁canale	-11.4031
▁areas	-11.4033
▁talun	-11.4034
▁eseguire	-11.4035
▁episode	-11.4035
▁ingresso	-11.4036
▁risparmio	-11.4037
ct	-11.4039
▁fenomeni	-11.4041
▁prezioso	-11.4041
▁spedizione	-11.4045
▁impero	-11.4045
▁esito	-11.4047
telo	-11.4048
▁fasi	-11.4052
▁finding	-11.4053
▁fence	-11.4054
▁sicchè	-11.4055
▁benefit	-11.4055
▁masse	-11.4056
▁horn	-11.4057
▁prepared	-11.4062
▁zucchero	-11.4065
ago	-11.4066
▁2022	-11.4067
avi	-11.4071
▁portò	-11.4072
▁inca	-11.4073
umanità	-11.4074
▁alex	-11.4075
▁undici	-11.4075
▁agenti	-11.4076
▁rimette	-11.4077
▁crack	-11.4079
▁1980	-11.4079
▁definiti	-11.408
▁frightened	-11.408
▁attacco	-11.4081
tata	-11.4081
▁piatto	-11.4085
▁rappresentanza	-11.4086
▁aspira	-11.409
▁segreti	-11.409
▁miglioramenti	-11.4091
▁guardie	-11.4092
▁calda	-11.4095
▁hearing	-11.4097
▁illumina	-11.4099
▁rifle	-11.41
▁rivolgo	-11.4103
▁proroga	-11.4103
▁giá	-11.4104
rin	-11.4104
▁polo	-11.4107
▁tasca	-11.4107
▁inviare	-11.4107
▁critici	-11.4108
▁baroni	-11.4109
▁precise	-11.4112
lica	-11.4113
sion	-11.4117
▁conforta	-11.4117
▁prosegui	-11.4119
▁americana	-11.4119
▁cosiddetto	-11.4119
▁marry	-11.4119
esso	-11.4121
regolamentazione	-11.4124
▁onori	-11.4124
▁tranquilla	-11.4125
▁rules	-11.4128
▁giuridiche	-11.4128
▁feroce	-11.4128
ology	-11.4128
▁nozze	-11.413
▁reply	-11.4131
▁eastern	-11.4131
▁baseball	-11.4131
1,	-11.4131
▁predi	-11.4131
▁identità	-11.4133
ral	-11.4135
▁statistiche	-11.4136
letti	-11.4137
ensi	-11.4139
▁veni	-11.414
▁maraviglia	-11.4141
▁goodbye	-11.4144
far	-11.4148
▁ossa	-11.4148
ezza	-11.415
▁popolari	-11.4155
▁attivi	-11.4158
▁firm	-11.4163
▁congress	-11.4163
▁sail	-11.4163
▁divisa	-11.4166
hy	-11.4168
▁julia	-11.4168
▁suggested	-11.4171
▁ski	-11.4172
isola	-11.4174
▁soup	-11.4175
▁spari	-11.4175
▁patient	-11.4177
▁evidenza	-11.4179
▁frequenta	-11.4179
▁soviet	-11.4179
▁jackson	-11.418
▁facili	-11.418
bru	-11.4181
zzati	-11.4181
▁var	-11.4188
▁registrato	-11.4189
▁chilometri	-11.419
bling	-11.4194
▁coltiva	-11.4194
▁schools	-11.4196
▁alternativa	-11.42
▁presentano	-11.4201
mail	-11.4201
▁mayor	-11.4202
▁dono	-11.4203
▁documenta	-11.4204
▁vengo	-11.4205
▁falso	-11.4206
▁motore	-11.4206
▁gatto	-11.4206
▁chinese	-11.4209
▁excited	-11.4212
▁avverti	-11.4213
▁osa	-11.4214
▁scoppia	-11.4216
▁spider	-11.4217
▁comme	-11.4217
▁misero	-11.4217
▁bellissimo	-11.4217
▁nicola	-11.4222
jen	-11.4223
▁annunzia	-11.4225
▁colazione	-11.4227
▁contraddizione	-11.4229
▁char	-11.4231
▁privilegi	-11.4232
rbi	-11.4232
▁specchio	-11.4235
▁rotto	-11.4237
▁permetta	-11.4238
▁affetti	-11.4241
▁pietre	-11.4241
ologia	-11.4245
▁rimanda	-11.4247
▁appear	-11.4248
▁tap	-11.425
▁painting	-11.4251
'11	-11.4252
▁foglie	-11.4252
ä	-11.4253
▁appieno	-11.4253
▁maschera	-11.4253
▁naughty	-11.4254
▁weekend	-11.4254
▁bud	-11.4255
▁fresco	-11.4255
volmente	-11.4255
▁moves	-11.4264
▁persuade	-11.4264
▁cloud	-11.4265
▁worried	-11.4266
▁delicato	-11.4266
▁tenne	-11.4267
-19	-11.4268
nca	-11.4268
tero	-11.4269
▁38	-11.4269
▁gamba	-11.4269
▁clemente	-11.427
▁lieve	-11.4271
▁olympics	-11.4272
ming	-11.4276
▁fondata	-11.4278
▁iddio	-11.4279
▁bimbi	-11.428
▁doin	-11.4281
▁ron	-11.4282
▁pesci	-11.4283
▁organo	-11.4289
▁sandwich	-11.4289
▁10,	-11.429
▁somministra	-11.4291
▁knowledge	-11.4291
▁usando	-11.4295
▁orders	-11.4296
▁macedonia	-11.4297
pia	-11.4298
▁macchia	-11.4299
▁quam	-11.4299
▁rami	-11.43
▁pas	-11.4301
ray	-11.4302
▁testimoni	-11.4302
▁legame	-11.4303
▁75	-11.4305
▁eroi	-11.4306
▁33	-11.4306
▁nar	-11.4307
▁secca	-11.431
▁basato	-11.4316
▁portoghese	-11.4317
▁profonde	-11.4317
▁respiro	-11.4317
▁sudditi	-11.4317
asilo	-11.4318
▁lusso	-11.4319
▁stringe	-11.432
▁andarono	-11.432
▁puni	-11.4322
chuckles	-11.4323
uccio	-11.4323
▁guarino	-11.4329
▁soci	-11.433
▁eterna	-11.4337
with	-11.4339
▁aribert	-11.4339
▁wrestling	-11.4342
▁assedia	-11.4342
▁elizabeth	-11.4343
▁attiene	-11.4344
▁guns	-11.4348
▁danza	-11.4348
▁mister	-11.4349
▁alice	-11.435
▁percent	-11.4353
▁carefully	-11.4354
▁palermo	-11.4355
▁organization	-11.4355
▁avrete	-11.4355
uf	-11.4356
▁wheels	-11.4357
inquinamento	-11.4359
ificazione	-11.4361
ddi	-11.4366
▁sintesi	-11.4369
▁nick	-11.4369
▁portando	-11.437
▁puro	-11.4371
▁radice	-11.4374
▁avanzata	-11.4374
▁singolare	-11.4375
▁arthur	-11.4381
▁nascere	-11.4381
▁cabin	-11.4381
▁violet	-11.4382
▁wings	-11.4386
▁chap	-11.4388
▁dott	-11.4388
▁remain	-11.439
▁regge	-11.4392
adi	-11.4392
▁cocoon	-11.4394
▁rivolgere	-11.4394
▁orgoglio	-11.4395
mino	-11.4395
▁indirizzo	-11.4397
▁rings	-11.4397
▁pag	-11.4398
▁compassione	-11.4398
▁8,	-11.44
â	-11.4406
▁explained	-11.4406
▁recupero	-11.4406
▁seduto	-11.4407
▁target	-11.4407
▁bimba	-11.4407
▁sessanta	-11.4408
▁complessivo	-11.4408
▁fal	-11.441
▁ordered	-11.441
▁cambi	-11.4411
▁fior	-11.4413
vor	-11.4416
face	-11.4418
nese	-11.4421
▁conforme	-11.4425
▁berlino	-11.4428
▁robot	-11.4428
▁dottor	-11.4429
▁ferito	-11.4429
▁osservato	-11.443
▁marriage	-11.4432
▁thursday	-11.4432
▁bert	-11.4432
ile	-11.4434
▁bou	-11.4435
▁suppli	-11.4435
estate	-11.4435
▁cera	-11.4436
▁aged	-11.4438
▁messaggi	-11.4439
▁elaborato	-11.444
▁laggiù	-11.4445
▁joseph	-11.4445
▁intraprendere	-11.4446
▁bump	-11.4446
▁branch	-11.4448
▁bor	-11.445
▁legittima	-11.4452
ami	-11.4453
▁vederlo	-11.4453
▁serena	-11.4454
accio	-11.4456
anche	-11.4457
▁screw	-11.4458
gata	-11.4461
▁diviso	-11.4461
▁recording	-11.4461
▁beve	-11.4463
ottima	-11.4464
▁introduce	-11.4464
▁spiegazione	-11.4468
▁discute	-11.4469
▁solitudine	-11.4471
▁geni	-11.4473
▁palace	-11.4473
▁harm	-11.4475
▁species	-11.4482
▁junior	-11.4484
▁mirror	-11.4484
▁federigo	-11.4484
enze	-11.4486
▁foreste	-11.4487
▁tin	-11.4488
▁etc	-11.4489
▁ple	-11.449
▁sum	-11.4493
cino	-11.4494
▁nigeria	-11.4497
▁cavalleria	-11.4497
▁rush	-11.4499
▁apprezza	-11.4501
▁villani	-11.4503
▁cho	-11.4504
▁terroristi	-11.4506
key	-11.4509
▁veduta	-11.451
parti	-11.451
▁tassa	-11.4511
▁ricordiamo	-11.4512
▁temporale	-11.4513
▁intento	-11.4514
▁riguardante	-11.4515
▁rope	-11.4516
▁sba	-11.4516
▁[1	-11.4517
▁fuggire	-11.4519
rp	-11.452
▁copenaghen	-11.4523
▁virtú	-11.4523
▁9,	-11.4523
▁frontiera	-11.4523
▁nominato	-11.4525
▁umanitari	-11.4525
▁comandante	-11.4527
▁ballo	-11.4528
▁affida	-11.4533
▁bloody	-11.4533
▁sospesa	-11.4536
▁soddisfatti	-11.4537
▁cali	-11.4544
▁lungamente	-11.4546
▁pronuncia	-11.4547
▁mini	-11.4548
▁pericolose	-11.4548
▁giornate	-11.4549
▁forced	-11.455
fall	-11.4551
stone	-11.4554
▁togliere	-11.4555
▁elettori	-11.4555
▁mentioned	-11.4555
▁carenze	-11.4555
▁records	-11.4558
▁costituzionali	-11.4562
▁tonnellate	-11.4562
mica	-11.4565
▁parecchie	-11.4569
▁dora	-11.457
▁subi	-11.4572
▁peggiore	-11.4574
▁concentra	-11.4575
▁pratico	-11.4577
▁terribili	-11.4579
▁illegale	-11.4582
▁dibattiti	-11.4588
▁raccolti	-11.4588
▁colonne	-11.4588
▁stabilisce	-11.4589
▁fund	-11.4589
▁respinge	-11.4593
▁vizio	-11.4594
▁precede	-11.4594
▁considerati	-11.4597
▁lieti	-11.4598
▁ripercussioni	-11.4601
due	-11.4601
▁impe	-11.4601
▁dinamica	-11.4601
▁vicende	-11.4601
▁players	-11.4602
▁provvedere	-11.4602
▁odia	-11.4603
48	-11.4604
▁temple	-11.4608
nesi	-11.461
▁ag	-11.4611
▁massime	-11.4611
▁riesco	-11.4612
▁accorge	-11.4612
▁ireland	-11.4615
▁safety	-11.4616
ìo	-11.4619
55	-11.4621
agenda	-11.4621
▁veda	-11.4626
▁ugualmente	-11.4627
▁distruggere	-11.4628
▁goodness	-11.463
▁racconti	-11.4631
▁grace	-11.4633
sure	-11.4635
cks	-11.4637
sina	-11.464
▁telefono	-11.464
▁treasure	-11.464
▁leggermente	-11.464
▁1989	-11.4641
▁coppia	-11.4641
sin	-11.4641
▁interessato	-11.4641
▁direct	-11.4642
tissima	-11.4642
lis	-11.4644
33	-11.4645
tani	-11.4648
▁dedica	-11.465
▁rome	-11.4652
▁esclusi	-11.4653
▁taci	-11.4653
▁assistito	-11.4654
▁disponiamo	-11.4654
▁candy	-11.4654
dem	-11.4657
▁asso	-11.4657
▁—	-11.4659
▁intelligente	-11.4659
▁xiv	-11.4659
war	-11.4659
dito	-11.466
▁tarda	-11.4662
nn	-11.4663
▁ramo	-11.4666
▁respinto	-11.4667
▁chop	-11.4667
▁bianche	-11.467
when	-11.467
▁destinate	-11.4671
▁willing	-11.4672
▁metter	-11.4673
▁invano	-11.4675
▁problematica	-11.4676
▁cedere	-11.4678
ddy	-11.4679
▁wednesday	-11.468
▁picnic	-11.468
▁segnatamente	-11.468
▁matches	-11.4682
morrow	-11.4686
zzate	-11.4688
▁pesa	-11.4691
▁convegno	-11.4693
▁tortura	-11.4693
▁tristi	-11.4695
▁retta	-11.4698
▁cash	-11.4703
▁scotland	-11.4706
▁volumi	-11.4706
▁apparently	-11.4708
▁regimi	-11.4709
▁forgive	-11.471
▁witch	-11.4712
▁cotesto	-11.4714
▁proibi	-11.4715
▁shoulder	-11.4717
▁soffrire	-11.4717
▁cell	-11.4721
▁negativi	-11.4723
▁fargli	-11.4724
▁vestiti	-11.4724
▁lalla	-11.4724
▁holy	-11.4725
▁rilevante	-11.4725
▁faranno	-11.4726
▁destroy	-11.4729
▁events	-11.4731
dal	-11.4731
▁referendum	-11.4733
▁temperature	-11.4733
▁stette	-11.4733
▁piacevole	-11.4734
▁evita	-11.4734
▁bedroom	-11.4734
▁host	-11.4734
qu	-11.4737
nova	-11.4739
▁feriti	-11.4743
▁prigioni	-11.4744
cidi	-11.4744
▁amante	-11.4745
▁ships	-11.4745
▁echo	-11.4746
▁settentrionale	-11.4746
▁ritratto	-11.4746
▁accuse	-11.4749
▁invia	-11.4749
este	-11.4754
▁carbon	-11.4755
ardo	-11.4755
▁urla	-11.4757
▁goal	-11.4757
bon	-11.4759
▁economie	-11.4759
▁organizza	-11.4761
▁sott	-11.4761
▁frequenti	-11.4761
▁directly	-11.4763
esterno	-11.4764
▁dame	-11.4764
▁ebbi	-11.4765
▁avvisa	-11.4768
▁yu	-11.477
▁edifici	-11.477
nale	-11.4771
▁trasfer	-11.4774
▁suprema	-11.4775
▁animi	-11.4776
▁formare	-11.4777
pla	-11.4777
▁caratterizza	-11.4778
▁vota	-11.4778
shire	-11.4779
▁2.	-11.4783
▁energetica	-11.4785
▁confermato	-11.4786
place	-11.4787
▁incidente	-11.4787
▁kim	-11.4788
▁cuori	-11.4791
▁ombre	-11.4791
▁personalità	-11.4792
▁riusciremo	-11.4792
enne	-11.4795
▁rinnovabili	-11.4796
▁spendere	-11.4799
▁clown	-11.4799
▁fought	-11.4799
▁destro	-11.4801
▁scal	-11.4803
▁espressamente	-11.4804
▁shouted	-11.4804
▁upper	-11.4808
▁pericolosi	-11.4808
▁applicata	-11.4808
▁museum	-11.4813
sign	-11.4813
▁attento	-11.4813
rba	-11.4813
▁impulso	-11.4814
▁legali	-11.4817
▁strutturale	-11.4818
nello	-11.4819
look	-11.482
▁respira	-11.4823
▁relax	-11.4826
▁turno	-11.4828
cta	-11.4829
▁istituti	-11.4831
insieme	-11.4831
▁prestazioni	-11.4831
▁rocks	-11.4831
37	-11.4833
▁includere	-11.4838
▁torri	-11.4839
▁mezzogiorno	-11.4839
▁scienziati	-11.4839
▁ostacolo	-11.484
▁condotti	-11.4841
▁attivamente	-11.4842
hanno	-11.4842
▁incontrare	-11.4844
▁compensa	-11.4844
▁totally	-11.4846
▁thin	-11.4848
▁dovessero	-11.4848
gò	-11.4849
▁presero	-11.4851
▁aggiunse	-11.4853
▁complimenti	-11.4853
▁shopping	-11.4853
▁everywhere	-11.4854
▁passing	-11.4855
▁vendite	-11.4856
▁hanging	-11.4857
mmer	-11.4857
otti	-11.4858
american	-11.4859
▁uccidere	-11.4863
▁knee	-11.4865
▁carro	-11.4866
▁pareri	-11.4866
▁gray	-11.4866
▁minoranze	-11.4866
▁richiedono	-11.4866
▁ursula	-11.4866
▁spiriti	-11.4866
▁loss	-11.4867
▁otherwise	-11.4867
32	-11.4868
▁saggio	-11.487
▁registrazione	-11.487
▁commander	-11.4871
▁peccati	-11.4872
▁restitui	-11.4873
▁prop	-11.4874
▁manage	-11.4874
ccu	-11.4875
▁piero	-11.4877
▁tuesday	-11.488
▁geografo	-11.488
▁gru	-11.4881
▁avvocato	-11.4881
▁corrispondenza	-11.4881
▁independent	-11.4884
č	-11.4885
istituto	-11.4885
▁rio	-11.4885
▁cancro	-11.4886
▁stir	-11.4886
dire	-11.4887
▁ragiona	-11.4888
▁prae	-11.4889
scu	-11.4889
old	-11.4891
▁thy	-11.4893
▁fastidio	-11.4893
vert	-11.4895
▁radicale	-11.4896
▁pericolosa	-11.4898
▁illustra	-11.4898
ingresso	-11.4898
▁000	-11.4903
▁dolori	-11.4903
▁genovesi	-11.4907
▁indagini	-11.4907
door	-11.4909
▁pony	-11.4916
▁intendono	-11.4916
cul	-11.4916
izzazione	-11.4919
▁rafforza	-11.492
▁motivazione	-11.492
▁polonia	-11.4921
asi	-11.4923
estero	-11.4925
▁affermazioni	-11.4927
▁ripara	-11.4928
▁vittorio	-11.4928
pon	-11.493
▁seguì	-11.4934
▁alzò	-11.4934
▁angela	-11.4934
▁prosperità	-11.4934
▁forgotten	-11.4934
relli	-11.4934
▁eccellenza	-11.4935
▁walter	-11.4935
▁cifra	-11.4939
luc	-11.4941
▁altamente	-11.4943
▁tassi	-11.4944
▁express	-11.4946
▁raimondo	-11.4947
bert	-11.4949
▁creando	-11.4949
scrive	-11.4949
▁comodo	-11.4951
▁trial	-11.4952
▁revoca	-11.4953
bye	-11.4954
head	-11.4954
▁cle	-11.4955
▁planet	-11.4957
▁idiot	-11.4958
▁opposite	-11.4961
▁riflessioni	-11.4961
▁boots	-11.4963
▁firmato	-11.4963
▁tristezza	-11.4964
▁papers	-11.4966
mati	-11.4968
▁autorizzazione	-11.4969
▁spie	-11.4972
1/	-11.4973
▁sospetti	-11.4975
▁narrow	-11.4975
▁management	-11.4975
▁rilevanza	-11.4976
▁tela	-11.4978
▁smiled	-11.4979
▁chiusi	-11.4981
"]	-11.4982
▁nacque	-11.4986
▁sieno	-11.4986
▁scarica	-11.4986
▁assi	-11.4987
▁rinunciare	-11.4987
▁eugenio	-11.4988
▁exist	-11.4989
▁definitely	-11.4991
▁diventi	-11.4992
▁34	-11.4994
▁sasso	-11.4995
▁estendere	-11.4997
▁provo	-11.4998
▁britain	-11.5002
geri	-11.5002
▁emozioni	-11.5002
▁dust	-11.5003
mbri	-11.5005
▁valere	-11.5006
▁individuali	-11.5009
▁bone	-11.5009
glielo	-11.501
▁ira	-11.5011
▁tru	-11.5013
ú	-11.5014
▁clausola	-11.5016
▁somiglia	-11.5017
▁susan	-11.5017
▁allorchè	-11.5021
▁decine	-11.5021
ione	-11.5022
▁grey	-11.5023
▁spoken	-11.5027
▁informati	-11.5028
▁riuscì	-11.5029
involuntary	-11.5029
▁helmet	-11.5029
▁avvenne	-11.5031
▁consideriamo	-11.5031
▁signal	-11.5036
▁liberazione	-11.5037
dar	-11.5037
▁auguriamo	-11.504
▁pensavo	-11.504
▁bother	-11.5041
▁colli	-11.5043
▁horsie	-11.5044
wh	-11.5045
▁dying	-11.5047
▁trasformare	-11.5047
▁commento	-11.5048
▁xvi	-11.505
▁copy	-11.505
aci	-11.5051
▁toccare	-11.5053
ski	-11.5054
▁potevo	-11.5056
▁disputa	-11.5056
pass	-11.5057
miss	-11.5057
▁energetico	-11.5058
▁intelligenza	-11.5059
dur	-11.506
▁rabbi	-11.5062
equilibrio	-11.5062
▁immobili	-11.5063
▁sostituito	-11.5063
gel	-11.5066
nz	-11.5067
▁espressi	-11.5068
▁marocco	-11.507
▁pillow	-11.507
▁colonnello	-11.5071
▁distingue	-11.5071
tari	-11.5072
▁clip	-11.5073
▁pagato	-11.5074
▁lasciamo	-11.5074
▁knowing	-11.5076
▁der	-11.508
mone	-11.5083
▁trasmissione	-11.5084
▁sottile	-11.5084
▁donald	-11.5084
▁afferra	-11.5085
▁tribunali	-11.5086
▁rifugio	-11.5088
ub	-11.5088
▁conosceva	-11.5088
▁earl	-11.5095
▁fasci	-11.5095
asso	-11.5095
▁apertamente	-11.5097
31	-11.5098
▁delinea	-11.5099
yard	-11.5099
▁abiti	-11.51
▁applicazioni	-11.5101
▁definita	-11.5102
▁bandi	-11.5103
▁conosci	-11.5104
odo	-11.5107
▁federale	-11.5107
▁vibra	-11.5109
▁canti	-11.511
▁droga	-11.5112
▁pensionati	-11.5112
▁disposta	-11.5115
rna	-11.5116
▁trasmettere	-11.5116
▁interview	-11.512
por	-11.5121
43	-11.5122
▁utilizzando	-11.5123
▁ham	-11.5124
▁circostanza	-11.5125
▁austriaci	-11.5131
▁sana	-11.5133
▁televisione	-11.5135
▁soldier	-11.5136
was	-11.5136
▁hussein	-11.5139
▁colloqui	-11.5139
▁colpevole	-11.5139
▁donato	-11.5148
▁respingere	-11.5148
▁erasi	-11.5148
▁anxious	-11.5149
▁richiedere	-11.515
▁disprezzo	-11.5153
▁catastrofi	-11.5153
▁regolarmente	-11.5153
▁honour	-11.5155
▁rie	-11.5156
▁presently	-11.5156
▁camminare	-11.5156
▁reg	-11.5158
entrata	-11.5159
▁successi	-11.5159
▁impiego	-11.5161
iv	-11.5161
vvi	-11.5162
▁arrivano	-11.5164
▁challenge	-11.5167
▁ribelli	-11.5167
▁limit	-11.5167
▁perseguire	-11.5168
▁cherry	-11.5169
▁estende	-11.5171
▁investire	-11.5175
▁grato	-11.5178
▁lanciare	-11.5179
▁uniforme	-11.5182
▁ripartizione	-11.5182
atta	-11.5184
▁spira	-11.5186
▁kinds	-11.5186
phi	-11.5188
▁umanità	-11.5188
met	-11.5191
eg	-11.5191
▁fairly	-11.5193
▁precisare	-11.5194
▁svizzera	-11.5194
▁1°	-11.52
▁trascura	-11.5206
▁innalza	-11.5208
▁sake	-11.5208
▁avoid	-11.5209
▁meriti	-11.5209
▁dipendenza	-11.5211
▁forever	-11.5211
▁justice	-11.5213
▁gatti	-11.5213
ulteriore	-11.5214
▁killing	-11.5214
▁rinnova	-11.5214
aldo	-11.5216
▁contenti	-11.5216
▁costringe	-11.5218
▁credit	-11.5219
▁rovescia	-11.5219
run	-11.5221
git	-11.5223
▁quinta	-11.5224
▁esami	-11.5226
▁riempi	-11.5228
▁comprese	-11.523
▁annunciato	-11.5235
▁worst	-11.5236
▁convento	-11.5237
coughs	-11.5237
▁bringing	-11.5238
▁organismo	-11.5244
▁velo	-11.5245
▁accumula	-11.5247
▁mozione	-11.525
▁decisivo	-11.5252
38	-11.5252
▁dolcezza	-11.5254
▁possession	-11.5256
rian	-11.5257
bie	-11.5258
▁esita	-11.526
▁divino	-11.526
▁cards	-11.5264
▁corda	-11.5265
▁prolunga	-11.5265
▁amministrativa	-11.5266
▁appuntamento	-11.5267
▁apartment	-11.5268
ossi	-11.5268
▁chase	-11.5269
▁martino	-11.527
▁superato	-11.5274
▁gene	-11.5278
▁hunt	-11.5278
▁raggiungimento	-11.5278
▁inferiori	-11.5278
▁affaccia	-11.5278
▁authority	-11.5279
▁1970	-11.5279
▁gamma	-11.528
▁studente	-11.5281
▁clara	-11.5284
▁repeated	-11.5284
▁interpretazione	-11.5288
▁distinguere	-11.5291
▁max	-11.5291
▁orecchie	-11.5292
▁freedom	-11.5292
▁cuba	-11.5293
▁fisico	-11.5293
▁arde	-11.5295
posta	-11.5295
▁prato	-11.5297
lies	-11.5298
wed	-11.53
▁informare	-11.5301
▁bunch	-11.5302
▁cercava	-11.5303
▁cela	-11.5303
▁alimenta	-11.5304
ibile	-11.5307
▁trovata	-11.5307
▁pavia	-11.5308
▁aspettando	-11.531
▁esorta	-11.5311
▁marie	-11.5311
▁gla	-11.5312
▁facciano	-11.5312
▁efficienza	-11.5314
▁olio	-11.5317
rbo	-11.5317
▁hook	-11.5317
▁uccelli	-11.5319
▁connessi	-11.5319
▁copertura	-11.532
▁fanciullo	-11.532
▁sec	-11.5321
▁capua	-11.5321
▁approvati	-11.5322
ical	-11.5323
cap	-11.5323
▁accenna	-11.5323
▁infra	-11.5325
▁stanca	-11.5325
▁tempera	-11.5328
▁arco	-11.5331
▁nap	-11.5332
▁costruito	-11.5333
low	-11.5333
▁cinese	-11.5334
▁colloquio	-11.5336
▁kong	-11.5337
▁tolse	-11.534
▁broad	-11.534
forma	-11.5342
▁passano	-11.5344
▁interpreta	-11.5345
▁demand	-11.5346
rì	-11.5346
▁sorveglianza	-11.5349
▁sedia	-11.5349
▁retired	-11.535
▁onora	-11.535
▁considerate	-11.535
▁victory	-11.5351
bio	-11.5352
▁velocemente	-11.5354
impiego	-11.5354
▁attribuire	-11.5355
▁mention	-11.5358
▁sviluppa	-11.5358
▁wedding	-11.5359
▁decimo	-11.5364
rme	-11.5365
▁iran	-11.5365
▁cosiddetta	-11.5366
▁spar	-11.5368
▁studied	-11.5372
▁younger	-11.5376
▁biglietto	-11.5377
▁chiamò	-11.5377
▁rolling	-11.5377
▁log	-11.5379
▁riescono	-11.538
▁influence	-11.538
▁sembrare	-11.5381
▁highest	-11.5383
▁yard	-11.5383
▁qu	-11.539
zionale	-11.5395
atura	-11.5395
▁salita	-11.5395
▁prossime	-11.5395
▁salvatore	-11.5396
▁tag	-11.5396
▁dna	-11.5396
inchiesta	-11.5397
▁circus	-11.5397
▁lodi	-11.5398
▁temere	-11.54
ath	-11.54
▁scientifici	-11.5401
▁successful	-11.5402
▁arresta	-11.5405
▁appartiene	-11.5405
▁religiosi	-11.5405
▁savi	-11.5406
▁bir	-11.5407
▁ami	-11.5409
▁soldo	-11.541
▁operazione	-11.541
▁rocca	-11.541
▁sensibile	-11.5411
▁pray	-11.5411
▁mortale	-11.5411
▁carrots	-11.5414
▁confermare	-11.5417
▁galli	-11.5417
esa	-11.5417
▁mostrava	-11.5417
▁latter	-11.5418
▁reciproco	-11.5419
▁rappresenti	-11.5419
▁occuparsi	-11.5419
▁subordina	-11.542
▁ideas	-11.5421
▁lunghezza	-11.5422
▁delicata	-11.5422
▁radici	-11.5423
▁alfredo	-11.5424
▁imper	-11.5424
▁disc	-11.5424
▁assist	-11.5426
▁faces	-11.5426
▁brad	-11.5428
▁comb	-11.5429
▁circo	-11.5432
▁timori	-11.5434
▁religion	-11.5437
▁prosegue	-11.5438
▁omaggio	-11.5441
▁mosca	-11.5441
▁andrew	-11.5446
▁ful	-11.5447
▁nascosto	-11.5448
▁cede	-11.5449
▁rurali	-11.5449
▁memory	-11.545
zar	-11.5453
eccellente	-11.5454
▁42	-11.5455
▁surely	-11.546
win	-11.5461
▁frasi	-11.5461
▁negare	-11.5462
▁concezione	-11.5462
▁caduto	-11.5463
aglia	-11.5463
▁redditi	-11.5463
▁cottage	-11.5463
▁ferdinando	-11.5464
tella	-11.5464
▁portati	-11.5466
▁registro	-11.5466
▁castelli	-11.5466
▁diventano	-11.5467
▁abbi	-11.5468
▁grandissima	-11.5468
▁armate	-11.5468
sono	-11.5469
voice	-11.547
▁zia	-11.5473
▁romantic	-11.5474
▁parziale	-11.5476
▁easier	-11.5476
▁turkey	-11.5477
▁esistere	-11.5478
▁pressure	-11.5478
▁trap	-11.548
ddle	-11.5489
▁alba	-11.5489
ccò	-11.549
▁response	-11.5491
▁student	-11.5491
▁wound	-11.5498
▁pitcher	-11.5501
fl	-11.5503
▁complessiva	-11.5504
▁emperor	-11.5505
▁amministrative	-11.5505
▁wagon	-11.5505
▁archivio	-11.5506
▁gala	-11.5506
▁sollevare	-11.5509
▁signed	-11.5509
▁score	-11.551
▁accerta	-11.5514
▁12.00.	-11.5515
▁fired	-11.5517
▁comprare	-11.5519
▁ferrovie	-11.552
▁nobiltà	-11.552
▁immobile	-11.5521
mette	-11.5521
tone	-11.5521
▁islands	-11.5523
▁insegnanti	-11.5525
▁puo	-11.5527
▁eddie	-11.5528
nis	-11.5528
▁allargamento	-11.5529
▁lit	-11.5529
▁rank	-11.5531
▁provvede	-11.5532
▁coperto	-11.5534
▁amministrazioni	-11.5535
▁11,	-11.5536
▁sports	-11.5538
▁boschi	-11.5539
speech	-11.554
very	-11.5543
▁dee	-11.5543
▁ordinato	-11.5546
▁emana	-11.5546
▁conference	-11.5548
▁eventualmente	-11.5548
▁blame	-11.5551
▁ceca	-11.5553
▁albert	-11.5554
▁madeline	-11.5558
usi	-11.556
▁annulla	-11.5561
▁text	-11.5562
▁insufficiente	-11.5563
▁dispetto	-11.5563
▁jimmie	-11.5563
▁finlandia	-11.5563
▁cases	-11.5566
46	-11.5567
▁bruno	-11.5567
▁adeguatamente	-11.5569
42	-11.5571
▁scandalo	-11.5575
▁figures	-11.5577
▁chimney	-11.5577
▁condividiamo	-11.5577
▁loose	-11.5578
▁powerful	-11.558
▁dicevo	-11.5581
▁barbara	-11.5582
new	-11.5582
ig	-11.5586
ions	-11.5587
ize	-11.5589
ib	-11.5591
▁schiaccia	-11.5591
▁scratch	-11.5591
▁umilia	-11.5591
▁diffusa	-11.5592
▁descrive	-11.5593
té	-11.5593
▁helping	-11.5593
▁confess	-11.5595
▁tengono	-11.5596
▁clouds	-11.5596
▁sensibili	-11.5598
▁disegna	-11.5598
▁enter	-11.5599
▁preferito	-11.5602
▁comfortable	-11.5606
▁protegge	-11.5607
▁faint	-11.5608
▁perseguita	-11.561
▁bid	-11.561
▁moltiplica	-11.561
▁clero	-11.561
▁modificato	-11.5612
▁proper	-11.5614
▁contest	-11.5617
▁gentili	-11.562
▁superbia	-11.562
▁diminuzione	-11.562
▁chamber	-11.5621
▁semina	-11.5622
▁rota	-11.5625
▁soddisfa	-11.5628
▁colombia	-11.563
▁silent	-11.5632
▁sigh	-11.5632
▁solida	-11.5633
▁trump	-11.5634
49	-11.5634
quo	-11.5634
▁catholic	-11.5635
▁dargli	-11.5635
▁switch	-11.5636
▁visite	-11.5639
▁(1	-11.5639
ère	-11.5645
▁champion	-11.5646
ô	-11.5646
▁formale	-11.5647
▁hills	-11.5647
▁structure	-11.5649
▁amazing	-11.565
▁emilia	-11.5652
▁attenti	-11.5655
▁pareti	-11.5655
▁average	-11.5655
esempio	-11.5655
▁reato	-11.5656
▁annuncio	-11.566
ban	-11.5663
41	-11.5664
▁academy	-11.5664
▁¶	-11.5664
▁giove	-11.5665
telli	-11.5666
uale	-11.5668
▁poo	-11.567
▁teams	-11.5671
▁sviluppato	-11.5676
▁risolto	-11.5678
▁modificati	-11.5679
▁unanime	-11.5679
▁scarcely	-11.568
▁riveste	-11.568
▁lode	-11.568
▁scientists	-11.5681
▁glasses	-11.5684
pol	-11.5687
▁segg	-11.5687
▁scorta	-11.5688
▁arg	-11.5688
rano	-11.5688
▁medica	-11.5691
▁farvi	-11.5691
▁mud	-11.5692
press	-11.5693
▁riguardi	-11.5693
▁oscura	-11.5693
▁accennato	-11.5694
▁arrivò	-11.5694
▁guardi	-11.5695
▁separazione	-11.5697
▁adulti	-11.57
mpe	-11.5703
▁severo	-11.5704
▁improvvisa	-11.5705
▁coinvolgere	-11.5705
▁angeli	-11.5706
▁dimmi	-11.5706
▁vincenzo	-11.5708
▁devasta	-11.5708
▁coinvolge	-11.571
▁pensano	-11.5711
▁invitato	-11.5715
▁emergenza	-11.5715
grad	-11.5716
▁focus	-11.5716
▁chest	-11.5716
▁colonel	-11.5717
tia	-11.5717
▁rimaneva	-11.572
▁romania	-11.572
▁rob	-11.572
▁tecnologico	-11.5722
▁spiegato	-11.5722
scapito	-11.5723
▁birth	-11.5725
▁active	-11.5726
▁awards	-11.5726
▁killer	-11.5727
▁hung	-11.5728
▁realize	-11.5728
▁raise	-11.573
))	-11.5734
▁katherine	-11.5737
▁residenza	-11.5737
▁proponiamo	-11.5737
▁budget	-11.5737
terà	-11.5738
▁grab	-11.5739
▁gina	-11.574
▁ritenere	-11.574
▁batti	-11.5742
vola	-11.5743
▁ricava	-11.5744
▁intro	-11.5746
▁dishes	-11.5748
▁plants	-11.5749
▁farle	-11.575
▁credete	-11.5751
▁legittimo	-11.5752
▁silvio	-11.5752
▁concerned	-11.5752
▁bosnia	-11.5752
▁construction	-11.5753
rce	-11.5753
▁penny	-11.5754
▁arrest	-11.5755
▁release	-11.5756
▁pilota	-11.5756
retto	-11.5759
▁shell	-11.5759
▁successiva	-11.5759
▁compare	-11.576
anza	-11.5761
▁pic	-11.5766
▁maastricht	-11.5766
▁location	-11.5767
▁stomach	-11.5767
▁sb	-11.5769
▁veloci	-11.577
▁rientrare	-11.577
gs	-11.5771
▁wished	-11.5771
▁sogna	-11.5773
▁spoglia	-11.5774
down	-11.5775
▁rei	-11.5775
▁curva	-11.5775
▁bol	-11.5776
▁2000.	-11.5779
cut	-11.578
▁longobardi	-11.5781
▁domando	-11.5782
▁library	-11.5782
▁dutch	-11.5782
▁giustificare	-11.5782
▁compiace	-11.5783
▁provinciale	-11.5784
▁diedero	-11.5784
▁rein	-11.5784
▁dick	-11.5785
var	-11.5787
▁artista	-11.5789
▁2001,	-11.579
▁pyrénées	-11.5796
▁sausage	-11.5796
▁knocked	-11.5797
▁troops	-11.5802
▁seriously	-11.5803
▁cardinal	-11.5805
▁ruota	-11.5811
▁pittura	-11.5811
▁wondering	-11.5814
▁drawn	-11.5815
▁ponti	-11.5815
▁lasciano	-11.5816
92	-11.5824
▁alleati	-11.5825
atlantiques	-11.5825
▁concittadini	-11.5825
▁visibile	-11.5826
▁ducato	-11.5826
▁carriage	-11.5826
▁dichiarare	-11.5826
3.	-11.5826
▁bodies	-11.5826
▁temperatura	-11.5826
tting	-11.5826
▁map	-11.5828
▁mestiere	-11.5829
▁sbaglia	-11.583
▁2023	-11.5831
▁lasciata	-11.5835
▁logico	-11.5835
▁arrive	-11.5836
▁madrid	-11.5837
▁rammarico	-11.584
▁margaret	-11.584
▁rilevato	-11.5841
▁shh	-11.5842
▁ul	-11.5843
▁popola	-11.5846
▁arabi	-11.5847
▁alarm	-11.5847
▁reported	-11.5847
▁arab	-11.5847
▁equivale	-11.5848
occhi	-11.5851
▁tax	-11.5852
tory	-11.5854
7/	-11.5856
▁rapidità	-11.5857
▁expression	-11.5857
▁massimi	-11.5859
▁israel	-11.5861
▁owned	-11.5862
▁pru	-11.5866
▁riduce	-11.5866
zed	-11.5867
▁uses	-11.5869
▁ribadito	-11.587
▁concludo	-11.587
▁johnson	-11.5874
gy	-11.5874
▁risale	-11.5875
▁veglia	-11.5877
▁doveri	-11.5878
34	-11.5879
▁exercise	-11.5885
▁magistrati	-11.5885
▁preghiere	-11.5885
▁nascondere	-11.5887
▁riusciva	-11.5892
▁steve	-11.5896
▁punte	-11.5897
▁terreni	-11.5899
▁cavalca	-11.59
▁gel	-11.5901
▁dotazione	-11.5901
uccia	-11.5904
▁prendono	-11.5906
▁articola	-11.5907
▁nail	-11.5907
guard	-11.5911
▁burst	-11.5912
▁advantage	-11.5915
▁assunta	-11.5915
▁avvenga	-11.5915
▁somehow	-11.5916
▁incremento	-11.5918
▁sacri	-11.5918
▁gravemente	-11.5918
lico	-11.5921
▁novel	-11.5924
▁atte	-11.5925
▁fantastico	-11.5928
▁funeral	-11.5929
▁degree	-11.593
▁native	-11.593
▁profondità	-11.5931
▁auspicabile	-11.5931
▁offrono	-11.5933
tan	-11.5933
▁aware	-11.5934
▁ven	-11.5935
ride	-11.5935
▁rude	-11.5936
▁wine	-11.5936
▁gods	-11.5939
▁aut	-11.594
-1	-11.5942
▁convenzioni	-11.5945
▁riposa	-11.5945
▁gain	-11.5946
▁remo	-11.5949
▁slip	-11.5951
olio	-11.5951
ence	-11.5957
▁sfrutta	-11.5958
▁conoscono	-11.5958
▁preliminare	-11.596
▁tenebre	-11.596
▁rinvio	-11.596
▁nam	-11.5961
▁chiedeva	-11.5962
▁estremo	-11.5962
65	-11.5963
▁veneto	-11.5964
▁magnets	-11.5964
will	-11.5964
ibili	-11.5964
▁spezza	-11.5965
▁importazioni	-11.5967
▁fuma	-11.5969
▁severi	-11.5972
▁somethin	-11.5973
▁belong	-11.5974
▁costruttivo	-11.5975
▁febbre	-11.5975
▁esb	-11.5975
▁upset	-11.5976
▁throughout	-11.5979
▁hop	-11.5981
▁drug	-11.5981
▁feels	-11.5983
dica	-11.5983
▁assente	-11.5983
▁abba	-11.5987
pati	-11.5989
▁confida	-11.599
▁senior	-11.5992
▁contribu	-11.5995
▁esagera	-11.5997
▁cominciava	-11.6
berto	-11.6
teristituzionale	-11.6005
▁biggest	-11.6005
▁ken	-11.6005
▁strinse	-11.6005
▁opposto	-11.6007
▁grandissimo	-11.6009
▁wooden	-11.601
▁150	-11.6012
otta	-11.6012
ering	-11.6013
▁pretende	-11.6017
▁cattolica	-11.602
▁families	-11.602
▁scolastico	-11.602
▁cowboy	-11.602
alta	-11.602
▁tiranno	-11.602
▁salotto	-11.602
▁troppi	-11.602
▁cig	-11.6022
▁tieni	-11.6022
▁dolls	-11.6024
▁castella	-11.6024
▁feri	-11.6024
▁sentiamo	-11.6025
ip	-11.6028
▁medal	-11.6028
remmo	-11.6029
places	-11.6031
▁veleno	-11.6032
▁desert	-11.6034
▁religious	-11.6035
▁advice	-11.6035
▁usi	-11.6035
▁provocato	-11.6035
lone	-11.6035
▁companion	-11.6036
51	-11.6039
▁bastard	-11.6039
▁muovere	-11.6042
▁cortesia	-11.6044
▁galere	-11.6046
▁abito	-11.6047
▁jon	-11.6049
ortensia	-11.6051
▁calde	-11.6053
▁stretti	-11.6053
▁trovavano	-11.6054
▁beast	-11.6056
approccio	-11.6057
▁habit	-11.6058
moni	-11.6058
▁utilizzate	-11.6063
▁magnifico	-11.6065
▁sinistro	-11.6065
▁matematica	-11.6065
▁fatale	-11.6065
▁prestigio	-11.6065
▁fermò	-11.6065
▁hay	-11.6067
▁theory	-11.6067
rma	-11.6068
long	-11.6068
▁attori	-11.6071
gor	-11.6072
▁percio	-11.6072
▁settled	-11.6073
▁hoc	-11.6074
▁levò	-11.6074
ow	-11.608
▁faith	-11.6081
break	-11.6088
▁lento	-11.609
▁pasta	-11.609
gged	-11.609
▁claim	-11.609
▁legami	-11.6091
▁cities	-11.6091
ef	-11.6092
▁operation	-11.6092
▁elevata	-11.6092
▁paragona	-11.6094
▁annuncia	-11.6095
▁sublime	-11.6096
▁planning	-11.6096
▁avversari	-11.6097
▁recarsi	-11.6097
▁finalità	-11.6097
▁balloon	-11.6099
▁clay	-11.61
▁vision	-11.61
`	-11.6102
▁dozen	-11.6105
▁included	-11.6109
▁potersi	-11.611
▁omc	-11.6111
▁ordinò	-11.6111
▁ottiene	-11.6111
▁possiede	-11.6111
▁cromer	-11.6112
▁moltitudine	-11.6112
diti	-11.6112
▁ogm	-11.6112
produ	-11.6113
▁splendida	-11.6114
▁fortunatamente	-11.6114
▁suoni	-11.6115
say	-11.6115
▁cruel	-11.6115
▁bravi	-11.6116
▁medicinali	-11.6116
whispers	-11.6118
▁terror	-11.6118
▁becoming	-11.6118
▁receive	-11.6118
▁pubblicata	-11.6119
▁piatti	-11.6121
▁quid	-11.6122
▁decise	-11.6122
▁sibi	-11.6123
▁13,	-11.6123
▁concernenti	-11.6124
versa	-11.6126
▁fourteen	-11.6126
▁1988	-11.6126
▁sostenibilità	-11.6127
▁scritte	-11.6127
dale	-11.6131
ists	-11.6133
▁squadre	-11.6134
▁issue	-11.6135
▁stands	-11.6135
▁edgar	-11.6136
rah	-11.6137
▁convincere	-11.6139
▁experiment	-11.6141
▁cm	-11.6142
▁pit	-11.6144
din	-11.6144
acca	-11.6144
▁aspettiamo	-11.6149
▁whoops	-11.6151
▁positivamente	-11.6151
▁avanzate	-11.6152
▁marchio	-11.6154
▁favella	-11.6156
▁ribadisco	-11.6157
▁thinks	-11.6157
▁colpisce	-11.6158
▁attenta	-11.6158
▁pugno	-11.6158
▁costanza	-11.6162
▁fellows	-11.6163
▁height	-11.6164
▁defeat	-11.6165
cee	-11.6165
sun	-11.6165
sità	-11.6167
centi	-11.6169
▁precisi	-11.617
▁equilibrata	-11.6172
▁fifth	-11.6172
▁ottenuti	-11.6172
▁evidenziato	-11.6172
▁tomba	-11.6172
omi	-11.6172
▁loves	-11.6175
▁attempt	-11.6175
cries	-11.6177
▁augusto	-11.6177
▁garage	-11.6178
▁ms	-11.6178
▁promette	-11.6178
▁lanciato	-11.6178
▁jam	-11.6181
▁averne	-11.6183
▁balance	-11.6188
▁jan	-11.6193
nger	-11.6195
▁leonardo	-11.6195
stanti	-11.6197
▁failed	-11.6198
▁shook	-11.6203
▁davano	-11.6206
dere	-11.621
▁spavento	-11.621
▁trent	-11.621
sul	-11.6212
▁considero	-11.6213
▁bitch	-11.6214
gente	-11.6215
▁elettrica	-11.6218
▁troppe	-11.6219
ggiato	-11.6219
▁condur	-11.6219
▁definitivo	-11.6221
▁hugo	-11.6222
▁avvia	-11.6222
▁mosche	-11.6223
▁decor	-11.6227
▁compara	-11.6227
▁tur	-11.6231
▁friendly	-11.6232
▁britannica	-11.6233
▁presupposto	-11.6233
▁religiose	-11.6233
▁begins	-11.6234
▁fermezza	-11.6234
most	-11.6234
▁corri	-11.6234
▁bandiere	-11.6234
▁crawl	-11.6235
▁operano	-11.6235
▁established	-11.6236
▁ricorre	-11.6238
▁libere	-11.6242
innovazione	-11.6247
▁sacerdoti	-11.6249
▁sardegna	-11.6249
▁deroga	-11.6249
▁contenere	-11.6249
▁generoso	-11.625
fal	-11.625
▁screen	-11.625
▁metro	-11.625
▁desideriamo	-11.6252
▁principessa	-11.6253
▁recorder	-11.6253
▁shame	-11.6253
▁menzionato	-11.6254
▁ped	-11.6255
▁adatto	-11.6257
cini	-11.6262
▁mabel	-11.6262
▁suspect	-11.6263
▁partendo	-11.6264
▁niccolò	-11.6264
▁occidentali	-11.6264
▁rapidi	-11.6264
▁famosa	-11.6264
▁territoriale	-11.6266
▁pausa	-11.6266
▁wil	-11.6267
▁darkness	-11.6267
▁thrown	-11.6268
▁blocca	-11.6269
▁cortile	-11.6269
▁investimento	-11.627
ily	-11.6271
▁mina	-11.6273
▁cord	-11.6274
doro	-11.6276
▁brilliant	-11.628
▁nuts	-11.628
▁ottenne	-11.628
▁riciclaggio	-11.628
▁elected	-11.6283
▁programme	-11.6283
▁trecento	-11.6284
▁escludere	-11.6285
▁ideali	-11.6288
▁vedova	-11.6288
▁larger	-11.6289
▁altezza	-11.6291
▁educa	-11.6292
▁immediata	-11.6293
gate	-11.6294
▁actress	-11.6295
▁buonarroti	-11.6296
▁zan	-11.6297
▁yi	-11.6298
▁lumi	-11.63
ered	-11.6301
▁interrompe	-11.6304
▁hmm	-11.6306
▁revolution	-11.6311
▁michelangelo	-11.6311
▁crimini	-11.6311
▁passate	-11.6312
▁drove	-11.6312
▁seguono	-11.6313
▁concordato	-11.6314
eth	-11.6316
▁invade	-11.6316
▁guasta	-11.6321
▁solita	-11.6322
bly	-11.6325
▁mount	-11.6325
▁ambasciatori	-11.6326
▁svolgono	-11.6326
▁smiling	-11.6327
▁sorridendo	-11.6328
volo	-11.6329
▁admit	-11.633
▁beep	-11.6334
▁associa	-11.6335
▁regni	-11.6336
▁quotidiana	-11.6338
▁sentivo	-11.6338
▁oneri	-11.6339
▁tollera	-11.634
75	-11.634
▁hong	-11.6341
▁addietro	-11.6342
▁censura	-11.6342
▁understood	-11.6342
▁salerno	-11.6342
▁inganna	-11.6346
▁material	-11.6347
fre	-11.6348
▁impegnarsi	-11.6348
▁rientrano	-11.6353
▁venite	-11.6353
▁elaborazione	-11.6353
▁trattative	-11.6354
assa	-11.6355
▁console	-11.6355
▁cancella	-11.6356
▁potea	-11.6356
▁rappresentati	-11.6357
▁ringraziamento	-11.636
▁observed	-11.6361
▁professionisti	-11.6363
▁originally	-11.6364
▁wounded	-11.6365
▁occupati	-11.6366
▁sacrificio	-11.6366
▁xv	-11.6368
gus	-11.6368
▁muni	-11.6369
▁classico	-11.6372
▁tace	-11.6373
▁afford	-11.6373
bian	-11.6374
▁fresca	-11.6375
▁ascolto	-11.6375
▁fleet	-11.6376
▁developed	-11.6377
▁feelings	-11.6378
▁calci	-11.6379
▁europol	-11.6382
▁vicepresidente	-11.6389
▁gang	-11.639
▁obbligatoria	-11.6391
▁waited	-11.6396
▁sentite	-11.6396
▁spicca	-11.6399
▁cas	-11.6401
ever	-11.6402
▁companies	-11.6404
▁coperta	-11.6404
▁generi	-11.6405
▁nest	-11.6405
▁dirlo	-11.6406
mani	-11.6406
▁aderire	-11.6406
▁oste	-11.6408
loni	-11.6409
▁rep	-11.6409
"?	-11.6411
▁sisters	-11.6415
▁rivede	-11.6416
▁istruzioni	-11.6416
assenza	-11.6418
▁dovrei	-11.642
▁originali	-11.642
▁canali	-11.6421
▁vincitore	-11.6421
▁ladder	-11.6422
▁giovinezza	-11.6423
▁holes	-11.6424
▁conformemente	-11.6425
▁tribu	-11.6426
▁roger	-11.6427
▁familiar	-11.6429
▁vendica	-11.6432
▁contrastare	-11.6433
▁senno	-11.6433
▁sussiste	-11.6435
▁suggest	-11.6435
▁volontario	-11.6436
▁faster	-11.6436
▁ammette	-11.6439
▁commission	-11.644
▁continuava	-11.6442
▁motori	-11.6443
89	-11.6445
dò	-11.6445
▁muoversi	-11.6447
▁steel	-11.6451
▁flessibile	-11.6452
▁sapienza	-11.6452
▁federazione	-11.6452
▁petizioni	-11.6452
▁useta	-11.6452
▁decenni	-11.6452
▁malta	-11.6452
evoli	-11.6454
▁socio	-11.6456
▁buff	-11.6459
▁ladro	-11.646
▁accelerare	-11.6465
5/	-11.6466
47	-11.6468
▁complessi	-11.6469
▁urgenti	-11.6469
▁aeree	-11.6469
▁pun	-11.6471
▁davide	-11.6472
▁ban	-11.6474
▁65	-11.6475
bor	-11.6476
▁impostazione	-11.648
▁spinta	-11.6481
▁realizzati	-11.6483
▁maddalena	-11.6483
▁zimbabwe	-11.6483
▁gelosia	-11.6483
▁archi	-11.6483
cato	-11.6484
▁obbedi	-11.6484
▁impression	-11.6485
▁sottoscritto	-11.6485
▁traverso	-11.6489
▁currently	-11.6489
▁austriaco	-11.6489
▁lascio	-11.649
▁leggenda	-11.6491
▁savio	-11.6491
asia	-11.6492
▁collegati	-11.6492
▁acting	-11.6494
▁rimasero	-11.6495
▁niun	-11.6495
▁tormenta	-11.6495
500	-11.6496
▁restrizioni	-11.6499
▁beatrice	-11.6499
▁singole	-11.65
dipendentemente	-11.65
▁uccisi	-11.65
▁attesta	-11.65
▁impegnata	-11.6501
▁defini	-11.6501
▁squ	-11.6503
▁discutendo	-11.6504
▁amiche	-11.6505
▁muri	-11.6505
▁cosimo	-11.6507
▁tough	-11.6507
▁applicate	-11.6508
sivo	-11.651
▁metalli	-11.651
▁sorprende	-11.6511
avano	-11.6511
▁xx	-11.6512
▁rispetti	-11.6512
▁rif	-11.6513
▁battere	-11.6514
▁aeroporti	-11.6515
▁sconfitta	-11.6515
▁milizie	-11.6515
bby	-11.6515
▁suddetto	-11.6515
nziale	-11.6515
▁mossa	-11.6516
▁salvezza	-11.6516
▁divenuto	-11.652
▁mancata	-11.6522
▁romanzi	-11.6524
▁impiegati	-11.6525
▁posse	-11.6535
▁apparire	-11.6536
▁hearts	-11.6537
▁tappa	-11.6537
▁dispo	-11.6538
ardi	-11.6541
pper	-11.6541
▁cab	-11.6541
▁12,	-11.6541
▁dama	-11.6542
▁contesta	-11.6545
ë	-11.6547
▁esposti	-11.6547
▁occorrono	-11.6547
▁abilitante	-11.6548
▁1986	-11.6549
▁treatment	-11.655
▁ridotti	-11.655
▁sfera	-11.6551
pot	-11.6558
▁prevent	-11.6558
▁madri	-11.656
▁trovate	-11.6561
▁graham	-11.6563
▁veritá	-11.6564
▁tendenze	-11.6565
▁angeles	-11.6565
▁vincolante	-11.6565
▁sho	-11.6569
▁14,	-11.657
▁bona	-11.657
▁cy	-11.6572
▁regolari	-11.6572
ifica	-11.6575
▁instant	-11.6575
has	-11.6578
▁dapprima	-11.6578
▁discipline	-11.6578
py	-11.6583
▁analizzare	-11.6584
▁dacchè	-11.6584
shakes	-11.6585
▁mole	-11.6586
▁streets	-11.6587
▁motto	-11.6588
▁integrati	-11.6588
dato	-11.6591
▁bce	-11.6591
▁innocenti	-11.6593
▁tells	-11.6593
▁dispositivo	-11.6594
▁medesime	-11.6594
▁rinuncia	-11.6595
▁inizialmente	-11.6595
▁grandmother	-11.6595
▁garantisce	-11.6595
▁credono	-11.6598
▁panni	-11.6598
▁desiderano	-11.6599
▁classica	-11.66
▁disappeared	-11.66
ccie	-11.6601
ingly	-11.6602
▁cito	-11.6603
▁diminui	-11.6605
aba	-11.6606
66	-11.6608
▁cavi	-11.661
▁massachusetts	-11.661
▁stipula	-11.6611
▁rivista	-11.6612
lara	-11.6613
44	-11.6614
tain	-11.6614
▁route	-11.6615
▁shoulders	-11.6617
▁tornava	-11.662
▁sentono	-11.662
▁num	-11.6621
▁teste	-11.6621
▁illustrato	-11.6623
▁nesta	-11.6624
▁400	-11.6625
▁pickle	-11.6626
▁mercoledì	-11.6626
▁sacerdote	-11.6626
▁avuta	-11.6627
▁conforto	-11.6627
▁sorelle	-11.6627
▁archer	-11.6627
▁conversazione	-11.6628
▁saggi	-11.6629
▁tenore	-11.663
▁vanità	-11.6631
▁mancava	-11.6631
pola	-11.6633
thank	-11.6634
contr	-11.6635
▁integrare	-11.6635
▁scary	-11.6639
ulo	-11.664
▁labor	-11.6641
▁lasciarono	-11.6642
▁dolorosa	-11.6643
▁integrato	-11.6643
▁ambienti	-11.6643
▁towel	-11.6643
▁shark	-11.6643
▁divertente	-11.6644
▁estremi	-11.6645
▁review	-11.6645
▁sinceramente	-11.6646
▁stranger	-11.6646
▁nil	-11.6646
▁investi	-11.6648
meri	-11.6649
▁laws	-11.6649
▁riga	-11.6651
▁stephen	-11.6659
▁potrete	-11.6659
▁colonia	-11.6661
▁frogs	-11.6662
▁privo	-11.6664
▁vini	-11.6667
▁nana	-11.6667
▁impi	-11.6668
▁arrow	-11.6669
▁vadano	-11.667
▁avanzare	-11.667
▁cooper	-11.6671
▁sales	-11.6672
▁tha	-11.6673
▁multinazionali	-11.6675
▁considerevole	-11.6675
▁matters	-11.6677
▁remembered	-11.6678
europe	-11.6678
▁combina	-11.668
simo	-11.668
▁fed	-11.6681
^	-11.6686
▁48	-11.6687
crea	-11.6689
▁wing	-11.669
▁claudio	-11.6691
▁watson	-11.6691
▁orienta	-11.6692
▁split	-11.6692
▁mile	-11.6692
efficienza	-11.6699
▁proved	-11.6699
▁località	-11.6699
▁defend	-11.6701
▁causato	-11.6704
pha	-11.6705
▁bones	-11.6707
▁carabinieri	-11.6707
▁quotidiano	-11.6707
▁biglietti	-11.6707
▁nervous	-11.6707
▁keeps	-11.6709
▁salve	-11.6716
▁profit	-11.6717
▁mh	-11.672
▁egypt	-11.6722
▁imperciocchè	-11.6723
▁gonzaga	-11.6723
▁vicerè	-11.6723
▁contribuisce	-11.6723
▁amministrativo	-11.6723
▁awake	-11.6725
▁rivesti	-11.6727
▁sceglie	-11.6727
▁grade	-11.6728
▁boats	-11.6729
opposizione	-11.6731
cons	-11.6731
urgenza	-11.6732
▁holiday	-11.6732
▁trionfa	-11.6732
▁wave	-11.6732
▁empi	-11.6735
lk	-11.6737
▁costrui	-11.6738
▁auspichiamo	-11.6739
▁detective	-11.6739
▁vietnam	-11.6739
▁soffermarmi	-11.6741
▁sottoposto	-11.6742
aver	-11.6743
93	-11.6748
▁stupi	-11.6749
▁mul	-11.6751
▁ferra	-11.6752
▁gal	-11.6752
▁marketing	-11.6755
▁hurried	-11.6756
▁tribù	-11.6756
▁vacanza	-11.6756
▁vittorie	-11.6756
▁piene	-11.6758
▁spare	-11.6758
▁artist	-11.6758
▁piove	-11.6758
▁creata	-11.676
▁giornalista	-11.676
hand	-11.6765
▁nanna	-11.6768
▁sostengono	-11.6769
▁sguardi	-11.6772
▁laeken	-11.6772
▁espressioni	-11.6773
▁ricercatori	-11.6774
▁tank	-11.6774
▁stabiliti	-11.6775
▁legal	-11.6775
▁sorprendente	-11.6776
▁ambizione	-11.6777
▁elezione	-11.6778
▁desire	-11.6779
▁learning	-11.678
▁gates	-11.678
▁definitivamente	-11.678
▁sant	-11.6781
logia	-11.6781
▁lies	-11.6782
▁commessi	-11.6783
▁profitti	-11.6783
ō	-11.6785
pote	-11.6785
▁spinto	-11.6786
▁gigante	-11.6787
ibus	-11.6788
iana	-11.6788
▁immenso	-11.6788
▁drunk	-11.6789
▁inevitabile	-11.6789
cular	-11.6791
▁codici	-11.6791
nghi	-11.6793
▁ruba	-11.6793
uolo	-11.6794
your	-11.6794
▁concretamente	-11.6794
illa	-11.6794
▁pee	-11.6795
▁blo	-11.6795
▁newspaper	-11.6798
▁metta	-11.6801
▁01	-11.6802
▁mancare	-11.6803
▁sarai	-11.6803
▁fischler	-11.6804
▁anton	-11.6806
▁congratulazioni	-11.6806
▁ruin	-11.6806
▁yum	-11.6807
▁lupo	-11.6809
erai	-11.6812
▁rime	-11.6817
▁pazzo	-11.6817
▁loda	-11.6818
▁ville	-11.6818
▁illustri	-11.6818
esse	-11.6819
▁excitement	-11.6821
▁comrade	-11.6821
▁infinite	-11.6821
▁residenti	-11.6821
▁notevolmente	-11.6821
▁approach	-11.6823
▁russa	-11.6823
▁individuo	-11.6823
▁rimessa	-11.6823
▁somewhat	-11.6824
pur	-11.6824
▁torn	-11.6825
▁balza	-11.6825
▁presence	-11.6826
▁attacked	-11.6826
▁trema	-11.6826
▁statement	-11.6829
▁associati	-11.683
▁percepi	-11.6831
▁percy	-11.6835
▁elettronico	-11.6837
▁troppa	-11.6838
▁riesca	-11.684
▁seg	-11.6843
▁increase	-11.6843
▁lance	-11.6843
▁comic	-11.6845
▁coprire	-11.685
▁electric	-11.6852
▁rad	-11.6853
▁steal	-11.6853
▁importi	-11.6853
▁industry	-11.6854
▁consentono	-11.6854
itá	-11.6854
▁curato	-11.6855
▁ferri	-11.6857
▁click	-11.6859
▁campione	-11.6859
▁sl	-11.686
▁drum	-11.686
universo	-11.6862
tola	-11.6862
▁ammoni	-11.6864
▁plot	-11.6865
uscita	-11.6869
eria	-11.6869
▁apparecchia	-11.6869
▁satellite	-11.687
▁google	-11.687
▁canzoni	-11.687
▁crimine	-11.687
▁mosè	-11.687
▁berg	-11.6871
▁manovra	-11.6871
▁siate	-11.6874
vver	-11.6874
76	-11.6875
▁dun	-11.6876
▁circolare	-11.6877
▁cats	-11.6877
dan	-11.6877
▁44	-11.6877
ified	-11.6878
esercito	-11.6878
▁damage	-11.6879
▁cel	-11.688
▁queer	-11.6881
▁belt	-11.6882
read	-11.6883
▁palle	-11.6884
▁annal	-11.6884
▁shock	-11.6885
▁atque	-11.6885
▁asian	-11.6886
▁lodovico	-11.6886
▁vuota	-11.6886
▁activity	-11.6888
▁francisco	-11.6889
ctor	-11.689
▁progressiva	-11.6892
▁oppone	-11.6893
▁paesaggio	-11.6895
▁condusse	-11.6899
▁carri	-11.6902
▁indicati	-11.6903
▁institute	-11.6903
▁lassù	-11.6903
▁drugs	-11.6903
▁winning	-11.6904
▁rappresentata	-11.6905
▁pati	-11.6905
mat	-11.6906
aia	-11.6906
▁mostrò	-11.6907
▁entirely	-11.6908
▁client	-11.6909
▁display	-11.6909
▁tend	-11.6912
osservazione	-11.6912
cod	-11.6913
▁picking	-11.6915
▁sorts	-11.6915
▁innocente	-11.6918
lati	-11.6918
operazione	-11.6919
▁exchange	-11.6919
▁horrible	-11.6919
▁fiumi	-11.6919
▁premier	-11.692
▁potenze	-11.692
▁bisognerebbe	-11.692
pit	-11.6922
▁prudente	-11.6923
▁buzz	-11.6924
struct	-11.6924
▁pole	-11.6925
visi	-11.6926
▁dormi	-11.6928
▁calcola	-11.6929
▁republican	-11.6932
▁sentir	-11.6933
▁differ	-11.6934
ordina	-11.6934
▁vetri	-11.6935
▁bolla	-11.6936
▁rear	-11.6936
▁venticinque	-11.6936
▁scientifiche	-11.6937
▁jwww	-11.6937
59	-11.6938
▁consentirà	-11.6939
▁prefer	-11.6939
▁adeguati	-11.6939
▁domini	-11.694
▁impegnato	-11.694
▁confesso	-11.6941
▁viviamo	-11.6941
ett	-11.6943
▁poison	-11.6944
▁dorme	-11.6945
▁cortese	-11.6945
▁innovazione	-11.6945
▁pitch	-11.6945
▁scrap	-11.6945
▁aid	-11.6947
▁redazione	-11.6952
▁frequenza	-11.6952
▁ricevuta	-11.6952
▁print	-11.6953
▁twin	-11.6954
▁tavole	-11.6954
sel	-11.6955
verso	-11.696
▁poet	-11.6963
▁mondiali	-11.6964
▁basse	-11.6965
▁wore	-11.6966
▁romagna	-11.6966
2,	-11.6966
atore	-11.6968
▁cominciarono	-11.6968
▁espone	-11.6968
▁tessuto	-11.6969
▁chat	-11.697
▁patter	-11.6972
▁instrument	-11.6972
▁parete	-11.6972
▁comportamenti	-11.6973
▁colonie	-11.6973
▁ol	-11.6976
▁determinata	-11.6976
▁sciagura	-11.6986
▁technology	-11.6986
▁consulenza	-11.6986
▁microphone	-11.6986
▁minoranza	-11.6986
▁simone	-11.6987
▁bicchiere	-11.699
▁fascia	-11.6994
cat	-11.6994
▁rod	-11.6996
▁guardiamo	-11.6996
ón	-11.7003
▁immensa	-11.7003
▁root	-11.7004
▁successivi	-11.7006
▁advance	-11.7008
▁accoglienza	-11.7008
messi	-11.7011
▁reggio	-11.7013
▁venissero	-11.7014
▁effort	-11.7014
▁guari	-11.7015
▁rifa	-11.7016
▁radi	-11.7016
▁sussidi	-11.7017
▁scambia	-11.7018
▁musical	-11.7018
▁foresta	-11.7019
▁impu	-11.7022
▁related	-11.7024
▁spu	-11.7028
▁invited	-11.7028
▁istituto	-11.7029
▁inventa	-11.7031
▁intui	-11.7033
▁rail	-11.7033
▁peste	-11.7034
▁compete	-11.7035
▁indispensabili	-11.7036
▁illustre	-11.7036
▁approfondire	-11.7036
▁ribellione	-11.7037
▁fermamente	-11.7037
chan	-11.7037
▁ritengono	-11.7039
▁dreams	-11.704
esb	-11.7042
az	-11.7043
nut	-11.7044
▁sentirsi	-11.7048
▁rum	-11.705
▁aw	-11.705
▁magnifica	-11.7052
▁39	-11.7053
▁latin	-11.7054
▁destinazione	-11.7054
▁bovina	-11.7054
▁sweetie	-11.7055
▁indicate	-11.7056
▁breaking	-11.7058
▁woo	-11.7059
▁cotesta	-11.7059
▁ammazza	-11.7059
▁descrivere	-11.706
▁pasqua	-11.7065
▁equi	-11.7069
▁manifesto	-11.7069
▁simpatia	-11.7069
▁sospeso	-11.7069
tale	-11.7069
▁soffre	-11.7069
▁intese	-11.7069
▁thunder	-11.7069
▁handsome	-11.7072
▁tiranni	-11.7074
▁correggere	-11.7075
emo	-11.7077
▁xxi	-11.7079
▁pulling	-11.708
▁porterà	-11.708
▁dovea	-11.7082
▁arrivata	-11.7082
▁salto	-11.7083
cera	-11.7084
tello	-11.7085
▁delicate	-11.7085
▁vizi	-11.7085
▁perdite	-11.7085
▁fedeltà	-11.7086
▁shooting	-11.7087
▁sink	-11.7087
▁gh	-11.7088
▁saremmo	-11.7088
▁devil	-11.7089
lici	-11.7092
ked	-11.7094
▁imperiali	-11.7094
uma	-11.7094
▁raddoppia	-11.7095
▁fully	-11.7097
ntur	-11.7099
second	-11.71
▁giovanna	-11.71
cie	-11.7103
▁scatola	-11.7103
▁cooking	-11.7104
▁lione	-11.7107
▁occasion	-11.7108
▁agi	-11.711
▁riferito	-11.7114
▁prisoners	-11.7116
▁addormenta	-11.712
▁strawberries	-11.712
▁abitudini	-11.712
▁discesa	-11.712
▁augura	-11.712
▁reasons	-11.712
▁dovuti	-11.7121
▁santità	-11.7123
▁albero	-11.7126
▁effettua	-11.7128
▁ridendo	-11.7132
part	-11.7132
▁recognize	-11.7133
▁alexander	-11.7136
▁parlò	-11.7137
▁jungle	-11.7139
▁concentrazione	-11.714
erebbero	-11.7143
▁zelo	-11.7145
wo	-11.7146
▁addo	-11.7147
dro	-11.7149
▁beer	-11.7152
▁metropolitan	-11.7153
▁quattordici	-11.7153
▁chicago	-11.7153
▁risiede	-11.7153
▁crudeltà	-11.7154
▁impedisce	-11.7155
dino	-11.7155
ably	-11.7156
▁request	-11.7157
▁strip	-11.7161
cep	-11.7163
cosa	-11.7168
▁thi	-11.7169
▁necklace	-11.717
▁intendeva	-11.717
▁contribuenti	-11.7171
▁delitti	-11.7173
▁stanco	-11.7173
▁remind	-11.7174
▁script	-11.7177
▁pompeo	-11.7179
gere	-11.7181
▁negativa	-11.7184
zing	-11.7185
vu	-11.7186
▁udire	-11.7187
▁platform	-11.7187
▁preceduto	-11.7187
▁spencer	-11.7187
▁intervengo	-11.7187
▁assunti	-11.7187
▁rubrica	-11.7188
ā	-11.719
▁semplificazione	-11.719
▁compie	-11.7191
▁regolamenta	-11.7192
▁hic	-11.7192
▁2002.	-11.7192
▁williams	-11.7192
▁reign	-11.7192
▁poem	-11.7193
▁significativa	-11.7193
▁giudiziario	-11.7194
▁balla	-11.7196
ix	-11.7199
▁effettuato	-11.7202
▁verrebbe	-11.7203
ppy	-11.7204
▁pine	-11.7204
▁alleanza	-11.7204
▁verte	-11.7204
▁cerimonia	-11.7204
▁fanciulle	-11.7204
▁previsioni	-11.7204
▁cavour	-11.7205
▁definisce	-11.7205
kins	-11.7206
▁spara	-11.7206
▁meco	-11.7208
▁2002,	-11.7209
▁goti	-11.7209
▁privilegio	-11.7211
▁intensi	-11.7213
etichettatura	-11.7213
▁mixed	-11.7215
legge	-11.7215
▁burning	-11.7217
▁simula	-11.7219
▁sanitario	-11.7219
▁risparmia	-11.7219
cent	-11.722
▁humphrey	-11.7221
▁marittima	-11.7221
▁tommaso	-11.7221
▁concessa	-11.7221
▁ghiaccio	-11.7222
▁azzurro	-11.7222
▁tacere	-11.7223
▁chiamo	-11.7224
▁normali	-11.7224
▁semplicità	-11.7225
vic	-11.7226
▁percorrere	-11.7229
▁2019,	-11.7231
▁jake	-11.7232
pidi	-11.7232
▁irri	-11.7233
▁vessel	-11.7236
▁accolta	-11.7238
▁quiete	-11.7239
▁merc	-11.724
▁continuità	-11.724
▁porge	-11.7242
pho	-11.7244
cide	-11.7244
▁warning	-11.7246
ampia	-11.7249
nette	-11.7249
▁touched	-11.725
gone	-11.725
▁qualificata	-11.725
▁toast	-11.7254
▁portate	-11.7256
▁fortifica	-11.7256
▁doc	-11.7256
▁telefonare	-11.7257
▁confonde	-11.726
▁mostrano	-11.7261
ington	-11.7261
missione	-11.7263
▁duo	-11.7263
▁problematiche	-11.7264
gare	-11.7267
▁spiace	-11.7267
▁setting	-11.7268
alba	-11.7271
▁favour	-11.7272
▁comitati	-11.7272
▁raggiunti	-11.7272
▁smooth	-11.7272
▁ruggiero	-11.7273
▁inclusi	-11.7273
▁ferita	-11.7273
▁ospite	-11.7273
▁penisola	-11.7273
▁pelo	-11.7273
▁presenterà	-11.7276
▁componente	-11.7276
nam	-11.7276
▁doria	-11.7276
▁operativo	-11.7277
▁ardente	-11.7277
data	-11.7279
▁andrebbe	-11.7279
▁regia	-11.7279
▁manifestare	-11.7279
▁merce	-11.7282
▁calca	-11.7285
▁fanciulli	-11.729
▁göteborg	-11.729
▁incentivi	-11.729
▁carceri	-11.729
▁convinta	-11.729
▁conquiste	-11.729
▁debiti	-11.729
▁ultra	-11.729
▁impeto	-11.7291
▁sexual	-11.7292
▁rispettivi	-11.7293
▁indole	-11.7294
▁auguri	-11.7295
85	-11.7295
94	-11.7296
▁schema	-11.7296
▁traversa	-11.7298
▁corto	-11.7298
▁pointed	-11.7299
▁sally	-11.7301
▁emigra	-11.7301
aro	-11.7303
▁toccato	-11.7305
cchino	-11.7306
▁britannici	-11.7307
▁visconti	-11.7307
▁mormora	-11.7307
▁keys	-11.7308
▁restava	-11.7308
▁professori	-11.7309
▁democratic	-11.731
▁furore	-11.7313
celle	-11.7313
▁ferroviario	-11.7314
dus	-11.7315
▁cami	-11.7316
▁contamina	-11.7322
▁autonomia	-11.7323
▁fondato	-11.7324
▁capite	-11.7324
▁lotte	-11.7324
▁sorpreso	-11.7324
▁zealand	-11.7324
▁convert	-11.7324
68	-11.7325
▁sapevano	-11.7325
▁property	-11.7325
▁minime	-11.7326
▁flow	-11.7326
▁agenzia	-11.7326
▁affermazione	-11.7327
▁disney	-11.7327
▁dirigenti	-11.7328
▁mental	-11.7329
▁permettono	-11.7333
▁pochino	-11.7337
ottica	-11.7337
▁licenzia	-11.734
▁conferenze	-11.7341
▁esporre	-11.7341
▁hidden	-11.7341
bba	-11.7342
▁airport	-11.7342
ay	-11.7342
▁soave	-11.7343
atti	-11.7343
▁voices	-11.7344
▁generosa	-11.7344
▁access	-11.7346
▁acquisto	-11.7346
▁attua	-11.7346
▁tranquillamente	-11.7346
▁costituita	-11.735
▁sper	-11.7354
▁staying	-11.7355
▁brilla	-11.7358
▁registrati	-11.7358
▁assurdo	-11.7358
▁istituito	-11.7362
▁descritto	-11.7362
▁documentazione	-11.7363
▁dimanda	-11.7365
educazione	-11.7367
▁attribu	-11.7368
▁trovarono	-11.7372
affari	-11.7373
▁rassicura	-11.7373
▁dunno	-11.7374
▁eighteen	-11.7376
nei	-11.7376
▁colpevoli	-11.7376
act	-11.7376
▁allunga	-11.7376
▁allen	-11.7377
▁correva	-11.7377
care	-11.7377
▁shelter	-11.7377
▁recently	-11.7379
▁elimina	-11.7379
hl	-11.7381
▁cingar	-11.7384
▁iscritti	-11.7385
▁esclude	-11.7387
▁teaching	-11.7388
▁specula	-11.7388
77	-11.7389
metri	-11.7389
▁dem	-11.739
▁provincie	-11.7393
▁fornitura	-11.7394
▁cantare	-11.7395
▁immediato	-11.7395
▁mucca	-11.7396
stic	-11.7396
▁torno	-11.7398
▁doors	-11.7404
▁economic	-11.7407
arma	-11.741
▁knights	-11.741
▁sweetheart	-11.741
▁universe	-11.741
▁uova	-11.741
▁whenever	-11.7417
fond	-11.7419
▁loudly	-11.7419
▁rendersi	-11.7422
▁fotografia	-11.7422
▁successore	-11.7426
▁philip	-11.7427
▁majesty	-11.7428
▁concern	-11.7428
▁transport	-11.7428
▁contengono	-11.7429
orum	-11.7431
▁risultano	-11.7431
▁tesori	-11.7434
ight	-11.7435
mber	-11.7437
▁barche	-11.7437
▁abilità	-11.7439
▁colpe	-11.744
erete	-11.744
▁archivi	-11.7442
▁servito	-11.7443
▁eccolo	-11.7443
▁procedimento	-11.7445
▁distrutto	-11.7445
▁ridicolo	-11.7445
▁fiorentino	-11.7445
▁ottimi	-11.7445
▁mate	-11.7445
▁girare	-11.7445
▁1987	-11.7446
▁penali	-11.7449
cens	-11.7449
▁russo	-11.745
53	-11.745
▁estensione	-11.7452
bed	-11.7454
▁freno	-11.7455
▁serietà	-11.7459
▁stones	-11.7461
▁sostenuta	-11.7462
▁difetti	-11.7463
69	-11.7463
▁1960	-11.7463
▁esplicitamente	-11.7465
▁regala	-11.7465
▁rimprovera	-11.7465
rale	-11.7465
▁sostituzione	-11.7466
▁barriere	-11.7467
acquisto	-11.7468
▁pappa	-11.7468
▁congiura	-11.7469
▁43	-11.7469
▁rompere	-11.7475
▁inquinamento	-11.7475
▁decisa	-11.7476
▁ferite	-11.7476
▁evidenziare	-11.7478
▁raccolte	-11.748
▁financial	-11.748
▁offende	-11.748
▁argomentazioni	-11.7481
▁vole	-11.7482
▁bande	-11.7483
2/	-11.7484
▁indirizza	-11.7485
▁chiamate	-11.7485
rella	-11.7485
▁upside	-11.7487
▁fermare	-11.7487
▁grava	-11.7487
▁noti	-11.7488
▁innamorato	-11.7488
▁colpiti	-11.7489
▁definite	-11.749
▁ends	-11.7491
▁pubblicamente	-11.7496
▁supply	-11.7497
▁manzoni	-11.7497
▁confuso	-11.7498
▁giraffe	-11.7498
▁egualmente	-11.7498
▁consultare	-11.7499
▁treated	-11.7499
▁audio	-11.7499
▁jacket	-11.75
56	-11.75
▁contrasta	-11.7502
▁rilevanti	-11.7503
▁55	-11.7504
appoggio	-11.7506
▁abbandonata	-11.7507
▁quadrato	-11.7507
▁16,	-11.7508
▁vigilia	-11.7511
▁intere	-11.7512
essi	-11.7513
▁nova	-11.7514
gives	-11.7514
▁gil	-11.7515
▁apportare	-11.7516
▁integrata	-11.7516
▁neuro	-11.7517
▁passage	-11.7517
▁completare	-11.7517
cello	-11.7518
▁forms	-11.7518
▁€	-11.7518
▁hester	-11.752
psi	-11.7521
▁rovine	-11.7523
▁reazioni	-11.7524
▁pause	-11.7525
vene	-11.7525
▁moro	-11.7526
▁fork	-11.7527
▁counter	-11.7527
67	-11.7528
▁diletta	-11.7529
▁ricordate	-11.753
▁molteplici	-11.7531
▁risposi	-11.7532
▁sofferenze	-11.7532
▁sospensione	-11.7532
▁mighty	-11.7533
▁stabilimento	-11.7535
pina	-11.7538
▁vicine	-11.7539
▁require	-11.7539
enorme	-11.7542
▁strategica	-11.7543
▁sano	-11.7543
▁parent	-11.7545
▁averla	-11.7547
▁scintilla	-11.7547
elle	-11.7548
▁peculiar	-11.755
▁nucleo	-11.755
▁br	-11.755
▁udienza	-11.755
boy	-11.7552
▁apprezzamento	-11.7553
▁bald	-11.7554
▁insegnato	-11.7554
▁genetica	-11.7557
▁useful	-11.7559
cata	-11.7559
▁barone	-11.7564
▁piacerebbe	-11.7566
▁studiato	-11.7567
▁mostrando	-11.7567
▁burocrazia	-11.7568
▁cancelliere	-11.7568
▁eugenia	-11.7568
▁filosofo	-11.7568
▁tariffa	-11.7568
▁pretendere	-11.7568
▁vivente	-11.7568
▁rubber	-11.7568
91	-11.7568
▁function	-11.7568
aggi	-11.7569
▁napoleon	-11.7569
▁indians	-11.757
▁bold	-11.7573
▁doggy	-11.7575
▁drama	-11.7577
▁destroyed	-11.7577
▁paying	-11.7578
▁bullet	-11.7581
▁disparità	-11.7585
▁equilibrato	-11.7585
▁intervenuti	-11.7585
▁ripreso	-11.7585
▁vor	-11.7586
▁vile	-11.7586
▁slightly	-11.7588
▁borse	-11.759
▁losing	-11.7592
▁chimica	-11.7593
▁leggendo	-11.7594
▁determined	-11.7595
▁catene	-11.7596
▁wha	-11.7596
▁modesto	-11.7596
ttare	-11.7597
vità	-11.7597
round	-11.7599
▁pse	-11.76
▁grati	-11.76
▁stende	-11.76
▁enjoyed	-11.7601
▁interruppe	-11.7603
▁violenze	-11.7603
▁giuoco	-11.7603
▁pavimento	-11.7603
▁ugly	-11.7603
▁ambizioso	-11.7604
▁suggerimenti	-11.7604
vocalize	-11.7604
rga	-11.7606
pus	-11.7606
▁morgan	-11.7607
▁egitto	-11.7608
▁waste	-11.7608
rî	-11.7608
▁accadere	-11.7609
rare	-11.7609
ngl	-11.7612
phe	-11.7613
▁kit	-11.7614
▁ved	-11.7614
▁inaugura	-11.7616
▁temporanea	-11.7617
ult	-11.7618
tec	-11.762
ndovi	-11.762
▁canadian	-11.7621
▁molle	-11.7621
▁ordinary	-11.7622
▁entrance	-11.7623
▁passiamo	-11.7624
▁fanti	-11.7624
▁dotato	-11.7625
take	-11.7626
▁tac	-11.7626
ncia	-11.7627
▁apparecchi	-11.7628
▁amplia	-11.7628
▁scri	-11.7631
occhio	-11.7632
▁pitched	-11.7633
▁saliva	-11.7636
▁presents	-11.7638
▁coinvolte	-11.7638
▁stepped	-11.7639
▁selected	-11.7641
▁guidare	-11.7641
yer	-11.7642
stand	-11.7643
▁erba	-11.7647
▁piè	-11.7649
▁fammi	-11.7649
gle	-11.765
▁trains	-11.765
▁propose	-11.7652
xa	-11.7654
▁nation	-11.7654
vy	-11.7654
▁torture	-11.7656
▁ticket	-11.7658
▁tirannide	-11.7658
archi	-11.7659
▁hunting	-11.7659
▁spec	-11.7661
▁spalla	-11.7661
▁scrivi	-11.7663
▁amanti	-11.7664
▁fc	-11.7665
án	-11.7665
angolo	-11.7665
▁permetterà	-11.7666
▁appo	-11.7669
▁giovanile	-11.7669
▁ricon	-11.7671
▁utilizzata	-11.7673
ttò	-11.7673
▁cuor	-11.7673
▁rendendo	-11.7674
▁accolti	-11.7674
▁cadavere	-11.7674
▁milanesi	-11.7674
▁vano	-11.7676
▁voli	-11.7679
mur	-11.7681
▁consacra	-11.7681
▁fermi	-11.7683
▁talora	-11.7685
▁regalo	-11.7686
eni	-11.7689
his	-11.7689
▁auspico	-11.7692
▁beads	-11.7692
▁fiato	-11.7693
▁complessità	-11.7693
▁compone	-11.7693
▁progettazione	-11.7694
▁sostener	-11.7694
▁vedrà	-11.7694
niche	-11.7695
▁infinito	-11.7695
▁photograph	-11.7696
▁restò	-11.7696
▁valutazioni	-11.7697
▁grim	-11.7699
rni	-11.7699
▁meritano	-11.77
▁notes	-11.7702
▁attentati	-11.7705
▁accrescere	-11.7706
▁principato	-11.771
▁infantile	-11.771
▁profeta	-11.771
▁sopravvivenza	-11.771
▁avrai	-11.771
▁xviii	-11.771
▁chiamiamo	-11.7711
▁riservato	-11.7714
▁paglia	-11.7717
▁testimonia	-11.7724
▁dub	-11.7724
▁accomoda	-11.7726
rno	-11.7726
▁results	-11.7727
meno	-11.7727
▁cioccolato	-11.7727
▁manutenzione	-11.7727
▁martedì	-11.7727
▁potresti	-11.7728
▁eccezioni	-11.7729
▁propongo	-11.773
▁consult	-11.773
▁abbiate	-11.7731
▁mostro	-11.7732
▁glance	-11.7732
▁chu	-11.7735
▁talent	-11.7735
▁edificio	-11.7736
▁listened	-11.7737
accento	-11.7737
modo	-11.7739
wer	-11.7741
58	-11.7742
▁deplorevole	-11.7745
▁riconosciuta	-11.7746
evento	-11.7748
▁desiderare	-11.7748
▁gaza	-11.7749
burg	-11.7749
rad	-11.775
iere	-11.7751
▁regard	-11.7752
▁barbaro	-11.7753
▁seggio	-11.7753
izzato	-11.7753
▁entità	-11.7754
acquis	-11.7754
87	-11.7758
▁invero	-11.7762
▁commercializza	-11.7762
▁eziandio	-11.7763
▁levi	-11.7764
▁1985	-11.7764
▁washing	-11.7764
▁tradurre	-11.7765
▁videro	-11.7765
duca	-11.7765
▁ricomp	-11.7766
▁weapon	-11.7766
▁rent	-11.7766
bla	-11.7767
▁stimola	-11.777
▁semplifica	-11.7771
gal	-11.7773
▁tenerezza	-11.7773
logo	-11.7775
▁usati	-11.7775
▁marmi	-11.7775
▁viaggia	-11.7778
▁golfo	-11.7778
gine	-11.7779
▁chissà	-11.7781
▁basically	-11.7782
▁eroga	-11.7783
▁evidently	-11.7783
atteggiamento	-11.7784
▁giardini	-11.7785
▁quarant	-11.7785
▁pity	-11.7785
▁angel	-11.7786
▁emerso	-11.7786
cone	-11.7787
mr	-11.7792
under	-11.7792
▁attira	-11.7795
▁austrian	-11.7797
▁profumo	-11.7799
▁slept	-11.7799
even	-11.7803
mio	-11.7805
bald	-11.7805
▁gained	-11.7808
▁coin	-11.7808
▁osservatori	-11.781
▁miele	-11.781
▁throwing	-11.7812
▁rosse	-11.7817
▁trasse	-11.7818
▁collettiva	-11.7818
▁criminal	-11.7818
▁jacob	-11.7819
▁carolina	-11.7819
pr	-11.782
▁giuramento	-11.782
▁globali	-11.7821
▁vetro	-11.7822
▁cc	-11.7823
▁willn	-11.7823
▁ignorare	-11.7825
▁punk	-11.7826
arrondissement	-11.7827
▁17,	-11.7828
▁jobs	-11.7828
▁arre	-11.783
▁thousands	-11.7832
▁ster	-11.7832
▁rac	-11.7833
▁proprietario	-11.7833
▁bolle	-11.7834
▁installa	-11.7834
▁potestà	-11.7836
▁scomparsa	-11.7837
▁facilità	-11.7837
▁lecito	-11.7838
▁avanzato	-11.7838
▁armonizza	-11.7838
▁victim	-11.7839
^2	-11.7841
▁spre	-11.7844
▁ker	-11.7844
tal	-11.7844
print	-11.7847
▁hoping	-11.7848
▁aside	-11.785
▁cristianesimo	-11.7854
boat	-11.7854
▁governative	-11.7855
▁percorsi	-11.7855
▁scopi	-11.7856
▁consiglieri	-11.7856
▁giuliano	-11.7856
▁attra	-11.7856
gnò	-11.7857
▁proto	-11.7857
▁purse	-11.7857
▁scream	-11.7858
▁impiega	-11.7859
▁jones	-11.7859
▁jar	-11.786
▁favori	-11.786
▁spill	-11.7864
▁lacera	-11.7864
▁riportato	-11.7865
▁ramp	-11.7865
▁socks	-11.7867
▁landed	-11.7868
▁eaten	-11.7869
netti	-11.7869
▁usano	-11.7871
▁giurisprudenza	-11.7872
▁sussistono	-11.7872
▁reserve	-11.7872
▁courage	-11.7872
▁milanese	-11.7872
▁trovar	-11.7874
▁palco	-11.7877
▁opzioni	-11.7877
▁magnetic	-11.7877
▁legend	-11.7878
▁violenta	-11.7882
63	-11.7884
▁modificata	-11.7888
▁locked	-11.7889
▁audience	-11.789
▁istanze	-11.789
▁discriminazioni	-11.7892
▁francamente	-11.7892
▁settlement	-11.7892
▁continuiamo	-11.7893
▁implicazioni	-11.7895
still	-11.7897
▁described	-11.7899
▁jumping	-11.7899
▁fornite	-11.7899
▁tirare	-11.7899
▁casta	-11.7899
▁raccomando	-11.79
▁effects	-11.79
lor	-11.7902
▁kar	-11.7902
ille	-11.7902
▁comunista	-11.7903
▁normanni	-11.7903
▁impiegato	-11.7904
▁condiziona	-11.7905
umque	-11.7908
▁monastero	-11.7908
▁peanut	-11.7908
▁camicia	-11.7908
▁diamond	-11.7909
▁aggira	-11.791
▁fishing	-11.7911
▁efficacemente	-11.7915
▁hug	-11.7916
▁robe	-11.7917
▁cia	-11.7917
▁como	-11.7917
▁chairman	-11.7917
▁dawn	-11.7918
▁reciproca	-11.7922
▁simboli	-11.7924
▁mainly	-11.7925
▁progress	-11.7926
▁argument	-11.7926
▁mexico	-11.7926
▁appeal	-11.7926
▁divario	-11.7929
gione	-11.7929
▁saprà	-11.793
▁chimiche	-11.7931
▁incarico	-11.7932
ete	-11.7935
▁tornando	-11.7937
▁prestito	-11.7937
▁sereno	-11.7938
have	-11.7939
▁giuste	-11.794
▁moltissimi	-11.794
▁donkey	-11.794
▁seme	-11.7941
▁imprenditori	-11.7941
▁siria	-11.7942
▁decent	-11.7943
▁exciting	-11.7945
▁sosteniamo	-11.7945
▁sixteen	-11.7945
▁fango	-11.7945
ttero	-11.7946
▁edith	-11.7946
64	-11.7947
▁cecenia	-11.7947
▁figlie	-11.7947
▁flussi	-11.7948
▁principal	-11.7948
▁chosen	-11.795
▁magis	-11.795
▁racing	-11.7952
▁folk	-11.7953
▁prestiti	-11.7953
▁aggr	-11.7955
▁impedito	-11.7956
▁monetario	-11.7957
▁talento	-11.7957
▁clan	-11.7959
▁introduced	-11.796
rbe	-11.7963
anda	-11.7963
▁eventually	-11.7963
▁ginocchio	-11.7963
acque	-11.7963
▁elementare	-11.7964
▁automaticamente	-11.7964
/3	-11.7967
llum	-11.7967
▁properly	-11.7968
▁cambiate	-11.7969
mise	-11.797
▁conditions	-11.7974
▁inseri	-11.7975
volta	-11.7977
▁donatori	-11.7978
▁zara	-11.7979
▁mantenuto	-11.7981
▁teresa	-11.7982
▁costituisca	-11.7982
▁palazzi	-11.7982
▁visitato	-11.7983
▁appartamento	-11.7983
▁resiste	-11.7983
▁gustavo	-11.7984
▁molly	-11.7988
▁compre	-11.7988
▁repeat	-11.799
▁aew	-11.799
▁delight	-11.7993
gru	-11.7994
dico	-11.7994
▁grano	-11.7996
▁colpite	-11.7999
}	-11.8
▁broadcast	-11.8
▁1984	-11.8
▁fatiche	-11.8001
▁appella	-11.8001
▁ventura	-11.8001
▁ristorante	-11.8001
://	-11.8002
▁knees	-11.8002
▁progredire	-11.8002
▁socialisti	-11.8006
▁tregua	-11.8006
▁obli	-11.8007
▁jail	-11.8008
▁lasciati	-11.8008
▁prenda	-11.8009
ously	-11.801
▁formulate	-11.801
▁salvi	-11.8011
▁faci	-11.8013
▁15,	-11.8013
▁previous	-11.8015
▁novelle	-11.8015
▁dovevo	-11.8018
▁swear	-11.8018
▁mazzini	-11.8018
▁mostri	-11.8018
▁scozia	-11.802
zy	-11.802
▁hasta	-11.8021
▁bruce	-11.8021
▁aggiunta	-11.8022
▁rispettato	-11.8022
▁gathered	-11.8023
▁rallegro	-11.8023
▁goat	-11.8024
▁sperimenta	-11.8025
▁amata	-11.8025
▁tensione	-11.8028
▁pattern	-11.8028
▁minus	-11.803
▁tata	-11.803
▁bastava	-11.8031
▁assegnato	-11.8032
▁distrugge	-11.8032
▁load	-11.8033
▁pacifico	-11.8034
▁gentle	-11.8035
▁gig	-11.8035
▁rendeva	-11.8035
▁netherlands	-11.8037
▁cieco	-11.8038
▁sarete	-11.8043
▁buco	-11.8043
▁2001.	-11.8045
vel	-11.8048
▁custom	-11.8051
altezza	-11.8051
▁letteraria	-11.8051
▁vani	-11.8053
▁acquisti	-11.8054
uco	-11.8055
▁appreciate	-11.8055
kar	-11.8055
▁planned	-11.8056
▁ripensa	-11.8056
▁compensazione	-11.8059
▁determinante	-11.8061
▁eventuale	-11.8063
▁successive	-11.8065
tries	-11.8065
▁scenario	-11.8065
▁disagio	-11.8066
cip	-11.8067
▁talks	-11.8069
▁prendeva	-11.8069
water	-11.8072
▁swiss	-11.8074
▁reference	-11.8074
)]	-11.8074
▁quit	-11.8074
▁maschi	-11.8074
▁perpetra	-11.8075
▁riusciamo	-11.8075
▁mentale	-11.8076
▁rights	-11.8076
▁appoggiato	-11.8078
▁malfatto	-11.8078
▁suonare	-11.8081
▁sanitari	-11.8083
▁ambi	-11.8084
▁urbano	-11.8086
▁giurisdizione	-11.8092
ç	-11.8092
▁avvenuta	-11.8092
▁delicious	-11.8092
▁spunta	-11.8093
ison	-11.8093
fan	-11.8094
▁consultazioni	-11.8096
▁benevento	-11.8096
▁fio	-11.8097
messa	-11.8097
▁autunno	-11.8097
bin	-11.8098
▁obbligato	-11.8098
▁controversie	-11.8098
▁avvio	-11.8099
▁jin	-11.8099
▁seminario	-11.81
▁vitto	-11.8101
which	-11.8102
▁vece	-11.8103
▁imputa	-11.8105
▁disperato	-11.8106
▁poc	-11.8107
etica	-11.8107
▁rec	-11.8108
▁poema	-11.8108
▁picchia	-11.8109
′	-11.8111
▁guinea	-11.8111
▁caterina	-11.8111
▁1979	-11.8111
▁guilty	-11.8112
▁armato	-11.8112
▁collection	-11.8113
▁wicked	-11.8113
▁eterno	-11.8114
▁scatena	-11.8114
▁arrigo	-11.8116
dam	-11.8117
▁origini	-11.8117
▁characters	-11.8118
zj	-11.8128
dare	-11.8129
▁kangaroo	-11.8129
▁buried	-11.8129
▁intenso	-11.8129
playing	-11.813
▁clinic	-11.8131
discards	-11.8132
▁ble	-11.8135
pat	-11.8137
erie	-11.8142
▁stamp	-11.8143
logica	-11.8144
iani	-11.8144
amoci	-11.8145
altronde	-11.8146
▁cerco	-11.8148
▁1981	-11.8148
▁cieca	-11.8149
▁kidding	-11.8149
ume	-11.8149
▁winner	-11.815
▁equo	-11.8152
▁actual	-11.8153
dr	-11.8154
fy	-11.8155
▁testamento	-11.8156
▁nearer	-11.8157
autorizzazione	-11.8158
alimentazione	-11.8158
▁giace	-11.816
▁temeva	-11.816
▁competed	-11.8161
▁nelson	-11.8161
ou	-11.8165
▁esaminato	-11.8165
▁incident	-11.8167
▁frequente	-11.8167
▁commedia	-11.8168
acce	-11.8168
▁engaged	-11.8169
▁mag	-11.8169
▁sentenze	-11.817
▁episodi	-11.817
▁crab	-11.817
▁brillante	-11.8171
▁riferire	-11.8171
▁dimostrata	-11.8173
▁chiavi	-11.8177
▁sorgere	-11.8179
▁attirare	-11.818
fire	-11.8183
▁vincoli	-11.8185
▁aquilino	-11.8185
▁sottoposti	-11.8185
▁lontane	-11.8185
▁repressione	-11.8185
shing	-11.8185
▁dispute	-11.8186
54	-11.8187
▁performed	-11.8191
sus	-11.8191
▁usate	-11.8192
▁removed	-11.8196
▁rushed	-11.8197
▁salvaguardare	-11.8197
▁tang	-11.8199
▁discrimina	-11.82
▁toilet	-11.8201
hen	-11.8204
▁riscontro	-11.8204
azzo	-11.8204
▁acquis	-11.8205
sser	-11.8205
▁eccessivo	-11.8206
▁95	-11.8207
▁dey	-11.8208
▁garantito	-11.8208
ngen	-11.821
▁jeffreys	-11.8212
▁evidenti	-11.8214
▁adottati	-11.8215
▁pears	-11.8221
▁dovunque	-11.8223
▁pp	-11.8223
▁diffuso	-11.8223
▁difese	-11.8223
▁serenità	-11.8224
▁ninja	-11.8224
▁rivendica	-11.8224
▁agreement	-11.8227
▁cough	-11.8228
▁boxes	-11.8228
mul	-11.8229
nismo	-11.8229
▁vederla	-11.8231
▁waves	-11.8232
▁rig	-11.8233
▁puramente	-11.8234
tutto	-11.8235
gn	-11.8236
▁onesto	-11.8238
▁affairs	-11.8239
▁duri	-11.8241
▁pregare	-11.8242
▁incaricato	-11.8242
▁previsione	-11.8242
▁distanze	-11.8242
▁remove	-11.8242
▁wee	-11.8242
▁1976	-11.8242
▁divided	-11.8247
▁rescue	-11.825
▁imita	-11.825
▁fallo	-11.8253
▁eleva	-11.8254
yeah	-11.8254
▁unanimità	-11.8257
▁badly	-11.8258
▁vollero	-11.8259
▁tariffe	-11.8261
▁unde	-11.8261
▁legittimità	-11.8262
ado	-11.8263
▁tummy	-11.8264
▁diaper	-11.8265
▁romane	-11.8267
▁rimettere	-11.8268
▁cutting	-11.8268
comune	-11.8272
arrivo	-11.8272
▁email	-11.8274
▁(2	-11.8277
▁francis	-11.828
▁giacché	-11.828
▁bears	-11.828
verse	-11.8281
▁beneficiari	-11.8282
▁trista	-11.8283
▁carbone	-11.8284
▁tickle	-11.8284
▁rinnovo	-11.8287
▁realizzata	-11.8288
▁defeated	-11.8288
▁discende	-11.8289
▁senator	-11.829
utente	-11.829
▁rivelato	-11.8292
posto	-11.8293
▁richiedenti	-11.8294
▁folle	-11.8296
▁farina	-11.8296
▁repress	-11.8297
▁linda	-11.8298
▁sofferenza	-11.8298
▁horror	-11.8299
▁lacune	-11.8299
▁straniera	-11.8299
▁bronzo	-11.83
▁fissati	-11.8301
▁ragion	-11.8301
▁vinci	-11.8306
inc	-11.8307
▁ricusa	-11.8307
▁appoggiamo	-11.8308
▁spirituali	-11.8309
▁diamo	-11.8316
▁capriccio	-11.8316
▁kinda	-11.8316
▁steam	-11.8317
list	-11.8317
▁campionato	-11.8317
▁compenso	-11.8317
▁detenuti	-11.8317
▁discutiamo	-11.8317
▁eccezionale	-11.8318
▁hockey	-11.8318
pio	-11.8318
ima	-11.8318
▁nations	-11.8318
▁protagonista	-11.832
▁suggestion	-11.8321
▁fossa	-11.8322
▁completamento	-11.8325
▁golf	-11.8325
▁peggiora	-11.8326
▁parallel	-11.8327
▁trasmette	-11.833
▁invitare	-11.8331
fen	-11.8333
▁oliver	-11.8336
▁quack	-11.8336
▁spagnuoli	-11.8336
▁loredana	-11.8336
▁stupore	-11.8336
▁applaud	-11.8337
▁trovati	-11.8337
▁storiche	-11.8338
▁parties	-11.8338
▁piazze	-11.8339
▁persiste	-11.8339
▁http	-11.8339
▁orchestra	-11.8339
▁fil	-11.8341
▁symbol	-11.8341
▁decade	-11.8341
▁mestieri	-11.8342
▁scheme	-11.8349
▁0.	-11.835
▁scava	-11.835
▁partì	-11.835
▁trace	-11.8351
cono	-11.8351
▁weapons	-11.8352
▁bernardo	-11.8353
▁geografica	-11.8356
▁dispongono	-11.8356
▁conosciuta	-11.8356
▁volgare	-11.8356
▁caratteristica	-11.8356
▁connection	-11.8358
▁appariva	-11.8359
▁condannati	-11.8359
▁campana	-11.8359
▁viveva	-11.8366
dì	-11.8368
laugh	-11.8369
▁filosofi	-11.8373
▁mater	-11.8373
▁manifestato	-11.8373
▁baker	-11.8374
▁clonazione	-11.8375
▁schiavo	-11.8375
▁1972	-11.8375
▁rame	-11.8376
▁provvisorio	-11.8378
▁impera	-11.8378
▁protagonisti	-11.8379
▁adeguamento	-11.838
▁mosso	-11.8382
▁privi	-11.8385
indipendenza	-11.8385
impostazione	-11.8388
▁crolla	-11.8392
▁politicamente	-11.8394
▁difficilmente	-11.8394
▁pensionistici	-11.8394
▁cock	-11.8395
▁maggie	-11.8395
▁salda	-11.8396
▁bergamo	-11.8396
bird	-11.8397
cast	-11.8397
▁distributed	-11.8398
two	-11.8398
▁sapesse	-11.8398
▁aggiornamento	-11.84
▁righe	-11.8402
▁kh	-11.8403
▁pc	-11.8404
interpretazione	-11.8405
▁falli	-11.8406
▁urbani	-11.8408
▁cita	-11.841
▁greatly	-11.841
▁berto	-11.841
▁riti	-11.8413
▁ciononostante	-11.8413
▁patrick	-11.8413
▁usciva	-11.8414
▁agnes	-11.8414
▁yell	-11.8415
▁stern	-11.8416
▁occupano	-11.8418
▁splendore	-11.8418
▁piacenza	-11.8421
72	-11.8424
▁corro	-11.8427
▁salutare	-11.8428
pone	-11.843
pal	-11.8432
▁statunitense	-11.8432
▁ricompensa	-11.8432
▁gently	-11.8432
▁dossier	-11.8432
▁instance	-11.8432
▁lionardo	-11.8432
▁buddy	-11.8433
▁potatoes	-11.8434
goni	-11.8434
▁dirvi	-11.8436
▁bastone	-11.8436
bbing	-11.844
▁scrivo	-11.8441
▁solve	-11.8441
▁stan	-11.8444
▁oranges	-11.8447
▁accontenta	-11.8447
▁disoccupati	-11.8451
▁paoli	-11.8451
▁malizia	-11.8452
▁soffia	-11.8453
aldi	-11.8455
▁sposo	-11.8456
▁rari	-11.8457
▁hy	-11.8459
▁roberta	-11.846
▁glen	-11.8462
▁evoca	-11.8462
▁oratore	-11.8462
▁rubi	-11.8464
▁parto	-11.8465
▁parente	-11.8467
▁condannare	-11.8468
▁fusione	-11.8468
tività	-11.8468
▁environment	-11.8469
▁accorto	-11.8469
▁gum	-11.8469
▁eroe	-11.847
département	-11.8471
▁reagire	-11.8471
▁frati	-11.8471
▁assistant	-11.8472
▁monaco	-11.8473
▁gram	-11.8473
▁nico	-11.8474
▁rapidly	-11.8474
▁eagerly	-11.8474
▁serbia	-11.8474
▁fisso	-11.8474
fine	-11.8476
▁marker	-11.8476
▁towns	-11.8476
▁vedersi	-11.8477
▁proprietari	-11.8477
▁lisa	-11.8478
▁pul	-11.8479
▁capri	-11.848
ía	-11.8481
▁designed	-11.8482
▁lifted	-11.8482
▁mandar	-11.8485
▁brief	-11.8486
▁vinta	-11.8487
km	-11.8489
mano	-11.8489
▁malati	-11.849
▁interfere	-11.8491
▁vegetali	-11.8491
▁degni	-11.8491
▁indonesia	-11.8492
▁languages	-11.8493
▁recuperare	-11.8494
only	-11.8494
ggiava	-11.8495
father	-11.8497
▁mela	-11.8497
▁preoccupante	-11.8497
▁pompa	-11.8498
▁mortali	-11.8498
▁appartenenti	-11.8499
▁limitazione	-11.8499
▁21,	-11.8499
▁fail	-11.85
▁shan	-11.85
86	-11.8501
▁disappear	-11.8502
▁concepi	-11.8504
61	-11.8506
78	-11.8508
▁dappertutto	-11.8509
[...]
