<unk>	0
<s>	0
</s>	0
.	-3.11889
,	-3.48159
:	-3.67936
▁*	-3.75961
▁the	-3.92902
'	-3.95497
s	-4.17272
▁a	-4.21339
▁i	-4.45709
▁in	-4.48739
▁di	-4.56404
▁and	-4.58713
mot	-4.60912
▁you	-4.64737
▁to	-4.65274
?	-4.66362
chi	-4.73755
▁e	-4.78639
▁of	-4.85728
▁it	-4.92931
▁che	-5.06561
▁that	-5.12243
▁la	-5.14186
t	-5.25216
▁il	-5.30779
▁=	-5.42758
▁is	-5.45712
▁he	-5.47352
▁[	-5.50285
▁was	-5.53262
▁per	-5.62581
▁un	-5.68254
▁on	-5.69881
]	-5.71483
▁what	-5.73502
▁non	-5.74957
re	-5.77178
▁"	-5.77928
!	-5.79916
▁for	-5.81515
▁we	-5.93738
▁this	-5.94486
▁è	-5.9519
▁del	-5.96744
▁si	-5.99266
▁le	-5.99998
▁with	-6.00982
▁-	-6.06594
-	-6.07114
▁me	-6.08843
▁do	-6.09247
▁they	-6.09423
▁no	-6.10006
▁she	-6.12948
▁della	-6.137
▁l	-6.1437
▁at	-6.14459
▁have	-6.177
▁be	-6.18077
▁all	-6.18337
i	-6.20288
▁una	-6.20586
▁there	-6.22707
▁con	-6.22731
▁come	-6.24132
▁not	-6.24244
▁can	-6.28631
m	-6.29109
▁but	-6.29141
▁his	-6.29635
▁so	-6.30086
▁one	-6.31642
▁are	-6.33403
▁her	-6.3359
▁as	-6.37355
▁da	-6.41067
...	-6.46573
▁don	-6.47558
▁my	-6.48787
▁up	-6.5085
▁had	-6.51472
▁al	-6.51635
▁your	-6.51966
▁know	-6.52005
▁yeah	-6.5223
▁oh	-6.52331
▁like	-6.52414
▁ma	-6.54934
a	-6.56779
▁go	-6.59112
inv	-6.61541
▁from	-6.62465
fat	-6.63931
▁here	-6.65025
d	-6.65546
e	-6.65626
▁out	-6.68721
▁dei	-6.71122
;	-6.72851
ll	-6.75469
▁him	-6.76031
o	-6.77288
▁by	-6.77576
▁	-6.77681
▁(	-6.77752
’	-6.78772
▁più	-6.79176
▁get	-6.79199
▁an	-6.80109
▁were	-6.80812
▁if	-6.82594
▁gli	-6.82825
▁se	-6.83389
▁see	-6.84141
to	-6.85508
▁o	-6.8595
▁alla	-6.86362
▁just	-6.87208
▁or	-6.87827
▁sono	-6.88064
▁right	-6.88979
▁now	-6.89458
no	-6.896
▁about	-6.90782
▁when	-6.90812
▁then	-6.90864
▁ha	-6.90912
▁questo	-6.91954
▁delle	-6.92612
▁dell	-6.9303
▁nel	-6.94238
▁well	-6.94852
▁them	-6.9653
▁said	-6.97195
▁who	-6.988
▁think	-6.99585
▁okay	-6.99748
ta	-7.00231
ve	-7.00349
▁'	-7.00745
)	-7.00842
▁.	-7.0266
▁did	-7.04367
ed	-7.04584
ing	-7.05574
▁lo	-7.0735
▁where	-7.08362
▁would	-7.08412
▁some	-7.09602
"	-7.09898
▁anche	-7.12197
▁got	-7.12891
▁how	-7.12999
▁“	-7.1428
▁xxx	-7.15151
▁good	-7.15382
▁will	-7.15534
▁little	-7.16165
].	-7.16568
▁mi	-7.16811
▁look	-7.17292
te	-7.17324
ti	-7.18465
▁down	-7.22532
▁put	-7.23145
▁want	-7.23267
."	-7.24346
▁more	-7.24481
▁ad	-7.26122
▁time	-7.26261
▁back	-7.26729
▁their	-7.29721
▁yes	-7.29864
va	-7.30146
▁ed	-7.30438
▁ci	-7.3061
▁been	-7.30831
▁which	-7.31206
▁over	-7.31395
▁two	-7.32684
▁very	-7.35053
▁has	-7.36831
r	-7.37037
▁let	-7.37163
▁could	-7.38614
▁going	-7.39598
▁nella	-7.42621
▁b	-7.45723
▁questa	-7.46054
▁say	-7.46202
▁chi	-7.47589
▁commissione	-7.50217
▁d	-7.50279
▁era	-7.51831
▁gonna	-7.52261
▁de	-7.52292
▁dal	-7.52931
▁other	-7.54078
▁take	-7.559
,"	-7.56628
▁why	-7.56784
▁man	-7.56955
▁into	-7.577
▁people	-7.57867
▁make	-7.58174
▁essere	-7.58553
▁cui	-7.59166
▁loro	-7.5933
y	-7.60721
▁off	-7.61135
n	-7.61394
ndo	-7.61505
▁too	-7.62753
▁us	-7.65661
ly	-7.66427
▁uh	-7.6651
▁first	-7.66856
▁sua	-7.6725
▁su	-7.67356
▁tell	-7.67745
▁way	-7.68474
▁tutti	-7.69591
▁suo	-7.69778
▁alle	-7.70731
▁these	-7.7115
er	-7.71792
▁because	-7.73342
▁after	-7.73951
▁any	-7.74786
▁ai	-7.75772
▁our	-7.76012
▁degli	-7.76081
in	-7.76726
▁tra	-7.77019
▁ne	-7.77626
▁vi	-7.77745
▁c	-7.78161
▁only	-7.78939
▁ho	-7.8054
na	-7.81285
▁due	-7.82852
▁something	-7.83766
▁really	-7.84046
▁sia	-7.84112
▁io	-7.8443
▁stato	-7.84509
▁er	-7.86131
▁dalla	-7.86755
--	-7.87523
▁presidente	-7.8802
▁much	-7.88131
▁s	-7.88602
▁again	-7.89122
▁um	-7.892
▁così	-7.8957
▁should	-7.9047
▁wanna	-7.90559
▁didn	-7.91486
▁made	-7.91891
▁before	-7.92202
▁stati	-7.92979
▁parte	-7.94571
▁than	-7.94636
▁new	-7.95704
▁sul	-7.95956
l	-7.96037
▁quanto	-7.96043
▁tutto	-7.96289
▁cosa	-7.97141
/	-7.97237
le	-7.97327
▁those	-7.98209
▁quando	-7.98589
▁fatto	-7.98716
▁signor	-7.98783
▁away	-7.98926
▁day	-7.98967
▁went	-7.99516
▁three	-7.99845
▁does	-8.00689
▁re	-8.01125
▁big	-8.01133
exp	-8.01438
▁home	-8.01826
c	-8.0206
▁europea	-8.02113
▁house	-8.02494
▁?	-8.03811
▁molto	-8.03921
▁came	-8.03983
▁solo	-8.04195
▁baby	-8.04694
▁car	-8.04821
▁sulla	-8.05153
▁prima	-8.05303
▁never	-8.05377
▁play	-8.05773
▁hanno	-8.06872
▁give	-8.07281
▁long	-8.07515
▁mean	-8.08674
▁modo	-8.08911
▁also	-8.09037
▁senza	-8.0913
▁thing	-8.09434
▁book	-8.09921
▁%	-8.10099
the	-8.10251
▁old	-8.10458
▁ancora	-8.10633
?"	-8.10641
▁another	-8.11606
rsi	-8.12086
▁looks	-8.12204
▁need	-8.12493
▁fa	-8.12854
▁parlamento	-8.13752
▁ciò	-8.13944
▁quale	-8.14096
▁still	-8.14877
▁doing	-8.15738
▁ogni	-8.1599
▁am	-8.16007
▁poi	-8.1606
▁quella	-8.1613
▁far	-8.16323
▁fu	-8.16581
▁things	-8.16585
▁may	-8.16729
▁noi	-8.17204
▁work	-8.17644
▁great	-8.17929
▁abbiamo	-8.17986
▁many	-8.18006
▁dopo	-8.18058
▁perché	-8.18102
▁mio	-8.18761
▁consiglio	-8.1884
▁must	-8.18864
▁può	-8.19018
▁thought	-8.19385
▁through	-8.19468
▁mm	-8.20237
la	-8.20344
si	-8.20525
▁even	-8.20535
▁sempre	-8.20927
ni	-8.20974
▁head	-8.21018
▁mother	-8.21258
▁fare	-8.21732
▁altri	-8.22382
ro	-8.2263
▁relazione	-8.22634
▁last	-8.22769
▁fine	-8.23434
▁qui	-8.23663
▁uno	-8.23713
▁name	-8.23838
vano	-8.24331
_	-8.25035
▁tempo	-8.26119
▁ah	-8.26184
▁già	-8.2639
▁quello	-8.264
▁won	-8.27017
▁boy	-8.27123
▁huh	-8.27301
▁questi	-8.27776
ne	-8.27861
▁mhm	-8.28166
▁night	-8.28649
▁around	-8.28816
▁hand	-8.29629
▁hey	-8.30593
es	-8.31176
▁anni	-8.31342
▁nei	-8.31359
▁find	-8.31414
unione	-8.32355
▁mr	-8.33097
▁eat	-8.33273
▁ora	-8.33413
ri	-8.33544
▁tale	-8.33613
sse	-8.34
▁nell	-8.34128
zione	-8.34376
▁mommy	-8.34503
li	-8.34546
▁help	-8.34751
▁quindi	-8.3487
▁might	-8.35403
mente	-8.35987
▁aveva	-8.36333
▁politica	-8.36385
▁sure	-8.36473
▁girl	-8.37211
▁water	-8.37663
▁while	-8.37839
nte	-8.37921
▁place	-8.37947
▁paesi	-8.3861
▁called	-8.38726
▁done	-8.38854
▁men	-8.39093
▁erm	-8.40479
▁nelle	-8.40745
p	-8.41045
sis	-8.41055
▁anything	-8.41126
▁quel	-8.4127
▁better	-8.41288
▁most	-8.41289
▁being	-8.41921
▁fra	-8.41947
▁thank	-8.4195
▁else	-8.42035
▁ti	-8.421
▁life	-8.42568
▁quali	-8.42913
è	-8.43056
w	-8.43612
▁mia	-8.43619
▁father	-8.43968
▁school	-8.44022
▁years	-8.45262
▁next	-8.45385
▁please	-8.4587
.”	-8.46089
▁love	-8.46719
▁such	-8.46782
▁egli	-8.4692
▁dove	-8.47143
▁lavoro	-8.47726
▁doesn	-8.47745
▁vita	-8.48346
▁room	-8.48591
al	-8.4882
▁kind	-8.49184
▁found	-8.49305
▁same	-8.49648
th	-8.49734
▁contro	-8.50456
lo	-8.50711
▁world	-8.50753
▁lui	-8.50886
laughs	-8.51546
▁ball	-8.51611
▁mot	-8.51747
▁saw	-8.51796
▁under	-8.51836
▁own	-8.51839
▁part	-8.53088
▁four	-8.53771
▁lot	-8.53836
!"	-8.54092
mi	-8.54575
▁nice	-8.54778
▁told	-8.55159
vi	-8.55434
▁tu	-8.55821
▁li	-8.56156
▁used	-8.56585
▁tutte	-8.56664
▁volta	-8.56672
▁suoi	-8.568
it	-8.56826
▁always	-8.57225
and	-8.5736
,”	-8.57456
▁maybe	-8.57471
▁europeo	-8.57644
▁secondo	-8.5782
▁membri	-8.57944
▁left	-8.57984
▁nothing	-8.58074
mo	-8.58442
u	-8.58543
▁perchè	-8.58576
▁ever	-8.58784
▁mai	-8.58904
▁altro	-8.58979
add	-8.59023
▁keep	-8.59423
▁deve	-8.59558
▁punto	-8.59707
▁bene	-8.6005
▁face	-8.60196
▁show	-8.60571
▁box	-8.60815
▁talk	-8.60936
▁five	-8.61138
b	-8.61501
▁state	-8.61616
▁every	-8.617
co	-8.62018
▁1	-8.62064
▁queste	-8.62116
▁grande	-8.62233
▁col	-8.62242
▁dall	-8.62322
▁nostro	-8.63173
▁turn	-8.63363
▁end	-8.63762
▁sotto	-8.63836
so	-8.63988
▁took	-8.6401
man	-8.64227
".	-8.64378
▁hm	-8.64396
▁open	-8.64493
▁lei	-8.64506
▁proprio	-8.64796
▁tre	-8.64907
▁2	-8.64908
de	-8.65578
▁isn	-8.65777
▁call	-8.65876
▁n	-8.66111
▁!	-8.66143
▁door	-8.66413
▁goes	-8.66533
▁oggi	-8.66713
▁bit	-8.66743
on	-8.66753
▁siamo	-8.6696
▁until	-8.67266
▁once	-8.67457
yes	-8.67906
▁va	-8.67957
se	-8.68033
bro	-8.68698
▁allora	-8.68739
▁sta	-8.68954
h	-8.69106
▁wait	-8.69151
▁use	-8.69295
▁though	-8.69493
ra	-8.70116
▁daddy	-8.70235
▁city	-8.70408
▁eyes	-8.70529
▁dai	-8.70739
▁red	-8.70821
vo	-8.7086
▁giorno	-8.71187
do	-8.71293
▁sue	-8.71334
▁side	-8.71573
▁try	-8.71612
ci	-8.71703
▁po	-8.71738
▁sorry	-8.71921
▁via	-8.72012
▁course	-8.72042
ò	-8.72087
▁tanto	-8.72102
▁enough	-8.72213
▁money	-8.72274
▁♪	-8.72707
rono	-8.72825
▁both	-8.72861
▁–	-8.72877
di	-8.7304
▁nostra	-8.73177
▁son	-8.7319
▁sarà	-8.73529
▁remember	-8.7372
▁mondo	-8.73778
▁stesso	-8.7392
▁primo	-8.74093
▁dire	-8.74725
x	-8.74901
▁qualche	-8.75289
▁hear	-8.75329
▁best	-8.7553
mar	-8.75639
nan	-8.75857
nti	-8.76289
▁ri	-8.7637
▁year	-8.76577
▁sarebbe	-8.76716
▁sec	-8.76726
▁morning	-8.76911
▁alcuni	-8.77166
you	-8.77218
▁number	-8.77456
.]	-8.77891
▁hi	-8.77948
▁stop	-8.77964
▁table	-8.78085
▁leave	-8.78671
▁agli	-8.78711
▁miss	-8.78796
▁god	-8.78897
▁coming	-8.7914
▁together	-8.79248
▁looking	-8.79292
▁_	-8.79364
▁detto	-8.79383
▁upon	-8.79441
▁asked	-8.79661
▁read	-8.79772
▁ben	-8.8035
tea	-8.80514
▁each	-8.80674
▁united	-8.80778
▁m	-8.81087
▁quite	-8.81131
▁erano	-8.81151
▁known	-8.81216
▁second	-8.81219
▁sì	-8.81276
▁mom	-8.81303
▁seen	-8.81326
▁te	-8.81365
he	-8.81402
zioni	-8.81478
▁però	-8.81567
▁its	-8.81592
▁shall	-8.816
k	-8.8183
em	-8.81867
▁pretty	-8.82106
▁vorrei	-8.82274
▁3	-8.82508
f	-8.82897
▁dog	-8.82978
▁yet	-8.83017
▁stata	-8.83022
▁young	-8.8309
▁says	-8.83214
▁caso	-8.83248
▁proposta	-8.83369
▁children	-8.83487
▁american	-8.83587
▁without	-8.83866
g	-8.84084
▁between	-8.84144
▁dobbiamo	-8.84406
▁casa	-8.84563
▁heard	-8.84585
▁t	-8.84757
▁bad	-8.85086
▁few	-8.85108
▁hard	-8.85333
▁dalle	-8.85807
rlo	-8.85942
▁feel	-8.85946
us	-8.86123
▁born	-8.86425
▁tratta	-8.86457
▁sa	-8.86672
▁meno	-8.87081
▁sit	-8.87115
▁ready	-8.87228
▁cose	-8.87276
▁sir	-8.87285
▁hands	-8.87616
▁king	-8.87903
▁nome	-8.88069
▁problema	-8.88361
▁base	-8.88783
▁himself	-8.88804
▁everything	-8.88923
▁hafta	-8.88981
go	-8.89056
▁voi	-8.89314
▁gone	-8.89405
▁story	-8.89504
▁since	-8.89634
▁black	-8.89657
ma	-8.89658
int	-8.89796
▁today	-8.89998
▁fire	-8.90125
da	-8.90125
rà	-8.90248
▁different	-8.90385
▁forse	-8.90478
▁white	-8.90525
▁died	-8.9066
▁later	-8.90906
▁cup	-8.9109
▁looked	-8.91254
▁getting	-8.91339
▁commissario	-8.91721
▁paese	-8.91902
▁altre	-8.92342
▁states	-8.9255
▁half	-8.92599
▁persone	-8.92712
▁alright	-8.92835
▁momento	-8.92969
mento	-8.93052
▁watch	-8.93426
▁poco	-8.93458
▁top	-8.93525
▁mind	-8.93538
ca	-8.93549
▁round	-8.9369
▁wanted	-8.94059
mch	-8.9428
▁bed	-8.94334
▁fosse	-8.94477
▁importante	-8.94483
▁soon	-8.94599
▁set	-8.94644
▁diritti	-8.94688
),	-8.94704
sa	-8.94777
z	-8.94844
pat	-8.94916
▁mrs	-8.95045
▁child	-8.95457
me	-8.95493
▁hold	-8.95507
▁real	-8.95511
▁against	-8.9565
▁happened	-8.95717
▁sulle	-8.96078
”	-8.96491
▁verso	-8.96554
en	-8.9675
▁party	-8.96829
▁knew	-8.9695
▁blue	-8.96966
▁tutta	-8.97266
▁idea	-8.97277
▁talking	-8.97517
).	-8.9755
▁co	-8.9791
▁possibile	-8.97915
▁gran	-8.98094
▁nuovo	-8.98315
▁signora	-8.98367
▁high	-8.98507
▁u	-8.98597
▁città	-8.9919
▁18	-8.99218
▁sviluppo	-8.9933
▁onorevole	-8.99339
▁questione	-8.99388
▁live	-8.99866
v	-9.00138
▁small	-9.00213
▁paper	-9.00222
▁ten	-9.00445
loi	-9.00535
▁county	-9.00566
▁having	-9.00859
▁avere	-9.01027
▁believe	-9.01137
car	-9.0128
▁stay	-9.01395
▁molti	-9.0141
we	-9.0164
▁picture	-9.01697
▁gruppo	-9.01715
▁light	-9.01909
or	-9.01955
▁war	-9.02
▁care	-9.02083
▁gave	-9.02315
▁ask	-9.02406
▁move	-9.0246
▁tuttavia	-9.02639
▁six	-9.02894
▁comune	-9.03193
▁whole	-9.03255
▁p	-9.03479
▁floor	-9.03489
▁family	-9.03644
▁dello	-9.03736
▁quelle	-9.04032
▁page	-9.04213
an	-9.04282
▁friend	-9.04672
▁green	-9.04822
▁nostri	-9.04988
ers	-9.05386
",	-9.05458
▁certo	-9.05493
▁food	-9.05539
▁days	-9.05587
▁during	-9.05706
▁mentre	-9.06049
cause	-9.06458
▁4	-9.06495
▁sicurezza	-9.0654
▁making	-9.06582
▁situazione	-9.06675
▁particolare	-9.06699
▁sui	-9.06802
onorevole	-9.06863
▁almost	-9.06868
▁diritto	-9.07104
▁close	-9.07247
▁cittadini	-9.07434
▁invece	-9.07581
▁rispetto	-9.07588
oh	-9.07733
▁luogo	-9.07846
▁run	-9.0786
▁esempio	-9.07865
as	-9.08045
▁actually	-9.08342
▁vero	-9.08856
▁governo	-9.09053
▁quasi	-9.09253
che	-9.09446
▁heart	-9.09904
ga	-9.10092
▁woman	-9.10107
▁chair	-9.10168
▁dad	-9.10753
▁livello	-9.10922
▁case	-9.11291
▁nè	-9.11295
ch	-9.11387
▁sistema	-9.11489
cha	-9.11625
▁sort	-9.11631
▁color	-9.12238
▁5	-9.12434
rci	-9.12454
▁town	-9.1258
▁saying	-9.12856
▁dear	-9.13062
▁played	-9.13069
▁sull	-9.13139
▁fino	-9.13174
▁bring	-9.13227
gra	-9.13369
+	-9.1341
▁national	-9.13511
▁along	-9.13667
▁girls	-9.13699
▁movie	-9.13942
▁front	-9.13981
▁trying	-9.14107
▁mano	-9.14114
▁already	-9.14315
▁roma	-9.14321
▁team	-9.14475
ted	-9.14582
▁guy	-9.14642
are	-9.14762
▁cos	-9.14973
▁voice	-9.15248
▁game	-9.15269
▁san	-9.15692
▁start	-9.16116
▁g	-9.16206
▁inoltre	-9.16356
▁possono	-9.16495
▁started	-9.16659
▁materia	-9.167
amo	-9.16874
▁wasn	-9.17072
▁sopra	-9.17226
▁probably	-9.17416
▁aver	-9.17548
▁person	-9.17647
▁moment	-9.17849
▁matter	-9.17899
?”	-9.17994
▁credo	-9.18057
▁allo	-9.18085
▁feet	-9.18101
▁viene	-9.18101
but	-9.18102
▁ya	-9.18628
▁mine	-9.18644
ce	-9.18914
▁wouldn	-9.18933
▁hair	-9.19052
▁air	-9.19099
▁word	-9.1922
▁guerra	-9.19281
▁troppo	-9.19344
▁age	-9.19468
▁guess	-9.19516
ty	-9.19556
▁settore	-9.19614
▁happy	-9.19637
▁mercato	-9.19838
▁cat	-9.19982
rmi	-9.20317
▁lady	-9.21021
tion	-9.21051
▁point	-9.21155
▁parole	-9.21255
▁stuff	-9.21397
▁began	-9.21437
▁near	-9.21567
▁dare	-9.21598
ia	-9.21611
rla	-9.21663
▁death	-9.21665
ie	-9.21733
▁sleep	-9.22036
▁hundred	-9.22082
▁brother	-9.221
▁hello	-9.22128
▁tali	-9.22182
▁mouth	-9.22272
▁dio	-9.22314
il	-9.22413
▁playing	-9.22501
▁haven	-9.22827
▁became	-9.22926
▁wrong	-9.23049
▁understand	-9.23471
▁cut	-9.23524
tta	-9.23648
▁jack	-9.23707
▁pre	-9.23863
▁country	-9.23926
▁piece	-9.24073
▁negli	-9.24339
▁unione	-9.24489
▁gotta	-9.24546
▁job	-9.24681
j	-9.25055
▁v	-9.25069
be	-9.25078
▁john	-9.25189
▁full	-9.25206
▁friends	-9.25277
▁rest	-9.25359
▁song	-9.25375
▁volte	-9.25462
▁sound	-9.25504
▁pro	-9.25518
▁lost	-9.25527
▁times	-9.257
▁eh	-9.26036
▁sei	-9.26078
▁bear	-9.26207
▁boys	-9.26313
▁anno	-9.2633
▁siano	-9.26562
um	-9.26672
▁terra	-9.26721
▁dice	-9.2676
▁generale	-9.26853
ato	-9.27226
▁music	-9.27286
▁behind	-9.2752
▁sea	-9.27573
what	-9.27658
▁uhhuh	-9.27778
▁occhi	-9.27897
▁toys	-9.27904
▁riguarda	-9.28039
▁sometimes	-9.28285
▁problemi	-9.28301
▁makes	-9.28422
▁line	-9.28534
▁women	-9.29035
▁minute	-9.29196
▁ce	-9.29273
is	-9.29325
▁grandi	-9.29801
▁brought	-9.29825
▁oltre	-9.30087
▁dead	-9.30126
▁hope	-9.30414
▁favore	-9.30449
▁stessa	-9.30483
▁turned	-9.30572
que	-9.30735
▁donne	-9.30839
▁fall	-9.30886
▁quelli	-9.3095
ry	-9.31008
▁outside	-9.3114
▁seemed	-9.31196
▁meglio	-9.31277
▁drink	-9.31279
▁colleghi	-9.32128
▁captain	-9.32357
▁porta	-9.32406
one	-9.32416
▁south	-9.32468
▁noise	-9.32671
▁pertanto	-9.3272
io	-9.32788
▁dato	-9.32804
▁north	-9.32863
▁soltanto	-9.32873
▁programma	-9.33315
▁fun	-9.33355
▁processo	-9.33432
▁poor	-9.33541
▁hot	-9.33651
▁r	-9.33652
▁dunque	-9.33664
▁direttiva	-9.33677
▁donna	-9.33692
▁possiamo	-9.33724
▁nuova	-9.33831
▁conto	-9.34111
▁10	-9.34286
▁numero	-9.3436
▁twenty	-9.34453
▁till	-9.34905
▁stand	-9.35132
▁discussione	-9.35531
ba	-9.35807
▁week	-9.35844
▁male	-9.36058
▁nulla	-9.36088
▁uomini	-9.36116
▁march	-9.36268
▁someone	-9.36533
▁sociale	-9.36788
▁vedere	-9.36885
azione	-9.37084
▁necessario	-9.37111
fi	-9.37149
▁horse	-9.37364
▁vista	-9.37365
that	-9.37501
▁taken	-9.37504
▁europa	-9.37585
▁popolo	-9.37747
▁alcune	-9.37808
▁quest	-9.37869
born	-9.38215
▁words	-9.38322
▁toy	-9.38343
▁inside	-9.38466
▁listen	-9.38634
▁pace	-9.38794
▁mezzo	-9.38824
▁...	-9.38976
sti	-9.39069
fch	-9.39159
▁disse	-9.39329
▁able	-9.39334
▁legge	-9.3939
tti	-9.39407
▁couldn	-9.39513
▁avrebbe	-9.39531
▁senso	-9.3957
▁pur	-9.3959
▁taking	-9.39661
▁morte	-9.39849
ar	-9.39899
▁sun	-9.40063
▁insieme	-9.40088
▁parti	-9.40461
ting	-9.40479
▁forma	-9.40528
▁essi	-9.40551
▁milk	-9.40569
▁beautiful	-9.40708
▁fell	-9.40754
▁pay	-9.40769
▁lungo	-9.4105
europa	-9.41138
▁short	-9.41146
zza	-9.41153
▁means	-9.4135
▁soprattutto	-9.41441
▁società	-9.41599
▁river	-9.41786
▁pure	-9.41792
▁possa	-9.41881
▁however	-9.41927
▁sembra	-9.41988
▁20	-9.42106
▁pick	-9.42141
▁ecco	-9.42193
sta	-9.42219
tte	-9.42316
ssero	-9.42499
▁yourself	-9.4251
▁libertà	-9.42537
▁walk	-9.42707
▁phone	-9.42803
▁myself	-9.43068
▁rather	-9.43117
▁devono	-9.43227
▁maggiore	-9.43253
▁company	-9.43256
▁order	-9.43348
▁seven	-9.43519
▁onorevoli	-9.43636
▁felt	-9.4367
▁campo	-9.43672
▁area	-9.43719
ness	-9.43744
▁bilancio	-9.4392
tà	-9.44009
▁essa	-9.44113
▁papa	-9.44121
▁storia	-9.44172
▁futuro	-9.44191
▁giorni	-9.44237
▁business	-9.44529
▁wife	-9.44563
▁f	-9.4459
▁bisogno	-9.44932
▁guys	-9.44935
▁piano	-9.45009
▁posizione	-9.45102
▁ricerca	-9.45154
▁forza	-9.45182
▁bo	-9.45256
▁minutes	-9.45261
ria	-9.45337
▁true	-9.45399
▁cuore	-9.45411
!”	-9.45751
▁ta	-9.45922
▁emendamenti	-9.45928
▁6	-9.45931
▁sister	-9.45938
▁infatti	-9.4606
▁uomo	-9.46096
▁early	-9.46111
rne	-9.46173
ge	-9.46356
▁cold	-9.46406
ate	-9.46437
▁15	-9.46439
▁often	-9.46469
huh	-9.46525
anno	-9.46871
era	-9.46892
▁general	-9.4693
▁x	-9.46952
▁fuori	-9.4699
▁boat	-9.47051
▁ran	-9.47071
sib	-9.47156
▁tree	-9.47292
▁points	-9.47369
un	-9.4738
adu	-9.47552
▁potrebbe	-9.47694
▁sent	-9.47695
▁herself	-9.47732
gli	-9.47738
▁possibilità	-9.47829
▁group	-9.47889
▁president	-9.47904
▁land	-9.47966
▁comes	-9.47982
▁change	-9.48116
▁ago	-9.48167
▁wants	-9.48553
ha	-9.48561
ton	-9.48576
▁k	-9.48757
▁english	-9.49022
el	-9.49154
▁domanda	-9.49217
▁doctor	-9.49218
▁january	-9.49394
▁tal	-9.49505
▁either	-9.4955
ling	-9.49651
▁capo	-9.49665
▁yellow	-9.49686
▁mo	-9.49761
▁across	-9.49771
▁late	-9.49826
well	-9.50036
▁road	-9.50085
▁abbia	-9.50459
▁risposta	-9.50464
▁studio	-9.50525
▁eight	-9.50585
▁alone	-9.50591
▁french	-9.50643
▁tom	-9.50678
▁hat	-9.50738
rò	-9.50786
ranno	-9.50891
▁large	-9.50986
ndosi	-9.51043
▁causa	-9.51108
▁train	-9.51168
▁poter	-9.51369
ho	-9.51428
▁camera	-9.51462
▁france	-9.5148
am	-9.51609
▁somebody	-9.51651
▁perhaps	-9.51667
▁corso	-9.51673
▁fish	-9.51773
▁fact	-9.51903
▁hurt	-9.5211
▁body	-9.52275
▁grazie	-9.52318
▁june	-9.52364
▁buona	-9.52398
▁durante	-9.52469
—	-9.52587
▁funny	-9.52764
▁nostre	-9.52884
▁presente	-9.52917
▁york	-9.53069
▁meet	-9.53153
ale	-9.5319
▁posto	-9.53261
▁proposte	-9.53297
▁given	-9.53354
1	-9.534
▁animals	-9.53444
per	-9.53582
▁propria	-9.53669
▁lord	-9.53699
▁several	-9.53857
▁né	-9.54085
▁mani	-9.54233
▁12	-9.54324
rvi	-9.54403
▁kill	-9.54439
2	-9.54478
▁bird	-9.54539
▁hai	-9.54556
po	-9.54607
▁là	-9.54623
▁trattato	-9.54637
▁least	-9.54918
▁ella	-9.54962
▁misure	-9.54984
▁fronte	-9.55062
▁dovrebbe	-9.55125
▁wish	-9.55325
tori	-9.55683
▁takes	-9.55779
3:	-9.55834
▁grado	-9.55936
▁working	-9.5624
▁presso	-9.5629
▁principio	-9.56509
gi	-9.56558
▁necessità	-9.56691
▁7	-9.56844
▁visto	-9.56845
ssi	-9.56852
▁appena	-9.56887
▁na	-9.56903
▁fat	-9.56924
▁ground	-9.56959
▁brown	-9.57169
▁write	-9.572
▁adesso	-9.57407
▁government	-9.57544
▁member	-9.57588
▁posso	-9.57615
▁fece	-9.57622
▁spesso	-9.57684
▁17	-9.57937
▁ragione	-9.5798
▁buon	-9.58098
▁buy	-9.58167
▁foot	-9.58297
▁seconda	-9.58373
ke	-9.58402
ano	-9.58636
▁lived	-9.58726
▁bag	-9.58763
at	-9.58797
est	-9.58835
▁molte	-9.58946
▁«	-9.59076
▁truck	-9.5914
▁servizi	-9.59171
▁w	-9.59219
▁aren	-9.59393
▁parola	-9.59455
▁cioè	-9.59489
▁qua	-9.59678
▁dagli	-9.59684
▁thanks	-9.59686
▁condizioni	-9.60393
iamo	-9.60525
▁club	-9.6067
▁fin	-9.60691
▁football	-9.608
▁padre	-9.60804
bile	-9.60839
▁wow	-9.61033
▁street	-9.61079
▁quei	-9.611
childes	-9.61377
▁quadro	-9.61413
▁ca	-9.61428
▁circa	-9.61497
hi	-9.61537
▁power	-9.61629
▁avuto	-9.61629
▁childes	-9.61635
0	-9.61759
altro	-9.61912
menti	-9.62073
▁throw	-9.62127
tto	-9.6213
▁series	-9.62254
▁gente	-9.62471
don	-9.62489
▁controllo	-9.6263
rs	-9.6272
▁ride	-9.62915
▁voce	-9.62953
▁question	-9.63079
▁kids	-9.63167
▁realtà	-9.63207
▁bar	-9.63248
▁davvero	-9.63331
▁held	-9.63397
▁sounds	-9.63445
▁present	-9.63524
▁dinner	-9.63578
▁tuo	-9.63664
▁past	-9.63766
▁fight	-9.63812
▁killed	-9.63856
▁cried	-9.63885
▁living	-9.63888
▁speak	-9.64009
nza	-9.64021
▁important	-9.64072
land	-9.64115
▁cause	-9.64153
▁attività	-9.64362
points	-9.64408
▁summer	-9.64454
▁tried	-9.64526
▁others	-9.64665
▁hour	-9.64849
▁nose	-9.64886
▁tempi	-9.64963
▁voglio	-9.65187
▁internazionale	-9.65216
▁hit	-9.65255
▁occorre	-9.65257
▁sat	-9.65458
▁16	-9.65468
▁ii	-9.65478
4	-9.65493
▁dark	-9.65571
▁ok	-9.65592
▁books	-9.65593
▁ve	-9.65749
▁tape	-9.65906
for	-9.66004
▁el	-9.66089
▁cooperazione	-9.66096
▁puts	-9.66401
▁everybody	-9.666
▁wonder	-9.66657
▁merito	-9.66738
▁qualità	-9.66761
▁west	-9.66859
▁glad	-9.66875
▁diversi	-9.66894
▁miei	-9.66932
rli	-9.66945
▁rose	-9.66947
▁j	-9.67187
▁quattro	-9.67362
▁deal	-9.67435
▁university	-9.67463
▁mark	-9.67597
▁y	-9.68092
▁gets	-9.68132
▁ring	-9.68303
▁8	-9.68334
▁accordo	-9.68389
▁comunque	-9.68434
▁nuovi	-9.68446
pa	-9.68447
▁fast	-9.68449
▁italia	-9.68482
▁europei	-9.68574
▁saranno	-9.68637
▁nuove	-9.68703
▁frog	-9.68753
▁free	-9.68803
▁luce	-9.68881
▁andare	-9.68923
▁turns	-9.69066
▁film	-9.69097
▁regolamento	-9.69173
▁avevano	-9.69176
rle	-9.69187
▁ka	-9.69293
▁office	-9.69306
▁strada	-9.69357
▁nine	-9.69368
pi	-9.69386
▁among	-9.69401
▁chance	-9.69494
▁risoluzione	-9.69601
▁april	-9.69686
▁rock	-9.6971
son	-9.69775
▁tipo	-9.69851
noise	-9.69928
▁thinking	-9.69975
▁break	-9.70072
▁park	-9.70169
▁october	-9.70188
my	-9.70201
▁arm	-9.70231
ati	-9.70243
▁subito	-9.70245
ata	-9.70313
▁ship	-9.70355
▁peter	-9.70361
▁qualcosa	-9.7046
▁politiche	-9.70494
▁pare	-9.70574
▁guarda	-9.70588
▁become	-9.70625
ali	-9.70629
▁department	-9.70693
▁passo	-9.70761
▁letter	-9.71119
▁kept	-9.71445
▁desidero	-9.7154
▁comunità	-9.71626
▁pi	-9.71758
ere	-9.71772
▁ice	-9.71946
▁tea	-9.72001
▁history	-9.72004
▁daughter	-9.72012
▁prodotti	-9.72304
▁clear	-9.72368
▁august	-9.72423
up	-9.72439
▁colla	-9.72519
▁pen	-9.72738
▁stood	-9.72876
▁regno	-9.72958
men	-9.73068
▁lay	-9.73099
▁pubblica	-9.73154
ng	-9.73262
she	-9.7336
▁h	-9.73418
▁pull	-9.73488
pe	-9.73507
▁pa	-9.7352
▁trouble	-9.73661
▁toward	-9.73699
▁running	-9.73758
▁nazionale	-9.73813
▁termine	-9.7382
▁tomorrow	-9.73895
▁informazioni	-9.73905
rebbe	-9.73971
▁afraid	-9.73989
nt	-9.74035
▁nessuno	-9.74049
▁euro	-9.74081
▁district	-9.74121
▁less	-9.74145
▁vengono	-9.74163
▁november	-9.74257
▁sitting	-9.74293
▁corte	-9.7431
▁answer	-9.7448
▁progetto	-9.74536
▁star	-9.74574
▁attraverso	-9.74718
(	-9.74732
▁fit	-9.74796
▁replied	-9.74848
▁seguito	-9.74919
▁persona	-9.74929
▁problem	-9.7496
▁milioni	-9.75043
▁window	-9.751
▁forward	-9.75116
▁fondo	-9.75134
▁bus	-9.75161
▁bella	-9.75202
▁ruolo	-9.75266
▁earth	-9.75269
▁bisogna	-9.75332
ka	-9.75344
▁february	-9.7535
▁dr	-9.75387
▁master	-9.75401
▁anyway	-9.75424
▁bye	-9.75476
▁single	-9.75629
▁seems	-9.75689
▁nazionali	-9.75691
▁reason	-9.75704
▁seat	-9.75741
▁whatever	-9.75797
▁december	-9.75941
▁named	-9.7605
bo	-9.76187
▁fatti	-9.7627
▁maggior	-9.76367
▁presidenza	-9.76369
▁forte	-9.76408
tore	-9.76432
▁released	-9.76449
able	-9.76463
▁easy	-9.7653
▁imprese	-9.76544
if	-9.76644
▁cool	-9.76875
▁special	-9.76966
▁eye	-9.76978
rio	-9.77032
▁anzi	-9.77053
▁board	-9.77075
▁riguardo	-9.77298
▁infine	-9.77394
▁grave	-9.77458
▁]	-9.77489
▁catch	-9.77582
▁decisione	-9.77675
▁esso	-9.77684
▁famiglia	-9.77766
by	-9.77853
▁furono	-9.77882
▁honey	-9.7798
▁pubblico	-9.77994
▁data	-9.78004
▁figure	-9.78136
▁whether	-9.78157
ment	-9.78198
ssimo	-9.78231
▁sede	-9.78279
▁answered	-9.78393
▁#	-9.78526
▁9	-9.78541
▁autorità	-9.7857
▁strong	-9.78683
▁themselves	-9.78694
▁draw	-9.78765
▁ro	-9.7893
▁14	-9.7893
ter	-9.79018
▁prendere	-9.79096
▁yep	-9.79154
▁juice	-9.79156
▁[1	-9.79184
ah	-9.79198
▁clothes	-9.79396
▁dati	-9.79401
▁finished	-9.79463
▁prova	-9.79485
▁suppose	-9.79496
▁hungry	-9.79525
▁rising	-9.79601
▁touch	-9.7964
▁natura	-9.79682
▁30	-9.7969
▁happen	-9.79717
accordo	-9.79734
▁wind	-9.79769
▁lives	-9.79815
▁cap	-9.79846
▁mare	-9.79858
▁2020	-9.7989
rie	-9.79983
▁september	-9.80091
▁july	-9.80283
▁within	-9.80312
▁married	-9.80331
▁hours	-9.80541
▁british	-9.80706
▁couple	-9.80743
▁lotta	-9.80837
▁mama	-9.80963
▁wall	-9.80985
nce	-9.81118
sco	-9.81179
▁parlare	-9.81192
▁usually	-9.81221
▁libro	-9.81248
▁tua	-9.81405
▁coloro	-9.81421
der	-9.81526
▁‘	-9.81569
▁worked	-9.81688
▁almeno	-9.8169
▁towards	-9.81878
▁send	-9.81977
▁ritengo	-9.82032
▁responsabilità	-9.8222
▁avanti	-9.82269
ur	-9.82285
00	-9.823
▁crayon	-9.82307
▁shoes	-9.82356
▁police	-9.82401
▁parere	-9.82406
▁13	-9.82533
sh	-9.82536
▁poteva	-9.82605
▁clean	-9.82664
▁thousand	-9.82784
▁pesca	-9.82814
▁third	-9.8283
▁stick	-9.82935
▁opera	-9.82995
▁punti	-9.83396
▁indeed	-9.83433
▁trova	-9.83814
▁potuto	-9.84072
ley	-9.84081
▁diverse	-9.84124
▁vuole	-9.84221
▁chiesa	-9.84235
▁st	-9.84346
▁david	-9.84365
▁duck	-9.84372
▁forget	-9.84375
▁signore	-9.84405
2:	-9.8454
▁save	-9.84592
▁francia	-9.84632
▁tonight	-9.84657
▁testa	-9.84781
▁news	-9.84822
&	-9.84842
▁camp	-9.84854
▁significa	-9.84871
▁inter	-9.84876
ster	-9.84887
▁ore	-9.84939
▁television	-9.84985
▁mamma	-9.84993
bi	-9.85099
▁push	-9.85191
▁qual	-9.85208
▁above	-9.8524
▁east	-9.85255
▁garantire	-9.853
▁altra	-9.85354
▁ahead	-9.85414
▁uniti	-9.85436
▁aiuti	-9.85456
▁et	-9.85506
ero	-9.85538
▁sweet	-9.85572
▁mesi	-9.85599
▁umani	-9.85606
▁birthday	-9.85624
▁career	-9.85663
▁relazioni	-9.85667
▁arms	-9.85747
▁tv	-9.85825
▁fondi	-9.85883
▁cow	-9.85915
tu	-9.85923
ck	-9.86003
of	-9.86011
▁picks	-9.86038
▁proposito	-9.86059
▁passed	-9.8621
▁cookie	-9.86343
▁eating	-9.86421
▁cannot	-9.86446
jo	-9.86465
▁gun	-9.86602
▁moved	-9.86677
gna	-9.86714
za	-9.86825
ine	-9.86843
▁dat	-9.86886
▁george	-9.86891
▁band	-9.86943
▁album	-9.87011
▁fanno	-9.87021
▁bro	-9.87085
▁german	-9.8711
▁gold	-9.8712
▁instead	-9.87166
▁waiting	-9.87304
▁post	-9.8735
▁indian	-9.87549
▁assai	-9.87572
▁relatore	-9.87572
▁ba	-9.87585
▁sera	-9.87613
▁trovare	-9.87631
▁army	-9.87633
▁11	-9.87679
▁main	-9.87684
▁shut	-9.87723
▁evening	-9.8782
▁exactly	-9.8792
▁ni	-9.87948
▁months	-9.87974
lla	-9.88146
▁politico	-9.88149
▁husband	-9.88165
▁drive	-9.88213
▁quiet	-9.88292
▁kitty	-9.88299
3	-9.8834
fa	-9.88483
▁corpo	-9.88486
▁salute	-9.88505
▁service	-9.88635
▁thou	-9.88731
▁shot	-9.88749
▁art	-9.88878
read	-9.8889
▁excuse	-9.88899
▁dibattito	-9.88954
▁possible	-9.88954
▁video	-9.8897
1:	-9.88972
▁wear	-9.89042
▁doll	-9.89065
▁difficile	-9.89209
ity	-9.89338
▁super	-9.8939
▁middle	-9.89419
▁faccia	-9.89436
▁rappresenta	-9.89498
ant	-9.89538
▁bottle	-9.8958
▁sole	-9.89655
▁whose	-9.89814
▁station	-9.89832
▁nor	-9.8985
▁sola	-9.89977
▁van	-9.89984
▁paul	-9.90045
▁silver	-9.9018
▁island	-9.90213
llo	-9.90238
▁giustizia	-9.90255
con	-9.90259
▁human	-9.90374
mmo	-9.90412
▁breve	-9.90626
ja	-9.90682
all	-9.90742
altra	-9.90742
▁motivo	-9.90749
cca	-9.908
▁minister	-9.90808
▁uncle	-9.90811
bili	-9.9082
▁intorno	-9.90831
▁sing	-9.90832
▁periodo	-9.90915
▁tired	-9.90992
▁⌈	-9.90998
▁servizio	-9.91005
▁procedura	-9.91242
▁prime	-9.91244
▁effetti	-9.91315
▁norme	-9.91401
▁certain	-9.91645
»	-9.91764
fe	-9.91781
urs	-9.91795
▁player	-9.92092
▁visit	-9.92178
▁met	-9.92187
▁madre	-9.92277
▁kitchen	-9.92353
▁sight	-9.92402
▁reached	-9.92571
▁holds	-9.92616
▁mettere	-9.92619
▁obiettivi	-9.9271
▁although	-9.92803
▁santa	-9.92857
▁orange	-9.9297
▁mary	-9.92971
less	-9.93001
▁plan	-9.93013
▁putting	-9.93055
▁veramente	-9.93088
▁principi	-9.93157
▁linea	-9.93172
▁broke	-9.93267
▁sapere	-9.93296
sce	-9.9335
▁giovani	-9.93382
▁church	-9.93437
▁nello	-9.93488
▁attenzione	-9.93515
▁mal	-9.93527
▁longer	-9.93541
▁return	-9.93608
▁pari	-9.93683
▁uhoh	-9.93885
▁low	-9.9391
▁everyone	-9.94046
▁seem	-9.9414
▁sostegno	-9.94151
▁die	-9.94239
▁primi	-9.94315
▁vale	-9.9432
é	-9.94361
▁tema	-9.94365
▁form	-9.94372
▁misura	-9.94386
▁season	-9.94423
▁win	-9.94428
▁check	-9.94429
▁lettera	-9.94492
den	-9.94505
ver	-9.94643
▁queen	-9.94727
▁⌊	-9.94785
ner	-9.94812
▁noises	-9.94823
▁devo	-9.94858
▁mar	-9.94953
▁vogliamo	-9.94985
▁cinque	-9.95002
▁bi	-9.95047
▁notte	-9.9513
▁testo	-9.95286
▁england	-9.95314
▁serie	-9.95324
▁bunny	-9.95443
▁penso	-9.95477
▁cover	-9.9549
▁stiamo	-9.95495
▁casi	-9.95593
▁building	-9.95625
ino	-9.95646
▁pop	-9.95716
▁poiché	-9.95783
▁places	-9.95943
▁holding	-9.95964
]?	-9.96025
▁parla	-9.96081
▁christmas	-9.96209
ist	-9.96232
▁pochi	-9.96321
▁questioni	-9.96334
▁standing	-9.96374
▁blood	-9.96471
ità	-9.96529
▁alcun	-9.96546
▁par	-9.96552
▁class	-9.96587
▁dentro	-9.96614
▁returned	-9.96639
▁list	-9.96742
▁ex	-9.96758
▁quickly	-9.96866
how	-9.96877
▁potere	-9.96882
ic	-9.96882
▁pan	-9.96906
eri	-9.96913
▁bambini	-9.96922
▁soluzione	-9.96924
▁caught	-9.96953
▁maria	-9.96977
▁moon	-9.97028
▁economica	-9.97083
ki	-9.97122
▁ain	-9.9728
▁sè	-9.97364
▁resto	-9.97375
▁fair	-9.97403
ʼ	-9.97408
▁pass	-9.97411
▁hall	-9.97411
zi	-9.97519
▁public	-9.97587
▁media	-9.9762
▁avesse	-9.97667
oni	-9.97794
sca	-9.97819
▁nonché	-9.97902
▁bel	-9.97963
5	-9.97982
▁tanti	-9.98107
▁court	-9.98121
▁presto	-9.98147
col	-9.98149
▁pel	-9.98162
▁fifty	-9.98344
▁ultimi	-9.98375
▁migliore	-9.98573
▁former	-9.98577
▁league	-9.98644
▁successo	-9.98673
▁deputati	-9.98688
▁strange	-9.98746
▁province	-9.9882
▁risorse	-9.98821
▁region	-9.98832
▁passato	-9.98937
▁space	-9.98959
▁straight	-9.98966
▁system	-9.98976
▁silence	-9.98995
▁village	-9.99
▁pig	-9.9918
▁avete	-9.99224
▁aspetti	-9.99235
▁mummy	-9.99322
▁kid	-9.99445
▁ones	-9.99714
▁politician	-9.99718
ue	-9.99804
▁affinché	-9.99884
▁spirito	-9.99916
▁piuttosto	-9.99934
▁sick	-10.0001
▁terzo	-10.0002
▁chiaro	-10.0008
▁25	-10.0009
▁nobody	-10.0018
▁opened	-10.0026
box	-10.003
▁anti	-10.0031
▁sub	-10.0031
▁following	-10.0033
▁chapter	-10.0034
▁silly	-10.0035
▁ooh	-10.004
▁afternoon	-10.0045
▁cento	-10.0055
rti	-10.0056
there	-10.0062
▁whom	-10.0063
▁joe	-10.0066
▁coffee	-10.0071
▁vostra	-10.0078
▁broken	-10.0095
tra	-10.0098
▁en	-10.0103
▁anyone	-10.0103
▁amici	-10.0112
▁pe	-10.0112
iti	-10.0114
takes	-10.0117
ful	-10.0121
▁written	-10.0124
▁armi	-10.0128
▁sociali	-10.0135
▁miles	-10.0143
▁istituzioni	-10.0145
▁wood	-10.0147
ze	-10.0162
lu	-10.0163
zze	-10.0171
▁dress	-10.0185
▁carlo	-10.0187
▁chief	-10.0187
interno	-10.0189
▁centro	-10.0192
ish	-10.0203
▁battle	-10.0208
▁collega	-10.021
▁thirty	-10.0219
▁radio	-10.022
▁population	-10.0225
ko	-10.0232
▁major	-10.0244
▁feeling	-10.0248
▁supposed	-10.0248
▁soft	-10.0257
▁suddenly	-10.026
lt	-10.0267
tri	-10.0287
▁iii	-10.0291
▁hospital	-10.031
▁regioni	-10.0318
ì	-10.032
▁america	-10.0324
▁cake	-10.0326
▁atto	-10.0332
du	-10.0333
▁careful	-10.0335
▁store	-10.0339
▁lu	-10.0339
▁certainly	-10.0345
▁trees	-10.0357
▁position	-10.0378
▁stessi	-10.0383
▁million	-10.0384
▁london	-10.0393
▁niente	-10.0397
▁naturalmente	-10.0406
ring	-10.041
fo	-10.0412
▁fellow	-10.0418
▁sangue	-10.0426
looks	-10.0427
▁telling	-10.0433
▁fede	-10.0434
▁qualsiasi	-10.0447
ya	-10.0463
▁fi	-10.0465
▁safe	-10.0465
▁spero	-10.0468
▁apple	-10.047
▁chicken	-10.047
led	-10.0478
▁finalmente	-10.0487
▁college	-10.049
▁valore	-10.0493
▁partito	-10.0505
▁dietro	-10.0521
com	-10.0527
▁quick	-10.0535
▁works	-10.0539
▁creare	-10.0544
ff	-10.0554
▁innanzi	-10.0559
▁pictures	-10.0561
▁facendo	-10.0563
▁lì	-10.0567
▁vede	-10.0569
▁hole	-10.058
▁farm	-10.0589
▁aunt	-10.059
▁occasione	-10.059
▁teacher	-10.0603
▁games	-10.0603
▁wild	-10.0607
▁international	-10.0613
▁com	-10.0615
▁built	-10.0622
▁amore	-10.0622
▁spazio	-10.064
▁importanti	-10.0642
▁puppet	-10.0655
▁figlio	-10.0671
▁changed	-10.0683
▁milano	-10.0684
▁alcuna	-10.0687
▁basta	-10.0698
▁law	-10.0701
▁heavy	-10.0713
▁repubblica	-10.0716
▁michael	-10.0717
▁breakfast	-10.072
▁(19	-10.0723
▁sense	-10.0723
▁interno	-10.073
▁protezione	-10.0734
▁weeks	-10.0764
▁termini	-10.0766
▁fix	-10.077
▁bread	-10.0773
▁gas	-10.0782
▁confronti	-10.0789
▁deep	-10.0789
zzo	-10.0795
▁titolo	-10.08
vocalizes	-10.0802
▁count	-10.0804
▁perciò	-10.0806
▁followed	-10.0831
▁riforma	-10.0831
▁conte	-10.0834
▁risultati	-10.0839
day	-10.0855
cat	-10.0864
▁importanza	-10.0865
▁needs	-10.0874
ambiente	-10.0888
▁anybody	-10.0896
▁richiesta	-10.0898
▁beat	-10.0904
▁difficoltà	-10.0905
8	-10.0909
▁cross	-10.0916
▁serve	-10.0918
▁leader	-10.0919
▁truth	-10.0922
ina	-10.0924
▁added	-10.0925
▁preso	-10.0929
▁pratica	-10.0932
▁finger	-10.0936
▁piedi	-10.0938
▁pretend	-10.094
▁snow	-10.0942
▁language	-10.0947
▁view	-10.0949
▁ordine	-10.095
▁consumatori	-10.097
▁hell	-10.0972
et	-10.0973
▁ye	-10.0975
▁carry	-10.0975
▁future	-10.0978
▁coi	-10.0978
▁jo	-10.0981
▁fe	-10.0982
▁pieces	-10.0982
ion	-10.099
▁maniera	-10.0993
í	-10.0995
▁vostro	-10.1005
▁commune	-10.1013
▁adult	-10.1019
▁object	-10.1021
lin	-10.1023
▁19	-10.1024
lli	-10.1028
▁nearly	-10.1033
▁plate	-10.1048
–	-10.1055
▁stopped	-10.1055
▁field	-10.1058
▁regione	-10.107
▁giusto	-10.1073
▁officer	-10.1077
▁pensiero	-10.1079
▁bill	-10.1082
▁warm	-10.1083
▁dance	-10.1083
▁worry	-10.1083
▁pounds	-10.109
▁council	-10.1092
▁learn	-10.1093
▁race	-10.1118
▁decided	-10.1125
▁domani	-10.113
nze	-10.1133
▁fear	-10.1143
▁cura	-10.1145
6	-10.1149
▁stanno	-10.1151
uomo	-10.1157
▁using	-10.1162
▁24	-10.1173
▁yesterday	-10.1178
why	-10.1181
▁vari	-10.1181
▁formazione	-10.1188
▁union	-10.1188
▁bath	-10.1189
ssa	-10.1197
▁attack	-10.12
▁esiste	-10.1203
▁semplice	-10.1208
▁fatta	-10.1212
ler	-10.1214
▁animali	-10.1214
they	-10.1233
▁gestione	-10.1234
▁jump	-10.1239
tivo	-10.1246
▁&	-10.1251
ana	-10.1253
▁mad	-10.1264
▁cheese	-10.127
▁essendo	-10.1274
▁cook	-10.1275
▁continua	-10.128
mother	-10.1288
▁duca	-10.129
▁wrote	-10.1294
▁harry	-10.1295
▁tutela	-10.1301
▁ra	-10.1301
▁mie	-10.1305
▁trust	-10.1313
rya	-10.1314
▁cry	-10.1317
▁municipality	-10.1324
▁act	-10.1328
▁corner	-10.1334
▁que	-10.1335
▁ottenere	-10.1338
▁received	-10.1339
▁du	-10.135
▁entro	-10.1353
▁appeared	-10.136
qui	-10.1362
▁politici	-10.1374
▁shape	-10.1378
▁finish	-10.1378
▁doubt	-10.1385
▁stars	-10.1389
▁gi	-10.1389
▁posti	-10.1412
ambito	-10.1416
▁except	-10.1422
tic	-10.1423
▁secret	-10.1424
▁force	-10.1442
▁scuola	-10.1444
jen	-10.1455
▁conversation	-10.1463
▁personale	-10.1469
▁programmi	-10.1473
glia	-10.1474
▁lake	-10.1474
▁bank	-10.1478
▁produzione	-10.1482
▁imp	-10.1483
▁contrario	-10.1488
▁dì	-10.1491
▁ga	-10.1496
▁doveva	-10.1499
▁ringrazio	-10.15
▁mente	-10.15
▁robert	-10.1501
▁hill	-10.1504
▁specie	-10.1506
▁follow	-10.1507
▁animal	-10.1511
▁garden	-10.1512
▁laugh	-10.1517
▁volontà	-10.1519
▁comunicazione	-10.1521
▁sky	-10.1533
▁dovuto	-10.1535
▁leggi	-10.1542
à	-10.1545
▁moving	-10.1546
▁grand	-10.1547
▁giving	-10.1555
▁step	-10.1571
▁mondiale	-10.1574
ico	-10.1575
▁colle	-10.1579
▁giovane	-10.1585
▁thomas	-10.1585
▁difesa	-10.1585
▁chiama	-10.1591
▁starts	-10.1592
▁match	-10.1595
▁leaving	-10.1603
ita	-10.1609
▁intende	-10.161
▁dieci	-10.161
▁exclaimed	-10.1613
▁fly	-10.1615
can	-10.1617
▁convenzione	-10.1619
▁sto	-10.1624
▁moglie	-10.1626
▁alto	-10.1629
▁ministro	-10.1631
▁anymore	-10.1637
▁sam	-10.1646
▁sappiamo	-10.1657
▁pie	-10.1662
▁happens	-10.1667
▁carried	-10.1693
ard	-10.1702
ul	-10.1703
▁piccolo	-10.1708
▁aspetto	-10.1716
▁lie	-10.1725
▁bell	-10.1728
▁test	-10.1731
▁hang	-10.1732
▁venne	-10.1736
ini	-10.1737
▁fo	-10.176
▁popolazione	-10.1762
▁common	-10.1774
▁computer	-10.1778
▁ought	-10.1779
▁attention	-10.178
▁pot	-10.1783
way	-10.179
▁scopo	-10.1803
▁chiede	-10.1806
▁members	-10.181
▁affrontare	-10.1813
▁cream	-10.1814
▁seno	-10.1814
▁build	-10.1814
rgli	-10.1815
cu	-10.1817
▁tri	-10.1817
▁ormai	-10.1819
▁plays	-10.1822
▁secolo	-10.1835
not	-10.1838
▁flowers	-10.1843
remo	-10.1844
▁bottom	-10.1848
▁record	-10.1848
articolo	-10.1854
▁assolutamente	-10.1858
▁sin	-10.1859
ger	-10.1859
▁letto	-10.1865
▁walking	-10.1867
▁prove	-10.1875
▁teeth	-10.1876
▁commercio	-10.1879
▁lunch	-10.188
▁parents	-10.1881
▁block	-10.1884
▁local	-10.1902
▁genere	-10.1906
▁esse	-10.1915
let	-10.1915
▁india	-10.1917
time	-10.1927
▁control	-10.1931
▁lavoratori	-10.194
▁watching	-10.1947
▁none	-10.1952
▁presentato	-10.1953
▁mese	-10.1953
▁ate	-10.1958
▁spoke	-10.196
tive	-10.1967
▁distance	-10.1968
")	-10.1968
▁legs	-10.1969
▁pat	-10.1976
▁welcome	-10.1979
▁vera	-10.1983
▁stone	-10.1983
puts	-10.1987
▁capi	-10.1988
▁whoa	-10.1995
▁elephant	-10.2004
ste	-10.2004
ora	-10.2012
▁based	-10.2012
▁davanti	-10.2015
laugh	-10.2017
▁support	-10.2017
▁+	-10.2017
▁spoon	-10.2018
gma	-10.2019
ture	-10.2035
▁ja	-10.2044
▁square	-10.2052
▁beginning	-10.2053
▁faceva	-10.2063
▁lots	-10.2064
▁pensare	-10.2065
ation	-10.207
▁report	-10.2072
▁gruppi	-10.2074
▁interessi	-10.2074
▁hurry	-10.2078
▁risultato	-10.2079
▁fondamentale	-10.2094
▁favorite	-10.2096
▁bob	-10.2099
=	-10.2103
▁venga	-10.2116
bu	-10.2125
▁esser	-10.2127
▁prese	-10.2128
▁comuni	-10.213
▁bought	-10.2135
▁verità	-10.2138
pro	-10.214
▁debba	-10.2141
▁germany	-10.2147
▁passi	-10.2147
room	-10.215
▁created	-10.2157
▁rischio	-10.216
▁bridge	-10.2165
▁california	-10.2167
glio	-10.2169
▁dream	-10.217
▁libera	-10.2185
”.	-10.2186
▁ebbe	-10.2189
▁meeting	-10.2191
▁somewhere	-10.2192
▁ko	-10.2203
▁further	-10.2208
▁21	-10.2216
▁attualmente	-10.2217
▁bright	-10.2217
▁sign	-10.2226
▁conferenza	-10.2228
▁stan	-10.2229
▁sugli	-10.2234
ex	-10.2238
▁hate	-10.224
▁proprie	-10.224
lle	-10.2249
▁meant	-10.225
▁onde	-10.2251
▁fondamentali	-10.2257
▁including	-10.2265
▁giovanni	-10.2265
▁lose	-10.2277
▁blow	-10.2278
▁circle	-10.2278
▁shit	-10.2278
▁james	-10.2285
▁director	-10.2289
▁fossero	-10.229
▁date	-10.2309
▁lovely	-10.2309
▁piú	-10.2318
▁50	-10.2323
ian	-10.2323
▁prince	-10.2328
zio	-10.2329
30	-10.2351
▁rispose	-10.2356
ous	-10.2359
▁economico	-10.2361
▁wan	-10.2361
ru	-10.2362
ies	-10.2367
▁th	-10.2368
▁frank	-10.2374
▁mette	-10.2379
▁nazioni	-10.2385
▁reca	-10.24
▁settori	-10.2407
▁possano	-10.241
▁capital	-10.2412
▁term	-10.2413
▁reach	-10.2416
▁note	-10.2417
▁finally	-10.242
im	-10.2421
▁census	-10.2426
line	-10.2427
▁democrazia	-10.2434
▁level	-10.2437
▁tratto	-10.2438
7	-10.2439
now	-10.2441
▁dry	-10.2444
ismo	-10.2445
▁presenti	-10.2452
▁seeing	-10.2455
▁blocks	-10.2455
▁100	-10.2463
▁carattere	-10.2473
▁mezzi	-10.2473
▁wonderful	-10.2476
▁thy	-10.2488
laughing	-10.249
nda	-10.2491
▁accordi	-10.2493
erà	-10.2494
▁grass	-10.2496
▁directed	-10.2501
this	-10.2511
▁potrà	-10.2517
▁presenza	-10.2519
sci	-10.2522
▁cielo	-10.2529
ari	-10.253
▁riferimento	-10.2531
▁capacità	-10.2537
tò	-10.2538
▁interesting	-10.2541
▁unico	-10.2543
▁nord	-10.2543
▁concorrenza	-10.2544
▁japan	-10.2548
▁walked	-10.2548
▁interest	-10.2558
▁farlo	-10.2562
▁rende	-10.2579
▁progetti	-10.2583
▁stage	-10.2589
ir	-10.2606
▁spot	-10.2618
▁leg	-10.2629
▁interested	-10.263
▁azioni	-10.2634
▁fini	-10.2635
ville	-10.2639
▁sarah	-10.2643
▁promise	-10.2645
▁forze	-10.2649
▁interesse	-10.2651
▁corn	-10.2657
▁winter	-10.2671
kar	-10.2672
▁shirt	-10.268
▁vecchio	-10.2682
▁pink	-10.2688
▁kingdom	-10.269
▁dovrà	-10.2712
⌉.	-10.2718
▁kiss	-10.2722
▁principe	-10.2724
▁rain	-10.273
▁rendere	-10.2738
▁votazione	-10.2738
wa	-10.2744
▁certamente	-10.2748
gt	-10.2757
▁obiettivo	-10.2757
▁settimana	-10.2758
▁lunga	-10.2767
▁continued	-10.2771
tura	-10.2785
▁drop	-10.2788
▁ears	-10.2795
▁sai	-10.2802
▁busy	-10.2804
▁roll	-10.2808
▁scorso	-10.2811
▁carta	-10.2816
▁ove	-10.2831
tor	-10.2837
▁forgot	-10.2845
▁decisioni	-10.2851
▁rich	-10.2853
▁lavori	-10.2853
▁crisi	-10.2863
mer	-10.287
▁bite	-10.2872
▁tante	-10.2883
▁writing	-10.2883
▁laughs	-10.2885
▁led	-10.2885
▁butter	-10.2892
▁purtroppo	-10.2893
ggia	-10.2894
▁wash	-10.2898
amp	-10.2899
▁articolo	-10.2903
▁para	-10.2904
▁sistemi	-10.2909
▁dubbio	-10.2918
▁carica	-10.2929
▁cost	-10.293
▁auto	-10.2939
▁direzione	-10.2942
▁sad	-10.2945
▁popoli	-10.2946
▁worth	-10.2951
▁varie	-10.2953
▁month	-10.2957
▁served	-10.2974
▁stuck	-10.2976
▁crescita	-10.2978
nu	-10.2984
stra	-10.2987
▁voleva	-10.2988
▁fuck	-10.2992
▁avendo	-10.2994
▁)	-10.3011
▁phil	-10.3017
▁ch	-10.302
ordine	-10.3021
▁laura	-10.3028
▁settembre	-10.3032
▁oggetto	-10.3034
▁liked	-10.304
▁monte	-10.3042
▁center	-10.3043
▁social	-10.305
▁strumenti	-10.3053
á	-10.3055
▁vicino	-10.307
▁voto	-10.3071
▁share	-10.3072
▁bet	-10.3076
ber	-10.3085
▁costi	-10.3093
▁egg	-10.3095
▁qualcuno	-10.3095
▁evitare	-10.3096
▁stupid	-10.3098
▁ovviamente	-10.3101
||	-10.3105
▁cerca	-10.3105
▁charge	-10.3107
▁mum	-10.311
▁crazy	-10.3114
▁mu	-10.3117
▁trip	-10.3122
▁knows	-10.3129
▁vanno	-10.313
▁speranza	-10.3133
▁paura	-10.3136
makes	-10.3136
▁23	-10.3136
▁grew	-10.3136
▁shop	-10.3141
▁shoe	-10.3148
▁private	-10.3154
▁character	-10.3154
▁cars	-10.3158
▁reading	-10.3164
▁sheep	-10.3176
▁prossimo	-10.3178
▁disposizione	-10.3179
▁gioco	-10.3198
▁pu	-10.3199
▁perfect	-10.3203
▁mostra	-10.3207
nd	-10.3208
▁lead	-10.3212
▁trasporto	-10.3213
▁watches	-10.3215
▁creazione	-10.3227
▁dialogo	-10.3229
▁questions	-10.323
gno	-10.3234
▁gravi	-10.3256
▁self	-10.3259
▁affari	-10.3261
▁2000	-10.3264
▁iv	-10.3266
▁coat	-10.3266
▁twelve	-10.3269
▁--	-10.3269
▁ear	-10.3276
▁chiedere	-10.3279
▁standard	-10.3281
▁francesco	-10.3282
trice	-10.3283
▁allowed	-10.3283
▁mille	-10.3286
▁propri	-10.3287
ac	-10.329
▁jim	-10.3294
▁itself	-10.3294
▁laughing	-10.3296
ite	-10.33
▁europee	-10.3301
▁spese	-10.3302
▁avevo	-10.3309
▁vivere	-10.331
age	-10.3334
▁grow	-10.334
les	-10.334
▁ero	-10.3343
▁val	-10.3351
▁final	-10.3354
ente	-10.3356
▁francese	-10.3356
▁crying	-10.3356
rum	-10.3357
▁simile	-10.3358
▁dropped	-10.336
ham	-10.336
▁dar	-10.3361
▁forty	-10.3364
▁danno	-10.3369
▁forth	-10.3375
cco	-10.3377
peter	-10.3383
▁1,	-10.3389
▁neck	-10.3406
▁wa	-10.3407
▁babies	-10.3409
▁22	-10.342
▁valutazione	-10.3424
▁pena	-10.3435
▁surprise	-10.3438
▁maggio	-10.3445
▁quanti	-10.3446
▁especially	-10.3452
▁messo	-10.3452
▁shouldn	-10.3457
▁sostenere	-10.346
▁information	-10.3464
▁vuoi	-10.3465
▁diceva	-10.3468
house	-10.347
▁fucking	-10.3471
▁facile	-10.3471
▁mira	-10.3484
▁resta	-10.3485
▁leaves	-10.3488
▁presentata	-10.3488
ava	-10.3492
come	-10.3492
▁goin	-10.3492
▁moves	-10.3496
illustration	-10.3497
▁vertice	-10.3499
▁central	-10.3499
▁cast	-10.3503
▁elementi	-10.3505
▁qualunque	-10.3511
▁capire	-10.3511
▁amico	-10.3513
▁yo	-10.352
▁mouse	-10.3522
▁fase	-10.3523
▁tanta	-10.3524
▁lingua	-10.3525
▁below	-10.3525
▁figli	-10.3533
▁stava	-10.3545
▁conseguenze	-10.3556
▁type	-10.3557
▁rabbit	-10.3558
02	-10.356
▁shore	-10.356
▁civile	-10.3562
▁ambito	-10.3565
picks	-10.3567
▁voluto	-10.3575
▁health	-10.3577
▁legislazione	-10.3587
▁closed	-10.359
ron	-10.3595
▁hide	-10.3595
▁strumento	-10.3597
▁napoli	-10.3599
red	-10.3602
▁example	-10.3604
▁track	-10.3614
▁migliorare	-10.362
ccio	-10.3624
▁puzzle	-10.3625
▁fortuna	-10.3629
▁thus	-10.363
▁decide	-10.3631
ns	-10.3631
▁roman	-10.3643
▁century	-10.3648
▁considerazione	-10.3648
▁glass	-10.3655
▁drawing	-10.3659
▁cha	-10.366
▁laughed	-10.3663
▁turning	-10.3672
ura	-10.3683
lia	-10.3685
▁abbastanza	-10.3688
▁contesto	-10.3696
▁disposizioni	-10.37
▁()	-10.3705
▁lascia	-10.3707
▁horses	-10.3709
zia	-10.3718
ding	-10.372
▁chocolate	-10.3722
ut	-10.3723
▁showed	-10.3724
▁loved	-10.3739
mp	-10.3743
▁atti	-10.3754
▁tall	-10.377
▁venire	-10.3778
▁spent	-10.3778
▁tenere	-10.3783
▁scritto	-10.3784
▁wide	-10.3785
▁conseguenza	-10.3788
▁boo	-10.3792
▁chiaramente	-10.3802
▁ju	-10.3803
▁membro	-10.3805
▁giudizio	-10.3811
uso	-10.3812
▁russia	-10.3815
▁scared	-10.3816
▁hardly	-10.3819
▁raggiungere	-10.3828
▁fresh	-10.3833
▁firenze	-10.3839
then	-10.3839
▁tail	-10.3843
▁pizza	-10.3843
▁semplicemente	-10.3845
tico	-10.3857
▁china	-10.3862
▁vol	-10.3864
▁weren	-10.3873
▁situation	-10.3876
▁comunitario	-10.3881
emendamento	-10.3887
▁lid	-10.3898
▁progressi	-10.3899
rai	-10.3899
▁wake	-10.3907
osi	-10.3909
▁paid	-10.3912
▁dichiarazione	-10.3917
▁yours	-10.3918
▁smile	-10.3928
▁priorità	-10.3931
▁avea	-10.3935
▁mountain	-10.3936
▁henry	-10.3943
▁difficult	-10.3948
▁danger	-10.3949
▁indi	-10.3949
▁reaches	-10.395
▁piccoli	-10.3955
tur	-10.3956
▁partire	-10.3958
▁sunday	-10.3959
▁key	-10.3963
▁popular	-10.3975
▁monkey	-10.3975
▁darling	-10.3976
▁alive	-10.3977
▁siete	-10.3978
▁slowly	-10.3979
q	-10.3983
▁maggioranza	-10.3985
▁soldati	-10.3988
▁intervento	-10.3989
▁unless	-10.399
▁shoot	-10.4003
zzi	-10.4004
▁sé	-10.4006
▁sito	-10.4008
ica	-10.4008
▁sposta	-10.4009
▁centrale	-10.401
ism	-10.4027
▁fur	-10.4029
zo	-10.403
▁terrible	-10.4035
sso	-10.4036
▁sicuro	-10.4038
▁dico	-10.404
▁territorio	-10.405
▁machine	-10.4061
▁prende	-10.4061
▁meat	-10.4061
▁deck	-10.4074
▁loud	-10.4077
▁grandma	-10.4078
▁destra	-10.4082
▁za	-10.4083
kay	-10.4101
▁silenzio	-10.4102
silence	-10.4107
▁serious	-10.4112
▁period	-10.4117
▁positivo	-10.4121
▁sand	-10.4123
▁spend	-10.4127
enti	-10.4127
▁walks	-10.4142
ndi	-10.4145
▁emendamento	-10.4153
▁regole	-10.4156
▁passare	-10.4167
▁rispondere	-10.4174
▁washington	-10.4174
▁principali	-10.4177
▁sleeping	-10.4177
nia	-10.4178
▁impegno	-10.4185
child	-10.4186
▁poichè	-10.4188
▁bello	-10.4189
ggio	-10.4191
ito	-10.4192
→	-10.4194
▁avviso	-10.4196
▁ver	-10.42
▁stampa	-10.4207
▁sco	-10.4207
▁richard	-10.4209
mel	-10.4209
▁ragioni	-10.421
▁musica	-10.4216
▁design	-10.4221
▁action	-10.4222
▁birds	-10.4225
ad	-10.4225
5-0	-10.4226
▁nonostante	-10.4227
▁direction	-10.4229
▁eggs	-10.423
ssima	-10.4235
▁pericolo	-10.4236
▁letters	-10.4237
▁bocca	-10.4239
▁strategia	-10.4243
clock	-10.4243
▁portare	-10.4244
▁negoziati	-10.4246
▁dà	-10.4251
mu	-10.4255
▁den	-10.4262
▁prodotto	-10.4269
▁nemmeno	-10.4273
▁pain	-10.4281
▁hotel	-10.4283
▁handle	-10.4293
▁betty	-10.4305
▁martin	-10.4314
▁cultura	-10.4317
▁yup	-10.4321
▁patria	-10.4325
▁ricordo	-10.4328
▁mor	-10.4328
tter	-10.4328
dy	-10.4329
▁verde	-10.4329
▁bigger	-10.4335
▁svolto	-10.4338
▁fiducia	-10.434
▁lower	-10.4342
non	-10.4343
▁scelta	-10.4351
▁ossia	-10.4359
▁forest	-10.4379
⌋.	-10.4379
▁stra	-10.4379
▁lato	-10.4379
▁relative	-10.4382
▁probabilmente	-10.4384
▁rimane	-10.4385
pri	-10.4385
▁scene	-10.4385
▁jane	-10.4389
▁esprimere	-10.4395
▁2018	-10.4398
▁beyond	-10.4405
▁ross	-10.4408
▁dovrebbero	-10.4409
▁election	-10.4412
▁pin	-10.4413
▁migliori	-10.4415
▁expect	-10.4419
▁anima	-10.4424
▁dicembre	-10.4426
▁bianco	-10.4431
▁tower	-10.4432
▁volume	-10.4437
▁nessun	-10.4437
▁ricordare	-10.4439
▁knock	-10.4439
▁award	-10.4442
▁oppure	-10.4447
▁minaccia	-10.4447
▁documento	-10.4447
▁peace	-10.4451
ble	-10.4453
▁names	-10.4459
mon	-10.4472
▁needed	-10.4475
ol	-10.4483
▁accident	-10.4484
occupazione	-10.4485
anti	-10.4489
▁asking	-10.4491
▁piccola	-10.4497
▁problems	-10.4497
▁giugno	-10.4499
▁joined	-10.4505
▁soul	-10.4509
▁according	-10.451
▁giuridica	-10.451
ary	-10.452
▁40	-10.452
▁feed	-10.4521
osa	-10.4522
▁internet	-10.4525
ccia	-10.4528
▁clock	-10.4531
▁idee	-10.4533
▁maggiori	-10.4534
▁lying	-10.4534
▁zone	-10.4538
▁compito	-10.4539
▁guida	-10.4543
filler	-10.4545
▁continues	-10.4547
▁entered	-10.4549
▁chiedo	-10.455
▁pause	-10.456
who	-10.4562
▁pensa	-10.4563
▁motivi	-10.4566
▁ab	-10.457
▁intanto	-10.4571
▁string	-10.4572
▁account	-10.4572
▁picked	-10.4579
▁piccole	-10.4587
rra	-10.4588
▁venezia	-10.4592
▁singing	-10.46
▁background	-10.4601
▁governi	-10.4605
▁contra	-10.4623
▁professional	-10.4624
▁actor	-10.4626
▁extra	-10.4634
▁viaggio	-10.4635
idea	-10.4635
▁paris	-10.4635
▁fuoco	-10.4637
▁cre	-10.4641
▁card	-10.4642
jes	-10.4643
ak	-10.4652
ku	-10.4652
▁certa	-10.4655
▁caro	-10.4657
▁procedure	-10.4661
▁est	-10.4669
▁sale	-10.4683
ola	-10.4688
▁pieno	-10.4691
▁include	-10.4692
▁dan	-10.4694
▁piena	-10.4699
▁estremamente	-10.4701
▁spring	-10.4703
▁modello	-10.4705
▁join	-10.4706
her	-10.4712
▁parts	-10.4713
▁size	-10.4713
▁principale	-10.4713
▁candidati	-10.4718
▁sinistra	-10.4722
▁trasporti	-10.4731
▁political	-10.4742
olo	-10.4752
▁continuare	-10.4753
rd	-10.4753
▁wheel	-10.4755
▁africa	-10.4758
bri	-10.4767
▁nature	-10.477
enza	-10.4773
▁saint	-10.4774
▁beach	-10.4774
▁partecipazione	-10.4774
▁chiesto	-10.4781
▁spirit	-10.4787
▁market	-10.4789
▁shows	-10.4799
ghi	-10.4801
inizio	-10.4805
▁studi	-10.481
op	-10.4811
▁royal	-10.4817
▁particular	-10.4817
▁row	-10.482
▁smoke	-10.4822
▁breath	-10.4824
▁aiuto	-10.4831
▁stories	-10.4831
▁personal	-10.4833
ship	-10.484
▁vigore	-10.4842
▁western	-10.4844
ando	-10.4847
▁fingers	-10.4855
▁australia	-10.486
▁adam	-10.4866
▁therefore	-10.4868
▁calling	-10.4873
▁professor	-10.4873
]!	-10.4875
▁figura	-10.4877
▁bu	-10.4884
▁pubblici	-10.4887
aft	-10.489
▁partner	-10.4898
▁speaking	-10.4902
▁tener	-10.4902
▁cercare	-10.4908
▁marzo	-10.4912
▁facciamo	-10.4912
▁speed	-10.4914
▁yyy	-10.4923
▁william	-10.4923
ici	-10.4923
industria	-10.4928
▁bowl	-10.4929
▁aged	-10.4929
▁press	-10.4933
ante	-10.4934
▁bri	-10.4943
▁european	-10.4947
▁lines	-10.4952
ppo	-10.4953
▁desiderio	-10.4954
uto	-10.4956
▁sell	-10.4958
▁alta	-10.4966
▁add	-10.4967
▁tony	-10.4968
▁talked	-10.4975
▁storm	-10.4977
▁attuale	-10.498
▁governor	-10.4981
▁verrà	-10.4987
▁usa	-10.4991
▁iron	-10.4995
▁role	-10.5005
▁ge	-10.501
▁vo	-10.5012
▁learned	-10.5012
▁covered	-10.5013
amente	-10.5019
out	-10.5019
▁collaborazione	-10.5022
▁26	-10.5023
▁ladies	-10.5025
ji	-10.5026
▁simple	-10.5027
▁mattina	-10.5028
▁monster	-10.5035
▁massima	-10.5038
▁bensì	-10.5039
▁sport	-10.504
▁acqua	-10.5041
▁piace	-10.5043
▁ieri	-10.5043
▁sud	-10.5045
uri	-10.5051
▁[2	-10.5052
▁piazza	-10.5054
▁pareva	-10.5057
▁visita	-10.5058
gen	-10.5061
▁forme	-10.5065
▁ancor	-10.5066
▁cor	-10.5069
▁ringraziare	-10.5072
▁concetto	-10.5077
▁sala	-10.5077
tiva	-10.5077
▁older	-10.5079
▁27	-10.508
▁libero	-10.508
▁bobby	-10.5084
▁helped	-10.5086
▁conti	-10.5087
▁similar	-10.5091
▁nurse	-10.5091
▁gives	-10.5092
▁efficace	-10.5095
▁affatto	-10.5097
▁dimostra	-10.5101
▁pleasure	-10.5108
▁dovremmo	-10.5116
▁drew	-10.5117
▁dogs	-10.5119
▁conoscenza	-10.5122
▁crew	-10.5125
side	-10.5127
▁ministri	-10.5128
19	-10.5128
▁caused	-10.513
▁belle	-10.5133
▁fate	-10.5135
▁tardi	-10.5139
▁japanese	-10.5148
▁sette	-10.5148
▁notice	-10.5149
▁volto	-10.5152
▁lee	-10.5156
nina	-10.5158
▁felice	-10.5161
▁regime	-10.5162
▁likely	-10.5162
▁singer	-10.5167
▁vedi	-10.5167
▁passa	-10.5167
▁deciso	-10.5169
▁towel	-10.5173
▁28	-10.5176
▁famous	-10.5178
▁particolarmente	-10.5187
▁pet	-10.5187
▁virtù	-10.5189
▁trovato	-10.5191
▁apart	-10.5192
▁2010	-10.5196
▁seduta	-10.5198
▁flying	-10.5201
▁ultimo	-10.5202
▁diventa	-10.521
▁contributo	-10.5214
▁piacere	-10.5214
▁dolore	-10.5215
▁telephone	-10.5221
▁fox	-10.5221
▁difference	-10.5223
▁sufficiente	-10.5224
▁luck	-10.5224
▁reale	-10.5225
▁smell	-10.5227
▁servi	-10.5231
tro	-10.5231
▁sharp	-10.5237
▁castle	-10.5237
▁uso	-10.5238
▁path	-10.524
▁lavorare	-10.5243
▁rid	-10.5246
▁sicuramente	-10.5252
▁dirty	-10.5256
smo	-10.5258
▁italiana	-10.526
▁nessuna	-10.5264
cy	-10.5269
gan	-10.5277
ten	-10.5281
gia	-10.5284
▁sottolineare	-10.5288
▁mandato	-10.5288
▁medesimo	-10.5296
11	-10.5301
▁prevede	-10.5302
▁ger	-10.5303
fad	-10.5307
▁taste	-10.5312
▁presentare	-10.5313
▁esame	-10.5315
gasps	-10.5318
▁condizione	-10.5319
▁division	-10.5325
▁fratello	-10.5328
▁stare	-10.533
▁necessaria	-10.5331
▁tries	-10.5335
▁ricorda	-10.5336
etto	-10.5342
▁worse	-10.5343
▁double	-10.5348
van	-10.536
▁aye	-10.5362
▁lion	-10.5366
▁faith	-10.5372
▁enemy	-10.5374
▁price	-10.5376
▁sebbene	-10.5376
▁umana	-10.5377
gne	-10.5377
▁iniziative	-10.5382
▁avrà	-10.5388
▁hasn	-10.5395
▁salt	-10.5398
▁lettura	-10.5399
vocalize	-10.5401
bra	-10.5409
ps	-10.5417
▁1999	-10.5417
▁flat	-10.5419
▁ocean	-10.5424
▁mon	-10.5425
▁italiano	-10.5426
▁texas	-10.5428
▁seguente	-10.5432
▁potrebbero	-10.5442
▁rete	-10.5447
▁prize	-10.545
nde	-10.5451
acqua	-10.5451
▁ru	-10.5452
▁natural	-10.5456
▁sforzi	-10.5457
ono	-10.5464
▁gra	-10.5464
▁various	-10.5467
▁militare	-10.5471
bout	-10.5473
▁sarebbero	-10.5485
▁skin	-10.5493
▁tiny	-10.5494
▁charles	-10.5494
roz	-10.5494
▁education	-10.5495
▁joy	-10.5496
▁presenta	-10.5506
▁tie	-10.5506
ose	-10.551
▁edge	-10.551
▁gennaio	-10.5515
▁luglio	-10.5521
▁gar	-10.5529
▁quarter	-10.553
▁original	-10.5538
dio	-10.5539
▁italian	-10.5541
▁murder	-10.5542
▁sensi	-10.5546
▁effect	-10.5548
▁azione	-10.555
▁coach	-10.5552
▁zzz	-10.5553
▁total	-10.5556
▁announced	-10.5557
20	-10.5563
▁battaglia	-10.5567
▁angry	-10.557
gni	-10.5571
▁community	-10.5573
▁("	-10.5575
▁trade	-10.5578
unk	-10.5585
ent	-10.5591
▁simili	-10.5605
▁parlato	-10.5607
▁alice	-10.5607
▁laid	-10.5611
hu	-10.5613
▁ovvero	-10.5614
▁escape	-10.5616
▁centre	-10.5617
▁kinda	-10.5618
▁naturale	-10.5618
%	-10.5619
▁z	-10.562
▁coast	-10.5621
▁internazionali	-10.5623
▁vuol	-10.5636
▁anna	-10.5639
▁anne	-10.5642
▁canada	-10.5647
br	-10.5657
▁relativa	-10.5659
▁northern	-10.5664
▁2,	-10.5665
▁fighting	-10.5668
▁spa	-10.5675
9	-10.5675
▁seguire	-10.5676
pre	-10.5678
▁propone	-10.5679
ppi	-10.5687
▁lontano	-10.5688
▁riduzione	-10.5688
uta	-10.5691
▁metà	-10.5692
▁championship	-10.5697
ated	-10.5699
ned	-10.57
▁study	-10.571
▁anch	-10.5713
▁begin	-10.5722
▁marito	-10.5727
▁morto	-10.5727
▁asleep	-10.5736
▁coscienza	-10.5738
▁lor	-10.5743
▁bow	-10.5743
▁length	-10.5745
▁sugar	-10.5754
ani	-10.5758
▁absolutely	-10.5763
▁fiori	-10.5766
▁mess	-10.5767
▁opere	-10.5769
▁supper	-10.5773
▁shake	-10.5773
▁comitato	-10.578
nods	-10.5782
etti	-10.5789
▁colors	-10.5793
shi	-10.5794
ny	-10.5795
ute	-10.5796
▁unite	-10.5797
▁flag	-10.58
▁airplane	-10.5801
▁barn	-10.5802
▁brush	-10.5806
▁slow	-10.5809
lly	-10.5812
▁appunto	-10.5816
glo	-10.5817
des	-10.5819
▁quegli	-10.582
▁sentire	-10.5821
▁raised	-10.5824
▁magic	-10.5826
▁oops	-10.5832
▁opportunità	-10.5836
10	-10.5837
▁modi	-10.584
▁risulta	-10.5846
id	-10.5848
▁soldiers	-10.5853
▁coraggio	-10.5855
▁rip	-10.5856
▁neither	-10.5859
▁[3	-10.586
▁starting	-10.5862
▁santo	-10.587
▁stesse	-10.5872
▁poveri	-10.5876
▁canto	-10.5878
▁windows	-10.5881
▁modifica	-10.5881
▁russian	-10.5882
▁vogliono	-10.5883
▁cro	-10.5888
▁nope	-10.5888
▁aspetta	-10.5892
▁beside	-10.5898
▁costo	-10.59
▁rapporto	-10.59
▁guard	-10.5906
▁military	-10.5909
▁altresì	-10.5912
off	-10.5922
tz	-10.5925
-19	-10.5927
obiettivo	-10.5931
▁journey	-10.5933
▁voglia	-10.5935
▁plane	-10.5935
▁ar	-10.5937
▁threw	-10.5939
art	-10.5946
▁arrived	-10.5951
▁doggie	-10.5952
▁oo	-10.5952
etta	-10.5953
▁entrare	-10.5955
▁violenza	-10.5957
▁porre	-10.5966
uh	-10.5969
▁certi	-10.5978
▁spread	-10.598
au	-10.5981
▁continue	-10.5983
ford	-10.5992
▁agreed	-10.5994
▁driver	-10.6002
▁denaro	-10.6003
▁damn	-10.6011
▁ragazzi	-10.6015
▁italy	-10.6017
▁sar	-10.602
▁dressed	-10.6022
▁ambiente	-10.6022
▁regionale	-10.6024
▁bay	-10.6028
▁manca	-10.6029
su	-10.6029
▁nomi	-10.6031
▁brave	-10.6031
like	-10.6034
▁dicendo	-10.6034
voc	-10.6037
▁hu	-10.604
▁enjoy	-10.6043
▁campagna	-10.6046
▁1996	-10.605
▁crede	-10.605
▁shi	-10.605
▁rate	-10.6051
▁soli	-10.6054
▁manner	-10.6055
▁venti	-10.6057
▁posta	-10.6058
▁lettere	-10.6061
▁bang	-10.6063
▁ow	-10.6067
▁movies	-10.607
ud	-10.6072
▁app	-10.608
▁ke	-10.6082
▁pocket	-10.6083
▁umano	-10.6087
▁permette	-10.6091
▁minuti	-10.6095
ggi	-10.6103
▁calm	-10.6108
▁clown	-10.6109
▁romani	-10.6112
▁pair	-10.6112
▁saturday	-10.6114
▁zoo	-10.6114
▁novembre	-10.6116
▁port	-10.6117
▁immediately	-10.6121
▁richiede	-10.6123
▁abbiano	-10.6126
▁amount	-10.6127
oso	-10.6128
▁giù	-10.6132
▁terrorismo	-10.6135
▁choice	-10.6135
▁applicazione	-10.6136
▁sold	-10.6139
▁devi	-10.614
▁germania	-10.614
▁zona	-10.6142
▁desk	-10.6144
▁mike	-10.6146
▁choo	-10.6147
▁europe	-10.6147
▁ambientale	-10.6147
▁imagine	-10.615
▁lieutenant	-10.6151
▁produced	-10.6152
▁struttura	-10.6159
ultimo	-10.616
▁je	-10.616
▁goodness	-10.6161
▁princess	-10.6161
▁lap	-10.6166
▁engine	-10.6171
je	-10.6177
rk	-10.6178
▁society	-10.6178
sha	-10.618
▁ridurre	-10.6186
▁mantenere	-10.6186
▁locali	-10.6188
▁costituisce	-10.6191
▁accettare	-10.6191
▁subject	-10.6196
▁button	-10.6201
tica	-10.6203
▁declared	-10.6206
▁esperienza	-10.6207
▁gate	-10.6211
▁vediamo	-10.6211
▁bull	-10.622
▁countries	-10.6222
▁fame	-10.6225
▁flight	-10.6232
▁carne	-10.6233
▁somma	-10.6234
▁chris	-10.6235
▁prezzo	-10.6242
▁located	-10.6245
▁happening	-10.6251
▁direttamente	-10.6251
▁weather	-10.6254
▁mc	-10.6256
▁agree	-10.6258
▁economici	-10.626
ane	-10.626
▁navi	-10.6274
"]	-10.6275
▁gloria	-10.6285
ball	-10.6285
▁basket	-10.6288
ssimi	-10.6293
▁spanish	-10.6294
▁dangerous	-10.6296
▁palazzo	-10.6297
▁otto	-10.6299
▁result	-10.6302
▁libri	-10.6305
▁research	-10.631
king	-10.6314
▁modern	-10.6316
▁proposto	-10.6316
▁definizione	-10.6319
▁uhuh	-10.6319
▁domande	-10.6322
▁project	-10.6324
▁medio	-10.6328
▁twice	-10.6335
▁placed	-10.6337
ula	-10.6339
▁senti	-10.6343
▁terzi	-10.6354
▁command	-10.6357
▁signori	-10.6358
▁upstairs	-10.6362
▁missing	-10.6373
▁avrebbero	-10.6376
▁cousin	-10.6381
▁officers	-10.6382
▁falling	-10.6383
cci	-10.6385
▁nero	-10.6386
field	-10.6387
▁documenti	-10.6389
▁promuovere	-10.6392
ties	-10.6394
▁costa	-10.64
▁tenuto	-10.6403
▁event	-10.6403
▁besides	-10.6405
▁stabilità	-10.6406
▁honor	-10.6419
▁adottare	-10.6419
▁falls	-10.6426
▁essenziale	-10.6427
▁completely	-10.6431
▁considered	-10.6433
▁climb	-10.6437
▁carl	-10.6438
▁memoria	-10.6445
▁driving	-10.6446
▁duty	-10.6454
▁discorso	-10.6455
▁credere	-10.6457
▁vengano	-10.6458
ella	-10.6461
▁wearing	-10.6464
▁29	-10.6483
cri	-10.6484
har	-10.6484
ù	-10.6487
▁youth	-10.6488
▁parlamentari	-10.649
▁commander	-10.6497
▁jesus	-10.65
▁mancanza	-10.6501
turns	-10.6502
▁fruit	-10.6503
▁southern	-10.6507
▁pietro	-10.6507
▁veniva	-10.6507
▁leva	-10.6516
iva	-10.6523
aria	-10.6539
▁portato	-10.6542
▁fornire	-10.6543
gar	-10.6545
cia	-10.655
▁purple	-10.6552
▁nato	-10.6556
▁dollars	-10.6562
ey	-10.6562
▁incontro	-10.6578
▁higher	-10.6582
▁risolvere	-10.6589
▁huge	-10.6592
▁paint	-10.6597
▁massimo	-10.6602
▁acc	-10.6603
▁valori	-10.6606
▁favorevole	-10.662
▁banca	-10.6623
▁title	-10.6623
▁conclusione	-10.6633
▁organizzazioni	-10.6636
▁giro	-10.6642
▁parlamentare	-10.6645
▁opportuno	-10.6649
val	-10.6651
▁cookies	-10.6653
▁arriva	-10.6654
▁faccio	-10.6659
▁puoi	-10.6666
▁temi	-10.6668
tá	-10.6668
▁molta	-10.6673
▁filled	-10.6673
▁avrei	-10.6675
lan	-10.6678
▁closer	-10.6683
▁smart	-10.6685
mb	-10.6685
▁basso	-10.6686
▁nina	-10.6692
economia	-10.6693
▁utile	-10.6695
▁wi	-10.6698
▁antonio	-10.6703
ld	-10.6703
▁italiani	-10.6709
▁sal	-10.6712
▁criteri	-10.6716
▁firstname	-10.6719
▁paragrafo	-10.6724
50	-10.6726
▁golden	-10.6728
▁effetto	-10.673
16	-10.6732
▁lips	-10.6737
▁purpose	-10.674
▁discovered	-10.6741
▁maestro	-10.6743
▁watched	-10.6744
▁venuto	-10.6745
▁messa	-10.6746
▁detta	-10.6746
endo	-10.6748
▁doin	-10.6749
▁dere	-10.675
sen	-10.6751
▁2003	-10.6754
▁flower	-10.6759
▁missed	-10.6768
▁2004	-10.6774
▁largest	-10.6776
▁sex	-10.6778
▁vantaggio	-10.6781
▁totale	-10.679
▁surprised	-10.6791
▁siccome	-10.68
,--	-10.6802
▁tears	-10.6806
▁scrivere	-10.6809
▁fai	-10.6813
▁simply	-10.6813
▁steps	-10.6815
▁empty	-10.6816
▁chiara	-10.6828
▁nemico	-10.6833
▁braccia	-10.6833
▁necessarie	-10.6837
▁precedente	-10.6841
▁explain	-10.6845
▁procedere	-10.6847
▁sapete	-10.6849
▁ferma	-10.6853
involuntary	-10.6856
▁fri	-10.686
▁cristo	-10.6868
▁trasparenza	-10.6882
ai	-10.6885
qua	-10.6887
▁prison	-10.689
▁aiuta	-10.6899
▁op	-10.6899
▁riteniamo	-10.6899
▁pulled	-10.6902
wood	-10.6904
▁manager	-10.6904
▁febbraio	-10.6909
▁interventi	-10.6909
▁sci	-10.6921
san	-10.6921
▁haha	-10.6925
nes	-10.6928
▁founded	-10.6929
▁villa	-10.693
▁funzione	-10.6932
▁giornata	-10.6939
▁sha	-10.6946
▁morti	-10.6955
▁accesso	-10.6956
▁valley	-10.6964
▁lucky	-10.6965
gu	-10.6972
▁francesi	-10.6974
▁softly	-10.6975
▁search	-10.6982
▁grazia	-10.6984
▁sino	-10.6991
▁pound	-10.6992
▁pour	-10.6992
▁fool	-10.6997
▁povero	-10.7
▁’	-10.7004
▁proud	-10.7006
▁segno	-10.7012
iche	-10.7013
singing	-10.7014
▁dovere	-10.7018
▁votato	-10.7027
pin	-10.7032
▁iniziativa	-10.7033
▁capitano	-10.7039
▁conosce	-10.704
uti	-10.704
▁capitolo	-10.7041
▁generali	-10.7043
▁offer	-10.7044
▁lawyer	-10.7047
▁massa	-10.7049
▁aprile	-10.7051
▁superiore	-10.7052
▁dura	-10.7053
▁informazione	-10.7056
▁guns	-10.7056
▁fourth	-10.7059
▁movement	-10.7059
▁risk	-10.7064
▁actress	-10.7067
▁aziende	-10.7071
ori	-10.7074
▁ricevuto	-10.7077
▁conoscere	-10.7078
bar	-10.7085
▁cal	-10.7085
▁nota	-10.7089
▁roof	-10.7094
▁2001	-10.7097
▁experience	-10.7099
▁ended	-10.7104
▁tongue	-10.7115
lyn	-10.7117
bus	-10.7128
▁marco	-10.7131
obs	-10.7133
▁differenza	-10.7135
▁bat	-10.7144
▁aperto	-10.7144
▁beni	-10.715
▁easily	-10.7152
▁staff	-10.7154
▁manda	-10.7155
▁christian	-10.7165
▁motion	-10.7166
▁pal	-10.7168
▁sca	-10.7175
▁moo	-10.7176
end	-10.7186
oli	-10.7187
▁2017	-10.7189
▁competenze	-10.719
▁quell	-10.7192
▁voler	-10.7192
▁anywhere	-10.7198
▁opening	-10.7203
▁usual	-10.7204
▁practice	-10.7211
tes	-10.7214
▁completamente	-10.7216
▁acque	-10.722
▁ze	-10.7225
▁giusta	-10.723
▁scala	-10.7234
ven	-10.7235
▁argomento	-10.7237
spi	-10.7237
▁christ	-10.7243
▁pants	-10.7247
ultima	-10.7251
▁relatrice	-10.7259
▁fault	-10.7259
▁regular	-10.7261
▁porto	-10.7261
▁chiese	-10.7262
▁channel	-10.7265
▁thick	-10.7273
▁vittime	-10.7276
».	-10.7278
▁torna	-10.7279
▁runs	-10.7282
sung	-10.7287
▁expected	-10.7295
▁presa	-10.7296
▁current	-10.7297
▁luoghi	-10.7304
informazione	-10.7307
▁polizia	-10.7311
▁rise	-10.7314
▁file	-10.7321
▁strutturali	-10.7322
▁1998	-10.7326
▁tira	-10.7327
▁pla	-10.733
▁ordered	-10.7336
▁potesse	-10.734
▁microphone	-10.7344
▁meaning	-10.7346
▁message	-10.7351
wi	-10.7354
eranno	-10.7356
▁scott	-10.7357
▁risponde	-10.7363
▁pleased	-10.7365
▁aggiungere	-10.7367
▁published	-10.7371
rebbero	-10.7375
▁bambino	-10.7376
▁ninety	-10.7377
▁tone	-10.7378
▁31	-10.7383
▁capitale	-10.7389
▁training	-10.7389
▁olympics	-10.7394
▁spagna	-10.7395
▁crea	-10.7406
▁judge	-10.7407
▁web	-10.7409
▁potete	-10.7409
▁prefer	-10.7409
▁smith	-10.7411
▁scrive	-10.7411
▁boss	-10.7412
▁author	-10.7412
▁innanzitutto	-10.7412
▁investimenti	-10.7413
isce	-10.7417
▁vive	-10.7419
▁bound	-10.7419
▁evidente	-10.7421
▁1995	-10.7423
ang	-10.7425
ok	-10.7427
▁brain	-10.7428
▁republic	-10.743
▁ki	-10.7432
looking	-10.7436
▁ram	-10.7437
ek	-10.7443
▁begins	-10.7443
▁comincia	-10.7444
▁numerosi	-10.7444
▁teddy	-10.7448
▁sentito	-10.7451
▁kick	-10.7451
▁neppure	-10.7453
▁gay	-10.7453
▁slide	-10.7457
▁fre	-10.7459
more	-10.7462
▁importa	-10.7467
▁cur	-10.7467
▁poche	-10.7471
▁bloody	-10.7472
▁female	-10.7478
ide	-10.748
▁brand	-10.748
▁occupa	-10.7482
die	-10.7483
fu	-10.7483
▁solamente	-10.7485
▁duh	-10.7486
▁relativi	-10.7486
tch	-10.7488
▁charlie	-10.749
▁boom	-10.7491
▁necessary	-10.7493
▁energia	-10.7499
▁caterpillar	-10.7504
▁scienza	-10.7504
▁stock	-10.7506
▁turchia	-10.7508
ap	-10.751
▁sits	-10.751
▁metodo	-10.751
▁contenuto	-10.7511
▁rule	-10.7514
▁diverso	-10.7515
▁saved	-10.7517
▁friday	-10.7519
mus	-10.7521
▁believed	-10.7528
where	-10.753
▁formed	-10.753
▁obviously	-10.7538
▁pleasant	-10.7538
▁committee	-10.754
head	-10.754
▁nemici	-10.7543
▁crayons	-10.7545
▁scena	-10.7546
bc	-10.755
tions	-10.755
▁mostly	-10.7556
ista	-10.7559
▁jean	-10.756
▁castello	-10.7563
▁produce	-10.7564
▁palace	-10.7569
ning	-10.7569
light	-10.7572
▁dallo	-10.7576
▁finale	-10.7584
voice	-10.7585
▁numbers	-10.7586
▁sapeva	-10.7587
▁spalle	-10.759
▁secretary	-10.7597
▁blanket	-10.7597
▁spin	-10.7598
▁onto	-10.7601
▁vote	-10.7608
▁motor	-10.7614
▁cu	-10.7615
▁terms	-10.7615
▁fifteen	-10.7623
▁bru	-10.7624
▁tramite	-10.7625
#	-10.7635
▁songs	-10.7636
▁colore	-10.7639
▁trattamento	-10.7645
▁km	-10.7651
▁ottobre	-10.767
gio	-10.767
eremo	-10.7675
▁opinione	-10.7678
▁sixty	-10.7678
tivi	-10.7685
▁famiglie	-10.7687
mba	-10.7691
▁afferma	-10.7693
ens	-10.7698
,000	-10.77
▁sguardo	-10.7701
▁rischi	-10.7701
dis	-10.7704
▁style	-10.7709
▁por	-10.771
▁addirittura	-10.7712
▁noticed	-10.7714
ju	-10.7718
gue	-10.7723
▁bathroom	-10.7723
kf	-10.7728
▁morire	-10.7728
ario	-10.7728
▁codice	-10.7731
▁mac	-10.7733
▁assicurare	-10.7734
▁awful	-10.7738
▁ancient	-10.7741
ric	-10.7751
▁stanza	-10.7752
▁promised	-10.7752
▁caccia	-10.7754
▁mercati	-10.7756
ving	-10.7756
▁finanziari	-10.7757
▁mass	-10.7759
°	-10.7764
▁stairs	-10.7765
▁comp	-10.7767
▁crime	-10.777
▁diventare	-10.7774
▁wolf	-10.7774
▁medicine	-10.7777
▁accept	-10.7779
▁reti	-10.778
ken	-10.778
▁joseph	-10.7781
▁indietro	-10.7784
▁struck	-10.7789
▁prezzi	-10.7804
▁trattati	-10.7806
▁riconoscimento	-10.7807
▁taught	-10.7807
▁ritorno	-10.781
▁crowd	-10.781
▁spoken	-10.7813
ffa	-10.7815
importanza	-10.7824
▁knife	-10.7826
▁~	-10.783
▁sc	-10.7835
▁evidence	-10.7836
ran	-10.7837
▁science	-10.784
▁farsi	-10.7846
▁giant	-10.785
▁beauty	-10.7851
▁growing	-10.7853
▁disease	-10.7854
▁throat	-10.7855
▁rice	-10.7856
▁dinanzi	-10.7858
▁impossibile	-10.7858
▁development	-10.7863
▁3,	-10.7864
ee	-10.7865
▁plenty	-10.7865
▁civil	-10.7866
▁semi	-10.7868
night	-10.7868
pu	-10.7869
glie	-10.7873
▁snake	-10.7875
▁occupazione	-10.7887
▁cancer	-10.7888
tus	-10.7893
▁regola	-10.7894
▁2016	-10.7895
▁nu	-10.7898
▁età	-10.79
▁vide	-10.79
▁gray	-10.7902
▁ali	-10.7902
12	-10.7904
▁ann	-10.7914
▁lights	-10.7918
▁trans	-10.7923
▁entra	-10.7927
▁network	-10.7928
▁rapporti	-10.7939
▁chiamato	-10.7939
just	-10.7946
▁mountains	-10.7949
ndolo	-10.7954
▁pone	-10.7957
▁costruzione	-10.7957
▁nineteen	-10.7957
▁necessari	-10.7958
▁presently	-10.7965
▁greater	-10.7966
▁shoulder	-10.7967
▁recente	-10.7975
▁grace	-10.7976
▁hadn	-10.7979
▁vittoria	-10.798
▁potenza	-10.7984
▁swim	-10.7986
▁fixed	-10.799
▁[4	-10.7992
▁meal	-10.7994
▁complete	-10.7997
uk	-10.7998
▁unito	-10.7999
▁plain	-10.8004
▁salva	-10.8013
▁listening	-10.8015
▁ulteriori	-10.8017
▁glasses	-10.8025
▁cute	-10.8032
▁eleven	-10.8034
▁comunitaria	-10.8034
▁grown	-10.8035
our	-10.8037
▁range	-10.8042
▁involved	-10.8042
▁coordinamento	-10.8051
▁vice	-10.8054
▁rough	-10.8057
▁pages	-10.8058
▁marriage	-10.8058
▁trick	-10.8058
▁tro	-10.8059
▁consenso	-10.8062
▁mistake	-10.8063
▁elemento	-10.8064
bbe	-10.8065
▁pulls	-10.8073
▁stands	-10.8077
▁strength	-10.8082
▁brothers	-10.8085
▁discutere	-10.8086
▁woods	-10.8087
▁chiusa	-10.8088
▁1990	-10.8088
▁buono	-10.8093
▁60	-10.8093
▁needta	-10.8094
▁fence	-10.8097
▁scale	-10.8097
applicazione	-10.8099
▁amy	-10.8103
▁figlia	-10.8104
nato	-10.8112
mma	-10.8114
tamente	-10.8116
▁allah	-10.812
▁bush	-10.812
▁teach	-10.8121
▁sol	-10.8123
▁osservazioni	-10.813
attività	-10.8134
▁plant	-10.8137
▁esistono	-10.8137
▁impossible	-10.8137
▁earlier	-10.8137
14	-10.8139
▁african	-10.8141
▁seconds	-10.8142
vol	-10.8142
▁drama	-10.8145
ette	-10.8148
▁arte	-10.8149
tici	-10.8149
▁altrimenti	-10.815
▁movimento	-10.8152
▁gio	-10.8153
▁mirror	-10.8156
▁succede	-10.8157
▁respect	-10.8158
▁aumento	-10.8161
▁sicilia	-10.8161
▁fan	-10.8164
▁sudden	-10.8167
▁gentleman	-10.8169
▁percento	-10.8172
▁terza	-10.8179
ole	-10.8182
▁swimming	-10.8186
▁species	-10.8191
holds	-10.8193
▁scar	-10.8193
▁process	-10.8194
▁tim	-10.8197
▁vecchia	-10.8203
▁rin	-10.8204
▁cavallo	-10.8206
▁cara	-10.8206
▁houses	-10.8211
▁keeping	-10.8216
▁nan	-10.8217
▁previsto	-10.822
▁max	-10.822
▁dicono	-10.8226
▁weight	-10.8226
▁lib	-10.8227
essere	-10.8227
cla	-10.8233
▁corre	-10.8234
▁2019	-10.8234
▁academy	-10.8236
▁globale	-10.8239
▁critica	-10.824
▁usare	-10.8245
97	-10.8247
▁stu	-10.825
▁sostenibile	-10.8251
▁paolo	-10.8252
▁elezioni	-10.8255
▁bur	-10.8276
▁pilot	-10.8284
▁morale	-10.8298
▁cloth	-10.8299
old	-10.8304
ance	-10.8306
▁bologna	-10.8308
▁sposa	-10.8309
▁eighty	-10.831
▁sf	-10.8319
▁normal	-10.8321
mbo	-10.8321
▁finora	-10.8326
▁religione	-10.8333
ries	-10.8334
▁dolly	-10.8336
▁bike	-10.8341
▁dante	-10.8345
▁travel	-10.8348
▁2002	-10.8349
▁allow	-10.8349
▁bert	-10.835
▁figliuolo	-10.8351
▁mura	-10.8352
▁rosa	-10.8353
▁intervenire	-10.8354
▁choose	-10.8361
▁peas	-10.8366
▁mail	-10.8366
▁é	-10.8367
▁leggere	-10.8372
▁commerciali	-10.8376
▁affermato	-10.8377
▁eastern	-10.8378
▁yum	-10.8378
▁esigenze	-10.8382
abile	-10.8386
▁limiti	-10.8386
▁opens	-10.8396
▁oil	-10.8397
▁carefully	-10.8397
▁task	-10.8399
▁success	-10.84
ded	-10.8401
▁dutch	-10.8401
▁finanziario	-10.8402
nne	-10.8403
▁consiste	-10.8407
▁pienamente	-10.8408
▁rappresentanti	-10.8409
▁evil	-10.8414
▁cups	-10.8415
sto	-10.8418
▁peso	-10.8418
▁raggiunto	-10.842
▁formula	-10.8421
stru	-10.8423
15	-10.8429
▁sara	-10.8429
ally	-10.8431
mini	-10.8432
▁rer	-10.8438
▁2021	-10.8445
▁pardon	-10.8449
▁ultima	-10.8454
use	-10.8459
▁orders	-10.8462
▁preoccupazione	-10.8462
▁fashion	-10.8464
▁ama	-10.8465
▁effettivamente	-10.8467
lau	-10.8467
▁forti	-10.8468
▁gentlemen	-10.8471
▁blind	-10.8472
▁lock	-10.8481
▁appearance	-10.8482
ren	-10.8482
colo	-10.8482
▁troviamo	-10.8487
▁speech	-10.8488
▁dovranno	-10.8495
▁model	-10.8498
▁hammer	-10.85
par	-10.8505
▁heaven	-10.8505
tiche	-10.8507
ise	-10.851
▁mangia	-10.8512
cio	-10.8516
www	-10.8516
▁protect	-10.8521
music	-10.8522
▁chinese	-10.8522
▁cabin	-10.8523
▁definitely	-10.8524
▁finding	-10.8525
▁association	-10.8527
▁moneta	-10.8528
▁braccio	-10.853
▁suit	-10.853
▁colonel	-10.8531
▁remained	-10.8534
▁2007	-10.8536
▁odd	-10.8537
▁sh	-10.8541
kh	-10.8547
▁fatte	-10.8547
▁ur	-10.8553
▁q	-10.8557
▁altrettanto	-10.8558
▁combattere	-10.8564
sing	-10.8564
▁puppy	-10.8565
unt	-10.8565
▁solito	-10.8568
▁novel	-10.8572
▁mate	-10.8575
▁federal	-10.8576
nny	-10.8581
▁activity	-10.8583
▁services	-10.8584
eth	-10.8585
▁firm	-10.8586
▁vii	-10.859
▁sforzo	-10.8593
over	-10.8593
▁svolgere	-10.8594
▁swing	-10.8596
▁compromesso	-10.8597
▁assume	-10.86
▁austria	-10.8601
▁mission	-10.8604
mpi	-10.8604
▁soldi	-10.8604
▁rocks	-10.8609
▁colpa	-10.861
▁plastic	-10.8612
cor	-10.8617
▁native	-10.8619
▁definire	-10.8619
sia	-10.8621
▁tour	-10.8625
▁leading	-10.8627
here	-10.8627
▁australian	-10.8629
▁1994	-10.8632
▁quietly	-10.8633
ú	-10.8636
▁porte	-10.8642
▁ways	-10.8643
▁ritiene	-10.8644
▁alimentare	-10.8649
kin	-10.8649
▁security	-10.8653
▁muta	-10.8653
▁sullo	-10.8656
zie	-10.8658
▁response	-10.866
▁version	-10.8665
ping	-10.867
iniziativa	-10.8672
▁cave	-10.8675
▁2020)	-10.8681
low	-10.8686
▁andava	-10.8686
▁fairy	-10.8689
▁mister	-10.8692
▁wha	-10.8692
▁keys	-10.8693
▁4,	-10.8699
▁peccato	-10.8705
▁fortune	-10.8708
▁fill	-10.871
▁paga	-10.8711
▁spain	-10.8714
▁wise	-10.8715
▁cari	-10.8716
▁quantità	-10.8717
▁vedo	-10.8718
▁metal	-10.8719
▁abe	-10.8727
▁realizzare	-10.8729
▁andrea	-10.873
▁desidera	-10.8736
▁opposite	-10.8736
ii	-10.8738
ky	-10.8738
▁showing	-10.8739
▁dragon	-10.8741
▁cavalli	-10.8744
▁pool	-10.875
▁entrambi	-10.8752
una	-10.8754
good	-10.8762
▁drinking	-10.8766
▁tip	-10.8769
▁inglese	-10.8769
▁generally	-10.8771
▁footnote	-10.8773
▁unica	-10.8774
▁arrivare	-10.8778
assemblea	-10.8781
ö	-10.8781
ened	-10.8784
▁louis	-10.8785
▁2020,	-10.8788
euro	-10.8793
▁origine	-10.8796
▁performance	-10.8796
▁economiche	-10.8797
▁amsterdam	-10.8804
▁rope	-10.8809
▁prossima	-10.8809
▁2009	-10.8815
▁parliament	-10.8816
▁1992	-10.8817
▁buoni	-10.8818
▁creature	-10.8821
▁decision	-10.8822
▁punta	-10.8824
▁richieste	-10.8825
▁spell	-10.8829
min	-10.8829
▁filippo	-10.8829
▁dump	-10.883
▁retired	-10.8832
some	-10.8832
▁han	-10.8832
ese	-10.8834
▁viva	-10.8842
cche	-10.8847
▁bla	-10.8848
▁heat	-10.8848
▁rivoluzione	-10.8849
▁trovano	-10.8852
▁vento	-10.8853
▁entire	-10.8855
▁tar	-10.8857
gger	-10.8857
▁recorder	-10.8862
▁racconta	-10.8862
▁museum	-10.8865
▁teatro	-10.887
▁spiega	-10.8874
▁errore	-10.8875
▁dick	-10.8879
▁condotta	-10.8881
▁heads	-10.8881
▁tiger	-10.8882
▁energy	-10.8886
▁sake	-10.8887
▁utili	-10.8893
▁managed	-10.8898
ore	-10.8899
▁costituzione	-10.8902
▁gre	-10.8904
ux	-10.8906
▁sword	-10.8909
25	-10.8909
▁campi	-10.891
▁billy	-10.891
▁nick	-10.8913
▁hiding	-10.8916
▁couch	-10.8918
when	-10.8918
▁diede	-10.8919
▁multi	-10.892
stri	-10.8921
▁controlli	-10.8922
▁dolce	-10.8927
▁marry	-10.8927
▁dover	-10.8932
▁riceve	-10.8934
▁pencil	-10.8934
▁bra	-10.8935
▁bellezza	-10.8936
ab	-10.8939
▁rings	-10.8941
▁tratti	-10.8946
ngo	-10.8946
▁nazione	-10.8947
▁weird	-10.8949
▁pale	-10.895
▁domenica	-10.8951
▁locale	-10.8952
▁plus	-10.8954
dia	-10.8957
▁viii	-10.8959
▁surface	-10.8959
▁aperta	-10.8961
13	-10.8967
▁ourselves	-10.8967
▁vie	-10.8967
▁jumped	-10.8974
ghe	-10.8977
▁talvolta	-10.898
▁mala	-10.8985
▁aw	-10.8988
▁signal	-10.8988
▁drops	-10.899
▁whispered	-10.899
▁stayed	-10.8995
▁compagnia	-10.8996
▁canton	-10.8996
▁viola	-10.8997
▁broad	-10.9002
pointing	-10.9011
▁competenza	-10.9013
▁florida	-10.9014
▁competed	-10.9016
▁comfort	-10.9024
sch	-10.9025
▁prepared	-10.9025
▁tocca	-10.9025
▁dinosaur	-10.9028
▁povertà	-10.9029
▁responsabile	-10.9033
▁contribuire	-10.9034
▁concerne	-10.9035
▁program	-10.9038
▁positive	-10.9046
with	-10.9048
▁weak	-10.9049
▁miglioramento	-10.905
▁eric	-10.9051
▁fallen	-10.9053
▁crash	-10.9054
year	-10.9056
right	-10.9058
▁opportunity	-10.9058
▁certe	-10.906
40	-10.9062
▁buone	-10.9062
▁č	-10.9063
▁flew	-10.9063
▁antichi	-10.9063
▁agire	-10.9065
ssime	-10.9067
▁proprietà	-10.9076
▁aft	-10.908
▁romano	-10.9082
ili	-10.9084
▁guide	-10.9088
▁holy	-10.909
▁espresso	-10.9104
▁bal	-10.9105
▁linee	-10.9107
▁marchese	-10.9109
▁dancing	-10.9112
▁lasciato	-10.9115
▁campaign	-10.9116
▁pack	-10.9122
▁horsie	-10.9124
▁purse	-10.9129
▁possibly	-10.9129
▁riding	-10.9132
play	-10.9134
ating	-10.9143
▁parlando	-10.9146
▁culture	-10.9147
▁od	-10.9147
▁gradi	-10.9151
▁culturale	-10.9151
▁owl	-10.9151
▁neat	-10.9152
▁realizzazione	-10.9152
ó	-10.9153
▁ciascuno	-10.9156
▁parigi	-10.9157
▁parve	-10.916
▁episode	-10.9163
▁sides	-10.9164
▁militari	-10.917
ü	-10.9175
ign	-10.9176
▁matt	-10.9178
▁approvato	-10.9191
▁accanto	-10.9191
▁distanza	-10.9194
▁classe	-10.9194
▁treat	-10.9194
▁finanziamento	-10.9196
▁writer	-10.9204
▁merita	-10.9204
▁provvedimenti	-10.9212
▁bin	-10.9218
▁perdere	-10.9219
gie	-10.9219
▁hay	-10.9219
▁creato	-10.922
▁giu	-10.9222
▁gu	-10.9222
▁fecero	-10.9223
▁remain	-10.9227
▁porti	-10.9228
work	-10.923
▁release	-10.923
▁analisi	-10.9231
very	-10.9232
▁awards	-10.9235
ph	-10.9245
▁capelli	-10.9247
▁considerare	-10.925
▁forces	-10.9255
▁helen	-10.9256
▁carrying	-10.9257
▁elected	-10.9258
17	-10.9263
▁miliardi	-10.9263
▁2014	-10.9265
▁gioia	-10.9265
▁rosso	-10.9265
▁collo	-10.9265
▁narra	-10.9268
▁utilizzare	-10.9274
▁andò	-10.9275
▁popolare	-10.9276
▁regina	-10.9278
▁foto	-10.9279
▁revisione	-10.9281
▁hop	-10.9282
▁worried	-10.9284
▁cambiamento	-10.9285
▁turtle	-10.9287
▁ty	-10.9291
▁festival	-10.9292
▁min	-10.9299
▁macchina	-10.9302
▁records	-10.9302
lio	-10.9305
nto	-10.9306
▁goodbye	-10.9309
▁disciplina	-10.9309
▁patto	-10.9309
▁potranno	-10.9311
▁festa	-10.9312
gri	-10.9312
▁riconoscere	-10.9316
▁candy	-10.9319
▁farmer	-10.9321
▁viso	-10.9323
▁official	-10.933
▁traffico	-10.933
▁vostri	-10.9331
▁terre	-10.9335
▁merry	-10.9338
▁contact	-10.9339
▁diversa	-10.9342
▁opinion	-10.9343
▁fratelli	-10.9345
agricoltura	-10.9349
▁loose	-10.935
▁bee	-10.9351
▁peekaboo	-10.9352
▁shown	-10.9357
▁nobili	-10.9361
▁monday	-10.9362
▁livelli	-10.9363
▁ognuno	-10.9365
▁condition	-10.9365
▁chairman	-10.9367
▁migliaia	-10.9369
▁lasciare	-10.9371
mic	-10.9372
▁comporta	-10.9375
▁burn	-10.9375
back	-10.938
▁switzerland	-10.9382
▁pra	-10.9383
▁safety	-10.9389
▁silent	-10.939
▁everywhere	-10.9397
▁cercando	-10.9399
▁georgia	-10.94
chè	-10.9405
▁upper	-10.9405
▁volle	-10.9407
bye	-10.9409
▁partecipare	-10.941
▁inizia	-10.9411
inter	-10.9412
▁calls	-10.9413
nie	-10.9416
▁ships	-10.9417
idi	-10.9422
cli	-10.9422
▁pensato	-10.9425
▁afterwards	-10.9426
▁passione	-10.943
attuale	-10.9432
gh	-10.9434
▁particularly	-10.9436
▁perfectly	-10.9438
ello	-10.944
▁excited	-10.9443
▁students	-10.9445
▁plans	-10.9448
▁sostanze	-10.9451
▁tight	-10.9452
▁chiave	-10.9456
23	-10.9459
▁democratic	-10.9462
--"	-10.9463
▁pubbliche	-10.9468
▁bilanci	-10.9471
▁lamb	-10.9472
▁cash	-10.9473
▁concludere	-10.9479
cce	-10.9489
▁crown	-10.9493
sur	-10.9493
▁colpo	-10.9495
nonspeech	-10.9496
▁solidarietà	-10.9498
▁tornare	-10.9501
▁justice	-10.9503
▁consider	-10.9504
▁walls	-10.9512
port	-10.9514
cal	-10.9515
▁approccio	-10.9515
▁yay	-10.952
▁papers	-10.952
▁partiti	-10.9523
▁2013	-10.9524
▁padrone	-10.9524
▁dichiara	-10.9525
▁soup	-10.9526
▁esattamente	-10.9529
▁offered	-10.9531
vin	-10.9532
▁normativa	-10.9533
▁shouted	-10.9534
▁otherwise	-10.9534
▁wine	-10.9537
▁materiale	-10.9542
▁des	-10.9548
pping	-10.9548
▁lamp	-10.9548
▁sfida	-10.955
▁hum	-10.955
▁guardare	-10.9551
▁medical	-10.9551
ier	-10.9552
scono	-10.9554
▁[5	-10.9558
▁impegni	-10.9561
italia	-10.9562
▁cases	-10.9567
▁peggio	-10.9571
azioni	-10.9572
▁rome	-10.9574
▁younger	-10.9576
▁debito	-10.9577
▁contract	-10.9578
▁modalità	-10.958
sk	-10.9582
▁corona	-10.9584
▁relativo	-10.9585
▁mid	-10.9586
▁povera	-10.959
▁honest	-10.959
▁mayor	-10.959
organizzazione	-10.9592
▁completa	-10.9597
▁lavora	-10.9597
▁bump	-10.9598
▁portata	-10.9598
▁changes	-10.9599
ney	-10.9603
▁create	-10.9604
▁hook	-10.9609
▁luigi	-10.9611
ida	-10.9615
▁relationship	-10.9615
▁brian	-10.9624
▁rat	-10.9626
▁cell	-10.9627
berg	-10.9632
look	-10.9634
▁rules	-10.9636
▁excellent	-10.9637
ira	-10.9639
▁speciale	-10.9641
▁hath	-10.9646
▁fancy	-10.9648
▁ital	-10.9651
▁faces	-10.9655
▁smiled	-10.966
▁fond	-10.9662
▁soluzioni	-10.9664
▁tuoi	-10.9666
fer	-10.9668
vis	-10.967
▁vesti	-10.9672
ye	-10.9674
▁host	-10.9677
ov	-10.9679
mm	-10.968
▁giungere	-10.968
▁cane	-10.9686
energia	-10.9688
▁spi	-10.9691
▁dimostrato	-10.9697
▁reply	-10.9697
▁smaller	-10.97
06	-10.9701
cus	-10.9702
▁appoggio	-10.9704
▁mediante	-10.9705
▁maggie	-10.9708
▁rispettare	-10.9717
▁riunione	-10.9717
▁daniel	-10.9719
▁alex	-10.9724
▁scu	-10.9728
▁sentiva	-10.973
▁0	-10.973
▁conta	-10.9734
▁chiari	-10.974
▁ireland	-10.974
did	-10.9742
rato	-10.9744
▁circolazione	-10.9744
▁volete	-10.9746
ave	-10.9747
len	-10.9748
isti	-10.975
zzare	-10.9755
▁cava	-10.9756
▁cambiare	-10.9762
▁tele	-10.9762
▁2015	-10.9765
anni	-10.9767
▁strike	-10.9769
22	-10.9771
▁terreno	-10.9771
▁dozen	-10.9778
▁1980	-10.9779
▁veri	-10.9779
▁greatest	-10.9781
▁bedroom	-10.9786
▁donald	-10.9787
▁chap	-10.9788
▁indians	-10.9789
whispered	-10.9792
▁conflitto	-10.9792
▁policy	-10.9792
▁interessante	-10.9793
ben	-10.9794
▁events	-10.9799
▁magnet	-10.9801
▁forgotten	-10.9801
▁nuovamente	-10.9804
▁provincia	-10.9804
▁mila	-10.9804
▁dev	-10.9807
▁vivo	-10.981
▁enter	-10.981
ene	-10.9811
▁carico	-10.9811
▁1993	-10.9815
▁strade	-10.9816
▁danni	-10.9817
▁cer	-10.9819
▁smiling	-10.9819
▁lisa	-10.9819
▁indispensabile	-10.9819
▁hmm	-10.982
▁rapidamente	-10.982
eva	-10.9821
▁decidere	-10.9824
▁capito	-10.9826
▁yu	-10.9826
▁sweetie	-10.9827
dad	-10.9827
▁secoli	-10.9828
▁farà	-10.9831
▁online	-10.9831
▁loves	-10.9833
▁cop	-10.9833
▁surely	-10.9834
▁section	-10.9835
▁foreign	-10.984
▁code	-10.9841
▁complesso	-10.9846
▁ordina	-10.9848
▁mentioned	-10.985
▁competition	-10.985
▁consigli	-10.9851
▁rode	-10.9855
▁studied	-10.9855
▁auguro	-10.9859
ung	-10.9863
ure	-10.9867
▁hearing	-10.9868
▁cittadino	-10.9868
▁storico	-10.9869
▁zero	-10.9877
▁riforme	-10.9877
▁gesù	-10.9881
▁var	-10.9882
▁sch	-10.9882
▁sandwich	-10.9883
▁stream	-10.9884
▁&-	-10.9887
nta	-10.9891
▁medico	-10.9892
ized	-10.9897
▁conserva	-10.9898
rate	-10.9901
▁knowledge	-10.9904
▁knowing	-10.991
▁noble	-10.9911
▁credit	-10.9911
▁sports	-10.9913
▁avvicina	-10.9915
▁accade	-10.9916
izzazione	-10.9917
▁zi	-10.9919
▁vai	-10.9924
▁turkey	-10.9927
pet	-10.9927
otto	-10.9933
mme	-10.9936
▁dimensione	-10.9942
attenzione	-10.9942
eh	-10.9945
▁wo	-10.995
ndola	-10.995
law	-10.995
▁gift	-10.9954
”,	-10.9955
▁sento	-10.9958
▁eppure	-10.9958
▁wheels	-10.9958
erò	-10.996
▁congress	-10.9961
ade	-10.9962
▁planet	-10.9964
▁dipende	-10.9967
▁narrow	-10.9968
▁genova	-10.997
▁aumentare	-10.9976
▁empire	-10.9977
see	-10.9978
nk	-10.9979
▁2022	-10.9982
▁(;	-10.9983
▁artist	-10.9983
▁kim	-10.9986
▁rub	-10.9986
▁clearly	-10.9989
▁ampio	-10.9996
via	-10.9996
▁assistenza	-10.9996
▁ted	-10.9999
▁wedding	-10.9999
▁dichiarazioni	-11.0001
▁scuole	-11.0004
▁guardia	-11.0009
▁quarto	-11.001
▁progresso	-11.0017
han	-11.0019
shakes	-11.0025
lie	-11.0029
▁punch	-11.003
▁conclusioni	-11.0031
▁aria	-11.0032
▁bucket	-11.0036
▁sogno	-11.0039
▁arti	-11.0039
▁stabilire	-11.004
▁anxious	-11.004
ach	-11.0042
▁bas	-11.0051
▁uscire	-11.0053
▁spetta	-11.0056
▁cammino	-11.006
▁pipe	-11.0068
▁loss	-11.0068
▁wet	-11.0069
▁desire	-11.0069
▁estate	-11.0087
ada	-11.009
▁novità	-11.0093
▁mention	-11.0094
▁value	-11.0094
▁vecchi	-11.0095
▁temple	-11.0097
▁apparently	-11.0102
▁quack	-11.0106
▁vino	-11.0111
ec	-11.0112
ker	-11.0113
▁persino	-11.0116
▁commerciale	-11.0118
▁settimane	-11.0118
▁manifesta	-11.012
▁manage	-11.0122
▁chicago	-11.0123
21	-11.0124
poli	-11.0124
▁pushed	-11.0128
mine	-11.0133
▁bringing	-11.0133
▁pagare	-11.0136
▁ponte	-11.0136
▁ricorso	-11.0136
▁poli	-11.0137
▁sorta	-11.0137
▁messi	-11.014
▁paio	-11.014
▁enorme	-11.0142
▁baseball	-11.0143
▁trial	-11.0144
▁equal	-11.0145
▁fia	-11.0147
tum	-11.015
▁settled	-11.015
▁facilmente	-11.015
▁downstairs	-11.0152
▁somme	-11.0158
▁piu	-11.0158
▁pane	-11.016
▁arrest	-11.0162
▁soldier	-11.0168
▁directly	-11.0173
▁precedenti	-11.0174
▁condanna	-11.0174
▁visione	-11.0175
▁immediatamente	-11.0179
▁tha	-11.018
▁sente	-11.018
▁quindici	-11.0182
▁diana	-11.0182
book	-11.0182
▁partenza	-11.0182
▁tecnologia	-11.0183
▁nest	-11.019
dem	-11.019
▁serio	-11.019
▁responsabili	-11.0196
▁verifica	-11.0196
opinione	-11.0199
▁suggested	-11.02
▁medal	-11.02
▁thin	-11.02
▁raise	-11.0204
▁rafforzare	-11.0205
▁shook	-11.0207
▁zealand	-11.0211
▁leans	-11.0216
▁nap	-11.0219
▁attiva	-11.0224
mate	-11.0229
morrow	-11.0234
▁valle	-11.0237
▁eleanor	-11.0238
▁5,	-11.0239
▁rim	-11.0246
▁comprende	-11.0247
▁carriage	-11.0248
▁spesa	-11.025
cho	-11.0256
▁forced	-11.0261
▁comfortable	-11.0262
▁acting	-11.0264
▁recording	-11.0268
▁poeta	-11.0268
▁2012	-11.0268
▁favor	-11.0271
▁lega	-11.0278
▁hal	-11.0281
▁peggy	-11.0281
26	-11.0284
sighs	-11.0284
▁butterfly	-11.0285
80	-11.0285
▁labour	-11.0285
⌋	-11.0287
bb	-11.0289
xi	-11.0289
reaches	-11.0292
▁passing	-11.0293
▁bug	-11.0293
▁monti	-11.0293
▁correct	-11.0295
▁dolls	-11.0298
▁groups	-11.0301
▁pitcher	-11.0301
▁ue	-11.0303
▁traffic	-11.0305
rse	-11.0305
pie	-11.0315
▁votare	-11.0316
▁appear	-11.0316
▁percorso	-11.0318
▁explained	-11.0321
▁torre	-11.0327
▁leaf	-11.0331
▁disponibili	-11.0331
war	-11.0337
mhm	-11.0341
▁1991	-11.0342
▁uniform	-11.0349
▁score	-11.0351
▁attuazione	-11.0352
▁conferma	-11.0354
▁www	-11.0355
▁offre	-11.0355
▁hanging	-11.0357
▁marcia	-11.0358
▁petto	-11.036
▁ricevere	-11.0363
▁insomma	-11.037
▁/	-11.0371
▁dawn	-11.0372
▁maid	-11.0374
▁highest	-11.0375
▁finanziaria	-11.0379
▁tavola	-11.0379
▁merci	-11.038
▁apartment	-11.0382
▁pointing	-11.0389
▁hung	-11.039
elli	-11.039
▁studenti	-11.0398
▁ambientali	-11.0398
▁cosí	-11.0401
▁applicare	-11.0403
▁messaggio	-11.0408
gai	-11.0409
▁grosso	-11.041
amento	-11.041
▁realize	-11.041
▁funzionamento	-11.0418
▁bunch	-11.0419
▁debut	-11.042
pped	-11.042
▁wand	-11.042
unica	-11.042
▁duke	-11.0421
▁treasure	-11.0425
▁possibili	-11.0425
put	-11.0433
▁forever	-11.0441
▁compagni	-11.0442
▁ken	-11.0444
▁ku	-11.0444
▁expression	-11.0451
▁waited	-11.0451
ius	-11.0455
gro	-11.0455
▁alza	-11.0458
▁notizia	-11.046
▁clever	-11.046
▁joke	-11.0462
▁passaggio	-11.0463
tene	-11.0466
▁oliver	-11.0466
▁esistenti	-11.0469
▁mile	-11.0473
▁rifiuti	-11.0474
▁contiene	-11.0474
▁frightened	-11.0476
▁grandpa	-11.0478
mila	-11.0479
▁somewhat	-11.048
▁elizabeth	-11.0484
▁fought	-11.0484
▁boots	-11.0485
will	-11.0486
▁coesione	-11.0488
▁particolari	-11.0491
▁boats	-11.0492
▁sentimento	-11.0492
▁momma	-11.0493
▁comb	-11.0494
nor	-11.0496
▁easier	-11.0508
▁gentle	-11.051
friend	-11.0517
▁remembered	-11.0519
▁costruire	-11.0519
▁garage	-11.0523
ä	-11.0525
tel	-11.0527
▁yard	-11.0527
▁roger	-11.0528
▁edward	-11.0533
▁fiume	-11.0537
gg	-11.0538
nzia	-11.0541
▁arthur	-11.0541
▁spo	-11.0542
▁available	-11.0546
▁whoops	-11.0548
▁voci	-11.0549
▁fairly	-11.0555
▁dignità	-11.0556
▁costume	-11.0556
▁ladder	-11.056
▁wondering	-11.0561
▁weekend	-11.0562
▁sail	-11.0564
cher	-11.0566
▁sm	-11.0567
▁penny	-11.0568
▁colori	-11.0568
▁hills	-11.057
▁harm	-11.0573
▁consentire	-11.0577
24	-11.0579
sione	-11.058
▁hug	-11.0581
▁sti	-11.0582
▁chiunque	-11.0584
▁ob	-11.0586
▁memory	-11.0589
rda	-11.0591
▁cloud	-11.0591
▁2011	-11.0592
mpa	-11.0594
▁riconosce	-11.0596
▁attempt	-11.0602
▁matches	-11.0606
sc	-11.0607
▁agricola	-11.0609
▁spider	-11.0612
rus	-11.0614
▁willing	-11.0614
▁hero	-11.0616
▁boston	-11.0619
▁assemblea	-11.0619
▁inizio	-11.062
▁cas	-11.0623
▁rap	-11.0624
▁tax	-11.0628
▁specifica	-11.0631
▁wings	-11.0631
▁ricordato	-11.0632
▁snap	-11.0635
▁toast	-11.0642
▁toscana	-11.0643
▁genitori	-11.0643
▁grecia	-11.0644
▁virginia	-11.0651
▁kinds	-11.0658
rico	-11.0663
▁prossimi	-11.0667
▁perch	-11.0669
▁attuali	-11.0672
▁reported	-11.0673
▁disoccupazione	-11.0675
▁independent	-11.0676
▁magazine	-11.0679
▁fer	-11.0679
ndomi	-11.0679
▁companion	-11.0679
udi	-11.0681
▁ray	-11.0683
▁sanità	-11.0684
▁civili	-11.0686
▁freedom	-11.0687
▁ritorna	-11.0688
▁finanziarie	-11.0689
▁beh	-11.069
▁compiere	-11.0691
town	-11.0693
▁bassi	-11.0694
▁objects	-11.0695
▁separate	-11.0696
▁permesso	-11.0701
▁incontra	-11.0704
▁sang	-11.0705
▁ix	-11.0706
▁sanno	-11.0707
▁worst	-11.0711
▁troops	-11.0711
▁pezzo	-11.0713
▁deriva	-11.0713
▁economia	-11.0713
▁comedy	-11.0714
▁familiar	-11.0714
▁tecnologie	-11.0716
▁stile	-11.0721
▁diaper	-11.0721
▁prete	-11.0722
▁proper	-11.0723
▁doors	-11.0725
▁affermare	-11.0728
▁albert	-11.0734
▁mali	-11.0738
▁areas	-11.0739
▁rivela	-11.0744
▁knees	-11.0748
▁pagina	-11.075
▁alexander	-11.075
▁canadian	-11.0755
▁sentence	-11.0763
▁railway	-11.0765
▁rom	-11.0765
▁bother	-11.0767
▁yummy	-11.077
▁200	-11.0771
▁jan	-11.0774
▁fired	-11.0778
▁distributed	-11.078
▁pad	-11.078
▁powerful	-11.0784
▁conquista	-11.0786
▁dov	-11.0786
▁receive	-11.0787
▁peraltro	-11.0787
▁steve	-11.0788
▁included	-11.0788
▁democratico	-11.0789
▁jar	-11.0789
▁belong	-11.079
▁bon	-11.079
▁tosto	-11.0793
▁helping	-11.0793
▁seventy	-11.0794
▁eventi	-11.0797
ena	-11.08
▁successful	-11.08
ara	-11.0813
cle	-11.0817
▁pillow	-11.0819
▁splendid	-11.0821
▁lift	-11.0823
▁pile	-11.0823
del	-11.083
sie	-11.083
▁diciamo	-11.083
cent	-11.0832
ice	-11.0833
▁sforza	-11.0833
▁potevano	-11.0835
▁shower	-11.0835
rge	-11.0838
▁fraser	-11.0839
▁moto	-11.0842
▁immagini	-11.0843
▁1970	-11.0844
board	-11.0845
▁ferro	-11.0848
nzi	-11.085
▁facoltà	-11.0853
▁seguenti	-11.0855
ible	-11.0858
▁produttori	-11.0858
▁triste	-11.0859
▁asilo	-11.0859
opera	-11.0861
▁greek	-11.0864
mina	-11.0866
▁peanut	-11.0868
▁target	-11.087
▁direct	-11.0872
▁jerry	-11.0873
▁6,	-11.0875
▁walter	-11.0876
▁pee	-11.088
▁zo	-11.0885
▁totally	-11.0887
▁latter	-11.0887
▁poet	-11.089
mann	-11.0891
_,	-11.0894
▁giustamente	-11.0896
ev	-11.0897
▁honour	-11.0898
▁ottenuto	-11.0903
▁andiamo	-11.0904
▁influence	-11.0905
▁nancy	-11.0909
▁bianca	-11.0913
▁strutture	-11.0913
▁icecream	-11.0913
▁tende	-11.0914
▁desert	-11.0914
▁contempo	-11.0917
▁soviet	-11.0918
▁medesima	-11.0923
get	-11.0924
liberalizzazione	-11.0925
▁balls	-11.0929
▁individual	-11.093
vasi	-11.0932
net	-11.0932
▁rimanere	-11.0933
▁zu	-11.0934
▁darkness	-11.0936
▁branch	-11.0937
▁pressure	-11.0938
zzazione	-11.0938
▁tough	-11.0942
▁rug	-11.0942
▁notizie	-11.0943
▁scientists	-11.0949
▁feels	-11.0953
▁guerre	-11.0953
iscono	-11.0955
erebbe	-11.0957
▁wished	-11.0959
▁ordini	-11.0959
▁effects	-11.0961
cra	-11.0962
▁preoccupazioni	-11.0964
▁romantic	-11.097
▁limite	-11.0972
▁pelle	-11.0974
nna	-11.0974
▁marie	-11.0976
▁asia	-11.0988
▁pronto	-11.0989
sque	-11.0989
▁ghost	-11.099
▁scan	-11.099
`	-11.0992
▁esteri	-11.0995
ence	-11.1005
▁clima	-11.1015
▁stima	-11.1015
▁vent	-11.1016
▁abita	-11.1016
▁specialmente	-11.1017
▁vostre	-11.1018
▁awake	-11.1021
▁bishop	-11.1023
18	-11.1023
▁signed	-11.1024
▁ste	-11.1024
▁presence	-11.1024
▁jones	-11.1026
▁giuseppe	-11.1028
▁rear	-11.1033
▁tan	-11.1033
▁dorothy	-11.1033
▁der	-11.1034
▁degree	-11.1037
und	-11.1038
▁scambio	-11.104
▁1989	-11.1044
▁active	-11.1046
▁wave	-11.1047
▁singoli	-11.1049
▁riso	-11.1053
▁ter	-11.1054
▁drove	-11.1054
tate	-11.1055
▁shadow	-11.1056
▁tenta	-11.1058
▁plants	-11.106
vir	-11.106
ensi	-11.1062
▁woo	-11.1063
▁2019,	-11.1067
▁turismo	-11.1069
▁posizioni	-11.1069
▁rica	-11.1069
▁friendly	-11.107
nata	-11.1071
gua	-11.1079
rata	-11.1081
tevi	-11.1081
▁rumore	-11.1084
nge	-11.1084
▁newspaper	-11.1088
▁islands	-11.1088
▁minimo	-11.1089
-0	-11.109
▁medici	-11.1093
▁drawn	-11.1093
mmer	-11.1094
gin	-11.1094
▁suggest	-11.1095
ffe	-11.1099
▁effort	-11.1103
▁pei	-11.1108
stone	-11.1108
▁finito	-11.1112
▁concerned	-11.1115
æ	-11.1118
samente	-11.1119
▁aggiunge	-11.112
▁firma	-11.1121
▁content	-11.1125
▁assicura	-11.1126
▁shoulders	-11.1126
▁adottato	-11.1127
▁aula	-11.1129
▁dunno	-11.1129
voli	-11.1131
▁goal	-11.1131
▁giuridico	-11.1135
tato	-11.1136
▁7,	-11.1139
▁tin	-11.1139
▁profondo	-11.1145
▁fifth	-11.1146
ppe	-11.1146
▁funzioni	-11.1149
▁dovesse	-11.1149
▁understood	-11.115
▁covid	-11.115
▁address	-11.1154
▁reso	-11.1156
▁significato	-11.1158
fri	-11.1161
ché	-11.1161
risate	-11.1162
▁interview	-11.1162
lf	-11.1163
▁advance	-11.1163
▁offrire	-11.1164
▁throws	-11.1166
▁pose	-11.1169
▁tank	-11.1172
▁upset	-11.1175
▁situazioni	-11.1175
yo	-11.1178
▁1997	-11.1181
▁stops	-11.1182
▁beep	-11.1183
▁dying	-11.1184
▁stai	-11.1185
▁scusa	-11.1188
45	-11.1189
▁percent	-11.1194
▁onore	-11.1195
▁figures	-11.1197
chuckles	-11.12
toys	-11.1203
▁players	-11.1203
▁shame	-11.1206
▁library	-11.1206
▁labbra	-11.1206
occasione	-11.121
▁aree	-11.121
▁knight	-11.1213
▁agita	-11.1213
▁annie	-11.1216
▁amazing	-11.1217
▁production	-11.1217
▁status	-11.1224
▁minor	-11.1225
▁cities	-11.1225
▁gri	-11.1232
▁knocked	-11.1234
bel	-11.1237
▁previous	-11.1238
▁primavera	-11.1238
▁jacket	-11.124
wn	-11.1241
▁sviluppare	-11.1243
▁carte	-11.1248
▁mangiare	-11.1248
0,000	-11.125
▁handsome	-11.1252
▁pac	-11.1252
28	-11.126
▁tickle	-11.1261
nga	-11.1263
intera	-11.1265
▁domina	-11.1266
▁veduto	-11.1268
▁influenza	-11.1271
▁cards	-11.1272
▁craft	-11.1272
ampliamento	-11.1272
june	-11.1275
▁delight	-11.1278
▁etc	-11.1279
▁student	-11.1282
▁patient	-11.1286
▁killing	-11.1289
2.	-11.129
▁frontiere	-11.1291
dra	-11.1291
▁quante	-11.1293
long	-11.1293
▁cervello	-11.1294
▁vendita	-11.1295
▁larger	-11.13
▁recognize	-11.1302
▁intenzione	-11.1302
area	-11.1303
▁scegliere	-11.1309
▁chiarezza	-11.131
▁airport	-11.1311
rac	-11.1313
cker	-11.1318
▁notevole	-11.1319
arte	-11.1323
▁republican	-11.1325
ical	-11.1327
▁vessel	-11.1327
tui	-11.1329
▁fellows	-11.133
▁metodi	-11.1334
▁families	-11.1335
▁rush	-11.1338
▁fabbrica	-11.134
▁segreto	-11.1346
▁byebye	-11.1346
▁luna	-11.135
dan	-11.1352
▁estera	-11.1354
▁teams	-11.1357
pra	-11.1359
▁queer	-11.136
▁smooth	-11.1361
▁animo	-11.1365
▁pul	-11.1367
▁35	-11.1368
aula	-11.1372
▁1988	-11.1372
▁comprendere	-11.1373
▁property	-11.1373
▁exp	-11.1378
▁discussioni	-11.138
▁errori	-11.1381
▁pietra	-11.1384
ama	-11.1384
▁doo	-11.1389
esi	-11.1394
▁bio	-11.1395
american	-11.1396
▁quo	-11.1397
▁gon	-11.1398
▁versione	-11.1401
ris	-11.1402
▁sorriso	-11.1403
aun	-11.1407
▁stri	-11.1407
star	-11.1408
▁mori	-11.141
mor	-11.1412
phone	-11.1412
oo	-11.1413
▁scarpe	-11.1416
▁ji	-11.1416
▁failed	-11.1421
▁tecnica	-11.1422
▁seguita	-11.1423
▁avviene	-11.1424
tar	-11.1425
▁facevano	-11.1426
▁nn	-11.1427
▁deer	-11.1427
▁ascolta	-11.1428
▁ministero	-11.1432
▁dishes	-11.1433
▁neanche	-11.1436
▁serra	-11.144
▁¶	-11.144
▁verranno	-11.1441
▁agosto	-11.1442
adesione	-11.1443
▁seriously	-11.1444
▁owned	-11.1446
▁disegno	-11.145
▁crack	-11.1451
▁sottolinea	-11.1451
▁ron	-11.1452
▁pio	-11.1452
▁ria	-11.1454
▁pensieri	-11.1461
▁aiutare	-11.1463
▁shooting	-11.1463
▁soap	-11.1464
▁2008	-11.1467
▁balloon	-11.1467
▁grandmother	-11.1468
▁route	-11.147
▁bonnet	-11.1472
abili	-11.1474
▁tecniche	-11.1477
▁divieto	-11.1477
▁giunto	-11.1477
▁[$	-11.1479
ches	-11.148
▁presta	-11.148
rn	-11.1484
▁sally	-11.1487
▁nutri	-11.1489
▁grey	-11.1489
▁90	-11.1489
▁interna	-11.149
▁angeles	-11.149
▁unknown	-11.149
attuazione	-11.1492
▁prevenzione	-11.1493
▁wagon	-11.1494
▁perde	-11.1494
trici	-11.1497
accesso	-11.1497
▁dee	-11.1497
▁pratiche	-11.1499
35	-11.1499
▁voices	-11.1503
▁1960	-11.1503
▁precisa	-11.1504
27	-11.1506
▁birth	-11.1506
may	-11.1509
▁picking	-11.1509
lina	-11.1511
▁victory	-11.1511
▁vicini	-11.1515
▁cape	-11.1519
▁circostanze	-11.1519
▁termina	-11.152
▁lieto	-11.1521
▁chest	-11.1522
▁irish	-11.1522
▁stir	-11.1523
▁horn	-11.1525
▁somethin	-11.1525
▁missione	-11.153
▁comunitarie	-11.1531
▁related	-11.1531
▁developed	-11.1534
▁refer	-11.1534
▁prego	-11.1535
▁nasce	-11.1537
▁screw	-11.1537
▁aprire	-11.1538
▁andato	-11.1542
▁croce	-11.1544
▁israele	-11.1544
▁bid	-11.1545
▁arab	-11.1547
▁robin	-11.1548
▁pushes	-11.155
▁curious	-11.1552
▁oriente	-11.1556
▁wales	-11.1559
▁mix	-11.1559
▁painting	-11.1562
▁trail	-11.1564
▁osserva	-11.1566
▁chiediamo	-11.1567
istruzione	-11.1571
▁biggest	-11.1572
av	-11.1573
▁dominio	-11.1575
▁magari	-11.1576
gui	-11.1577
▁alcuno	-11.1578
▁instant	-11.1579
▁bitch	-11.158
ward	-11.1584
05	-11.1585
▁soggetti	-11.1588
▁alternative	-11.1588
▁contatto	-11.1591
▁jail	-11.1591
▁lad	-11.1594
▁debbano	-11.1598
▁concrete	-11.1599
▁ufficiale	-11.1599
bat	-11.16
pot	-11.1601
▁fred	-11.1602
▁avessero	-11.1603
sings	-11.1604
ez	-11.1604
▁cala	-11.1604
▁matters	-11.1605
▁stranger	-11.1609
▁disappeared	-11.1609
▁raccolta	-11.1609
▁mexico	-11.1609
▁sum	-11.1611
whispers	-11.1612
shed	-11.1613
▁throughout	-11.1615
▁agent	-11.1615
▁cooking	-11.1615
▁beads	-11.1618
▁container	-11.1619
▁feelings	-11.1619
▁blu	-11.162
▁naturali	-11.162
▁malattia	-11.162
rina	-11.1621
▁material	-11.1622
▁advantage	-11.1625
▁adesione	-11.1626
▁languages	-11.1628
nder	-11.1628
▁contenuti	-11.1631
app	-11.1632
▁pia	-11.1633
▁express	-11.1633
▁presentazione	-11.1634
ction	-11.1634
▁profonda	-11.1639
zz	-11.164
▁confini	-11.1641
▁equilibrio	-11.1648
▁aid	-11.1652
▁prospettiva	-11.1652
▁somehow	-11.1653
▁numerose	-11.1658
▁svolgerà	-11.1659
zu	-11.1659
▁alarm	-11.1661
▁folk	-11.1666
▁cure	-11.1666
▁bravo	-11.167
▁adopera	-11.167
▁universale	-11.1671
▁fully	-11.1672
⌉	-11.1679
your	-11.168
▁ned	-11.1682
▁interni	-11.1682
▁impresa	-11.1682
▁wooden	-11.1684
▁wipe	-11.1689
▁apri	-11.1689
▁uguale	-11.169
▁chase	-11.1691
▁esprime	-11.1693
▁preoccupa	-11.1694
▁sorte	-11.1695
▁legno	-11.1696
▁copy	-11.1698
▁direttive	-11.1705
▁requisiti	-11.1706
ered	-11.1706
▁minori	-11.1707
▁belt	-11.1712
▁tribunale	-11.1714
▁rappresentano	-11.1715
▁bud	-11.1716
▁madam	-11.172
▁cina	-11.172
▁jenny	-11.1724
▁spe	-11.1726
▁disc	-11.1727
▁piani	-11.1727
uro	-11.1732
zer	-11.1734
▁colui	-11.1735
uni	-11.1735
bilmente	-11.1737
eu	-11.174
▁thrown	-11.174
▁penale	-11.1744
▁gara	-11.1745
▁maggiormente	-11.1748
▁grab	-11.1755
rdi	-11.1756
▁testi	-11.1756
▁established	-11.1758
▁assembly	-11.176
▁modifiche	-11.176
▁gira	-11.1761
▁potato	-11.1762
▁trovo	-11.1763
▁nut	-11.1763
▁grida	-11.1767
far	-11.1768
▁cibo	-11.1768
▁rimase	-11.1769
▁claim	-11.177
▁scarcely	-11.1772
ram	-11.1773
▁exercise	-11.1776
rica	-11.178
▁professionale	-11.1781
allargamento	-11.1781
▁tentativo	-11.1788
▁cra	-11.1793
▁gro	-11.1795
▁switch	-11.1796
▁lies	-11.1796
fici	-11.18
▁democratica	-11.18
01	-11.1801
▁prega	-11.1804
▁solid	-11.1806
▁perfettamente	-11.181
▁cinema	-11.1811
▁wore	-11.1813
impegno	-11.1814
▁2006	-11.1815
sche	-11.1817
▁ragazza	-11.182
▁mobile	-11.182
ua	-11.182
▁touched	-11.1822
vocalization	-11.1825
▁vantaggi	-11.1827
was	-11.1827
▁emerge	-11.1831
▁fonte	-11.1835
▁[6	-11.1836
▁introdurre	-11.184
▁frogs	-11.1841
▁demand	-11.1842
▁poesia	-11.1842
fully	-11.1847
interesse	-11.1847
▁ultime	-11.1848
▁sonno	-11.1848
▁whenever	-11.1849
sure	-11.1851
▁damage	-11.1852
run	-11.1853
▁considera	-11.1853
auto	-11.1853
▁metri	-11.1854
▁determined	-11.1854
▁promozione	-11.1854
▁alquanto	-11.1858
▁companies	-11.1858
▁faster	-11.1862
▁utterances	-11.1862
▁fiscale	-11.1864
lato	-11.1867
tting	-11.1867
ude	-11.1869
▁map	-11.187
▁interessati	-11.1871
▁hun	-11.1871
▁sali	-11.1872
▁fonda	-11.1874
▁operazioni	-11.1875
▁sanzioni	-11.1875
▁agricoltori	-11.188
ppa	-11.1884
tano	-11.1885
▁buddy	-11.1886
▁slave	-11.1887
▁voti	-11.1891
▁oggetti	-11.1891
▁currently	-11.1893
rro	-11.1893
▁lingue	-11.1897
▁becoming	-11.1897
▁attesa	-11.1899
mad	-11.1902
ā	-11.1902
▁attorno	-11.1902
▁sp	-11.1903
▁momenti	-11.1906
▁lois	-11.1907
▁pressione	-11.1908
▁julia	-11.1911
▁fl	-11.1912
▁terribile	-11.1913
▁sweden	-11.1914
ther	-11.1918
▁border	-11.1922
▁pony	-11.1923
▁americani	-11.1923
▁forgive	-11.1924
▁ruth	-11.1929
▁malgrado	-11.193
▁mount	-11.1931
▁finire	-11.1932
▁vieni	-11.1933
▁locked	-11.1933
tina	-11.1936
▁chain	-11.1936
down	-11.1939
▁mini	-11.1941
▁rimasto	-11.1947
▁vedete	-11.1949
▁faint	-11.1952
▁hidden	-11.1952
▁10,	-11.1953
▁saputo	-11.1958
▁senior	-11.1958
▁monta	-11.1962
▁felici	-11.1962
▁chamber	-11.1963
▁waste	-11.1964
▁soddisfazione	-11.1964
▁access	-11.1965
▁segue	-11.1966
▁condurre	-11.1967
▁lancia	-11.197
▁bone	-11.1971
▁keeps	-11.1972
▁remarked	-11.1973
nsi	-11.1978
▁slept	-11.198
▁tunnel	-11.1985
lar	-11.1986
▁bodies	-11.1986
▁banana	-11.1987
cro	-11.1989
▁malattie	-11.1991
▁potremmo	-11.1991
▁authority	-11.1991
▁cesare	-11.1995
esperienza	-11.1996
ski	-11.1996
▁bark	-11.1997
▁funziona	-11.2001
▁zorg	-11.2003
▁repeated	-11.2004
▁appello	-11.2005
▁materiali	-11.2012
▁jackson	-11.2012
▁prof	-11.2014
▁principal	-11.2017
▁catholic	-11.2018
▁mari	-11.2024
▁pensi	-11.2027
▁stack	-11.2027
▁issue	-11.2028
▁sy	-11.2029
▁appointed	-11.2037
▁pol	-11.2038
▁dust	-11.204
▁pointed	-11.2043
▁poo	-11.2044
▁riuni	-11.2044
▁drug	-11.2045
nese	-11.2047
▁impedire	-11.2048
▁entirely	-11.2053
▁personali	-11.2053
▁florence	-11.2058
▁idiot	-11.2058
▁difendere	-11.206
▁appare	-11.2061
▁sottolineato	-11.2063
▁ricordi	-11.2063
rsene	-11.2072
▁leone	-11.2075
▁evidently	-11.2077
▁mobili	-11.2079
29	-11.2082
▁shopping	-11.2086
▁considerato	-11.2086
▁operation	-11.2087
▁boxes	-11.2088
▁severe	-11.2089
▁mixed	-11.2089
▁decreto	-11.2091
▁cereal	-11.2092
▁dodici	-11.2095
▁✿	-11.2097
▁adventure	-11.2098
▁wire	-11.2098
▁sostanza	-11.21
▁sembrava	-11.21
▁regionali	-11.21
▁schools	-11.2101
applausi	-11.2102
▁ph	-11.2105
▁riserva	-11.2105
▁presentati	-11.2107
▁musical	-11.2107
▁structure	-11.2109
▁aside	-11.211
▁specifico	-11.211
▁invito	-11.2112
▁provoca	-11.2115
▁aff	-11.2116
▁ban	-11.2121
▁fermo	-11.2122
stica	-11.2122
▁dimentica	-11.2125
▁planning	-11.2126
▁theory	-11.2126
▁sabato	-11.2127
▁comma	-11.2128
▁unità	-11.2129
▁espressione	-11.213
▁bruxelles	-11.213
ily	-11.2132
▁dimostrare	-11.2132
▁gil	-11.2133
▁clo	-11.2134
▁grant	-11.2135
ize	-11.2136
▁8,	-11.2137
▁rag	-11.2138
dic	-11.2139
ified	-11.214
▁learning	-11.214
▁pulling	-11.2142
▁rovina	-11.2146
ks	-11.2146
▁gathered	-11.2153
▁elephants	-11.2153
▁witch	-11.2154
▁xi	-11.2157
>	-11.2159
▁freddo	-11.2166
▁esperti	-11.217
pol	-11.2172
▁matrimonio	-11.2173
▁vedeva	-11.2174
▁lit	-11.2175
▁governa	-11.2175
▁abitanti	-11.2177
09	-11.2178
▁consente	-11.218
▁quantunque	-11.2187
▁valutare	-11.2187
▁wondered	-11.2188
▁counter	-11.2188
▁admit	-11.2193
▁disponibilità	-11.2193
▁chop	-11.2197
▁organization	-11.2198
▁prevent	-11.2199
▁00	-11.2201
▁70	-11.2206
▁ceased	-11.2208
▁isola	-11.2215
▁woof	-11.2215
▁dava	-11.2217
▁presi	-11.2217
▁slightly	-11.2219
▁gordon	-11.2221
▁pagine	-11.2221
▁split	-11.2222
▁80	-11.2226
ped	-11.2231
▁durata	-11.2232
▁fenomeno	-11.2232
▁prodi	-11.2234
▁hunting	-11.2235
bilità	-11.2236
▁folks	-11.2237
▁ideas	-11.2238
▁noto	-11.2245
▁slip	-11.225
▁angel	-11.2252
▁quote	-11.2252
▁riesce	-11.2255
▁acquista	-11.2261
▁privati	-11.2262
thank	-11.2266
▁tradizione	-11.2266
▁mont	-11.2267
▁doggy	-11.227
▁toglie	-11.2271
▁affairs	-11.2275
▁associazione	-11.2276
stro	-11.2276
enze	-11.2278
▁preparazione	-11.228
▁screen	-11.2281
▁rec	-11.2283
▁challenge	-11.2284
▁site	-11.2286
▁prisoners	-11.2287
▁parità	-11.2288
▁rare	-11.2289
▁romana	-11.229
ik	-11.2291
▁provide	-11.2292
▁semplici	-11.2294
▁alessandro	-11.2297
▁proved	-11.2299
▁plot	-11.2302
rino	-11.2305
din	-11.2306
▁fianco	-11.2307
▁ufficio	-11.2311
▁tied	-11.2311
▁missouri	-11.2312
▁realized	-11.2312
▁wounded	-11.2314
▁fishing	-11.2314
▁text	-11.2316
mbi	-11.2323
▁luci	-11.2323
▁vescovo	-11.2324
▁throwing	-11.2326
▁courage	-11.2329
▁cats	-11.2336
▁chiude	-11.2336
▁ut	-11.2337
▁dec	-11.2337
/02	-11.2338
sum	-11.2339
▁esercito	-11.234
▁giacomo	-11.2341
▁volevo	-11.2342
▁dem	-11.2342
▁originally	-11.2345
96	-11.2346
▁producer	-11.2349
án	-11.235
▁consumatore	-11.2353
vent	-11.2356
99	-11.2357
▁paying	-11.236
▁grandfather	-11.236
▁sticks	-11.2363
fra	-11.2364
ray	-11.2368
▁pit	-11.2369
▁opinioni	-11.2369
▁creek	-11.237
door	-11.2371
▁waves	-11.2372
new	-11.2374
▁eighteen	-11.2376
pp	-11.2376
▁stepped	-11.2376
▁clouds	-11.2376
bil	-11.2377
▁dimenticare	-11.2378
nci	-11.2379
▁contratto	-11.2379
▁vada	-11.238
▁potente	-11.2381
ann	-11.2381
▁tecnico	-11.2382
▁jimmy	-11.2383
▁tasso	-11.2383
▁finestra	-11.2384
cer	-11.2384
▁tenendo	-11.2388
▁rientra	-11.2388
î	-11.2391
▁32	-11.2393
▁holes	-11.2393
▁bomb	-11.2396
▁mcdonalds	-11.2396
▁rob	-11.2397
places	-11.2399
▁lisbona	-11.24
▁uses	-11.2402
▁possession	-11.2402
▁fleet	-11.2403
▁wee	-11.2407
▁tipi	-11.2408
▁allen	-11.2408
▁junior	-11.241
▁majesty	-11.2416
▁cowboy	-11.2416
▁invita	-11.2419
▁senate	-11.242
▁knee	-11.242
▁burning	-11.2422
▁rolling	-11.2423
▁miglior	-11.2424
ucci	-11.2429
▁mud	-11.2429
nio	-11.2431
▁[7	-11.2434
pon	-11.2435
lon	-11.2437
▁pontefice	-11.2439
ology	-11.2442
▁teneva	-11.2444
▁bent	-11.2445
0.000	-11.2445
▁excitement	-11.2451
▁matthew	-11.2452
▁fourteen	-11.2457
▁trunk	-11.246
▁giornali	-11.2463
03	-11.2464
▁comunitari	-11.2464
▁shh	-11.2466
▁hasta	-11.2467
▁stomach	-11.2468
▁arrive	-11.2471
▁dimensioni	-11.2473
▁esseri	-11.2475
▁contest	-11.2477
▁9,	-11.2479
▁disco	-11.248
ido	-11.2482
▁mono	-11.2483
▁2005	-11.2483
▁coal	-11.2486
▁intendo	-11.2487
▁continuo	-11.249
▁trap	-11.249
introduzione	-11.2492
▁protocollo	-11.2498
▁destroyed	-11.25
▁categoria	-11.2505
▁pity	-11.2506
▁software	-11.2509
▁capace	-11.2509
▁advice	-11.251
▁gang	-11.2518
▁blame	-11.2519
▁dispone	-11.2523
▁tiene	-11.2524
▁sisters	-11.2524
▁load	-11.2525
▁breast	-11.2527
07	-11.2529
▁copia	-11.2529
about	-11.2534
▁anco	-11.2536
▁conduce	-11.2537
▁yards	-11.2538
sio	-11.254
▁average	-11.2544
▁personalmente	-11.2544
▁avoid	-11.2547
60	-11.2548
ima	-11.255
▁mighty	-11.2551
▁aware	-11.2552
▁observed	-11.2555
toria	-11.2555
▁listened	-11.256
▁cucina	-11.256
▁venuta	-11.2562
90	-11.2563
▁settlement	-11.2564
ons	-11.2566
▁increase	-11.2567
▁hunt	-11.2567
▁spettacolo	-11.2568
▁spada	-11.2573
esercizio	-11.2574
▁madame	-11.2576
▁risposte	-11.2579
▁pri	-11.2582
ans	-11.2585
▁lunghi	-11.2586
ivo	-11.2587
▁versi	-11.2589
▁habit	-11.2591
▁deputato	-11.2591
▁avremo	-11.2591
▁owner	-11.2595
▁alien	-11.2596
▁diretto	-11.2596
tezza	-11.2596
▁inutile	-11.2597
▁traccia	-11.2599
▁passage	-11.2602
▁priest	-11.2604
▁shock	-11.2604
▁umane	-11.2606
▁esempi	-11.2606
▁von	-11.2608
▁buried	-11.2609
dor	-11.2609
▁corsi	-11.2612
▁sylvia	-11.2615
▁mus	-11.2619
▁inc	-11.262
▁breaking	-11.262
place	-11.2621
▁congratularmi	-11.2621
▁»	-11.2625
▁religion	-11.2627
▁spare	-11.2629
unico	-11.2629
▁poteri	-11.263
pen	-11.2631
▁mise	-11.2631
▁steal	-11.2632
▁zio	-11.2637
▁uk	-11.2638
▁strip	-11.2638
▁margaret	-11.2638
▁timore	-11.2639
▁pianta	-11.264
▁compiti	-11.264
sion	-11.2641
▁ulteriore	-11.2643
▁alti	-11.2646
▁basi	-11.2647
▁pine	-11.2649
▁dissi	-11.265
▁argomenti	-11.265
▁fatica	-11.2652
▁transport	-11.2656
▁false	-11.2656
▁ufficiali	-11.2658
▁logica	-11.2658
▁asian	-11.266
▁suspect	-11.2661
▁pakistan	-11.2669
▁morgan	-11.267
▁divide	-11.267
▁$	-11.2671
▁quota	-11.2672
wing	-11.2672
cchia	-11.2673
▁giunta	-11.2674
▁sixteen	-11.2674
▁holiday	-11.2675
▁fc	-11.2677
lies	-11.2677
▁parco	-11.2678
▁tent	-11.2679
ay	-11.2681
▁45	-11.2682
▁cominciò	-11.2686
▁regard	-11.2688
▁winning	-11.2689
▁flash	-11.2693
▁ritrova	-11.2699
▁recently	-11.2701
cing	-11.2701
▁reali	-11.2704
▁removed	-11.2708
▁accompagna	-11.2709
▁speaks	-11.2712
▁steel	-11.2715
▁rustling	-11.2717
yn	-11.2718
▁afford	-11.2719
▁staying	-11.272
▁invited	-11.2725
▁tue	-11.2725
tine	-11.2726
▁quit	-11.273
▁segnale	-11.2731
▁landed	-11.2733
▁montagna	-11.274
▁accogliere	-11.2741
ub	-11.2748
36	-11.2749
▁rifle	-11.275
▁eccellente	-11.275
▁emperor	-11.2752
▁burst	-11.2752
▁minore	-11.2753
dale	-11.2754
say	-11.2755
▁lemme	-11.2755
▁management	-11.2758
▁slice	-11.276
▁sembrano	-11.2762
▁pitch	-11.2763
▁susan	-11.2767
▁lifted	-11.2774
▁scotland	-11.2776
▁possesso	-11.2777
▁andrew	-11.278
▁fila	-11.2787
▁marker	-11.2792
▁norma	-11.2793
enne	-11.2793
dono	-11.2794
▁popolazioni	-11.2794
▁approva	-11.2795
▁streets	-11.2798
▁ends	-11.2799
▁sospetto	-11.28
▁squeeze	-11.28
▁cri	-11.28
▁sur	-11.2802
▁prepara	-11.2804
▁bis	-11.2806
▁direttore	-11.2808
▁inde	-11.2811
▁lista	-11.2815
▁talks	-11.2816
▁concert	-11.2817
▁championships	-11.2817
▁results	-11.2822
▁rapidly	-11.2822
▁arma	-11.2822
eli	-11.2823
imp	-11.2823
▁altrove	-11.2826
asse	-11.2826
▁sentenza	-11.2826
▁statement	-11.2827
hai	-11.2828
▁avevamo	-11.2829
▁trovò	-11.283
ow	-11.2831
▁temperature	-11.2836
▁dovremo	-11.2836
bur	-11.2837
▁stove	-11.2837
▁intero	-11.2839
▁nomina	-11.284
▁cambia	-11.284
▁vergogna	-11.2842
▁legal	-11.2842
▁destinati	-11.2844
▁11,	-11.2851
▁roles	-11.2853
▁gain	-11.2857
▁occasion	-11.2859
▁caratteristiche	-11.286
▁delegazione	-11.2861
▁atteggiamento	-11.2864
▁destroy	-11.2864
▁cavaliere	-11.2866
▁reckon	-11.2866
▁terror	-11.2868
▁tru	-11.2869
▁differenze	-11.2872
▁potremo	-11.2873
▁americans	-11.2874
▁eliminated	-11.2875
amore	-11.2876
▁detective	-11.2878
▁delicious	-11.2878
ington	-11.2878
▁bastard	-11.2881
▁operatori	-11.2882
▁eaten	-11.2883
ologia	-11.2883
▁brevi	-11.289
▁2018,	-11.2891
▁dubbi	-11.2893
▁monetaria	-11.2894
atto	-11.2894
▁legato	-11.2895
▁egypt	-11.2895
▁programme	-11.2895
▁muove	-11.2895
▁odio	-11.2897
cur	-11.2898
▁fork	-11.2898
take	-11.2898
mbe	-11.2898
have	-11.2899
▁seek	-11.2899
▁setting	-11.2901
▁organi	-11.2902
▁tac	-11.2904
▁nearer	-11.2907
▁described	-11.2908
▁industry	-11.2909
▁emissioni	-11.2909
▁buzz	-11.2909
▁patsy	-11.2912
▁morta	-11.2917
▁tend	-11.2917
▁dichiarato	-11.2919
▁truly	-11.2919
ile	-11.2922
▁positivi	-11.2924
▁svolta	-11.2929
▁origin	-11.293
▁characters	-11.2933
▁swear	-11.2934
▁ostacoli	-11.2939
▁sink	-11.2942
▁smiles	-11.2943
ery	-11.2948
▁limita	-11.2949
cos	-11.295
ft	-11.2952
▁tap	-11.2953
▁progress	-11.2955
spa	-11.2956
▁esclamò	-11.2957
▁intergovernativ	-11.2957
▁articoli	-11.2957
▁orientamenti	-11.2958
▁carolina	-11.2958
iano	-11.2961
water	-11.2963
▁conference	-11.2964
▁permettere	-11.2969
▁tuesday	-11.297
▁cent	-11.297
▁mainly	-11.2971
▁champion	-11.2971
▁chairs	-11.2975
ight	-11.2976
▁trovava	-11.2978
▁selected	-11.298
▁illinois	-11.2982
▁cade	-11.2984
tru	-11.2988
▁entrance	-11.2989
▁stones	-11.2991
gre	-11.2992
sound	-11.2992
▁cercato	-11.2994
▁capisco	-11.2997
▁philip	-11.2998
▁squadra	-11.2998
▁applica	-11.2999
▁palla	-11.3003
▁greci	-11.3004
▁rive	-11.3005
▁strano	-11.3006
▁ragazzo	-11.3006
▁ahhah	-11.3008
gon	-11.3009
▁session	-11.3009
▁spera	-11.3009
▁pian	-11.301
▁rushed	-11.3011
cc	-11.3012
▁gal	-11.3013
▁mistress	-11.3013
▁sorella	-11.3014
▁lasciò	-11.3014
▁engaged	-11.3016
▁kissed	-11.3018
▁vado	-11.3019
▁function	-11.302
ndogli	-11.3021
diamo	-11.3024
▁enjoyed	-11.3024
▁brilliant	-11.3025
anza	-11.3025
▁tam	-11.3029
key	-11.3032
▁positiva	-11.3035
▁nesting	-11.3037
▁stabili	-11.3037
▁institute	-11.3038
▁fro	-11.3039
▁greatly	-11.3039
▁pietà	-11.304
▁napoleone	-11.3041
▁losing	-11.3042
▁latte	-11.3043
▁accetta	-11.3043
▁consumo	-11.3043
▁flessibilità	-11.3043
▁cambiamenti	-11.3044
tten	-11.3049
39	-11.3058
▁statua	-11.3059
missione	-11.3061
▁devil	-11.3063
▁net	-11.3064
▁ricchi	-11.3067
▁introduce	-11.3068
▁closely	-11.3068
▁1986	-11.3075
mes	-11.3075
▁barba	-11.3077
▁ignora	-11.3077
▁rachel	-11.3081
▁relax	-11.3084
kat	-11.3087
▁whistle	-11.3089
▁steam	-11.309
▁approvazione	-11.3091
66	-11.3091
▁eddie	-11.3092
ele	-11.3093
▁comunale	-11.3093
▁orientale	-11.3094
▁medie	-11.3096
1.	-11.3098
▁valuta	-11.3098
▁mickey	-11.3099
▁iniziare	-11.3101
▁guest	-11.3102
▁stia	-11.3103
▁rolls	-11.3106
▁saluta	-11.3109
▁notare	-11.311
vole	-11.3111
▁cottage	-11.3111
▁garanzia	-11.3112
pul	-11.3113
▁collection	-11.3119
▁fiore	-11.3123
▁rescue	-11.3124
▁ordinary	-11.3125
▁spaghetti	-11.313
▁char	-11.313
▁specifiche	-11.3131
▁considerando	-11.3133
oth	-11.3133
▁hurried	-11.3138
cola	-11.3138
▁professore	-11.3141
ifica	-11.3141
▁vennero	-11.3141
▁nervous	-11.3144
▁roberto	-11.3148
clu	-11.3153
▁hearts	-11.3156
▁perdita	-11.3157
late	-11.316
▁batte	-11.316
▁cristiani	-11.316
▁esperienze	-11.3161
▁nondimeno	-11.3161
nel	-11.3162
▁amministrazione	-11.3165
▁treated	-11.3165
▁vedendo	-11.3166
▁warning	-11.3168
▁nucleare	-11.3168
▁babe	-11.3171
ivi	-11.3172
▁stella	-11.3172
▁favour	-11.3173
▁executive	-11.3174
▁<	-11.3174
▁pranzo	-11.3174
▁gesti	-11.3175
▁circus	-11.3175
▁jam	-11.3176
▁dish	-11.3178
▁interrogazioni	-11.3181
▁recorded	-11.3182
▁diretta	-11.3182
▁cum	-11.3184
▁wing	-11.3186
▁horrible	-11.3186
▁territory	-11.3186
▁basti	-11.3192
▁premio	-11.3195
▁prospettive	-11.3205
04	-11.3206
70	-11.3207
cie	-11.3207
▁comando	-11.3208
▁senato	-11.3209
zion	-11.3213
lità	-11.3215
▁marine	-11.3217
▁antico	-11.3217
▁suona	-11.3218
▁wh	-11.3222
uno	-11.3222
▁nobile	-11.3223
▁sovra	-11.3225
▁taglia	-11.3227
▁location	-11.3227
▁reasons	-11.323
▁entertainment	-11.323
▁useful	-11.3231
▁——	-11.3236
▁1987	-11.3237
▁esclusivamente	-11.3237
▁potè	-11.3237
▁aspettare	-11.3238
has	-11.3238
jw	-11.3242
▁religious	-11.3243
▁thursday	-11.3243
▁socks	-11.3243
▁drum	-11.3244
cò	-11.3246
▁avviare	-11.3249
▁wrestling	-11.3249
▁2021,	-11.3249
▁distant	-11.325
▁attacked	-11.3253
▁mario	-11.3256
▁unicamente	-11.3259
▁eve	-11.3259
mont	-11.3262
▁log	-11.3264
▁source	-11.3267
▁2021)	-11.3267
▁1984	-11.3268
▁quivi	-11.3272
▁taluni	-11.3273
▁integrazione	-11.3274
▁britain	-11.3274
▁constatare	-11.3277
▁chiuso	-11.3277
▁riguardano	-11.3277
▁sacco	-11.3278
08	-11.328
▁rocket	-11.3286
elle	-11.3286
shire	-11.3288
▁modificare	-11.3289
▁forms	-11.3289
▁giunge	-11.3292
cries	-11.3293
▁allontana	-11.3293
▁bavaria	-11.3293
▁rattle	-11.33
▁finchè	-11.33
▁woke	-11.3301
mat	-11.3304
sol	-11.3305
▁prisoner	-11.3306
▁kidding	-11.3307
nare	-11.3308
▁organizzazione	-11.3312
▁esercita	-11.3312
▁regret	-11.3312
▁ebbene	-11.3314
▁500	-11.3317
▁tournament	-11.3318
▁dreams	-11.3322
▁steven	-11.3322
▁rico	-11.3328
his	-11.3328
▁nation	-11.3334
cchio	-11.3335
▁parecchi	-11.3335
ging	-11.3341
rini	-11.3341
▁cage	-11.3343
alto	-11.3345
▁alimentari	-11.3349
▁beneath	-11.335
▁hockey	-11.335
▁riuscire	-11.3351
▁cock	-11.3355
▁giardino	-11.3357
▁tray	-11.3359
▁veder	-11.3364
usa	-11.3366
▁eravamo	-11.3368
▁eventually	-11.3369
▁vast	-11.3369
▁linguaggio	-11.337
▁spy	-11.3372
▁link	-11.3373
▁industria	-11.3373
▁latin	-11.3374
55	-11.3375
48	-11.3376
▁costituiscono	-11.3376
guard	-11.3376
▁conciliazione	-11.3376
▁cart	-11.3376
▁bones	-11.3378
▁rappresentante	-11.3379
ule	-11.3381
▁ugly	-11.3383
▁labor	-11.3383
lock	-11.3384
▁includes	-11.3386
▁numeri	-11.3387
▁responsible	-11.3388
▁cutting	-11.3389
età	-11.3391
mr	-11.3392
▁prevista	-11.3395
▁riconosciuto	-11.3401
▁1972	-11.3401
▁arts	-11.3405
▁gel	-11.3408
▁torino	-11.3409
▁balance	-11.3409
▁benessere	-11.341
▁daily	-11.3411
▁poll	-11.3413
▁garibaldi	-11.3414
▁compiuto	-11.3414
▁resistenza	-11.3415
▁lookee	-11.3416
▁fonti	-11.3419
gge	-11.342
▁legislativo	-11.342
▁osservazione	-11.3421
▁brief	-11.3422
only	-11.3423
▁oop	-11.3424
boy	-11.3425
▁vivi	-11.3426
stre	-11.3428
gono	-11.3432
▁condotto	-11.3433
▁divided	-11.3434
▁bless	-11.3436
▁sí	-11.3436
▁ritardo	-11.344
▁killer	-11.344
▁colour	-11.3441
▁upside	-11.3442
▁difficulty	-11.3446
▁ulteriormente	-11.3446
▁statue	-11.3446
▁vivono	-11.3448
▁impone	-11.3449
▁colloca	-11.3453
▁frutto	-11.3453
ffer	-11.3455
▁trenta	-11.3459
▁indica	-11.3461
ffi	-11.3462
▁gusto	-11.3463
illa	-11.3464
▁senator	-11.3465
▁produrre	-11.3465
▁lonely	-11.3465
▁armed	-11.3471
▁incident	-11.3471
father	-11.3471
▁performed	-11.3471
▁convinto	-11.3472
▁liberal	-11.3472
▁sarei	-11.3473
▁istruzione	-11.3473
▁madonna	-11.3474
▁jumping	-11.3475
▁adatta	-11.3476
▁pisa	-11.3476
pper	-11.3476
▁senz	-11.3476
▁notes	-11.3477
tries	-11.348
▁seth	-11.3481
▁supera	-11.3482
▁industriale	-11.3483
▁hoping	-11.3492
bit	-11.3496
▁esercitare	-11.3497
▁speranze	-11.3498
▁lasciando	-11.3502
▁legati	-11.3502
▁professione	-11.3503
▁stretta	-11.3503
▁mel	-11.3504
▁restaurant	-11.3504
8.	-11.3506
▁har	-11.3509
▁prop	-11.3512
▁cru	-11.3514
▁12,	-11.3514
▁spite	-11.3516
▁ampliamento	-11.3519
▁lago	-11.3519
▁spinge	-11.3519
stan	-11.3519
▁nat	-11.3519
▁nizza	-11.352
▁indicato	-11.3525
round	-11.3525
▁pagamento	-11.3526
▁hut	-11.3526
moves	-11.3529
▁glance	-11.3532
▁favorire	-11.3534
▁riusciti	-11.3537
▁virus	-11.3537
▁affi	-11.3544
▁innocent	-11.3547
▁lume	-11.3547
vers	-11.3548
uli	-11.3548
chan	-11.355
▁chiamata	-11.3553
▁relativamente	-11.3554
avi	-11.3555
▁knights	-11.3555
▁giochi	-11.3556
▁refused	-11.3559
tal	-11.356
000	-11.3562
▁supply	-11.3562
▁avranno	-11.3562
▁weapon	-11.3565
▁vince	-11.3565
▁belli	-11.3565
gasp	-11.3571
▁drugs	-11.3573
▁proporre	-11.3574
▁technology	-11.3575
ges	-11.3576
▁gla	-11.3576
▁drawer	-11.3577
▁treatment	-11.3577
por	-11.3577
▁gained	-11.3578
▁gum	-11.3579
▁parties	-11.3582
▁andy	-11.3582
▁cagione	-11.3583
▁gui	-11.3585
▁protest	-11.3586
▁cadere	-11.3593
▁vision	-11.3595
▁lucia	-11.3596
▁comportamento	-11.3597
▁verificare	-11.3599
▁sets	-11.3601
▁frase	-11.3605
▁fuga	-11.3607
▁felicità	-11.3609
▁wil	-11.3609
af	-11.361
▁rude	-11.3614
▁sà	-11.3614
▁pole	-11.3616
▁turba	-11.3616
▁fattori	-11.3619
▁autori	-11.362
▁disponibile	-11.3621
▁thunder	-11.3623
▁fru	-11.3627
▁sig	-11.3629
▁benissimo	-11.363
▁futuri	-11.363
▁tells	-11.3633
▁request	-11.3633
▁operare	-11.3634
▁seated	-11.3638
fica	-11.3642
nica	-11.3642
▁weapons	-11.3645
▁esaminare	-11.3645
▁pensava	-11.3645
75	-11.3646
▁minuto	-11.3648
▁disney	-11.3649
▁quoth	-11.365
▁preme	-11.3654
▁wednesday	-11.3654
▁scal	-11.3656
▁mill	-11.3656
▁teaching	-11.3656
▁focus	-11.3656
▁privato	-11.3656
95	-11.3658
uff	-11.366
▁netherlands	-11.366
▁statuto	-11.366
ably	-11.3664
▁wit	-11.3669
boli	-11.3671
toy	-11.3672
▁budget	-11.3674
integrazione	-11.3675
▁speciali	-11.3676
▁oink	-11.3677
▁washing	-11.3679
▁procura	-11.368
ense	-11.3681
ufficio	-11.3682
tati	-11.3682
▁negative	-11.3687
▁funeral	-11.3687
nic	-11.3688
▁gosh	-11.369
▁[8	-11.3694
▁13,	-11.3696
ming	-11.3696
▁micro	-11.3697
▁lire	-11.3698
ag	-11.3698
▁comanda	-11.37
▁dude	-11.37
▁starring	-11.3702
▁parlamenti	-11.3702
spe	-11.3704
odo	-11.3705
▁gua	-11.3707
arsi	-11.3708
ig	-11.3708
▁circumstances	-11.3709
▁branches	-11.371
▁nove	-11.3711
▁tabacco	-11.3713
intero	-11.3718
▁storie	-11.3718
▁iniziato	-11.3718
▁badly	-11.3718
▁thoughts	-11.372
▁tear	-11.3721
▁changing	-11.3723
▁thirteen	-11.3726
▁pacchetto	-11.3726
▁slipped	-11.3726
▁bassa	-11.3727
▁trace	-11.3727
▁condivido	-11.3729
▁compete	-11.3729
▁landing	-11.373
▁pooh	-11.3731
▁kings	-11.3732
▁gently	-11.3733
▁struggle	-11.3733
▁settle	-11.3734
▁features	-11.3734
▁consultazione	-11.3735
▁commission	-11.3736
▁fama	-11.3742
▁stephen	-11.3746
▁assistant	-11.3746
▁nar	-11.3746
▁storica	-11.3747
▁originale	-11.3749
bre	-11.375
▁criminal	-11.3753
▁protection	-11.3753
▁antica	-11.3755
▁ampia	-11.3758
▁plates	-11.3761
▁imporre	-11.3763
▁rapid	-11.3763
▁gotten	-11.3765
▁piede	-11.3765
rati	-11.3766
▁salad	-11.3772
▁horror	-11.3772
▁stagione	-11.3773
nelli	-11.3774
▁kong	-11.3776
▁procede	-11.3777
miss	-11.3787
▁brings	-11.3789
▁fol	-11.379
▁tedesco	-11.3792
▁altrui	-11.3792
▁riporta	-11.3796
pur	-11.3797
▁cricket	-11.3799
▁riprende	-11.38
▁insegna	-11.3802
▁volo	-11.3803
▁scary	-11.3803
32	-11.3808
▁appoggia	-11.3808
▁implica	-11.3811
hood	-11.3811
▁riflettere	-11.3812
rone	-11.3814
▁negozi	-11.3814
▁dovevano	-11.3816
▁sigh	-11.3817
pt	-11.3818
▁anime	-11.382
▁scheme	-11.3822
▁captured	-11.3829
▁stroke	-11.3829
▁gambe	-11.3831
▁inferiore	-11.3834
win	-11.3835
▁mul	-11.3835
ré	-11.3836
▁venisse	-11.3838
▁financial	-11.3839
▁cambio	-11.3839
▁veste	-11.3841
▁segna	-11.3844
▁ricco	-11.3845
▁picnic	-11.3846
▁pride	-11.3846
▁aereo	-11.3848
▁greco	-11.3849
after	-11.3851
mal	-11.3854
▁giusti	-11.3855
▁accoglie	-11.3857
rbi	-11.3857
ón	-11.3858
▁entrambe	-11.3859
▁processi	-11.3862
▁usci	-11.3863
▁evidentemente	-11.3863
▁fed	-11.3868
▁centinaia	-11.3872
▁filo	-11.3873
▁avvenire	-11.3874
ston	-11.3879
ezza	-11.3879
▁studies	-11.3879
▁corretto	-11.3881
▁beans	-11.3882
▁ottimo	-11.3883
▁versa	-11.3884
▁fanciulla	-11.3886
▁basketball	-11.3886
▁enormi	-11.3886
▁raccomanda	-11.3889
▁shout	-11.3897
▁lin	-11.3898
▁urban	-11.3899
▁compiuti	-11.3899
▁marky	-11.39
▁gene	-11.3902
▁lorenzo	-11.3902
▁basa	-11.3903
▁retro	-11.3903
▁1985	-11.3906
31	-11.3908
▁rang	-11.3909
▁cows	-11.391
mpo	-11.3911
▁tommy	-11.3911
uo	-11.3912
▁required	-11.3913
▁satisfied	-11.3914
az	-11.3917
▁nah	-11.3919
▁repeat	-11.3919
▁commercial	-11.3919
▁iraq	-11.3924
▁slaves	-11.3926
▁failure	-11.3926
▁1981	-11.3926
▁vicina	-11.3929
▁attend	-11.3931
nate	-11.3932
▁bor	-11.3932
▁assumere	-11.3935
▁drunk	-11.3939
▁pronti	-11.3939
▁papà	-11.394
▁rival	-11.394
▁cab	-11.3943
▁beer	-11.3944
▁chart	-11.3946
▁planned	-11.3947
giggles	-11.3949
▁trasforma	-11.3951
▁johnson	-11.3952
▁flip	-11.3952
▁revolution	-11.3953
▁cord	-11.3954
▁polly	-11.3954
gga	-11.3955
▁hoped	-11.3956
▁electric	-11.3956
▁conflitti	-11.396
▁difficili	-11.396
▁navy	-11.396
adozione	-11.3963
▁cominciare	-11.3966
▁autore	-11.3966
▁dollari	-11.3971
▁nominated	-11.3975
tis	-11.3975
▁stabilito	-11.3976
▁polo	-11.3977
▁kar	-11.3983
▁patrick	-11.3987
----"	-11.3988
▁segretario	-11.3988
bal	-11.3991
▁pitched	-11.3993
▁conditions	-11.3994
▁occurred	-11.3994
▁promette	-11.3994
▁approach	-11.3995
▁qualora	-11.3995
▁attribu	-11.3995
▁inteso	-11.3996
65	-11.3997
▁crossed	-11.3999
▁engineer	-11.4002
▁considerazioni	-11.4003
▁barbara	-11.4003
▁cruel	-11.4004
untranscribed	-11.4014
autorità	-11.4016
america	-11.4018
▁tutt	-11.4019
▁mask	-11.4022
▁lack	-11.4024
▁tractor	-11.4024
▁dettagli	-11.4025
▁gen	-11.4025
▁recentemente	-11.4025
▁svezia	-11.4028
▁distribuzione	-11.4029
▁cosi	-11.4032
▁verbale	-11.4032
▁funzionari	-11.4032
▁utilizza	-11.4034
▁belongs	-11.4036
wed	-11.4037
▁1950	-11.4037
▁audience	-11.4041
▁scia	-11.4042
▁signs	-11.4045
▁wound	-11.405
33	-11.4054
▁rapida	-11.4055
▁avremmo	-11.4055
ged	-11.4055
▁basically	-11.4055
▁brazil	-11.4061
▁chè	-11.4061
▁truppe	-11.4062
▁1976	-11.4062
rgi	-11.4062
▁altogether	-11.4063
▁ecc	-11.4066
▁buttons	-11.4066
▁xii	-11.4067
▁sweetheart	-11.4069
▁pas	-11.4074
▁riflessione	-11.4076
▁criminalità	-11.4076
serv	-11.4076
▁à	-11.4077
▁costante	-11.4079
▁interessa	-11.4079
▁gia	-11.4081
nus	-11.4082
▁introduced	-11.4083
▁suffering	-11.4083
▁servire	-11.4085
▁eagerly	-11.4087
bor	-11.4087
evole	-11.4091
▁2017,	-11.4094
hands	-11.4094
two	-11.4096
▁destino	-11.4096
▁towns	-11.4098
▁venivano	-11.4099
tain	-11.41
▁thousands	-11.4101
▁beg	-11.4102
▁sostiene	-11.4103
▁annuale	-11.4105
▁baker	-11.4107
▁rail	-11.4109
▁nations	-11.4112
▁provided	-11.4112
veni	-11.4113
▁mag	-11.4114
▁shell	-11.4114
▁appears	-11.4115
54	-11.4115
▁oven	-11.4118
▁partita	-11.412
▁interroga	-11.4121
▁patrimonio	-11.4123
▁rent	-11.4128
▁barbari	-11.4131
ame	-11.4133
▁farò	-11.4137
▁cad	-11.4138
▁workers	-11.414
▁recita	-11.4142
media	-11.4144
▁speriamo	-11.4144
▁accepted	-11.4147
▁sentimenti	-11.415
▁sostenuto	-11.4151
▁extremely	-11.4154
▁toilet	-11.4154
42	-11.416
▁fretta	-11.416
atta	-11.4161
▁compagnie	-11.4163
▁mode	-11.4163
▁experiment	-11.4166
▁babbo	-11.4166
five	-11.4166
▁14,	-11.4166
▁aha	-11.4171
37	-11.4172
▁laughter	-11.4172
▁vidi	-11.4173
▁16,	-11.4176
▁denti	-11.4177
▁osservare	-11.4178
▁nave	-11.418
▁verdi	-11.4187
▁giudica	-11.4188
▁pepper	-11.4189
mmi	-11.4191
vamo	-11.4193
▁consuma	-11.4193
▁johnny	-11.4195
opportunità	-11.4195
▁pray	-11.4196
▁divina	-11.4198
▁marks	-11.4199
▁zebra	-11.42
▁elevato	-11.42
▁marina	-11.4202
num	-11.4203
▁jersey	-11.4206
▁perduto	-11.4206
▁jobs	-11.421
▁riferisco	-11.421
59	-11.4211
▁tecnici	-11.4213
▁highway	-11.4217
▁istituzione	-11.4218
▁bears	-11.4218
▁attuare	-11.4219
▁fields	-11.4219
▁lunghe	-11.422
▁poca	-11.4223
▁cavalieri	-11.4223
▁chosen	-11.4225
lica	-11.4225
▁liberi	-11.4226
▁buildings	-11.4226
▁richiesto	-11.4227
boat	-11.4229
cina	-11.4232
aggio	-11.4235
▁cardinale	-11.4236
lum	-11.4239
rdo	-11.4239
▁piglia	-11.424
▁abbandona	-11.4241
▁turchi	-11.4243
▁dette	-11.4243
▁editor	-11.4244
▁cena	-11.4247
▁owe	-11.4251
oro	-11.4251
▁farther	-11.4251
ral	-11.4252
▁pirate	-11.4252
▁necklace	-11.4255
▁universe	-11.4255
▁1979	-11.4255
rj	-11.4258
▁svolge	-11.4259
38	-11.4262
▁connection	-11.4263
continues	-11.4264
49	-11.4269
nzo	-11.427
utilizzo	-11.4271
▁natale	-11.4273
txt	-11.4274
gives	-11.4274
▁stranieri	-11.4276
▁velocità	-11.4276
▁lane	-11.4278
▁clap	-11.4278
▁briefly	-11.4281
▁guilty	-11.4284
▁stor	-11.4286
▁defeat	-11.4289
▁stamp	-11.4292
assi	-11.4293
98	-11.4293
▁stro	-11.4294
▁eventuali	-11.4296
▁profilo	-11.4297
▁metti	-11.4298
▁core	-11.4298
▁muro	-11.43
▁amor	-11.4301
▁relief	-11.4304
▁construction	-11.4304
▁ragionevole	-11.4304
hal	-11.4305
▁height	-11.4308
▁concentra	-11.4309
nn	-11.4311
▁fornito	-11.4317
▁policeman	-11.4319
ugh	-11.4323
sar	-11.4324
▁render	-11.4324
▁cents	-11.4324
tty	-11.4324
▁flu	-11.4328
▁palm	-11.433
▁simon	-11.4333
69	-11.4338
▁jason	-11.4341
▁snack	-11.4346
▁recenti	-11.4348
dar	-11.4349
▁75	-11.4351
▁appeal	-11.4353
geni	-11.4353
▁concede	-11.4353
-1	-11.4356
▁indipendente	-11.4356
▁addition	-11.4356
▁lava	-11.4357
▁ciao	-11.436
▁pomeriggio	-11.436
▁passò	-11.436
▁anzitutto	-11.436
lor	-11.4361
▁guardando	-11.4368
▁actual	-11.437
▁15,	-11.4372
▁laws	-11.4373
▁platform	-11.4374
▁corrisponde	-11.4376
▁spill	-11.4378
▁previsti	-11.4381
rri	-11.4382
▁♫	-11.4383
bert	-11.4386
home	-11.4387
▁ascoltare	-11.4387
▁[9	-11.4387
▁precious	-11.4389
68	-11.4393
▁ratifica	-11.4397
intervento	-11.4398
▁raccomandazione	-11.4398
▁household	-11.4399
▁raggiunge	-11.4399
▁sedi	-11.44
▁1983	-11.4402
▁scelto	-11.4409
▁washed	-11.441
temi	-11.4413
▁delighted	-11.4414
ix	-11.4414
▁debole	-11.4417
▁recognized	-11.4419
▁risposto	-11.4423
▁tools	-11.4423
▁accorda	-11.4425
nici	-11.4427
hy	-11.443
▁animale	-11.4433
▁donkey	-11.4434
▁exchange	-11.4439
▁victim	-11.444
▁mental	-11.444
stu	-11.4441
47	-11.4441
▁assieme	-11.4444
pan	-11.4446
▁peg	-11.4448
▁shouting	-11.445
▁reazione	-11.445
▁giova	-11.445
▁sooner	-11.4451
▁caffè	-11.4452
▁precipita	-11.4452
▁consegna	-11.4453
▁suffered	-11.4453
▁naughty	-11.4453
ami	-11.4454
pose	-11.4455
▁corrente	-11.4456
▁potrei	-11.4459
▁distruzione	-11.4459
▁lesson	-11.4464
▁enemies	-11.4466
▁timid	-11.4466
▁monarch	-11.4467
▁eager	-11.4468
▁grade	-11.447
▁alberto	-11.4472
▁normale	-11.4472
▁eliminare	-11.4474
▁climate	-11.4478
▁nin	-11.4478
▁trattare	-11.448
▁avvi	-11.448
▁furniture	-11.448
▁scritta	-11.4485
▁corsa	-11.4486
▁quality	-11.449
▁interrogazione	-11.4493
▁genti	-11.4493
▁expensive	-11.4494
ban	-11.4495
unnecessary	-11.4504
▁controllare	-11.4506
jack	-11.4508
▁keen	-11.4511
▁ruin	-11.4512
▁riprese	-11.4513
▁boot	-11.4514
▁giorgio	-11.4516
▁dey	-11.4518
py	-11.4519
▁inserire	-11.452
▁shelter	-11.4529
▁solleva	-11.4532
▁superare	-11.4533
▁rolled	-11.4537
▁soggiunse	-11.4537
46	-11.4541
▁affair	-11.4541
▁powder	-11.4544
▁perdona	-11.4545
▁segni	-11.4545
▁pezzi	-11.4546
▁describe	-11.4546
▁rossa	-11.4547
▁jr	-11.455
▁prepare	-11.455
▁massachusetts	-11.4551
▁trascura	-11.4551
▁becomes	-11.4553
▁escaped	-11.4554
▁principalmente	-11.4554
regolamentazione	-11.4556
▁consola	-11.4556
▁bib	-11.4562
▁accusa	-11.4563
▁vienna	-11.4563
▁gian	-11.4566
tell	-11.4567
▁profondamente	-11.4569
▁saremo	-11.4571
▁rib	-11.4571
▁aggiunto	-11.4573
▁benefit	-11.4578
point	-11.4578
▁mezza	-11.4578
▁deputy	-11.458
▁underneath	-11.458
▁rivolta	-11.4581
which	-11.4582
ui	-11.4584
anima	-11.4586
▁torto	-11.4588
▁parent	-11.4589
▁occasioni	-11.4589
▁stole	-11.4592
▁properly	-11.4594
occhi	-11.4595
▁disporre	-11.4595
anzi	-11.4596
▁arrivato	-11.4596
▁realmente	-11.4597
most	-11.4598
▁issues	-11.4599
▁guests	-11.46
▁burned	-11.4602
tino	-11.4603
▁raccogliere	-11.4607
▁300	-11.4609
▁fold	-11.4609
lini	-11.461
▁discover	-11.4613
▁mosse	-11.4614
▁exciting	-11.4616
sal	-11.4617
cto	-11.462
▁crescente	-11.4621
▁20,	-11.4621
▁pacific	-11.4622
▁21,	-11.4624
▁giovine	-11.4624
▁liberali	-11.4628
▁intera	-11.463
bury	-11.4632
cita	-11.4632
▁futura	-11.4633
▁anchor	-11.4634
yeah	-11.4635
▁oxford	-11.4638
▁scopri	-11.4639
▁alimenti	-11.464
rat	-11.464
▁intended	-11.464
▁impatto	-11.4641
▁generation	-11.4642
▁lately	-11.4645
▁draws	-11.4646
▁carrots	-11.4647
▁vinto	-11.4647
▁imparare	-11.4648
▁cogli	-11.4649
top	-11.465
▁2022,	-11.4651
▁confronto	-11.4652
▁realizzato	-11.4653
ists	-11.4656
▁racing	-11.4657
▁filosofia	-11.4659
ela	-11.466
vio	-11.466
64	-11.4662
▁consentito	-11.4662
▁amongst	-11.4664
▁conclude	-11.4669
▁confirmed	-11.4671
▁colà	-11.4674
▁trarre	-11.4674
▁legend	-11.4677
ced	-11.4678
▁stress	-11.4681
▁gentile	-11.4683
▁replaced	-11.4683
▁designed	-11.4684
▁36	-11.4684
▁claus	-11.4684
▁unit	-11.4685
▁speaker	-11.4686
▁provenienti	-11.4689
▁efficaci	-11.4689
▁francisco	-11.469
uch	-11.4692
ities	-11.4693
▁credito	-11.4695
▁critiche	-11.4697
▁ser	-11.4697
pia	-11.47
▁ivi	-11.47
▁dun	-11.4702
▁chiamare	-11.4709
▁economic	-11.4711
▁appreciate	-11.4712
▁correre	-11.4713
burg	-11.4715
▁cau	-11.4716
▁sailor	-11.4719
mino	-11.472
▁rep	-11.4722
pla	-11.4724
▁ash	-11.4724
▁circonda	-11.4725
▁goals	-11.4725
-20	-11.473
▁sviluppi	-11.4732
▁competitività	-11.4732
ndole	-11.4733
▁fetch	-11.4734
▁raccomandazioni	-11.4734
lino	-11.4735
▁seal	-11.4736
cella	-11.4739
▁glory	-11.474
▁soggetto	-11.4741
▁londra	-11.4743
▁remains	-11.4743
▁tedeschi	-11.4747
▁neve	-11.4748
▁attacca	-11.4749
▁anger	-11.475
▁advanced	-11.4751
▁remind	-11.4752
56	-11.4753
▁previste	-11.4754
▁saving	-11.4755
▁parlava	-11.4755
▁illumina	-11.4756
▁presidential	-11.4757
▁fail	-11.476
▁addosso	-11.4762
hand	-11.4763
nni	-11.4763
▁determinato	-11.4765
▁torn	-11.477
▁violet	-11.477
hv	-11.4771
34	-11.4771
▁breathing	-11.4773
▁proclama	-11.4776
▁caduta	-11.4777
▁caldo	-11.4777
▁beast	-11.4777
▁abba	-11.4778
▁dottore	-11.4778
▁metropolitan	-11.4782
mark	-11.4783
▁riuscito	-11.4786
▁ras	-11.4787
▁franco	-11.4788
▁returning	-11.4788
▁peek	-11.479
▁trump	-11.4791
med	-11.4791
▁ricchezza	-11.4791
▁lengthened	-11.4791
▁ringing	-11.4792
gate	-11.4793
▁suffer	-11.4794
▁meta	-11.4794
▁intention	-11.4796
▁gale	-11.4797
▁assunto	-11.4798
ngle	-11.4799
▁bessie	-11.4799
▁vite	-11.4804
cou	-11.4805
dri	-11.4806
▁neri	-11.4807
92	-11.4809
▁figliuoli	-11.481
▁chose	-11.4811
▁grido	-11.4814
▁stavano	-11.4814
▁stuffed	-11.4816
lata	-11.4816
ked	-11.4816
▁efficacia	-11.482
▁accolto	-11.482
▁pianeta	-11.482
▁utenti	-11.4821
fire	-11.4822
▁symbol	-11.4822
nico	-11.4822
aiuto	-11.4823
lea	-11.4824
▁edizione	-11.4825
▁arrested	-11.4827
▁sezione	-11.4828
▁approvare	-11.4829
43	-11.4831
▁clip	-11.4832
▁scoprire	-11.4835
▁udi	-11.4836
▁riferi	-11.4836
▁disposto	-11.4836
▁permission	-11.4839
▁fissa	-11.484
eating	-11.4844
▁touches	-11.4846
▁acco	-11.4848
▁pumpkin	-11.485
▁cooper	-11.4852
▁sleepy	-11.4853
sey	-11.4854
▁elder	-11.4855
▁1982	-11.4858
▁imper	-11.4858
▁volere	-11.4858
▁brucia	-11.4858
▁polish	-11.4861
▁resi	-11.4861
▁discuss	-11.4861
▁guisa	-11.4861
tissimo	-11.4862
▁continui	-11.4862
sson	-11.4864
▁adventures	-11.4865
▁global	-11.4866
▁larga	-11.4867
▁powers	-11.487
▁happiness	-11.4872
▁sergeant	-11.4872
▁useta	-11.4873
▁enti	-11.4874
▁closes	-11.4876
▁sexual	-11.4878
▁austrian	-11.4882
▁ag	-11.4882
▁spirits	-11.4886
▁santi	-11.4888
▁screaming	-11.4891
▁2019.	-11.4894
moving	-11.4894
▁abbraccia	-11.4894
▁riposo	-11.4895
master	-11.4896
fini	-11.49
▁broadcast	-11.4901
▁rod	-11.4902
▁splash	-11.4902
ening	-11.4902
hard	-11.4902
▁discriminazione	-11.4903
▁cries	-11.4905
▁adottata	-11.4905
▁2022)	-11.4906
▁loudly	-11.4908
▁inaccettabile	-11.4909
▁vendetta	-11.491
▁normally	-11.4911
▁sending	-11.4912
▁colpi	-11.4913
▁immagine	-11.4913
▁archer	-11.4914
▁scratch	-11.4914
set	-11.4914
▁cheap	-11.4916
▁shining	-11.4916
▁volentieri	-11.4917
▁michele	-11.4919
▁eats	-11.4923
▁mattino	-11.4923
▁prevedere	-11.4924
▁obbliga	-11.4926
▁fuor	-11.4927
▁ticket	-11.4927
▁tenuta	-11.4927
▁lessons	-11.493
▁impianti	-11.4931
▁assist	-11.4933
▁banche	-11.4936
▁calma	-11.4936
▁definitiva	-11.4941
zy	-11.4944
▁avvenuto	-11.4947
▁1968	-11.4947
▁silk	-11.4947
ibile	-11.495
▁bisogni	-11.4951
uring	-11.4954
77	-11.4954
▁ciascun	-11.4958
▁theatre	-11.4958
ō	-11.4961
▁compreso	-11.4961
▁scientifica	-11.4963
▁contessa	-11.4963
discards	-11.4964
▁frame	-11.4965
hm	-11.4966
▁deserve	-11.4971
▁chiarire	-11.4974
▁consiglia	-11.4974
bla	-11.4979
▁approvata	-11.498
▁chess	-11.4982
▁squa	-11.4982
gged	-11.4983
85	-11.4983
▁emergency	-11.4984
still	-11.4987
▁protesta	-11.4988
▁nata	-11.4988
▁dumb	-11.4989
▁miseria	-11.499
ium	-11.4991
▁eletto	-11.4996
▁types	-11.4997
▁volesse	-11.4998
▁tag	-11.4998
▁adottate	-11.5002
▁rifiuta	-11.5002
four	-11.5006
▁sicura	-11.5006
▁sunshine	-11.5006
▁num	-11.5007
lic	-11.5008
▁potatoes	-11.501
▁instance	-11.5014
▁ding	-11.5015
sten	-11.5018
57	-11.5018
89	-11.502
▁pushing	-11.5021
▁informa	-11.5021
▁posa	-11.5022
ssu	-11.5027
▁vicenda	-11.5029
▁dig	-11.5031
▁dur	-11.5031
▁priva	-11.5032
▁mystery	-11.5036
▁wilson	-11.5037
▁danny	-11.5038
▁latino	-11.5038
yer	-11.5038
▁colonna	-11.5039
omi	-11.504
▁highly	-11.5042
▁impression	-11.5042
▁grim	-11.5043
▁meow	-11.5043
▁pennsylvania	-11.5044
▁shark	-11.5044
esti	-11.5046
ef	-11.5046
▁oldest	-11.505
tan	-11.5058
58	-11.5058
▁wu	-11.5059
▁volleyball	-11.5059
▁wicked	-11.5062
▁calcio	-11.5062
pos	-11.5064
▁exist	-11.5066
▁estrema	-11.5066
▁1977	-11.5067
▁33	-11.5069
tata	-11.507
▁representatives	-11.5071
▁oak	-11.5075
▁scorre	-11.5076
76	-11.5077
mber	-11.5079
▁sap	-11.5079
sel	-11.5081
▁items	-11.5081
▁1974	-11.5082
rta	-11.5085
▁giraffe	-11.5089
▁helps	-11.5091
▁mood	-11.5092
▁apertura	-11.5092
▁sprang	-11.5097
bble	-11.5097
▁robinson	-11.5098
▁hong	-11.5101
dies	-11.5103
▁avessi	-11.5103
▁hurts	-11.5104
▁scoperto	-11.5104
▁scrisse	-11.5108
oma	-11.5108
▁secure	-11.5109
stico	-11.5111
*	-11.5113
rp	-11.5115
▁companions	-11.5123
▁edna	-11.5123
▁reward	-11.5124
give	-11.5127
▁mediterraneo	-11.5127
▁chimney	-11.5127
▁nasconde	-11.5128
▁democratici	-11.5129
▁restare	-11.5132
▁lasciar	-11.5133
▁stretto	-11.5136
▁costui	-11.5137
▁nera	-11.5139
▁vincere	-11.5141
▁sorts	-11.5141
row	-11.5144
▁roy	-11.5144
▁generazione	-11.5144
78	-11.5144
▁culturali	-11.5145
sul	-11.5146
▁dedicato	-11.5147
▁respond	-11.5149
▁suono	-11.5151
▁padri	-11.5152
▁limit	-11.5153
44	-11.5154
▁stelle	-11.5154
▁oro	-11.5154
comp	-11.5158
ever	-11.516
▁trasfer	-11.5162
nea	-11.5162
para	-11.5165
▁dirt	-11.5167
▁volge	-11.5169
▁hadta	-11.5173
▁nuts	-11.5174
▁accenna	-11.5175
▁servant	-11.5175
▁parliamo	-11.5175
93	-11.5176
▁pete	-11.5176
▁persian	-11.5178
▁17,	-11.5178
▁moderna	-11.5179
dur	-11.518
▁registra	-11.5181
▁conosciuto	-11.5181
▁cheeks	-11.5181
▁increased	-11.5182
▁arranged	-11.5188
▁composto	-11.5188
▁realizza	-11.5189
▁dando	-11.5189
▁pubblicato	-11.5193
▁contributi	-11.5194
▁follows	-11.5195
▁fiorentini	-11.5196
▁despite	-11.5196
▁flotta	-11.5197
▁certezza	-11.5197
▁israel	-11.5199
▁ham	-11.5199
otti	-11.5199
▁ski	-11.52
▁combat	-11.5202
▁robot	-11.5202
▁perfino	-11.5206
▁harder	-11.5206
▁carpet	-11.5209
▁pensando	-11.521
▁cima	-11.5212
▁pesante	-11.5212
dal	-11.5213
immagine	-11.5215
▁contrasto	-11.5218
forma	-11.5218
▁selling	-11.5222
interrogazione	-11.5223
▁accor	-11.5224
▁description	-11.5226
▁seized	-11.5227
▁1975	-11.5227
▁associazioni	-11.5227
▁adeguato	-11.5228
▁carbon	-11.5229
▁tur	-11.5229
▁venir	-11.523
▁andando	-11.5232
▁provare	-11.5233
▁triangle	-11.5234
▁dave	-11.5235
▁suggestion	-11.5237
▁2016,	-11.5238
▁specifici	-11.5239
▁giudice	-11.5239
▁rossi	-11.5239
▁clay	-11.5239
▁rotta	-11.524
▁toes	-11.524
ett	-11.5241
▁ricerche	-11.5242
▁statistics	-11.5242
▁twin	-11.5242
▁cd	-11.5242
▁rivolge	-11.5242
lmente	-11.5246
▁creatures	-11.5249
▁moltiplica	-11.525
▁favorevoli	-11.5251
▁anziani	-11.5251
▁pronuncia	-11.5252
▁concreti	-11.5255
▁skill	-11.5256
▁marked	-11.5259
▁civiltà	-11.5266
▁agreement	-11.5268
▁faithful	-11.5268
▁trono	-11.5272
▁sales	-11.5273
▁poscia	-11.5274
acco	-11.5275
▁giunti	-11.5275
ace	-11.5278
▁largo	-11.5279
▁passati	-11.5281
▁regna	-11.5281
press	-11.5283
▁ppe	-11.5287
▁kansas	-11.5288
▁spiegare	-11.5293
▁seats	-11.5296
▁slight	-11.5299
▁connected	-11.5303
▁sor	-11.5305
▁bond	-11.5307
rá	-11.5311
▁aliens	-11.5312
▁roar	-11.5314
esistenza	-11.5314
▁impedi	-11.5314
▁determinazione	-11.5315
scano	-11.5316
▁headquarters	-11.5317
▁naso	-11.5319
▁portion	-11.5319
▁varia	-11.5322
▁giudici	-11.5326
onda	-11.5327
▁presentate	-11.5328
▁hood	-11.5329
▁completed	-11.533
▁discorsi	-11.5331
▁rischia	-11.5333
▁francis	-11.5334
ou	-11.5334
▁essenziali	-11.5334
cello	-11.5335
coli	-11.5337
▁serving	-11.5339
▁dada	-11.5341
▁—	-11.5341
ib	-11.5345
▁differenti	-11.5349
▁jeff	-11.535
▁bianchi	-11.535
coughs	-11.5353
autore	-11.5353
▁earl	-11.5356
▁epi	-11.5356
▁capaci	-11.5357
bin	-11.5357
▁confidence	-11.5358
▁superiori	-11.5358
▁pressioni	-11.5358
▁sixth	-11.5359
▁piega	-11.5363
▁rein	-11.5363
▁bern	-11.5364
▁gestire	-11.5364
▁au	-11.5367
▁permanente	-11.5367
▁utilizzato	-11.5367
▁competente	-11.5368
▁climbing	-11.5371
▁diventato	-11.5371
▁entrò	-11.5373
▁traditional	-11.5376
▁resist	-11.5376
▁hamburger	-11.5376
accio	-11.538
▁lavorato	-11.5383
▁decor	-11.5385
wan	-11.5386
▁delay	-11.5388
▁ragazze	-11.5389
▁andata	-11.5389
▁deliver	-11.5391
▁kindly	-11.5394
▁chiusura	-11.5396
▁gregorio	-11.5396
▁gimme	-11.5397
▁article	-11.5399
▁discusso	-11.5403
▁occhio	-11.5404
nati	-11.5406
▁hen	-11.5412
▁piggy	-11.5413
▁consenti	-11.5413
ial	-11.5414
▁dipendenti	-11.5415
▁plebe	-11.5415
▁2017.	-11.5416
▁totalmente	-11.5419
▁costituire	-11.5419
▁ernie	-11.542
▁legislative	-11.542
▁costretto	-11.542
▁tornò	-11.5422
ong	-11.5422
▁periodi	-11.5423
▁passengers	-11.5423
flu	-11.5424
87	-11.5424
▁ms	-11.5425
▁tribe	-11.5426
ddle	-11.5427
▁chat	-11.5429
▁tengo	-11.5429
analisi	-11.5432
41	-11.5435
▁esecuzione	-11.5435
▁tender	-11.5436
▁sings	-11.5436
▁painted	-11.5436
▁presented	-11.5437
▁physical	-11.5439
▁ghi	-11.544
malley	-11.5443
▁coerente	-11.5443
▁vuoto	-11.5443
▁categorie	-11.5445
▁benefici	-11.5446
epoca	-11.5448
igh	-11.5449
▁remove	-11.5449
▁climbed	-11.5449
▁capitali	-11.5449
▁journalist	-11.5449
▁folla	-11.5449
▁succeeded	-11.545
▁1978	-11.5452
tha	-11.5453
▁fantastic	-11.5453
▁contare	-11.5454
ments	-11.5456
▁demanded	-11.5456
▁latina	-11.5456
▁perso	-11.5457
▁scare	-11.5458
▁lucy	-11.5462
mas	-11.5463
▁2018.	-11.5465
▁riserve	-11.5467
▁ryan	-11.5471
▁infrastrutture	-11.5475
▁concessione	-11.5475
ep	-11.5476
▁spar	-11.5476
▁22,	-11.5476
▁farne	-11.5482
▁throne	-11.5483
▁promessa	-11.5483
▁shade	-11.5484
▁threat	-11.5484
▁dir	-11.5487
▁kit	-11.5489
▁obblighi	-11.5491
▁argument	-11.5491
▁fantasia	-11.5491
▁segui	-11.5491
▁stanziamenti	-11.5491
▁jelly	-11.5491
▁edition	-11.5492
▁sed	-11.5492
▁bench	-11.5494
fish	-11.5495
touches	-11.5495
rah	-11.5497
▁williams	-11.5498
▁michigan	-11.5499
▁comment	-11.5501
▁violazione	-11.5503
▁detti	-11.5509
▁proseguire	-11.551
▁vorrebbe	-11.5512
▁buying	-11.5513
▁preghiera	-11.5514
lone	-11.5515
bed	-11.5518
▁whisper	-11.5522
▁helmet	-11.5523
▁considerable	-11.5524
▁19,	-11.5527
▁castel	-11.5529
▁emma	-11.553
▁cliente	-11.5531
zzato	-11.5531
▁aumenta	-11.5531
▁cole	-11.5534
▁pigs	-11.5535
▁oratori	-11.5536
▁cho	-11.5537
▁kate	-11.5538
▁medita	-11.5538
▁foundation	-11.5538
▁incontri	-11.5538
▁parish	-11.554
▁dirò	-11.5542
▁cul	-11.5543
argomento	-11.5544
▁dum	-11.5546
▁rafforzamento	-11.5547
▁meanwhile	-11.5547
ization	-11.555
▁teachers	-11.5551
▁scappa	-11.5553
▁belly	-11.5553
▁centri	-11.5554
moni	-11.5555
cast	-11.5556
51	-11.5556
72	-11.5557
▁beth	-11.556
▁kin	-11.556
▁proteggere	-11.556
cta	-11.5561
▁peculiar	-11.5561
▁incoraggia	-11.5563
▁intendere	-11.5563
stand	-11.5564
▁chin	-11.5566
▁bore	-11.5567
▁pic	-11.5567
▁charm	-11.5568
▁delicate	-11.5569
▁studiare	-11.5569
▁risoluzioni	-11.557
▁rileva	-11.5574
▁crescere	-11.5574
▁sce	-11.5576
▁nascita	-11.5578
▁1973	-11.5578
▁chick	-11.5579
▁riusci	-11.558
▁scorsa	-11.558
▁dica	-11.5581
▁unable	-11.5582
▁method	-11.5583
referring	-11.5584
▁charlotte	-11.5586
▁sultan	-11.5587
▁environment	-11.5587
▁letteratura	-11.5588
▁driven	-11.5588
▁worn	-11.559
▁ciascuna	-11.5593
▁25,	-11.5595
▁giornale	-11.5598
▁predi	-11.5601
▁politics	-11.5601
▁soddisfare	-11.5603
stin	-11.5609
▁equipment	-11.561
▁nonsense	-11.5612
▁pension	-11.5615
▁intendiamo	-11.5619
▁alberi	-11.5619
scio	-11.562
▁tuttora	-11.5622
avano	-11.5622
▁britannico	-11.5625
▁sussidiarietà	-11.5625
▁details	-11.5626
hsl	-11.5627
▁pubblicità	-11.5628
▁legale	-11.5629
amministrazione	-11.563
rog	-11.563
nello	-11.5632
asso	-11.5633
▁continente	-11.5633
▁passando	-11.5634
usi	-11.5637
ndoli	-11.564
▁ovunque	-11.5641
▁cupcake	-11.5642
▁moral	-11.5643
▁italiane	-11.5643
▁package	-11.5643
ala	-11.5643
▁carrot	-11.5645
▁iran	-11.5646
▁seguendo	-11.5647
dice	-11.5649
▁skirt	-11.5649
april	-11.5653
▁benchè	-11.5654
▁ebbero	-11.5656
▁cy	-11.5657
▁definito	-11.5657
▁majority	-11.566
▁incomincia	-11.566
▁gioventù	-11.5665
▁ucciso	-11.5665
▁evelyn	-11.5666
▁investigation	-11.5666
▁sheet	-11.5668
▁chiare	-11.5671
▁trains	-11.5671
▁spots	-11.5672
▁limited	-11.5672
▁sounded	-11.5673
▁lincoln	-11.5673
▁neighborhood	-11.5674
air	-11.5674
table	-11.5674
bby	-11.5675
▁ammira	-11.5675
▁facesse	-11.5677
▁diversità	-11.5679
▁partenariato	-11.5681
▁tummy	-11.5681
from	-11.5682
▁ideale	-11.569
▁lentamente	-11.569
▁salvo	-11.5695
▁aim	-11.57
▁23,	-11.5703
▁piante	-11.5704
aglia	-11.5705
▁dollar	-11.5705
▁veneziani	-11.5706
▁conservative	-11.5706
▁jacob	-11.5706
▁elaborare	-11.5706
▁bible	-11.5707
▁$1	-11.5707
▁pesce	-11.5709
▁irre	-11.5711
▁teme	-11.5712
▁effettuare	-11.5713
▁concreto	-11.5714
▁presents	-11.5722
▁racconto	-11.5722
▁istituzionale	-11.5722
▁raymond	-11.5722
▁reality	-11.5722
▁diavolo	-11.5722
nar	-11.5724
▁naval	-11.5725
▁launch	-11.5725
▁gates	-11.5726
▁catena	-11.5726
rce	-11.573
▁ridiculous	-11.573
▁image	-11.5732
▁predica	-11.5733
79	-11.5734
tory	-11.5734
▁gioca	-11.5735
met	-11.5736
▁shakes	-11.5738
▁discussion	-11.5738
▁farmaci	-11.5739
▁jwww	-11.5739
pass	-11.574
▁chum	-11.5743
▁sufficienti	-11.5744
▁confusione	-11.5745
▁soccorso	-11.5746
vy	-11.5746
▁ebrei	-11.5746
▁avvia	-11.5746
▁foolish	-11.5747
▁occupied	-11.575
▁scored	-11.5753
▁sfide	-11.5754
▁loving	-11.5757
▁arrow	-11.5758
▁affect	-11.576
▁lads	-11.5761
▁angle	-11.5763
▁proof	-11.5768
▁1964	-11.5771
▁incidenti	-11.5771
▁destinato	-11.5773
▁dreadful	-11.5774
▁istante	-11.5777
▁corse	-11.5778
▁responsibility	-11.5778
▁reddito	-11.578
▁37	-11.5781
▁review	-11.5781
▁segnala	-11.5782
▁specific	-11.5783
▁plenaria	-11.5786
uf	-11.5788
▁desideri	-11.5789
▁goose	-11.579
▁organizzato	-11.5792
▁stern	-11.5793
▁bir	-11.5793
▁trascina	-11.5795
▁tavolo	-11.5795
▁clare	-11.5798
giu	-11.5799
▁svedese	-11.5803
▁intelligence	-11.5803
gel	-11.5804
▁servants	-11.5804
▁imposta	-11.5804
▁pensiamo	-11.5804
▁temper	-11.5806
▁bou	-11.5807
ching	-11.5807
dini	-11.5808
▁decent	-11.581
▁previously	-11.581
▁corretta	-11.5811
▁perdono	-11.5812
cry	-11.5818
▁sl	-11.5819
▁kangaroo	-11.5819
▁midnight	-11.5819
▁breathe	-11.5823
oc	-11.5823
▁profit	-11.5824
▁34	-11.5824
▁utilizzo	-11.5825
▁rurale	-11.5825
ple	-11.5826
▁debbono	-11.5826
yan	-11.5828
▁calendario	-11.5828
▁rio	-11.5831
▁fuggi	-11.5831
tanti	-11.5831
▁biography	-11.5835
▁fireman	-11.5837
▁rank	-11.5838
▁cominciato	-11.5839
▁congresso	-11.5839
▁dose	-11.5842
▁iniziale	-11.5842
nò	-11.5842
▁soggiorno	-11.5843
▁nipote	-11.5843
ibili	-11.5843
▁blowing	-11.5844
▁genio	-11.5844
▁cla	-11.5848
associazione	-11.5848
nse	-11.5848
▁systems	-11.5849
▁organismi	-11.5849
▁sons	-11.5854
babble	-11.5854
▁girlfriend	-11.5855
iv	-11.5857
▁sicuri	-11.5858
▁conosco	-11.5858
dine	-11.5859
▁meccanismi	-11.586
▁garbage	-11.586
▁comic	-11.5862
▁proposed	-11.5863
▁mandò	-11.5865
▁witness	-11.5866
67	-11.5866
▁usato	-11.5867
▁insult	-11.5867
▁finanziamenti	-11.5868
▁covers	-11.587
▁raccoglie	-11.5872
▁inf	-11.5874
▁commissioni	-11.5874
▁necessariamente	-11.5875
▁tiro	-11.5876
▁disastro	-11.5877
▁rooms	-11.5877
▁contento	-11.5877
▁amare	-11.5881
picture	-11.5881
▁jay	-11.5881
tiamo	-11.5882
ngu	-11.5883
▁sno	-11.5886
also	-11.5888
▁apre	-11.5889
▁guitar	-11.5892
▁ripresa	-11.5892
▁vacation	-11.5893
▁cabinet	-11.5893
▁2020.	-11.5894
▁esercizio	-11.5897
kins	-11.5897
break	-11.5898
▁cinquanta	-11.59
▁spedi	-11.59
▁accaduto	-11.5901
▁disegni	-11.5901
▁cartoon	-11.5901
▁concilio	-11.5901
▁ridotto	-11.5901
▁ly	-11.5902
▁pazienza	-11.5902
gano	-11.5902
▁cherry	-11.5904
tin	-11.5906
▁bordo	-11.5908
▁separa	-11.5908
▁movimenti	-11.5909
▁korea	-11.591
▁accent	-11.5912
▁quinto	-11.5914
▁returns	-11.5915
gil	-11.5916
▁pericoli	-11.5917
▁1969	-11.5918
izzato	-11.5918
▁steady	-11.5919
▁stronger	-11.5919
▁bubbles	-11.5921
▁giulia	-11.5922
▁pò	-11.5922
▁verona	-11.5922
▁recent	-11.5922
▁figliuola	-11.5922
▁emily	-11.5923
▁pensate	-11.5923
fr	-11.5923
▁illustra	-11.5924
▁item	-11.5924
▁insurance	-11.5925
▁geography	-11.5925
▁mmm	-11.5928
94	-11.5929
▁label	-11.5931
▁profughi	-11.5933
▁defense	-11.5934
▁doppio	-11.5935
▁bare	-11.5936
▁begun	-11.5937
▁inhabitants	-11.5942
▁relatori	-11.5942
▁sovranità	-11.5942
▁ciclo	-11.5942
▁rubber	-11.5942
▁shift	-11.5943
▁geni	-11.5944
▁measure	-11.5945
▁dolci	-11.5945
▁esterne	-11.5951
▁joint	-11.5952
▁convince	-11.5952
▁continuano	-11.5953
▁franchi	-11.5955
▁avv	-11.5955
▁auntie	-11.5956
▁capita	-11.5956
▁primary	-11.5956
▁assoluta	-11.5958
▁mexican	-11.5958
este	-11.5958
▁reaching	-11.5964
▁2018)	-11.5964
▁letting	-11.5965
▁guardian	-11.597
▁irrita	-11.5972
▁represented	-11.5973
▁esistenza	-11.5973
hr	-11.5974
▁thumb	-11.5975
fall	-11.5976
tone	-11.5982
▁shortly	-11.5983
▁costumi	-11.5986
▁doc	-11.5987
▁visited	-11.5988
▁neo	-11.5989
▁defence	-11.5991
▁brad	-11.5992
71	-11.5992
▁conduct	-11.5992
cum	-11.5996
▁ricorrere	-11.5996
▁nega	-11.5997
▁vecchie	-11.5998
▁hip	-11.5998
▁pier	-11.5999
▁lontani	-11.6
▁enrico	-11.6
gs	-11.6002
▁clienti	-11.6003
▁facing	-11.6004
▁beneficio	-11.6005
bob	-11.6005
apertura	-11.6005
vit	-11.6005
▁artisti	-11.6011
▁giocare	-11.6011
▁mercy	-11.6012
gal	-11.6012
▁vasta	-11.6013
gene	-11.6014
▁seppe	-11.6016
▁appresso	-11.6016
▁grandezza	-11.6017
▁tendenza	-11.6018
▁depends	-11.6018
▁clothing	-11.6018
▁impegnati	-11.6018
▁domandò	-11.6021
ndone	-11.6022
▁kosovo	-11.6024
▁backwards	-11.6024
▁squirrel	-11.6024
▁universal	-11.6027
▁arrivati	-11.6027
▁aah	-11.6031
ï	-11.6033
▁scienze	-11.6033
▁1971	-11.6033
▁salire	-11.6033
▁straordinaria	-11.6035
▁sorpresa	-11.6041
▁completo	-11.6041
▁whoever	-11.6043
▁confer	-11.6043
immigrazione	-11.6046
▁ripeto	-11.6046
▁fog	-11.6051
▁bald	-11.6052
▁modelli	-11.6055
▁centrali	-11.6057
▁arkansas	-11.6058
istituzione	-11.6058
▁pearl	-11.6059
▁delitto	-11.6059
▁lily	-11.606
▁casca	-11.6065
▁museo	-11.6066
▁meccanismo	-11.6066
▁cerchi	-11.6071
gging	-11.6071
▁shy	-11.6072
▁appar	-11.6075
▁pescatori	-11.6079
unc	-11.6079
zed	-11.6082
▁tub	-11.6082
▁swiss	-11.6083
torio	-11.6084
▁partecipa	-11.6085
▁ricca	-11.6085
▁bade	-11.6086
▁fui	-11.6089
▁kenneth	-11.6091
▁ispira	-11.6092
▁surrounded	-11.6093
▁irene	-11.6095
▁easter	-11.6096
▁comunica	-11.6097
▁volevano	-11.6097
▁indu	-11.6098
▁cam	-11.6098
▁sorrow	-11.6099
opens	-11.6099
▁composizione	-11.61
duc	-11.61
▁promo	-11.61
▁louise	-11.6102
▁checked	-11.6104
▁scor	-11.6106
▁guinea	-11.6108
▁handed	-11.6108
song	-11.611
wo	-11.6111
▁afghanistan	-11.6112
▁guido	-11.6113
▁ò	-11.6114
▁carcere	-11.6116
▁seventeen	-11.6117
▁rivers	-11.6117
▁alongside	-11.612
▁ward	-11.612
rr	-11.6121
▁hy	-11.6121
▁tradition	-11.6121
ø	-11.6122
▁bounce	-11.6123
▁survey	-11.6125
dge	-11.6125
▁photo	-11.6127
▁atlantic	-11.6128
▁pretesto	-11.6134
aba	-11.6134
▁sperare	-11.6134
▁27,	-11.6135
▁temo	-11.6136
tari	-11.6136
▁shaking	-11.6136
impatto	-11.6139
▁fili	-11.614
▁consenta	-11.6141
▁sarò	-11.6141
foot	-11.6141
▁organizzata	-11.6141
▁healthy	-11.6142
▁straw	-11.6143
iraq	-11.615
▁blo	-11.6152
dici	-11.6153
▁frate	-11.6154
aspetto	-11.6155
ona	-11.6156
▁vain	-11.6158
▁bah	-11.6159
▁offerte	-11.6161
azienda	-11.6164
any	-11.6164
▁sindaco	-11.6167
▁heavily	-11.6167
▁costantinopoli	-11.6167
▁1967	-11.6167
part	-11.6168
▁salvare	-11.617
▁estero	-11.617
▁38	-11.6173
▁childsname	-11.6175
ctor	-11.6176
▁defeated	-11.6177
▁giustifica	-11.618
▁karen	-11.6181
▁safely	-11.6181
bly	-11.6181
▁prender	-11.6181
▁ducks	-11.6183
▁controlla	-11.6186
roni	-11.6187
▁fortemente	-11.6191
▁flo	-11.6194
▁economy	-11.6201
53	-11.6201
▁immaginare	-11.6202
▁potenti	-11.6202
▁1930	-11.6202
▁difende	-11.6203
▁admitted	-11.6204
▁prayer	-11.6205
▁superficie	-11.6205
▁closet	-11.6206
▁jungle	-11.6212
▁dici	-11.6214
▁capture	-11.6215
â	-11.6217
▁mantenimento	-11.6217
dere	-11.6218
▁bits	-11.6218
▁steamer	-11.6219
▁suck	-11.6219
▁nana	-11.6222
▁fossi	-11.6223
▁pond	-11.6226
▁personaggi	-11.6226
▁chuck	-11.6226
▁whilst	-11.6226
▁sticker	-11.6226
dro	-11.6227
▁andar	-11.623
ious	-11.6231
▁getta	-11.6233
▁ol	-11.6235
-3	-11.6235
▁dull	-11.6235
▁sostituire	-11.6238
▁sacro	-11.6238
erano	-11.6239
▁attached	-11.6239
▁reports	-11.6239
▁davis	-11.624
▁wal	-11.6241
▁guards	-11.6242
▁esclama	-11.6243
▁rilievo	-11.6243
▁taylor	-11.6243
▁voyage	-11.6243
▁famoso	-11.6243
▁scambi	-11.6243
▁successivamente	-11.6244
▁marchesa	-11.6245
jan	-11.6246
var	-11.6247
té	-11.6247
▁chiamati	-11.6248
▁stable	-11.6249
lus	-11.6249
▁trained	-11.6249
▁trucks	-11.625
▁vietnam	-11.6251
▁graham	-11.6252
▁tramp	-11.6254
hl	-11.6254
▁animated	-11.6255
▁champions	-11.6257
cino	-11.6258
▁tragedia	-11.626
▁riempi	-11.626
▁genera	-11.626
▁eagle	-11.6261
▁frances	-11.6263
----------------	-11.6264
▁alter	-11.6268
▁24,	-11.6268
▁sydney	-11.6268
ug	-11.6269
▁islamic	-11.6271
▁stre	-11.6271
▁ability	-11.6271
▁ottima	-11.6273
▁messer	-11.6273
▁cattivo	-11.6274
▁scelte	-11.6277
▁aircraft	-11.6277
▁banda	-11.6278
wait	-11.6283
▁agricoltura	-11.6283
▁tempio	-11.6284
▁allison	-11.6284
▁orienta	-11.6284
▁nearest	-11.6285
▁quanta	-11.6285
▁poste	-11.629
▁dirige	-11.6293
▁bandiera	-11.6295
▁ribadire	-11.6296
▁billion	-11.6299
into	-11.6303
▁università	-11.6305
▁grateful	-11.6307
▁pati	-11.6307
lam	-11.6308
arrondissement	-11.6308
▁pretending	-11.6308
nco	-11.631
▁proposti	-11.6311
▁perform	-11.6316
▁attende	-11.6317
ô	-11.6318
boo	-11.632
▁ecu	-11.6323
▁unusual	-11.6323
▁spec	-11.6324
nc	-11.6328
▁demon	-11.6328
▁soccer	-11.6328
▁skipper	-11.6329
▁acp	-11.633
▁tracks	-11.6331
▁volendo	-11.6332
[	-11.6335
▁headed	-11.6335
▁uffici	-11.6335
▁soglia	-11.6335
mia	-11.6339
▁dame	-11.6342
▁discovery	-11.6343
bling	-11.6345
▁passion	-11.6345
▁partecipato	-11.6349
perhaps	-11.6351
obbligo	-11.6353
cut	-11.6354
▁meraviglia	-11.6354
▁dottrina	-11.6354
▁accettato	-11.6354
▁moments	-11.6355
▁collect	-11.6356
▁materie	-11.6356
▁raggi	-11.6359
▁rick	-11.636
▁28,	-11.6362
rick	-11.6362
▁prigione	-11.6363
▁rese	-11.6363
▁thirsty	-11.6364
rna	-11.6365
▁banks	-11.6366
▁belief	-11.6371
▁violent	-11.6371
▁melissa	-11.6371
ously	-11.6371
▁hits	-11.6372
▁potenziale	-11.6372
▁volontari	-11.6377
▁rappresentato	-11.638
▁infra	-11.6381
▁indicate	-11.6388
▁imposte	-11.6389
▁antiche	-11.6393
▁naturally	-11.6395
▁murdered	-11.6397
▁ingegno	-11.6397
▁invoca	-11.6398
▁prospect	-11.6406
..."	-11.6407
▁terrore	-11.6416
▁bearing	-11.6421
▁richiama	-11.6424
▁gaze	-11.6424
▁adeguata	-11.6427
▁confederate	-11.6427
84	-11.6438
▁guai	-11.644
▁gettin	-11.644
ioni	-11.6442
▁pazienti	-11.6449
▁moda	-11.645
▁efforts	-11.6451
nella	-11.6451
pc	-11.6453
▁cio	-11.6454
▁regge	-11.6454
▁valida	-11.6454
▁ché	-11.6454
▁ohio	-11.6457
dog	-11.6458
▁cleaning	-11.6458
▁bosco	-11.6459
▁limitare	-11.6459
▁awarded	-11.6461
▁ritornare	-11.6464
▁cli	-11.6465
▁ashamed	-11.6466
▁oscar	-11.6469
▁“‘	-11.6469
▁golf	-11.6469
▁compared	-11.6469
▁invite	-11.647
udo	-11.6471
▁refuse	-11.6471
▁volti	-11.6474
▁2021.	-11.6474
▁venerdì	-11.6475
▁2015,	-11.6478
▁soldato	-11.6478
▁fle	-11.648
▁whale	-11.6481
heim	-11.6481
▁stiff	-11.6483
▁client	-11.6484
▁conflict	-11.6484
▁1966	-11.6484
▁stadium	-11.6484
▁intense	-11.6485
▁collegio	-11.6489
wy	-11.6492
▁supported	-11.6494
▁conservazione	-11.6497
▁sollecita	-11.6499
▁tire	-11.65
▁trash	-11.65
▁mississippi	-11.6501
▁rassegna	-11.6502
ering	-11.6503
▁praticamente	-11.6503
▁diamond	-11.6504
▁ouch	-11.6504
▁dna	-11.6505
▁cle	-11.6507
▁howard	-11.6508
ione	-11.6508
▁saper	-11.6509
▁pronta	-11.6509
ddy	-11.651
▁rammenta	-11.651
▁gode	-11.651
▁gather	-11.6511
▁papi	-11.6512
▁laurea	-11.6523
▁bruce	-11.6526
▁industriali	-11.6526
▁delightful	-11.6527
atura	-11.6527
▁sacrifice	-11.6528
▁singolo	-11.6529
uda	-11.6529
▁convert	-11.6529
▁neighbor	-11.6532
▁angelo	-11.6533
band	-11.6533
▁dispiace	-11.6536
▁vota	-11.6537
▁comin	-11.6539
even	-11.654
▁villaggio	-11.6541
▁spazi	-11.6541
▁fumo	-11.6542
approvazione	-11.6543
vie	-11.6544
esame	-11.6545
▁18,	-11.6545
▁cel	-11.6548
▁income	-11.6553
ware	-11.6553
▁garanzie	-11.6553
▁flood	-11.6554
▁xiii	-11.6554
▁scientifico	-11.6555
▁crediamo	-11.6555
▁bambina	-11.6555
▁fever	-11.6558
▁lamenta	-11.6562
▁scoperta	-11.6562
letto	-11.6563
done	-11.6564
▁colpito	-11.6566
▁delibera	-11.6567
▁sk	-11.6567
had	-11.6569
▁diffusione	-11.6571
▁romanzo	-11.6573
ew	-11.6574
▁elena	-11.6575
▁classi	-11.6578
▁•	-11.658
▁quid	-11.658
▁cipro	-11.6582
▁portava	-11.6584
assistenza	-11.6586
▁attended	-11.6587
▁bullet	-11.6587
▁congratulo	-11.6588
▁confronta	-11.659
made	-11.659
▁winner	-11.659
▁stores	-11.6591
▁friendship	-11.6592
▁faremo	-11.6593
▁generi	-11.6593
▁vessels	-11.6594
▁arrivo	-11.6596
woman	-11.6597
ash	-11.6597
▁legislativa	-11.6597
tern	-11.6599
▁avanza	-11.6602
▁chip	-11.6604
▁miglia	-11.6604
▁compagno	-11.6606
▁privata	-11.6608
▁terrà	-11.6608
▁kay	-11.6609
▁marino	-11.661
rry	-11.6614
▁ple	-11.6614
▁2013.	-11.6617
▁penetra	-11.6618
▁bend	-11.6618
▁pistol	-11.6618
▁vibra	-11.6622
▁priscilla	-11.6624
▁sessione	-11.6625
pea	-11.6625
▁appo	-11.6627
▁premier	-11.6632
▁nowhere	-11.6632
▁concesso	-11.6633
▁finché	-11.6634
▁confine	-11.6634
nzio	-11.6634
▁continuamente	-11.6635
▁acted	-11.6638
grunts	-11.6639
▁hol	-11.664
▁ritira	-11.664
dire	-11.664
▁urgente	-11.6641
▁sofa	-11.6641
▁understanding	-11.6642
▁irri	-11.6644
▁whee	-11.6644
▁assegna	-11.6645
due	-11.6646
▁venera	-11.6647
issimo	-11.6655
▁saluto	-11.6656
▁contempla	-11.6657
▁doctors	-11.6658
▁assenza	-11.6658
▁provvedimento	-11.6659
▁gesto	-11.6659
▁30,	-11.666
▁cappello	-11.6661
▁ravenna	-11.6661
▁obbligo	-11.6662
▁turco	-11.6662
▁accerta	-11.6668
▁storici	-11.6669
▁mettiamo	-11.6669
burn	-11.667
baby	-11.6672
psy	-11.6673
▁apples	-11.6675
▁marmo	-11.6675
venti	-11.6677
▁prassi	-11.6678
▁multiple	-11.6682
▁attempts	-11.6683
▁jewish	-11.6686
▁hid	-11.6688
▁nepal	-11.669
▁display	-11.6692
▁anthony	-11.6695
▁trasferimento	-11.6695
▁arrival	-11.6696
▁dollhouse	-11.6697
▁reform	-11.6698
▁treno	-11.6701
▁expert	-11.6703
▁umbrella	-11.6703
▁nodded	-11.6703
▁grabs	-11.6704
▁rappresentare	-11.6708
▁chiuse	-11.671
▁fiscali	-11.6712
▁contenta	-11.6712
▁sauce	-11.6713
▁utilizzati	-11.6714
▁cessa	-11.6714
▁lick	-11.6715
▁benché	-11.6716
▁candle	-11.6719
▁victoria	-11.6719
would	-11.672
▁chiudere	-11.6721
▁montagne	-11.6722
▁bagno	-11.6725
▁fled	-11.6726
▁65	-11.6728
▁baa	-11.673
▁barcellona	-11.673
▁berry	-11.6731
▁costs	-11.6732
▁crawl	-11.6733
82	-11.6733
ome	-11.6734
▁denuncia	-11.6735
scia	-11.6735
▁fisica	-11.6737
▁dovete	-11.6738
▁26,	-11.6738
▁explanation	-11.6739
▁venuti	-11.6739
ttle	-11.674
vert	-11.6742
▁parenti	-11.6742
▁studia	-11.6743
▁spari	-11.6747
▁individui	-11.6748
▁occidentale	-11.6749
▁blew	-11.675
zionale	-11.675
▁mobilità	-11.675
▁reserve	-11.6753
leg	-11.6755
▁motiva	-11.6755
ability	-11.6756
▁avvenimenti	-11.6757
▁interessanti	-11.6759
▁straordinario	-11.676
▁cia	-11.6762
74	-11.6763
▁reign	-11.6765
▁assoluto	-11.6766
▁coerenza	-11.6766
▁southwestern	-11.6766
▁preparare	-11.6768
▁bando	-11.6768
▁classes	-11.6768
dom	-11.6772
▁affronta	-11.6774
▁solenne	-11.6774
▁contribuito	-11.6775
cip	-11.6775
▁disposti	-11.6776
▁onora	-11.6777
▁nelson	-11.6777
▁mettendo	-11.6778
▁artists	-11.6781
▁cuba	-11.6783
▁adora	-11.6784
▁karl	-11.6784
▁discipline	-11.6784
▁femminile	-11.6784
▁amanda	-11.6785
▁fattore	-11.6785
▁gru	-11.6786
fl	-11.679
▁brescia	-11.6793
▁scream	-11.6793
▁concedere	-11.6795
▁42	-11.6796
load	-11.6799
▁rabbi	-11.6799
▁valuable	-11.6802
▁grosse	-11.6802
▁factory	-11.6806
▁boyfriend	-11.6807
hmm	-11.6807
▁cattiva	-11.6808
worth	-11.6808
print	-11.6809
whines	-11.6811
▁promesse	-11.6811
▁kevin	-11.6811
86	-11.6811
gy	-11.6813
▁unfortunately	-11.6814
▁chu	-11.6814
▁quarters	-11.6814
bbi	-11.6814
ax	-11.6815
▁fits	-11.6818
▁brenda	-11.6821
uccio	-11.6822
▁tutelare	-11.6822
▁qu	-11.6828
▁roads	-11.6828
▁fund	-11.6831
▁meters	-11.6835
▁servono	-11.6836
▁talent	-11.6837
▁administration	-11.6838
▁lombardia	-11.6844
č	-11.6844
bell	-11.6846
▁robe	-11.6847
▁injured	-11.6849
▁miller	-11.6854
▁minima	-11.6855
▁visitare	-11.6855
▁vescovi	-11.6856
rb	-11.6858
▁pala	-11.686
agenzia	-11.6863
▁lontana	-11.6864
▁biblioteca	-11.6865
▁faci	-11.6867
▁vor	-11.6872
▁violence	-11.6874
▁consigliere	-11.6876
cept	-11.6879
▁satisfaction	-11.6883
▁affetto	-11.6883
▁feast	-11.6884
▁bags	-11.6885
▁selva	-11.6889
▁bolt	-11.6892
▁ovvio	-11.6892
shows	-11.6894
▁confess	-11.6898
nesi	-11.6902
▁conoscenze	-11.6902
▁sen	-11.6902
▁pope	-11.6902
▁compi	-11.6903
gun	-11.6903
▁coda	-11.6904
▁gala	-11.6906
▁farci	-11.6909
▁ambulance	-11.691
▁minnesota	-11.691
▁scrittura	-11.691
▁negativo	-11.6911
▁drinks	-11.6912
care	-11.6913
high	-11.6914
▁virgin	-11.6914
alta	-11.6914
▁shapes	-11.6921
▁kelly	-11.6923
▁sought	-11.6925
evoli	-11.6926
nger	-11.6928
▁basic	-11.6928
rete	-11.6928
▁giulio	-11.6929
▁abbassa	-11.6929
83	-11.693
▁knot	-11.6933
▁gods	-11.6933
▁flour	-11.6934
▁vedono	-11.6934
▁zoe	-11.6936
▁supreme	-11.6937
▁manfredi	-11.6937
▁prescindere	-11.6938
▁unhappy	-11.6938
▁2014,	-11.6939
▁crab	-11.694
▁conseguire	-11.694
▁fuma	-11.6942
overlap	-11.6944
università	-11.6944
▁punishment	-11.6947
ffo	-11.6947
▁obliged	-11.6948
▁imperatore	-11.6949
▁feci	-11.6951
▁scende	-11.6951
▁messe	-11.6952
▁mostrare	-11.6952
▁nec	-11.6952
▁tune	-11.6952
▁2000,	-11.6954
▁mist	-11.6954
▁liquid	-11.6954
loud	-11.6957
▁29,	-11.6961
▁madrid	-11.6964
▁remaining	-11.6965
▁andate	-11.6965
▁significativo	-11.6967
bag	-11.6969
▁deeply	-11.697
▁lang	-11.6972
act	-11.6972
▁launched	-11.6975
▁creatura	-11.6975
▁degno	-11.6976
▁morì	-11.6978
▁guardava	-11.698
▁pianto	-11.6982
▁nonna	-11.6982
▁literature	-11.6983
▁films	-11.6984
▁connect	-11.6987
▁degrees	-11.6987
▁stolen	-11.699
▁ul	-11.699
▁column	-11.6992
63	-11.6992
▁answers	-11.6995
essa	-11.6996
▁merely	-11.6996
▁concern	-11.6999
cidi	-11.6999
▁metter	-11.7002
try	-11.7005
▁rivolto	-11.7005
omc	-11.7005
▁fida	-11.7005
▁berlin	-11.7008
▁jet	-11.701
▁signoria	-11.701
▁notevoli	-11.7013
▁riuscita	-11.7013
▁utterance	-11.7013
▁approaching	-11.7013
▁napkin	-11.7013
▁trasformazione	-11.7014
▁tentare	-11.7014
▁inquired	-11.7014
▁candidate	-11.7017
▁pubblicazione	-11.7018
▁isole	-11.7018
telli	-11.7019
▁padova	-11.702
▁1945	-11.702
▁pressed	-11.7021
playing	-11.7023
▁cheek	-11.7023
▁lagrime	-11.7029
▁expecting	-11.7032
▁feeding	-11.7032
▁tick	-11.7033
▁degna	-11.7033
▁riva	-11.7033
▁informati	-11.7035
▁portogallo	-11.7038
▁disappear	-11.7038
▁officially	-11.7039
▁missus	-11.704
▁hundreds	-11.7042
cking	-11.7044
▁gee	-11.7044
celli	-11.7046
▁frattempo	-11.7047
52	-11.7048
▁scon	-11.705
▁disappointed	-11.705
▁nursery	-11.705
▁confused	-11.7053
▁script	-11.7054
▁razzismo	-11.7057
▁cresce	-11.7058
▁seriamente	-11.7059
▁cracker	-11.706
▁digital	-11.7063
▁squad	-11.7064
▁veicoli	-11.7066
▁cotton	-11.7066
▁tasse	-11.7067
ila	-11.7068
bef	-11.7068
▁rapido	-11.7074
hol	-11.7075
▁finita	-11.7076
▁shan	-11.7076
▁cassa	-11.7077
-2	-11.7079
▁kha	-11.7083
▁pensione	-11.7084
til	-11.7084
almente	-11.7085
▁pomp	-11.7086
3.	-11.7086
▁--&	-11.7087
making	-11.7087
▁exact	-11.7087
▁sunny	-11.7088
▁linda	-11.709
▁deboli	-11.7092
▁transfrontalier	-11.7093
▁intenzioni	-11.7093
sky	-11.7094
▁drag	-11.7094
▁indicazioni	-11.7095
▁sab	-11.7097
▁rimedio	-11.7098
screams	-11.7101
nali	-11.7102
▁beard	-11.7102
▁combatte	-11.7104
▁wherever	-11.7104
▁navigazione	-11.7105
mati	-11.7106
▁nati	-11.7106
▁contratti	-11.7106
▁persia	-11.7112
▁tennis	-11.7113
▁nail	-11.7113
zing	-11.7114
▁uccide	-11.7118
bol	-11.7118
▁sostanzialmente	-11.7121
▁concerto	-11.7122
▁asso	-11.7123
▁footballer	-11.7123
▁ros	-11.7124
▁chemical	-11.7124
▁tornata	-11.7128
▁activities	-11.713
▁tokyo	-11.7131
▁restitui	-11.7131
▁persuade	-11.7131
rest	-11.7131
▁whoo	-11.7136
▁numerous	-11.7137
▁bold	-11.7138
▁wool	-11.7141
▁alte	-11.7142
▁(18	-11.7143
▁colored	-11.7143
▁collabora	-11.7145
▁agnes	-11.7147
zar	-11.7149
chu	-11.7149
dr	-11.715
▁stopping	-11.7153
▁interrupted	-11.7155
▁commo	-11.7156
comune	-11.716
vari	-11.716
▁stall	-11.7162
going	-11.7163
never	-11.7164
▁breeze	-11.7168
▁carità	-11.7169
▁neuro	-11.717
▁negoziato	-11.7172
▁medicina	-11.7172
pes	-11.7173
oggi	-11.7175
▁dancer	-11.7175
▁costituito	-11.7176
▁activist	-11.7177
▁laddove	-11.7177
▁leslie	-11.7178
▁soda	-11.718
▁raid	-11.7181
▁diversamente	-11.7182
hel	-11.7184
▁suicide	-11.7187
cide	-11.7188
▁flesh	-11.7188
▁beating	-11.7188
▁yi	-11.7188
▁citizens	-11.719
▁variety	-11.7191
▁impegna	-11.7192
▁orbit	-11.7192
▁rie	-11.7192
temporaneamente	-11.7195
mone	-11.7195
▁satellite	-11.7196
tree	-11.7196
▁successivo	-11.7197
▁doppia	-11.7197
▁earn	-11.7205
▁mason	-11.7205
mble	-11.7205
▁surrounding	-11.7207
pid	-11.7207
▁pil	-11.7207
▁spoil	-11.7208
▁dormire	-11.7208
/0	-11.721
▁dovette	-11.7211
▁aspira	-11.7211
▁jon	-11.7213
▁brig	-11.7213
▁roz	-11.7214
73	-11.7214
tosi	-11.7215
ify	-11.7217
▁veni	-11.7218
▁(20	-11.722
▁ombra	-11.7221
rian	-11.7223
▁esp	-11.7223
▁promesso	-11.7224
▁committed	-11.7224
quo	-11.7227
▁sentì	-11.7232
▁tradizionale	-11.7233
▁jake	-11.7234
▁regional	-11.7235
▁compa	-11.7237
fec	-11.7238
▁luca	-11.7238
kel	-11.7241
▁alphabet	-11.7243
▁1956	-11.7243
▁americano	-11.7249
▁vestito	-11.725
▁dimora	-11.7251
▁cub	-11.7251
▁jazz	-11.7251
▁register	-11.7253
▁importance	-11.7253
▁victor	-11.7254
▁privilegi	-11.7255
▁consulta	-11.7257
▁olive	-11.7257
▁marian	-11.7258
elo	-11.7258
▁differenzia	-11.7261
▁avenue	-11.7261
▁strawberry	-11.7261
▁application	-11.7262
▁spray	-11.7262
▁illness	-11.7263
▁2014.	-11.7265
▁agenda	-11.7265
ratner	-11.7267
mouth	-11.7268
▁echo	-11.7269
▁bacia	-11.7269
▁ripete	-11.7271
▁interne	-11.7272
▁restano	-11.7272
tini	-11.7272
▁lance	-11.7274
▁cifre	-11.7277
▁corea	-11.7278
ille	-11.7278
ggle	-11.728
dito	-11.728
▁figured	-11.7285
ggiare	-11.7285
▁tooth	-11.7288
▁duro	-11.7288
gor	-11.7293
▁vel	-11.7295
▁annuncia	-11.7295
▁poland	-11.7297
▁familiare	-11.7297
▁offerta	-11.7299
▁glanced	-11.7299
▁harbor	-11.7299
▁prigionieri	-11.7299
▁considerata	-11.73
rici	-11.73
▁stool	-11.73
▁compra	-11.73
▁coltiva	-11.7303
holding	-11.7304
▁condannato	-11.7306
▁serba	-11.7312
▁tide	-11.7312
▁tropical	-11.7312
wl	-11.7313
esso	-11.7313
▁basata	-11.7313
▁click	-11.7316
▁confident	-11.7318
▁eccetera	-11.7318
▁dakota	-11.7318
nz	-11.7318
▁repair	-11.7319
▁fissare	-11.732
▁moderni	-11.732
▁tickets	-11.7324
▁ruff	-11.7324
▁descrizione	-11.7327
▁liberty	-11.7328
▁complex	-11.7336
▁vittima	-11.7337
▁sweep	-11.7338
lis	-11.7339
ossi	-11.734
▁roba	-11.7342
▁rider	-11.7343
▁sneak	-11.7345
▁lecture	-11.7346
▁1940	-11.7347
▁capable	-11.735
▁flow	-11.7351
▁48	-11.7351
▁concernente	-11.7352
▁borsa	-11.7352
▁khan	-11.7353
silver	-11.7353
▁jin	-11.7354
▁authorities	-11.7356
▁rimasta	-11.7356
▁scout	-11.7357
▁institution	-11.7357
▁appropriate	-11.7357
▁amen	-11.736
chen	-11.736
▁metro	-11.7361
footnote	-11.7363
▁instantly	-11.7364
bis	-11.7365
▁ghe	-11.7366
iana	-11.7367
▁abusi	-11.7368
▁aspect	-11.7368
▁deposit	-11.7369
gus	-11.7373
newman	-11.7376
▁titoli	-11.7376
▁jolly	-11.7376
▁liberale	-11.7378
▁[11	-11.7378
▁chew	-11.7381
▁stazione	-11.7383
cato	-11.7383
known	-11.7383
gn	-11.7383
▁costoro	-11.7384
▁seasons	-11.7384
uz	-11.7385
▁lover	-11.7385
▁sfruttamento	-11.7385
▁operato	-11.7386
▁gross	-11.7387
▁novella	-11.7388
▁jealous	-11.7389
▁400	-11.739
▁precede	-11.739
▁campagne	-11.7394
▁amato	-11.7394
cap	-11.7395
pone	-11.7396
▁violazioni	-11.7397
▁corpi	-11.7397
both	-11.7398
▁shin	-11.74
pulls	-11.7402
▁condivide	-11.7402
▁sventura	-11.7403
▁governatore	-11.7404
vvi	-11.7405
because	-11.7406
▁inghilterra	-11.7406
▁esorta	-11.7407
▁chips	-11.7409
▁trent	-11.741
▁belonged	-11.7411
▁independence	-11.7413
▁seleziona	-11.7413
▁eran	-11.7413
▁vedremo	-11.7413
▁preciso	-11.7413
▁poetry	-11.7414
ete	-11.7415
oon	-11.7415
▁feathers	-11.7416
▁manifestazione	-11.7418
▁bimbo	-11.7423
bird	-11.7424
▁lab	-11.7424
▁constant	-11.7424
▁def	-11.7426
▁nigeria	-11.7428
▁poison	-11.7429
▁survive	-11.7429
aro	-11.7431
▁vissuto	-11.7432
▁desperate	-11.7437
▁opt	-11.7438
▁ambiti	-11.744
▁addio	-11.744
▁2013,	-11.7441
▁charming	-11.7442
▁decisamente	-11.7443
▁scrittori	-11.7443
▁frutti	-11.7444
▁forum	-11.7444
▁sogni	-11.7447
▁monitor	-11.7447
▁bisognava	-11.7447
▁bari	-11.745
▁penna	-11.745
avo	-11.7451
▁macchine	-11.7451
▁expedition	-11.7451
▁trovi	-11.7452
▁pagamenti	-11.7453
▁touching	-11.7456
▁liber	-11.7458
3/	-11.7459
volo	-11.7459
▁helicopter	-11.7461
▁rifiuto	-11.7461
▁rig	-11.7463
▁fifa	-11.7463
▁dining	-11.7463
▁immigrazione	-11.7464
▁ages	-11.7468
▁aggiorna	-11.7468
▁essersi	-11.747
▁lewis	-11.7472
▁povere	-11.7475
▁[$=1	-11.7476
▁theater	-11.7478
▁concorda	-11.7478
▁diverti	-11.7479
▁patch	-11.7479
▁administrative	-11.748
▁swedish	-11.748
▁presu	-11.7486
▁beds	-11.7486
evoluzione	-11.7488
▁preti	-11.7489
▁visitors	-11.7489
▁creduto	-11.749
▁carrozza	-11.749
▁cammina	-11.7491
▁fierce	-11.7494
▁organizza	-11.7495
▁constitution	-11.7498
▁bianche	-11.7499
▁founder	-11.7501
under	-11.7503
▁battery	-11.7504
ago	-11.7504
▁attivo	-11.7506
▁dimenticato	-11.7508
▁parrot	-11.7509
▁attitude	-11.7509
▁grief	-11.7509
▁sailing	-11.751
▁rompe	-11.7511
▁vasto	-11.7515
▁saluti	-11.7515
▁kisses	-11.7517
ncia	-11.7519
▁accettabile	-11.7519
▁partly	-11.752
throws	-11.7521
▁banco	-11.7522
bad	-11.7523
▁bronze	-11.7523
▁extended	-11.7524
▁stadio	-11.7525
▁congiunta	-11.7526
▁tesi	-11.7526
▁cappella	-11.7528
▁sensazione	-11.7528
▁ease	-11.7528
▁sapendo	-11.7529
▁egyptian	-11.753
mur	-11.7532
▁martine	-11.7532
▁determina	-11.7534
▁earned	-11.7538
▁bada	-11.7538
▁freak	-11.7539
▁cogliere	-11.7541
ind	-11.7541
▁sveglia	-11.7545
▁parma	-11.7546
▁indicare	-11.7546
▁imparato	-11.7547
▁spoons	-11.7547
▁medesimi	-11.7547
▁wishes	-11.755
▁soddisfa	-11.755
▁gab	-11.7553
▁auspica	-11.7554
▁diver	-11.7557
▁tesoro	-11.7558
fort	-11.756
▁leap	-11.7565
▁angela	-11.7565
▁pregnant	-11.7567
coming	-11.7567
▁liberamente	-11.7568
▁presidenti	-11.7568
▁dinosaurs	-11.7569
▁guardò	-11.7572
▁ducati	-11.7572
▁garanti	-11.7573
▁risa	-11.7575
▁brooklyn	-11.7577
▁finestre	-11.7577
▁transito	-11.758
▁obey	-11.758
▁causes	-11.758
▁entrata	-11.758
▁debt	-11.758
▁vola	-11.7581
▁ridge	-11.7582
origine	-11.7585
▁consapevole	-11.7585
▁arose	-11.7585
▁visible	-11.7586
bru	-11.7587
▁divisione	-11.7592
▁riprendere	-11.7594
▁appointment	-11.7596
▁borrow	-11.7597
aldo	-11.7599
ìa	-11.76
▁cardinal	-11.7601
▁pura	-11.7604
▁swept	-11.7606
▁ripetere	-11.7607
▁dam	-11.7607
tv	-11.7607
▁regolare	-11.761
aw	-11.7615
▁concluso	-11.7615
▁rapi	-11.7616
▁bellissima	-11.7616
▁merchant	-11.7617
▁crap	-11.7617
▁hans	-11.7619
▁esistente	-11.7619
▁citato	-11.762
▁lezione	-11.7623
▁anxiety	-11.7625
▁tissue	-11.7625
▁dispute	-11.7625
▁1965	-11.7626
▁serva	-11.7626
▁comunicazioni	-11.7627
name	-11.7627
▁swa	-11.7627
▁grain	-11.7629
▁avviato	-11.763
▁parlo	-11.763
▁carter	-11.7633
mom	-11.7636
▁bun	-11.7639
▁+/	-11.7642
▁invitation	-11.7642
▁scritti	-11.7642
▁sesso	-11.7645
▁favourite	-11.7645
▁devasta	-11.7646
▁argentina	-11.7646
▁pun	-11.7646
▁rimasti	-11.7647
rì	-11.7648
ardi	-11.7648
▁nicola	-11.7649
▁commissari	-11.7652
▁tube	-11.7652
▁rilevare	-11.7653
▁entrato	-11.7653
▁awesome	-11.7654
▁pilastro	-11.7654
▁insist	-11.7656
▁illegal	-11.7656
▁awfully	-11.7658
▁vegetables	-11.7658
▁culto	-11.766
▁classic	-11.7661
shing	-11.7661
▁praise	-11.7661
▁costituzionale	-11.7664
▁smoking	-11.7664
▁discarico	-11.7664
▁inspector	-11.7665
▁leo	-11.7665
▁caratteri	-11.7671
▁critical	-11.7671
▁determinati	-11.7671
▁lands	-11.7673
▁esagera	-11.7674
erei	-11.7674
▁miserable	-11.7674
zon	-11.7674
1/	-11.7674
▁vien	-11.7675
▁option	-11.7679
▁gear	-11.7681
▁annual	-11.7681
list	-11.7682
▁spu	-11.7683
▁1963	-11.7684
▁contatti	-11.7686
stop	-11.7687
▁jury	-11.7688
▁canal	-11.7689
▁lasciava	-11.769
▁esita	-11.7692
▁math	-11.7692
▁corporation	-11.7695
▁divenne	-11.7696
▁representative	-11.7697
▁zip	-11.7698
▁gig	-11.7702
▁mysterious	-11.7703
▁teoria	-11.7703
▁bundle	-11.7703
▁resa	-11.7708
▁rif	-11.7709
▁noon	-11.7709
▁bol	-11.7711
▁riguardanti	-11.7712
fen	-11.7712
▁muslim	-11.7713
ncy	-11.7713
▁closing	-11.7714
▁2015.	-11.7714
▁compare	-11.7716
▁affrontato	-11.7716
anta	-11.7716
▁scrittore	-11.7716
▁kra	-11.7717
▁interamente	-11.7718
ndoci	-11.7718
▁ruler	-11.7722
bbie	-11.7722
▁sbagliato	-11.7722
▁shield	-11.7723
cula	-11.7724
mun	-11.7724
▁federico	-11.7724
▁schiera	-11.7724
▁immagina	-11.7726
contr	-11.773
▁specula	-11.773
▁cristiano	-11.7733
▁spencer	-11.7733
▁celebra	-11.7733
-4	-11.7733
▁northeast	-11.7734
▁profitto	-11.7736
▁beef	-11.7736
hey	-11.7737
▁resolved	-11.7738
▁norman	-11.7739
▁essenzialmente	-11.7743
▁istituire	-11.7743
▁ascoltato	-11.7743
▁turkish	-11.7743
ssy	-11.7745
▁tornato	-11.7748
▁sesto	-11.7749
▁strasburgo	-11.7753
▁trasparente	-11.7753
▁strawberries	-11.7753
▁ricostruzione	-11.7753
▁riflette	-11.7755
ross	-11.7758
▁charged	-11.7759
▁vela	-11.7762
▁christopher	-11.7763
▁quadri	-11.7764
▁votazioni	-11.7764
onu	-11.7765
▁cheerful	-11.7765
irlanda	-11.7765
ual	-11.7766
▁spending	-11.7766
▁mortal	-11.7768
retto	-11.777
▁potty	-11.777
▁humans	-11.7772
gone	-11.7776
▁buck	-11.7777
▁lussemburgo	-11.7782
▁pandemic	-11.7782
▁1962	-11.7783
▁cannon	-11.7787
mail	-11.7787
▁feared	-11.7789
▁incoraggiare	-11.7791
500	-11.7793
issima	-11.7793
▁reception	-11.7793
▁parallel	-11.7797
rin	-11.7798
tape	-11.7799
▁impre	-11.7799
▁defend	-11.7801
▁strain	-11.7802
▁simbolo	-11.7803
▁sfrutta	-11.7803
▁juan	-11.7805
▁seco	-11.7805
▁formato	-11.7807
og	-11.7808
▁propose	-11.7811
▁aboard	-11.7811
81	-11.7811
▁verse	-11.7811
▁persons	-11.7812
▁agricolo	-11.7812
▁condividere	-11.7813
▁sv	-11.7814
▁approached	-11.7815
▁ornament	-11.7816
▁elimina	-11.7817
▁2016.	-11.782
▁guari	-11.782
▁goat	-11.7822
▁1948	-11.7823
▁irlanda	-11.7824
▁nights	-11.7824
▁norway	-11.7825
bia	-11.7827
▁pierre	-11.783
▁consapevoli	-11.7832
▁enormous	-11.7832
▁elettorale	-11.7832
▁ospita	-11.7832
▁composer	-11.7832
▁heap	-11.7833
▁geo	-11.7836
▁frutta	-11.7838
▁appoggiare	-11.7839
parent	-11.784
▁sausage	-11.7842
▁strategie	-11.7842
▁asks	-11.7843
▁cliff	-11.7844
▁finds	-11.7846
▁adele	-11.7846
▁savi	-11.7847
▁canoe	-11.7847
▁0,	-11.7849
hum	-11.7852
▁bathtub	-11.7852
▁percentuale	-11.7852
▁jerk	-11.7853
▁drank	-11.7853
▁deb	-11.7854
pop	-11.7857
▁scientific	-11.7858
▁attraversa	-11.786
▁lieta	-11.7861
▁permitted	-11.7862
▁maestà	-11.7862
▁alpi	-11.7862
▁israeli	-11.7865
▁trasporta	-11.7868
little	-11.787
emo	-11.7871
▁thrust	-11.7872
▁replica	-11.7872
▁colombia	-11.7874
▁sorge	-11.7875
▁razza	-11.7876
▁merc	-11.7876
hold	-11.7877
▁differ	-11.7881
▁lawrence	-11.7882
▁traduzione	-11.7883
▁attendere	-11.7883
vver	-11.7885
member	-11.7885
▁extreme	-11.7887
africa	-11.7887
▁entrate	-11.7889
▁menti	-11.789
▁cigarette	-11.7892
▁gridò	-11.7893
▁ferrara	-11.7893
▁competenti	-11.7894
▁monk	-11.7898
▁patients	-11.7899
▁bushes	-11.7899
;"	-11.79
▁intra	-11.79
▁harris	-11.7901
acce	-11.7902
▁scendere	-11.7905
▁sacred	-11.7907
stiche	-11.7909
▁pericoloso	-11.7909
aldi	-11.791
tie	-11.791
▁poly	-11.791
▁mustn	-11.791
▁surgery	-11.7912
uga	-11.7914
▁anton	-11.7914
▁valido	-11.7915
▁poeti	-11.7917
▁disgrazia	-11.7918
91	-11.7919
▁waters	-11.792
▁prior	-11.7921
▁ridere	-11.7927
▁invasion	-11.7927
▁whip	-11.7927
face	-11.7931
▁fuel	-11.7931
▁impact	-11.7931
▁curiosità	-11.7932
▁accosta	-11.7933
posto	-11.7934
▁direi	-11.7934
fan	-11.7935
▁ampiamente	-11.7936
▁bei	-11.7936
▁sostitui	-11.7937
▁tratte	-11.7938
▁xiv	-11.7938
▁poured	-11.7938
▁lieve	-11.7938
▁nods	-11.7939
▁opposizione	-11.7939
▁hunter	-11.794
▁mounted	-11.794
▁pattern	-11.7941
▁malcolm	-11.7942
▁birdie	-11.7942
▁andati	-11.7944
▁thoroughly	-11.7944
qu	-11.7947
▁mancano	-11.7949
▁leaders	-11.795
bli	-11.7951
▁formulare	-11.7952
▁passioni	-11.7952
▁transfer	-11.7952
▁stretch	-11.7952
▁joey	-11.7953
▁1947	-11.7953
▁fake	-11.7955
tsu	-11.7956
▁helm	-11.7958
▁scadenza	-11.7962
nova	-11.7964
pretends	-11.7965
▁commonly	-11.7966
▁guardate	-11.7969
▁pr	-11.797
▁rosalie	-11.7973
▁tradizioni	-11.7974
three	-11.7976
gets	-11.7977
▁risolve	-11.7977
▁gr	-11.7978
}	-11.7979
▁potendo	-11.7979
▁vehicle	-11.798
▁stretched	-11.7981
▁raining	-11.7982
▁fries	-11.7984
▁digitale	-11.7987
▁mast	-11.7987
▁bestia	-11.799
▁br	-11.799
▁guglielmo	-11.7992
▁ped	-11.7999
▁products	-11.8001
ologist	-11.8002
▁puni	-11.8003
▁ugh	-11.8009
▁concorso	-11.8013
▁giovedì	-11.8013
▁esce	-11.8013
▁bicycle	-11.8013
▁generazioni	-11.8014
▁donde	-11.8016
▁fredda	-11.8017
▁superior	-11.8017
▁frequenta	-11.8018
▁suolo	-11.8021
▁cleared	-11.8021
dress	-11.8021
impresa	-11.8022
▁puff	-11.8023
▁mcc	-11.8023
▁modest	-11.8026
▁molly	-11.8028
▁amicizia	-11.8028
▁classifica	-11.803
▁crossing	-11.803
▁historical	-11.803
▁counting	-11.803
▁todd	-11.8031
▁venture	-11.8041
▁dedica	-11.8042
▁crystal	-11.8044
maker	-11.8044
▁succeed	-11.8045
▁feste	-11.8047
▁bride	-11.8047
▁prendiamo	-11.8047
▁clark	-11.8049
▁tricks	-11.8055
▁eccita	-11.8057
bon	-11.806
▁provato	-11.8061
▁codecisione	-11.8064
▁lobster	-11.8064
▁merce	-11.8064
▁idol	-11.8064
remmo	-11.8065
▁borgo	-11.8066
▁bomba	-11.8067
produ	-11.8071
case	-11.8071
▁contrari	-11.8072
▁veloce	-11.8072
please	-11.8073
▁150	-11.8073
▁motorcycle	-11.8074
▁beatrice	-11.8074
▁dealing	-11.8075
▁porch	-11.8078
ificazione	-11.8078
▁crowded	-11.8078
▁portano	-11.8079
▁andavano	-11.8081
▁mostrato	-11.8082
hn	-11.8083
▁savage	-11.8084
▁prevenire	-11.8084
▁solution	-11.8084
▁communist	-11.8084
▁pensò	-11.8086
▁bacon	-11.8088
▁quaranta	-11.8093
▁hawk	-11.8094
▁bangladesh	-11.8094
▁comprensione	-11.8094
▁rebecca	-11.8094
▁distribu	-11.8094
▁loco	-11.8095
▁responded	-11.8096
lay	-11.8096
▁sommo	-11.8096
▁beam	-11.8096
▁2000.	-11.8097
▁altera	-11.8097
▁credi	-11.8098
▁grossa	-11.81
▁socialista	-11.8101
think	-11.8102
▁rage	-11.8102
▁fatal	-11.8103
roy	-11.8103
▁coste	-11.8104
ë	-11.8104
▁attorney	-11.8104
▁corti	-11.8106
▁precise	-11.8111
▁anyhow	-11.8111
▁barca	-11.8112
/20	-11.8112
hill	-11.8113
▁terrific	-11.8115
▁curtain	-11.8115
▁hated	-11.8119
▁lasci	-11.8119
▁bees	-11.812
▁blast	-11.812
▁55	-11.812
▁taxi	-11.8121
▁peak	-11.8122
pr	-11.8124
▁rondini	-11.8125
▁dressing	-11.8125
▁swallow	-11.8126
▁replace	-11.8127
▁lightning	-11.8128
▁piemonte	-11.8129
▁xvi	-11.8131
62	-11.8133
rine	-11.8133
▁counsel	-11.8134
▁ginevra	-11.8135
▁kyoto	-11.8135
▁osservato	-11.8136
▁individuare	-11.8137
ín	-11.8138
▁raggio	-11.8139
▁ong	-11.814
▁critici	-11.8141
▁angolo	-11.8142
▁squeak	-11.8143
enta	-11.8144
assa	-11.8146
▁esterna	-11.8147
▁saddle	-11.8148
menta	-11.8149
letta	-11.815
▁inform	-11.8153
▁religiosa	-11.8156
▁giacchè	-11.8156
▁1957	-11.8156
▁ringrazia	-11.8157
versa	-11.8157
▁root	-11.8157
▁drill	-11.8158
▁soci	-11.8159
ock	-11.8159
▁fuss	-11.816
▁aveano	-11.8161
denti	-11.8164
▁print	-11.8164
▁stupi	-11.8166
tia	-11.8166
▁concordo	-11.8166
▁riunioni	-11.8167
▁attentamente	-11.8168
▁farmi	-11.8171
▁concreta	-11.8174
▁useless	-11.8174
▁rot	-11.8174
▁costretti	-11.8176
▁uscì	-11.8176
nell	-11.8177
▁shared	-11.8177
diary	-11.8177
▁rallegra	-11.8178
▁rispetta	-11.8178
▁clue	-11.818
▁kicked	-11.8181
rano	-11.8183
▁costrui	-11.8184
yard	-11.8186
▁polvere	-11.8187
▁siena	-11.8189
▁indipendenza	-11.8193
/01	-11.8194
▁separated	-11.8194
▁ashore	-11.8196
▁stared	-11.8197
▁existence	-11.8197
▁assistance	-11.8197
aki	-11.8198
▁nucleari	-11.8199
▁flies	-11.8199
▁affida	-11.8199
vansi	-11.8199
▁composed	-11.8202
cini	-11.8202
▁fortezza	-11.8204
▁temp	-11.8206
wer	-11.8207
▁basis	-11.8217
fore	-11.8218
▁evoluzione	-11.822
▁39	-11.822
▁hired	-11.8224
▁louder	-11.8226
▁messenger	-11.8228
▁spagnolo	-11.8228
▁interessate	-11.8229
1,	-11.8232
▁citare	-11.8232
▁brevemente	-11.8233
live	-11.8236
▁eletti	-11.8236
tario	-11.8238
▁globalizzazione	-11.8239
▁soil	-11.824
▁chiamava	-11.8241
▁occasionally	-11.8241
▁broom	-11.8246
▁alan	-11.8246
▁romania	-11.8247
.9	-11.8248
▁aggrava	-11.8249
incontro	-11.8249
▁sample	-11.8249
▁componenti	-11.825
▁sock	-11.825
▁ostina	-11.8252
thy	-11.8253
:—	-11.8254
▁cata	-11.8255
▁pirates	-11.8256
▁credeva	-11.8258
▁organizzare	-11.8261
▁sufficient	-11.8266
▁44	-11.8266
▁hollow	-11.8267
▁elenco	-11.8269
▁evento	-11.827
▁significant	-11.8272
▁relations	-11.8272
▁pap	-11.8278
▁probabilità	-11.828
▁desta	-11.8281
quin	-11.8281
▁chickens	-11.8282
▁evidenzia	-11.8284
▁patti	-11.8285
▁suspicion	-11.829
▁carol	-11.8291
▁zoom	-11.8291
▁trattava	-11.8292
▁decisionale	-11.8292
▁poop	-11.8293
▁fairies	-11.8293
▁bau	-11.8294
▁esserci	-11.8295
▁bart	-11.8297
▁philadelphia	-11.8301
▁submarine	-11.8301
▁referred	-11.8301
▁anziché	-11.8302
▁aperte	-11.8302
▁matura	-11.8304
▁innit	-11.8304
unità	-11.8305
stici	-11.8307
ifer	-11.8308
▁barry	-11.8309
▁appro	-11.831
▁stem	-11.8311
▁dott	-11.8313
▁grossi	-11.8314
▁quod	-11.8314
whispering	-11.8315
▁eva	-11.8319
mato	-11.8321
▁lunedì	-11.8322
▁passeggeri	-11.8322
▁conformità	-11.8322
ions	-11.8322
▁giallo	-11.8323
▁corruzione	-11.8323
▁energie	-11.8323
▁popolari	-11.8324
mbra	-11.8327
▁unlike	-11.8329
▁lasciate	-11.833
▁legittima	-11.8331
▁indipendenti	-11.8332
▁applied	-11.8332
▁rabbia	-11.8332
▁telefoni	-11.8332
▁deficit	-11.8332
▁perpetua	-11.8332
▁intima	-11.8334
▁ker	-11.8336
▁costantemente	-11.8336
▁arch	-11.8337
▁cj	-11.8339
▁conclusion	-11.8343
▁dovuta	-11.8343
▁kent	-11.8345
poor	-11.8345
61	-11.8346
▁corri	-11.8346
▁slo	-11.8347
▁generalmente	-11.8347
atti	-11.8347
▁cable	-11.8349
▁diretti	-11.835
▁2002.	-11.835
▁pene	-11.835
▁azienda	-11.8351
▁studying	-11.8352
▁catherine	-11.8353
▁austin	-11.8353
bie	-11.8354
▁agency	-11.8354
▁daisy	-11.8355
▁carni	-11.8356
▁extent	-11.8357
▁lucca	-11.8357
▁foe	-11.8357
chy	-11.8359
▁giunse	-11.8361
▁limp	-11.8363
▁perfetto	-11.8364
▁ace	-11.8364
▁sb	-11.8364
▁cerchiamo	-11.8365
▁leadership	-11.8365
▁armata	-11.8367
▁abuse	-11.8367
▁additional	-11.8369
isola	-11.8369
▁accorge	-11.837
▁convinced	-11.837
▁2010.	-11.8372
▁guadagna	-11.8373
▁vende	-11.8373
▁crow	-11.8374
▁paziente	-11.8374
▁1961	-11.8374
▁brazilian	-11.8375
▁arde	-11.8379
mica	-11.8379
▁rivedere	-11.838
▁curve	-11.838
▁monetari	-11.8381
▁potessero	-11.8382
▁bruno	-11.8383
kov	-11.8385
▁imperiale	-11.8386
▁piangere	-11.8386
▁obtain	-11.8387
ngono	-11.8387
▁strana	-11.8388
▁sandy	-11.8388
▁fedeli	-11.8389
▁punk	-11.8391
▁fondazione	-11.8391
rous	-11.8393
▁sba	-11.8394
ride	-11.8394
▁dramma	-11.8395
▁midst	-11.8395
▁avverti	-11.8395
▁palestinese	-11.8396
▁1959	-11.8396
▁danaro	-11.8396
view	-11.8396
dì	-11.8396
▁whereupon	-11.8397
stato	-11.8397
▁coloring	-11.84
▁burden	-11.8407
▁luke	-11.8409
▁2001,	-11.8411
▁sack	-11.8413
▁gus	-11.8419
▁debate	-11.8419
▁threatened	-11.842
▁apologize	-11.842
dder	-11.842
▁nido	-11.8421
▁diventi	-11.8421
▁atmosphere	-11.8427
▁commesso	-11.8427
▁wreck	-11.8429
▁daughters	-11.8429
▁caratterizza	-11.8431
▁peel	-11.8432
▁favori	-11.8438
uc	-11.8438
▁[1]	-11.8442
▁capitoli	-11.8442
▁claimed	-11.8444
▁fedele	-11.8448
▁agricole	-11.8448
▁esterni	-11.8448
▁inglesi	-11.8449
▁decade	-11.8451
▁nil	-11.8453
cord	-11.8453
▁efficiente	-11.8453
▁mun	-11.8454
▁viaggi	-11.8456
▁2012,	-11.8457
▁revenge	-11.8458
▁palestinesi	-11.8459
▁circolo	-11.846
▁reference	-11.8464
▁mina	-11.8465
▁pru	-11.8465
▁baba	-11.8466
▁minimi	-11.8468
▁absence	-11.8469
▁rocky	-11.8469
▁straniero	-11.8469
▁spirituale	-11.847
▁rinnova	-11.8473
▁martha	-11.8473
▁salta	-11.8475
esimo	-11.8477
lant	-11.8477
▁visi	-11.8479
▁louisiana	-11.848
▁1952	-11.848
▁mancato	-11.848
▁honestly	-11.848
▁seventh	-11.8481
▁limitato	-11.8482
cott	-11.8483
▁investigator	-11.8483
mc	-11.8483
▁thi	-11.8487
▁esterno	-11.8489
▁screwdriver	-11.849
▁benedetto	-11.849
dam	-11.8494
▁seria	-11.8495
▁arca	-11.8495
▁coro	-11.8497
tissima	-11.8499
▁remote	-11.8501
erie	-11.8506
▁evita	-11.8509
▁begged	-11.8509
kan	-11.8511
▁immense	-11.8512
▁dessert	-11.8512
▁vorremmo	-11.8512
▁kang	-11.8514
▁gut	-11.8517
▁cerchio	-11.8517
power	-11.8517
▁sovrano	-11.8518
▁brook	-11.8519
▁comunicare	-11.852
▁bitter	-11.852
▁morali	-11.8521
▁lavorando	-11.8522
▁cali	-11.8522
▁carriera	-11.8523
▁95	-11.8523
▁regolamenti	-11.8524
fal	-11.8526
▁spear	-11.8527
▁attivi	-11.853
free	-11.8531
88	-11.8532
▁neu	-11.8533
color	-11.8534
▁partecipanti	-11.8535
▁lookin	-11.8536
▁nearby	-11.8541
▁preparato	-11.8541
▁accuse	-11.8542
▁prudenza	-11.8544
▁espresse	-11.8544
▁cittadinanza	-11.8544
▁monete	-11.8544
▁laying	-11.8544
▁1939	-11.8544
ians	-11.8546
▁canta	-11.8548
lé	-11.8549
▁grati	-11.855
▁richiamare	-11.855
▁ours	-11.855
▁victims	-11.8551
pushes	-11.8554
first	-11.8554
▁accedere	-11.8555
▁precedenza	-11.8555
▁gradually	-11.8555
rare	-11.8555
mming	-11.8555
▁uefa	-11.8555
starts	-11.8561
appa	-11.8562
▁hindu	-11.8563
▁vene	-11.8563
▁sovvenzioni	-11.8565
wind	-11.8566
▁supporto	-11.8567
hhh	-11.8569
▁gravità	-11.8569
▁sdegno	-11.8576
▁shakespeare	-11.8576
▁sott	-11.858
▁eserciti	-11.8581
▁staring	-11.8582
▁gusta	-11.8582
agi	-11.8584
▁naviga	-11.8584
▁bass	-11.8585
▁interfere	-11.8585
▁accompagnato	-11.8586
▁irlandese	-11.8586
▁debolezza	-11.8588
▁console	-11.8592
▁swift	-11.8592
gata	-11.8594
▁tentato	-11.8594
▁kissing	-11.8596
▁mettono	-11.8596
▁cambiato	-11.8596
▁duties	-11.8599
▁sank	-11.8602
▁ruled	-11.8605
phi	-11.8606
▁ending	-11.8607
▁schengen	-11.8608
▁deny	-11.8608
▁distress	-11.8608
▁affected	-11.8609
▁entusiasmo	-11.861
▁siti	-11.8611
▁genetic	-11.8616
▁scompar	-11.8617
▁alligator	-11.8619
▁stasera	-11.8619
▁rafforza	-11.8619
▁blows	-11.862
ibus	-11.8621
▁blessed	-11.8623
▁iranian	-11.8623
▁tenuti	-11.8623
▁referring	-11.8624
▁pacifica	-11.8624
▁consul	-11.8625
▁recovered	-11.8626
▁rovescia	-11.8626
form	-11.8626
rit	-11.8628
lici	-11.8629
sì	-11.8629
▁ribbon	-11.863
▁remarkable	-11.863
▁kindness	-11.8631
▁yeh	-11.8632
▁pump	-11.8633
▁pensioni	-11.8635
▁scudi	-11.8636
vel	-11.8636
pad	-11.8637
▁jen	-11.8637
▁sovente	-11.8641
▁matteo	-11.8641
▁dropping	-11.8641
▁2001.	-11.8641
feri	-11.8645
thing	-11.8649
hoo	-11.8649
▁rigore	-11.8651
▁proibi	-11.8652
▁signorina	-11.8653
▁kat	-11.8653
▁russell	-11.8655
▁convention	-11.8656
cità	-11.8663
▁cops	-11.8663
▁sedere	-11.8666
▁waist	-11.8666
▁tempesta	-11.8668
egu	-11.8669
▁hor	-11.867
away	-11.8671
▁territori	-11.8672
▁bugs	-11.8672
▁columbia	-11.8673
hara	-11.8673
▁directions	-11.8674
▁stations	-11.8675
▁loan	-11.8675
▁strettamente	-11.8677
▁cattura	-11.8678
▁strappa	-11.868
▁vittorio	-11.8682
mani	-11.8683
▁envelope	-11.8683
▁accolgo	-11.8684
▁ceiling	-11.8684
▁petrolio	-11.8684
lico	-11.8685
▁bontà	-11.8685
scu	-11.8686
▁commi	-11.8686
gola	-11.8687
▁percepi	-11.8688
▁tribes	-11.8691
▁destinata	-11.8692
▁agi	-11.8692
▁document	-11.8692
meter	-11.8692
ich	-11.8693
▁heading	-11.8694
unanimità	-11.8694
▁narrator	-11.8694
▁proposal	-11.8694
▁1942	-11.8695
▁musician	-11.8697
▁vanta	-11.87
▁feature	-11.8702
▁growth	-11.8704
▁alfonso	-11.8705
▁incredible	-11.8705
▁soffoca	-11.8705
▁cuts	-11.8705
▁sweater	-11.8705
▁calabria	-11.8705
▁1944	-11.8706
cti	-11.8706
▁bara	-11.8706
isse	-11.8711
cul	-11.8714
know	-11.8714
▁sailed	-11.8716
▁tremendous	-11.8716
▁cardinali	-11.8719
▁pmi	-11.8719
▁norah	-11.872
▁winds	-11.872
aumento	-11.872
▁hatch	-11.8724
▁fallimento	-11.8727
▁rilascia	-11.8727
▁barrel	-11.8728
▁sticking	-11.8728
▁stacca	-11.873
▁custom	-11.8731
▁udito	-11.8731
▁reati	-11.8735
▁graduated	-11.8736
▁schedule	-11.8736
▁scarsa	-11.8736
▁cheers	-11.8737
▁happily	-11.8738
▁rendono	-11.8738
lati	-11.8739
5.	-11.874
hole	-11.874
▁frode	-11.8741
▁wealth	-11.8744
▁passata	-11.8746
▁1946	-11.8749
▁cora	-11.875
▁oramai	-11.8751
▁twist	-11.8751
eg	-11.8751
▁maiden	-11.8752
▁dottor	-11.8754
bio	-11.8755
▁trema	-11.8756
▁impressione	-11.8757
▁capitani	-11.8757
▁korean	-11.8758
▁chiedono	-11.8758
▁camere	-11.8759
▁constituency	-11.876
▁raccolto	-11.876
▁municipalities	-11.876
▁rooster	-11.876
▁1943	-11.876
ardo	-11.8762
▁personality	-11.8764
▁innalza	-11.8765
▁barely	-11.8766
llus	-11.8766
▁clara	-11.8767
pal	-11.8768
stein	-11.8769
▁galli	-11.877
▁adunque	-11.8771
▁confusion	-11.8772
▁scottish	-11.8772
▁monarchia	-11.8772
▁kan	-11.8773
▁imita	-11.8773
▁deserto	-11.8775
▁hoo	-11.8776
▁jill	-11.8777
▁industrial	-11.8777
▁legate	-11.8778
▁dub	-11.8778
▁businessman	-11.878
▁introdotto	-11.8782
▁cattle	-11.8783
▁behold	-11.8783
▁lettori	-11.8784
▁gai	-11.8785
une	-11.8786
▁chef	-11.8788
▁programmazione	-11.8789
▁gl	-11.8791
▁calendar	-11.8792
▁solve	-11.8792
▁sri	-11.8792
▁trionfo	-11.8792
▁convinzione	-11.8792
▁website	-11.8793
▁thief	-11.8793
▁diego	-11.8793
▁perceived	-11.8796
pola	-11.8796
▁hah	-11.88
▁2011,	-11.8801
▁custodi	-11.8802
sser	-11.8802
▁southeast	-11.8804
▁patri	-11.8807
▁gola	-11.8809
▁coward	-11.881
pho	-11.8811
▁episodes	-11.8811
removes	-11.8812
▁regiment	-11.8813
▁dragged	-11.8815
▁cellule	-11.8815
▁pittore	-11.8816
▁vere	-11.8816
▁stette	-11.8818
zionali	-11.882
▁quarta	-11.8821
▁lungi	-11.8823
▁gathering	-11.8825
▁conosciamo	-11.8826
▁sentiero	-11.8827
▁orchestra	-11.8828
▁ramo	-11.8828
▁kh	-11.8829
▁vitale	-11.8829
▁sasso	-11.883
▁abbandonare	-11.8831
▁2017)	-11.8833
ume	-11.8834
▁passava	-11.8835
pha	-11.8835
▁scholar	-11.8836
▁compresi	-11.8836
▁difetto	-11.8837
▁northwest	-11.8837
▁germans	-11.8839
▁immobili	-11.884
7/	-11.8841
france	-11.8842
▁sogna	-11.8842
ip	-11.8842
▁perche	-11.8843
▁raw	-11.8844
▁tool	-11.8845
▁compensa	-11.8845
▁mou	-11.8846
▁ritmo	-11.8848
▁brava	-11.8848
gente	-11.8852
class	-11.8853
▁attenti	-11.8854
▁vincent	-11.8857
▁conservare	-11.8857
▁canzone	-11.8858
▁cristiana	-11.8858
▁lacrime	-11.8859
▁seeds	-11.886
▁incredibile	-11.886
▁adopted	-11.8863
▁finisce	-11.8863
▁mars	-11.8865
▁contents	-11.8868
▁suscita	-11.8869
▁spagnola	-11.887
▁crept	-11.887
sister	-11.887
▁lottare	-11.8872
▁patten	-11.8872
▁proceeded	-11.8878
nca	-11.8879
▁nathaniel	-11.8881
dus	-11.8881
▁paw	-11.8886
▁cooked	-11.8887
east	-11.8888
▁whoop	-11.8888
▁baci	-11.8888
▁votes	-11.889
▁rubbish	-11.8892
▁stipula	-11.8892
▁milione	-11.8892
▁1941	-11.8892
▁1958	-11.8892
deb	-11.8893
▁sorti	-11.8894
▁manchester	-11.8894
▁lezioni	-11.8895
▁urla	-11.8897
▁forests	-11.8897
▁operations	-11.8898
▁determinate	-11.89
dita	-11.8901
▁possibility	-11.8905
▁condotti	-11.8905
bach	-11.8906
▁pasta	-11.8907
▁incontrato	-11.8908
▁familiari	-11.8909
▁discende	-11.8912
▁reaction	-11.8916
▁miracolo	-11.8917
▁ammettere	-11.8919
▁stabile	-11.8921
▁transizione	-11.8925
▁elections	-11.8925
▁operate	-11.8925
▁insiste	-11.8926
▁finanziare	-11.8926
▁vizio	-11.8928
▁retreat	-11.8928
▁lavorano	-11.8929
▁wanting	-11.893
god	-11.8931
▁stefano	-11.8931
▁43	-11.8931
▁poem	-11.8933
▁device	-11.8933
▁lasted	-11.8934
▁premi	-11.8934
▁tetto	-11.8935
▁rainbow	-11.8936
▁product	-11.8937
▁blessing	-11.894
▁inutili	-11.8941
stick	-11.8943
▁polite	-11.8944
▁kal	-11.8945
▁spit	-11.8945
phe	-11.8947
▁enters	-11.8947
▁contains	-11.8947
▁pioggia	-11.8948
▁investment	-11.8948
last	-11.8949
▁professionali	-11.8952
▁frodi	-11.8952
▁revealed	-11.8955
▁maestra	-11.8956
▁panel	-11.8957
▁depend	-11.8958
▁nasty	-11.8958
dina	-11.8958
▁obbedi	-11.8959
▁ved	-11.8959
▁gin	-11.896
open	-11.896
▁occur	-11.896
letti	-11.8961
duca	-11.8963
▁tab	-11.8963
▁tela	-11.8964
▁sniff	-11.8966
▁lawn	-11.8969
▁extraordinary	-11.8969
▁harbour	-11.8969
▁insistere	-11.8973
▁dong	-11.8973
▁dried	-11.8974
arco	-11.8975
▁inviato	-11.8981
nette	-11.8985
tella	-11.8986
fond	-11.8987
▁abbandonato	-11.8987
7.	-11.8988
▁fiction	-11.8991
▁prestare	-11.8991
▁consacra	-11.8992
▁elettronica	-11.8992
abbiamo	-11.8992
▁naked	-11.8993
▁colli	-11.8993
▁ernest	-11.8994
▁covering	-11.8996
▁impar	-11.8996
▁planes	-11.8997
▁catching	-11.8998
▁calo	-11.8999
iz	-11.8999
▁serena	-11.8999
▁criterio	-11.9002
▁deco	-11.9002
▁jordan	-11.9003
▁credibilità	-11.9003
▁vigilanza	-11.9003
▁precisione	-11.9004
▁cenno	-11.9004
scrive	-11.9009
▁firing	-11.901
▁criminali	-11.9011
▁(1	-11.9012
▁sho	-11.9012
anna	-11.9012
▁triumph	-11.9014
▁widow	-11.9014
crying	-11.9015
▁consapevolezza	-11.9015
▁recall	-11.9015
▁spoglia	-11.9016
▁mah	-11.902
▁odia	-11.9021
▁fee	-11.9022
▁sper	-11.9024
▁reviews	-11.9025
▁troubled	-11.9025
▁infinite	-11.9026
▁packed	-11.9026
sina	-11.903
▁passeggia	-11.903
▁worship	-11.9037
▁istituzionali	-11.9037
relli	-11.9038
▁chiamano	-11.9038
▁programs	-11.9039
▁attacks	-11.904
▁acquistare	-11.9042
▁regarded	-11.9042
▁crib	-11.9043
▁mica	-11.9044
parti	-11.9047
▁represent	-11.9048
▁rumor	-11.9048
▁disabili	-11.905
aka	-11.905
▁mistero	-11.905
▁accused	-11.905
▁invia	-11.9053
▁units	-11.9054
ordina	-11.9059
▁wazir	-11.9059
▁contadini	-11.9059
▁tentativi	-11.9059
rich	-11.906
▁tranquillo	-11.906
▁vorrà	-11.9061
▁katie	-11.9061
▁childhood	-11.9061
post	-11.9061
▁charges	-11.9062
▁hugo	-11.9062
lish	-11.9063
▁collegamento	-11.9068
▁indubbiamente	-11.907
▁finanze	-11.907
▁bureau	-11.907
▁slope	-11.9071
▁rebel	-11.9072
▁snakes	-11.9073
▁derivanti	-11.9074
▁rifugiati	-11.9074
mari	-11.9074
▁coke	-11.9075
▁bale	-11.9077
▁kara	-11.9078
▁intend	-11.9079
itá	-11.908
▁dory	-11.9081
▁admiral	-11.9082
▁ritenuto	-11.9082
▁tristi	-11.9082
▁perduta	-11.9083
▁vir	-11.9083
▁wars	-11.9085
▁lace	-11.9085
▁armati	-11.9091
fre	-11.9091
▁assault	-11.9093
▁congratulations	-11.9093
▁reg	-11.9093
▁cm	-11.9094
lee	-11.9095
▁batteries	-11.9095
▁earnest	-11.91
▁interior	-11.91
uma	-11.9102
▁commenti	-11.9103
▁paused	-11.9103
▁2011.	-11.9104
▁sollevato	-11.9104
▁monsieur	-11.9104
▁probabile	-11.9104
▁condiziona	-11.9105
▁stout	-11.9109
osso	-11.911
▁elements	-11.9113
▁rei	-11.9115
▁intellettuale	-11.9115
▁perseguita	-11.9115
▁abroad	-11.9116
▁esportazioni	-11.9117
rni	-11.9117
▁piero	-11.9117
▁spezza	-11.9118
▁migliora	-11.9119
▁mole	-11.9121
ska	-11.9123
▁tagli	-11.9124
▁reputa	-11.9125
▁ballo	-11.9125
▁prendendo	-11.9125
▁misericordia	-11.9127
elecomunicazioni	-11.9127
▁prolunga	-11.9127
▁1951	-11.9127
▁sailors	-11.9128
▁brutto	-11.9129
▁2022.	-11.9132
▁democrat	-11.9132
▁contenute	-11.9138
▁imposto	-11.9139
▁aloud	-11.9141
▁prendo	-11.9143
▁sometime	-11.9143
▁pesci	-11.9145
▁ambassador	-11.9149
▁ricchezze	-11.915
▁shine	-11.915
▁warned	-11.9151
▁mescola	-11.9151
▁giura	-11.9152
▁giudicare	-11.9153
▁esamina	-11.9154
▁orale	-11.9154
▁scrap	-11.9155
▁heels	-11.9157
▁49	-11.9159
▁contraria	-11.9159
▁nothin	-11.916
gò	-11.9162
▁fiera	-11.9165
▁marca	-11.9167
▁dean	-11.9167
▁blank	-11.917
▁danneggia	-11.9172
▁forehead	-11.9172
▁convergenza	-11.9172
▁jimmie	-11.9173
▁gem	-11.9177
▁sbaglia	-11.9178
mpe	-11.9181
▁lodge	-11.9182
▁---	-11.9182
▁confessa	-11.9183
▁increasing	-11.9184
▁meridionale	-11.9184
▁ralph	-11.9184
▁personally	-11.9186
▁vieta	-11.9188
▁ry	-11.9189
▁chron	-11.9189
second	-11.9189
▁pub	-11.9191
▁shed	-11.9192
▁boring	-11.9192
▁tennessee	-11.9195
▁coinvolti	-11.9195
▁creation	-11.9196
izzare	-11.9197
▁rimangono	-11.9197
▁muffin	-11.9197
▁oli	-11.92
▁drain	-11.92
▁illustrated	-11.9201
▁aerei	-11.9201
▁tucker	-11.9202
▁perfetta	-11.9204
bul	-11.9206
▁referendum	-11.9206
▁uccelli	-11.9206
▁mock	-11.9207
▁1936	-11.9207
▁inganna	-11.9209
▁coin	-11.921
▁greca	-11.9211
▁ipotesi	-11.9212
▁uscita	-11.9215
istic	-11.9216
▁slim	-11.9217
impressione	-11.9218
▁padrona	-11.9218
▁circles	-11.9218
▁riferisce	-11.9219
▁soddisfatto	-11.9219
rup	-11.9219
▁offering	-11.922
▁avventura	-11.9221
▁needle	-11.9223
▁patrol	-11.9224
▁dicevano	-11.9225
rad	-11.9229
▁electronic	-11.9229
▁rou	-11.923
▁sensibilità	-11.9231
▁darsi	-11.9233
▁rai	-11.9233
luc	-11.9233
▁metto	-11.9234
▁2006,	-11.9235
comb	-11.9235
▁whit	-11.9237
cono	-11.9238
▁intro	-11.9239
▁infelice	-11.9241
▁jonathan	-11.9241
▁saddam	-11.9241
▁shelf	-11.9242
▁farla	-11.9242
ught	-11.9242
▁ballet	-11.9243
▁esalta	-11.9244
▁regi	-11.9247
▁blade	-11.9248
▁resources	-11.9251
▁greece	-11.9252
▁muni	-11.9252
bot	-11.9253
▁selezione	-11.9254
▁macedonia	-11.9254
▁housing	-11.9255
▁amo	-11.9261
▁dettaglio	-11.9261
ieri	-11.9262
▁celebre	-11.9264
▁clinton	-11.9264
▁taperecorder	-11.9264
▁distinzione	-11.9264
▁sheriff	-11.9264
▁railroad	-11.9264
▁fiamma	-11.9264
▁2012.	-11.9266
▁casual	-11.9267
▁becky	-11.9267
▁buio	-11.9268
aco	-11.9269
▁margine	-11.927
▁evident	-11.9271
▁outer	-11.9273
▁amica	-11.9274
cate	-11.9274
ê	-11.9275
▁harvey	-11.9275
▁spiaggia	-11.9276
▁steep	-11.9276
sei	-11.9276
okay	-11.9278
▁occupato	-11.9278
▁fondamento	-11.9278
rius	-11.9278
▁ramp	-11.9279
▁mansion	-11.9279
▁shah	-11.928
▁acts	-11.928
▁continuerà	-11.928
▁eccezione	-11.9281
▁esige	-11.9284
▁notable	-11.9284
▁cakes	-11.9284
▁cultural	-11.9285
▁douglas	-11.9287
▁anxiously	-11.9287
▁ren	-11.9287
▁ricava	-11.9288
▁esauri	-11.9291
▁metteva	-11.9291
▁hint	-11.9291
▁cede	-11.9291
speech	-11.9292
▁epoca	-11.9292
▁apporta	-11.9293
▁concluded	-11.9296
▁julie	-11.9296
▁provo	-11.9297
utf	-11.9297
▁introduzione	-11.9298
▁gerusalemme	-11.9298
▁swung	-11.9298
▁prosegue	-11.9298
▁1954	-11.9299
▁waving	-11.9299
▁inventa	-11.93
▁puglia	-11.93
▁terroristi	-11.93
▁organ	-11.9302
▁foglio	-11.9304
▁sappia	-11.9304
▁vivamente	-11.9305
▁dimostrano	-11.9305
▁pip	-11.9306
awa	-11.9309
▁ville	-11.9309
aci	-11.9309
▁licenza	-11.931
▁blocco	-11.931
▁fior	-11.9311
▁associated	-11.9311
▁peep	-11.9312
▁smarri	-11.9313
▁genius	-11.9313
▁1934	-11.9314
▁finest	-11.9315
▁fen	-11.9315
▁constantly	-11.9315
▁levi	-11.9317
▁elevati	-11.9317
▁torri	-11.9317
▁affretta	-11.932
▁tee	-11.932
▁destruction	-11.9321
▁religioso	-11.9321
▁balcani	-11.9321
▁1938	-11.9322
▁remark	-11.9323
▁bust	-11.9324
▁unita	-11.9324
ised	-11.9324
▁gina	-11.9329
▁glo	-11.9329
▁brick	-11.9331
▁64	-11.9331
nam	-11.9332
▁wrapped	-11.9333
▁2004.	-11.9334
prov	-11.9334
▁improvvisamente	-11.9335
▁youngest	-11.9337
▁commenta	-11.9337
ctu	-11.9338
▁scissors	-11.9339
▁ottimi	-11.9339
▁forni	-11.934
rig	-11.9343
▁uscito	-11.9344
▁tradizionali	-11.9344
▁́	-11.9344
braunwald	-11.9344
▁google	-11.9345
▁aspettative	-11.9346
▁virgilio	-11.9356
▁complica	-11.9356
▁ces	-11.9358
▁bosnia	-11.9358
▁stavo	-11.9359
▁vendere	-11.9359
▁tolto	-11.936
▁jackie	-11.9361
hor	-11.9363
▁overall	-11.9363
▁feather	-11.9364
qual	-11.9366
▁ky	-11.9367
▁dolphin	-11.9368
▁padroni	-11.9368
▁councillor	-11.9368
▁1955	-11.9368
▁tempest	-11.9368
▁insisted	-11.9369
▁belgio	-11.9369
fast	-11.9372
roman	-11.9373
drops	-11.9377
▁glances	-11.9378
▁clinic	-11.9378
▁beaten	-11.9378
▁testimonianza	-11.938
▁permanent	-11.9381
▁2023,	-11.9382
▁vroom	-11.9385
▁jews	-11.9385
▁immediate	-11.9386
▁bbc	-11.9387
▁nuclear	-11.9387
▁impara	-11.9387
▁madeline	-11.9388
▁paradiso	-11.9391
▁suitcase	-11.9391
▁definiti	-11.9391
▁quartiere	-11.9391
▁fissato	-11.9396
▁belga	-11.9397
▁operai	-11.9398
▁funzionare	-11.9398
▁personaggio	-11.9399
▁passes	-11.94
▁halloween	-11.9402
▁shops	-11.9403
fy	-11.9404
zen	-11.9407
▁tenga	-11.9407
▁aperti	-11.9408
span	-11.9408
▁assured	-11.9409
▁giappone	-11.9409
▁obvious	-11.9409
▁natives	-11.9412
▁refers	-11.9414
nning	-11.9414
▁sostanziale	-11.9414
▁merged	-11.9414
▁assistere	-11.9414
▁averlo	-11.9414
▁mice	-11.9417
▁talmente	-11.9421
▁minus	-11.9422
▁collar	-11.9424
vic	-11.9426
▁mandare	-11.9426
▁cocoon	-11.9427
▁composta	-11.9427
▁maestri	-11.9427
dica	-11.9427
eb	-11.9429
▁gary	-11.9432
▁godere	-11.9434
cera	-11.9435
▁proc	-11.9436
enni	-11.9437
š	-11.9438
▁belgium	-11.9438
▁schiavi	-11.9438
▁disaster	-11.9438
▁curiosity	-11.9438
▁sacra	-11.944
▁frequently	-11.9441
▁gau	-11.9443
▁villages	-11.9445
▁negozio	-11.9446
▁piange	-11.9446
▁riscontra	-11.9449
▁hannah	-11.9449
▁fiamme	-11.945
▁marble	-11.945
▁rispondeva	-11.945
▁farebbe	-11.9452
▁genus	-11.9452
▁resistere	-11.9453
▁jaw	-11.9454
▁radi	-11.9454
▁xv	-11.9455
▁offers	-11.9457
▁lantern	-11.9459
▁obtained	-11.9459
pel	-11.946
▁consent	-11.9461
▁muore	-11.9462
▁disperazione	-11.9462
esa	-11.9463
▁trovarsi	-11.9464
▁factor	-11.9467
▁topic	-11.9468
▁edgar	-11.947
▁potential	-11.9471
▁svolgimento	-11.9473
▁domenico	-11.9473
▁detail	-11.9475
▁marketing	-11.9475
▁gazed	-11.9479
simo	-11.9479
▁spaventa	-11.9479
▁lettore	-11.948
rè	-11.9481
▁conosceva	-11.9482
▁sorprende	-11.9482
▁stradale	-11.9482
▁quae	-11.9483
▁solar	-11.9484
").	-11.9484
▁behavior	-11.9484
▁leather	-11.9484
▁prendi	-11.9488
▁glen	-11.9488
▁stando	-11.9488
▁apply	-11.9491
cular	-11.9491
sim	-11.9493
tani	-11.9493
▁clerk	-11.9497
tp	-11.9498
▁assi	-11.9498
▁geneticamente	-11.9498
▁francesca	-11.95
▁thread	-11.95
▁berg	-11.9502
▁awhile	-11.9502
▁sosta	-11.9503
▁weigh	-11.9505
▁urgenza	-11.9505
▁spark	-11.9507
▁torture	-11.9507
▁scriveva	-11.951
nei	-11.9512
▁mediatore	-11.9512
▁capisce	-11.9513
▁ritorn	-11.9514
ego	-11.9517
▁larry	-11.9518
▁tradimento	-11.952
▁holmes	-11.952
yah	-11.9524
▁candidato	-11.9527
page	-11.9528
▁inches	-11.9528
ado	-11.9528
▁rifa	-11.9529
2002	-11.9529
▁lighted	-11.9529
▁segnalare	-11.9529
▁secondi	-11.953
▁debbo	-11.9531
▁concept	-11.9531
▁accompanied	-11.9531
▁nevertheless	-11.9531
▁singapore	-11.9531
▁scandalo	-11.9537
▁leaning	-11.9538
mò	-11.9538
▁laboratorio	-11.9538
▁expressed	-11.9539
hang	-11.9539
▁pea	-11.954
▁concetti	-11.9543
▁diploma	-11.9544
▁miracle	-11.9544
cj	-11.9546
▁gap	-11.955
▁murderer	-11.9551
▁rami	-11.9551
▁conviene	-11.9553
▁printed	-11.9553
▁cosiddett	-11.9553
izing	-11.9556
rob	-11.9557
▁engineering	-11.9559
▁eroi	-11.9559
▁installa	-11.9559
visi	-11.9561
lift	-11.9563
▁mettersi	-11.9564
▁volse	-11.9564
▁crocodile	-11.9567
▁ospiti	-11.9567
▁monitoraggio	-11.9567
▁escort	-11.9567
▁associa	-11.9571
▁bernard	-11.9573
▁vocal	-11.9574
▁giornalisti	-11.9575
▁bottles	-11.9575
";	-11.9576
▁sana	-11.9578
▁nam	-11.9578
▁despair	-11.9579
▁giuridici	-11.9579
▁1949	-11.9579
▁flame	-11.958
lk	-11.958
▁utah	-11.958
▁crudele	-11.958
▁preda	-11.9583
▁adozione	-11.9588
abe	-11.9589
zzu	-11.959
▁integra	-11.959
▁electoral	-11.9591
▁mischief	-11.9591
▁attacchi	-11.9591
▁offerto	-11.9591
hearted	-11.9592
▁gulf	-11.9593
▁addressed	-11.9596
▁informato	-11.9596
ccò	-11.9596
▁taglio	-11.9599
▁percy	-11.9601
▁daylight	-11.9602
▁cough	-11.9602
▁audrey	-11.9603
▁yourselves	-11.9603
▁mater	-11.9604
▁cancella	-11.9608
▁shots	-11.9608
▁proceed	-11.9609
▁distinti	-11.961
▁raccontare	-11.961
▁milli	-11.9612
▁dimostrazione	-11.9612
▁acquaintance	-11.9614
▁soddisfacente	-11.9614
▁ridotta	-11.9615
▁hastily	-11.9615
▁calcolo	-11.9615
▁ricorre	-11.9615
▁accento	-11.9616
▁bab	-11.9618
offerta	-11.9618
messa	-11.962
mette	-11.962
▁ignorant	-11.9622
▁condur	-11.9625
▁jennifer	-11.9626
▁literally	-11.9626
▁bandi	-11.9627
▁normative	-11.9627
▁fresco	-11.9628
▁adams	-11.9628
▁bells	-11.9629
black	-11.963
▁richiamo	-11.9631
▁compassione	-11.9631
▁mantova	-11.9633
▁bai	-11.9633
▁orientamento	-11.9633
▁simula	-11.9635
sburg	-11.9636
esse	-11.9637
▁parli	-11.9637
mise	-11.9639
▁forbidden	-11.964
▁dedicata	-11.964
▁worm	-11.9642
▁seg	-11.9643
▁000	-11.9644
pl	-11.9647
▁dama	-11.9648
▁entering	-11.9649
▁bretagna	-11.965
▁olandese	-11.965
▁salvaguardia	-11.965
▁sessuale	-11.965
▁invidia	-11.9651
▁gamba	-11.9655
▁giudiziaria	-11.9656
▁hopes	-11.9656
▁arre	-11.9657
▁roland	-11.9657
▁bagna	-11.9659
▁ugo	-11.966
▁rito	-11.9661
▁52	-11.9662
▁license	-11.9662
ppy	-11.9664
gres	-11.9664
▁lest	-11.9667
acci	-11.9669
rap	-11.9669
▁inizi	-11.9671
▁2002,	-11.9673
▁popcorn	-11.9674
esigenza	-11.9675
▁parade	-11.9675
▁unique	-11.9676
▁chances	-11.9677
dear	-11.9677
ison	-11.9679
▁(2	-11.9679
▁gam	-11.9679
▁districts	-11.9682
▁diet	-11.9683
tesi	-11.9686
▁stanze	-11.9688
2/	-11.9688
▁swinging	-11.9688
▁`	-11.9689
▁2003.	-11.9691
rrr	-11.9691
▁dubita	-11.9692
▁generous	-11.9694
▁2008.	-11.9696
▁educazione	-11.9696
gle	-11.9696
▁cera	-11.9697
uck	-11.9697
▁coinvolgimento	-11.9698
▁autumn	-11.9698
▁tedesca	-11.9698
▁esegui	-11.97
▁sfruttare	-11.97
▁brett	-11.9702
adi	-11.9705
▁gabriel	-11.9706
▁falsa	-11.9707
▁banging	-11.9708
▁ammazza	-11.9708
▁manifest	-11.9708
▁accumula	-11.9709
▁iris	-11.9709
▁palermo	-11.971
▁livorno	-11.971
▁dock	-11.971
▁vergine	-11.971
tola	-11.9711
▁visti	-11.9711
▁delivered	-11.9711
▁refrigerator	-11.9711
elenco	-11.9712
▁danari	-11.9712
▁develop	-11.9715
▁brutta	-11.9715
▁nobel	-11.9715
bound	-11.9716
rock	-11.9719
▁osa	-11.972
▁objection	-11.9721
▁catastrofe	-11.9722
▁katherine	-11.9722
▁spilled	-11.9725
▁amava	-11.9728
▁element	-11.9728
▁organized	-11.9729
▁calore	-11.9732
▁divorce	-11.9733
▁dared	-11.9734
▁shepherd	-11.9734
▁beloved	-11.9734
▁machines	-11.9736
▁gitta	-11.9737
ack	-11.9737
nale	-11.9743
▁xx	-11.9744
▁continuò	-11.9746
▁yacht	-11.9746
▁whispering	-11.9748
▁correttamente	-11.975
▁gram	-11.975
▁segnali	-11.9752
▁modena	-11.9753
▁danimarca	-11.9758
▁graeme	-11.9758
▁inserito	-11.9758
effetto	-11.9759
▁benvenuto	-11.9759
▁cells	-11.976
▁observation	-11.976
▁rivolte	-11.976
bles	-11.9764
▁warriors	-11.9765
▁importo	-11.9767
▁cinquecento	-11.9768
▁ew	-11.9768
▁espressa	-11.9768
▁individuale	-11.9768
▁cami	-11.9769
▁wrap	-11.977
▁welsh	-11.977
▁chiedendo	-11.9771
▁tomb	-11.9773
▁rabbits	-11.9775
▁dough	-11.9776
▁limitata	-11.9776
▁articles	-11.9779
▁ou	-11.978
▁2006.	-11.9782
▁buffalo	-11.9782
attempts	-11.9783
▁cares	-11.9783
life	-11.9784
▁nun	-11.9785
▁albums	-11.9786
▁applicato	-11.9788
▁regions	-11.9792
vu	-11.9793
rc	-11.9794
▁affinchè	-11.9794
▁quarrel	-11.9795
▁patience	-11.9795
▁posse	-11.9796
ncies	-11.9796
feld	-11.9796
hen	-11.9797
▁flung	-11.9797
▁85	-11.98
▁yuck	-11.9804
▁elegante	-11.9805
▁goo	-11.9806
▁nephew	-11.9807
▁compresa	-11.9807
▁minacce	-11.9807
▁fornisce	-11.9807
▁duo	-11.9807
▁bottega	-11.9808
▁employed	-11.9811
▁kitten	-11.9811
▁furia	-11.9812
▁darà	-11.9812
▁floating	-11.9814
^	-11.9814
▁opposition	-11.9819
▁resistance	-11.9819
armonizzazione	-11.9819
▁tang	-11.9821
phy	-11.9821
west	-11.9822
▁precisamente	-11.9824
▁inner	-11.9825
▁servo	-11.9826
▁hose	-11.9826
▁hin	-11.9827
▁actions	-11.9827
▁sospetta	-11.9828
▁danese	-11.9828
▁shovel	-11.9828
▁pens	-11.9829
▁immigrati	-11.9829
▁pesanti	-11.9832
▁margot	-11.9833
▁1999.	-11.9839
▁sanitaria	-11.984
ssen	-11.984
▁painter	-11.9842
▁cared	-11.9842
▁ritiro	-11.9843
▁accustomed	-11.9843
▁1998.	-11.9843
▁ritardi	-11.9843
▁meadow	-11.9844
▁subi	-11.9845
▁diventata	-11.9846
▁manifestazioni	-11.9847
▁collaborare	-11.9848
call	-11.9849
▁mistaken	-11.9852
▁audio	-11.9852
▁enjoying	-11.9853
▁spre	-11.9854
▁swell	-11.9854
▁ambedue	-11.9855
▁centuries	-11.9855
▁ceremony	-11.9855
▁wolves	-11.9855
esecuzione	-11.9856
▁analizza	-11.9858
▁inclined	-11.9859
▁suprema	-11.986
▁marched	-11.9861
▁musicale	-11.9862
▁formulazione	-11.9863
▁views	-11.9863
▁yell	-11.9863
refers	-11.9864
zan	-11.9864
fil	-11.9864
▁vend	-11.9865
▁critico	-11.9865
▁clemente	-11.9867
elaborazione	-11.9868
▁fasi	-11.987
▁legata	-11.987
▁determinare	-11.9871
▁cairo	-11.9872
▁auguri	-11.9872
picking	-11.9873
▁ponti	-11.9874
▁mitten	-11.9876
▁lodi	-11.9876
▁vest	-11.9878
▁supremo	-11.988
▁sweat	-11.988
▁elbow	-11.988
▁democratiche	-11.9884
organ	-11.9884
arm	-11.9886
▁moderno	-11.9887
▁iscritto	-11.9888
lò	-11.989
▁nomination	-11.9892
▁agricoli	-11.9892
▁bake	-11.9893
▁tranne	-11.9893
▁odierna	-11.9893
▁divine	-11.9894
fferent	-11.9895
▁prussia	-11.9896
▁documenta	-11.9897
▁warrior	-11.9897
▁engines	-11.9898
/03	-11.9898
tec	-11.99
▁parson	-11.9901
▁comunicato	-11.9903
▁youtube	-11.9903
▁mappamondo	-11.9904
▁hitting	-11.9904
▁aspettava	-11.9906
▁fig	-11.9908
▁uhhum	-11.991
▁dese	-11.9912
▁spiritual	-11.9915
▁sapevo	-11.9916
▁pir	-11.9918
▁scenes	-11.9919
▁greg	-11.992
test	-11.992
ear	-11.9921
▁memorie	-11.9922
hei	-11.9923
aggi	-11.9923
▁loop	-11.9923
otta	-11.9925
▁croci	-11.9925
▁yer	-11.9926
ick	-11.9927
▁tastes	-11.9928
▁glorious	-11.9929
▁reminds	-11.9929
▁chill	-11.9931
▁maintain	-11.9933
▁considerate	-11.9934
▁marion	-11.9934
wal	-11.9934
▁poke	-11.9935
▁cruciale	-11.9937
▁attimo	-11.9939
▁hon	-11.994
▁battaglie	-11.9941
▁ukraine	-11.9941
▁unconscious	-11.9941
▁uguali	-11.9941
▁qualifica	-11.9941
▁outfit	-11.9943
▁prae	-11.9944
▁parlano	-11.9945
▁testimoni	-11.9945
▁varietà	-11.9946
▁gamma	-11.9946
▁cercano	-11.9946
▁painful	-11.9948
istica	-11.9948
atore	-11.995
▁plug	-11.995
▁infant	-11.9951
▁lip	-11.9952
▁fist	-11.9953
▁gratitudine	-11.9953
▁convinti	-11.9953
▁winnie	-11.9955
▁adeguate	-11.9956
▁gloves	-11.9956
importante	-11.9958
efficacia	-11.9959
▁sperimenta	-11.9961
▁negro	-11.9962
▁latest	-11.9964
▁sob	-11.9965
▁moscow	-11.9966
▁actors	-11.9967
▁batter	-11.9967
gard	-11.9968
▁impero	-11.9969
▁neighbors	-11.9973
▁bum	-11.9975
▁91	-11.9976
▁syn	-11.9976
▁nova	-11.9977
▁compliment	-11.9978
▁resolution	-11.9978
▁agenzie	-11.9978
▁watson	-11.9978
espressione	-11.9979
▁marvel	-11.9981
▁serata	-11.9983
▁agenti	-11.9983
▁lode	-11.9983
▁indovina	-11.9984
▁waved	-11.9985
▁bubble	-11.9985
ulo	-11.9986
▁derek	-11.9988
▁intesa	-11.9989
▁cadde	-11.999
▁guarantee	-11.999
▁armonizzazione	-11.9991
▁loyal	-11.9991
▁bead	-11.9992
▁1920	-11.9992
▁hopefully	-11.9994
kie	-11.9994
▁risparmio	-11.9997
[...]
