<unk>	0
<s>	0
</s>	0
.	-3.11492
,	-3.50858
:	-3.63005
▁*	-3.71559
▁the	-3.92473
'	-3.95757
s	-4.17525
▁a	-4.21027
▁i	-4.47489
▁in	-4.49118
mot	-4.49264
▁and	-4.56753
▁di	-4.5929
▁to	-4.6375
▁you	-4.63845
?	-4.65116
chi	-4.71049
▁e	-4.81838
▁of	-4.84899
▁it	-4.92467
▁che	-5.08085
▁that	-5.09064
▁la	-5.16405
t	-5.25801
▁il	-5.33608
▁is	-5.45398
▁=	-5.47937
▁he	-5.50564
▁was	-5.53622
▁[	-5.54212
▁per	-5.63373
▁on	-5.70235
▁un	-5.7068
▁what	-5.72465
]	-5.74239
▁"	-5.7443
▁non	-5.74999
re	-5.76562
▁for	-5.80448
!	-5.82064
▁we	-5.92389
▁this	-5.94754
▁è	-5.95532
▁si	-5.95945
▁with	-5.9897
▁del	-5.99271
▁le	-6.0326
▁-	-6.03988
-	-6.06952
▁no	-6.07802
▁she	-6.08495
▁do	-6.0901
▁they	-6.10062
▁me	-6.10698
▁l	-6.14641
▁have	-6.15235
▁all	-6.15649
▁della	-6.15825
▁at	-6.16316
i	-6.16382
▁be	-6.16435
▁there	-6.1896
▁not	-6.22563
▁una	-6.24114
▁con	-6.26867
▁one	-6.27561
▁so	-6.27861
▁but	-6.28392
▁come	-6.28564
▁her	-6.28653
▁are	-6.30113
▁can	-6.30142
m	-6.32608
▁his	-6.3275
▁as	-6.35946
...	-6.41384
▁da	-6.45148
fat	-6.45524
▁don	-6.48807
▁my	-6.49768
▁had	-6.50259
▁your	-6.5155
▁oh	-6.52138
▁al	-6.52283
▁up	-6.52657
▁like	-6.5347
▁know	-6.53934
▁ma	-6.56524
e	-6.56539
▁yeah	-6.57679
▁go	-6.60815
a	-6.62469
d	-6.63311
▁from	-6.63881
o	-6.65093
▁here	-6.65209
▁out	-6.6873
;	-6.68758
▁.	-6.7236
▁(	-6.75801
▁dei	-6.76127
▁him	-6.76828
▁by	-6.77293
▁se	-6.77611
ll	-6.7911
▁get	-6.80375
▁were	-6.80762
▁if	-6.81633
▁an	-6.82832
▁see	-6.82839
▁'	-6.84642
▁gli	-6.85055
’	-6.85454
▁più	-6.86174
▁just	-6.8716
▁or	-6.87312
▁alla	-6.87459
▁now	-6.87689
to	-6.88255
▁questo	-6.88359
▁right	-6.88811
▁o	-6.88949
no	-6.89538
▁then	-6.89673
▁when	-6.89853
▁sono	-6.90339
▁about	-6.90568
▁dell	-6.91894
▁them	-6.94152
▁well	-6.94359
▁delle	-6.94437
▁said	-6.94649
▁nel	-6.95233
▁who	-6.96238
▁ha	-6.9734
ve	-6.97712
▁think	-6.98021
▁did	-7.0237
ing	-7.03363
▁some	-7.04322
▁where	-7.04955
ta	-7.05353
ed	-7.0541
▁okay	-7.06347
▁would	-7.06465
)	-7.0653
▁lo	-7.06649
▁anche	-7.09365
▁look	-7.11216
▁how	-7.12275
▁good	-7.12564
"	-7.13028
▁little	-7.13037
▁got	-7.13553
▁will	-7.14046
▁mi	-7.19037
▁put	-7.19307
te	-7.1966
inv	-7.20502
."	-7.2144
▁xxx	-7.21484
ti	-7.22867
▁want	-7.23424
▁yes	-7.23982
▁more	-7.24521
▁ad	-7.24669
].	-7.25432
▁time	-7.25848
▁been	-7.27938
▁which	-7.28515
▁back	-7.29103
▁two	-7.29172
▁down	-7.29183
▁very	-7.29359
▁their	-7.29682
▁ed	-7.32671
▁has	-7.33361
▁over	-7.33379
▁ci	-7.35345
va	-7.35694
▁going	-7.37116
▁“	-7.37463
▁	-7.37796
▁let	-7.39341
▁could	-7.41069
r	-7.41782
▁b	-7.41966
▁questa	-7.43475
▁say	-7.44026
▁d	-7.45197
▁nella	-7.46628
▁commissione	-7.4866
,"	-7.49953
▁de	-7.50211
▁other	-7.50635
▁people	-7.52828
▁gonna	-7.53079
▁make	-7.54785
▁take	-7.55146
▁man	-7.56083
▁why	-7.56459
▁into	-7.57936
▁era	-7.58451
▁chi	-7.58465
▁?	-7.59938
▁essere	-7.6037
▁dal	-7.60689
▁off	-7.62595
▁cui	-7.63884
▁us	-7.64041
n	-7.64466
▁loro	-7.64723
▁first	-7.64747
▁too	-7.64775
y	-7.64968
▁these	-7.6564
ndo	-7.65824
▁way	-7.66354
ly	-7.67017
▁su	-7.68396
▁uh	-7.69487
▁%	-7.70005
▁sua	-7.70754
▁because	-7.71418
▁any	-7.7171
▁after	-7.72004
▁suo	-7.72839
er	-7.7295
▁tutti	-7.74006
▁alle	-7.7493
▁tell	-7.75082
▁our	-7.75117
▁io	-7.75411
▁s	-7.75991
▁ne	-7.77534
▁only	-7.77538
▁c	-7.77609
▁er	-7.79183
/	-7.79696
▁degli	-7.79842
▁ho	-7.80804
▁vi	-7.80891
▁ai	-7.81256
--	-7.82944
▁sia	-7.83339
▁tra	-7.83696
▁,	-7.84037
▁really	-7.84229
▁something	-7.84815
na	-7.85611
in	-7.86046
▁much	-7.8689
▁wanna	-7.86962
▁due	-7.87136
▁stato	-7.88457
▁made	-7.8939
▁didn	-7.89623
▁cosa	-7.90709
▁again	-7.91552
▁dalla	-7.92077
▁before	-7.92218
▁presidente	-7.92279
▁than	-7.92651
▁should	-7.92879
▁new	-7.94425
▁um	-7.94487
▁re	-7.94858
▁those	-7.95142
▁quanto	-7.95269
▁parte	-7.95687
▁went	-7.95753
▁day	-7.96096
▁three	-7.96711
▁big	-7.97135
▁così	-7.9721
▁fatto	-7.97959
l	-7.98578
▁home	-7.98826
▁tutto	-7.99149
▁stati	-7.99173
▁does	-7.9937
▁sul	-7.99631
▁came	-7.99806
▁quando	-8.00491
▁away	-8.01116
▁molto	-8.02076
▁signor	-8.02263
▁never	-8.03255
le	-8.0339
▁mean	-8.05115
▁give	-8.05301
▁play	-8.06678
▁also	-8.07056
▁baby	-8.07095
?"	-8.07294
▁long	-8.07355
▁europea	-8.07373
▁old	-8.07548
▁prima	-8.08056
▁house	-8.08065
▁solo	-8.0829
▁book	-8.08412
▁another	-8.09092
▁car	-8.09203
▁thing	-8.09343
▁sulla	-8.09635
▁fa	-8.10295
▁ancora	-8.10325
▁things	-8.10917
▁hanno	-8.10967
▁modo	-8.11205
▁many	-8.11538
▁qui	-8.11704
▁still	-8.12866
▁senza	-8.13343
▁parlamento	-8.13552
▁need	-8.13742
▁quale	-8.13759
▁am	-8.14044
▁may	-8.1434
▁poi	-8.14367
▁mother	-8.14545
▁quella	-8.14606
si	-8.14685
_	-8.14774
▁perché	-8.15065
▁great	-8.15856
▁doing	-8.15871
▁through	-8.1625
▁work	-8.16428
▁far	-8.16635
c	-8.16918
▁abbiamo	-8.17061
add	-8.18083
rsi	-8.18432
ro	-8.18577
▁must	-8.18612
▁ciò	-8.18871
▁thought	-8.18965
▁fare	-8.19645
▁ogni	-8.19697
▁fu	-8.20171
▁even	-8.2021
▁quello	-8.20297
▁fine	-8.20432
▁relazione	-8.20519
▁altri	-8.2052
▁può	-8.20583
▁last	-8.20897
▁noi	-8.20952
▁mio	-8.21148
▁name	-8.21571
▁sempre	-8.21794
▁boy	-8.22531
▁ah	-8.22915
laughs	-8.23764
the	-8.2408
la	-8.25113
▁huh	-8.25483
▁uno	-8.25594
nan	-8.26044
▁questi	-8.27036
▁head	-8.27136
▁tempo	-8.27218
ni	-8.27623
ne	-8.27639
w	-8.28015
▁già	-8.28082
▁won	-8.28374
▁consiglio	-8.28387
▁find	-8.28463
vano	-8.2874
▁ti	-8.29583
▁mr	-8.29634
es	-8.30107
▁around	-8.30157
▁quindi	-8.30205
▁night	-8.30791
▁erm	-8.30803
exp	-8.31179
▁called	-8.31267
▁ora	-8.31406
▁sec	-8.32272
mar	-8.32328
▁mm	-8.32461
▁girl	-8.32895
▁nell	-8.33021
sse	-8.33691
▁hand	-8.34286
▁men	-8.34485
▁eat	-8.34661
▁tale	-8.3477
▁most	-8.34917
▁might	-8.35008
▁!	-8.35213
▁help	-8.35234
▁anni	-8.35678
▁nei	-8.36104
▁place	-8.36298
▁done	-8.36627
▁sure	-8.36845
mente	-8.37253
▁thank	-8.37474
ri	-8.37828
▁father	-8.38571
▁better	-8.38686
▁dopo	-8.38762
▁life	-8.39094
li	-8.39214
▁being	-8.39268
è	-8.39547
▁hey	-8.39638
▁years	-8.39766
▁mommy	-8.40199
unione	-8.40251
▁please	-8.41083
▁school	-8.41615
zione	-8.41796
▁mia	-8.41844
▁politica	-8.42388
▁quali	-8.42444
▁while	-8.42494
▁quel	-8.42679
▁such	-8.42748
▁anything	-8.43466
▁love	-8.43633
▁egli	-8.43688
▁dove	-8.43913
▁else	-8.44075
▁mhm	-8.44226
▁aveva	-8.4503
▁found	-8.45817
▁water	-8.4596
▁nelle	-8.46045
nte	-8.46341
▁paesi	-8.46419
lo	-8.46421
!"	-8.47057
▁nice	-8.47653
al	-8.47813
▁next	-8.47996
▁lot	-8.4898
▁fra	-8.48997
▁world	-8.49213
▁part	-8.49323
▁own	-8.49426
▁same	-8.49657
▁doesn	-8.49774
▁four	-8.49814
th	-8.49836
▁kind	-8.49882
▁secondo	-8.50816
▁lui	-8.51345
▁li	-8.52057
▁tu	-8.52214
▁ball	-8.52307
▁used	-8.52542
and	-8.52581
p	-8.52816
▁saw	-8.53225
▁lavoro	-8.53352
▁under	-8.53537
it	-8.53821
▁always	-8.53941
▁told	-8.54059
ci	-8.54388
▁room	-8.54702
▁vita	-8.54915
▁altro	-8.55357
ò	-8.56444
int	-8.57034
▁volta	-8.57274
▁ever	-8.57426
▁left	-8.57547
▁bene	-8.57566
▁punto	-8.57727
▁perchè	-8.57768
▁face	-8.58275
▁five	-8.58283
▁show	-8.58449
▁end	-8.5851
vi	-8.58737
▁isn	-8.58956
▁nothing	-8.59063
▁1	-8.59141
mi	-8.59256
▁queste	-8.5998
▁keep	-8.60158
▁tutte	-8.60304
▁suoi	-8.6047
us	-8.60524
▁talk	-8.61571
▁europeo	-8.6161
▁took	-8.61985
▁membri	-8.62043
sis	-8.62116
▁every	-8.62205
▁contro	-8.62237
▁mai	-8.62458
▁call	-8.62715
▁2	-8.63008
b	-8.63123
mo	-8.63278
▁deve	-8.63314
▁open	-8.6344
▁va	-8.63629
▁allora	-8.64497
▁turn	-8.6457
▁dall	-8.64638
on	-8.64758
▁sì	-8.64902
▁lei	-8.65389
▁siamo	-8.65464
co	-8.65537
▁n	-8.65685
▁once	-8.65809
▁nostro	-8.65979
▁grande	-8.66149
▁col	-8.66283
▁try	-8.66398
▁goes	-8.66474
▁use	-8.66711
▁sta	-8.67078
▁state	-8.67322
▁po	-8.67328
▁tre	-8.67604
▁proprio	-8.67678
▁oggi	-8.67703
do	-8.67735
▁red	-8.67837
▁giorno	-8.68057
▁maybe	-8.68059
▁money	-8.68081
▁number	-8.68681
man	-8.68793
▁sotto	-8.69055
".	-8.69088
▁son	-8.69096
▁bit	-8.69217
▁course	-8.69353
so	-8.6938
▁year	-8.69441
▁mot	-8.69467
x	-8.69506
▁sarà	-8.69544
▁until	-8.69943
h	-8.70028
▁sorry	-8.70145
de	-8.7026
▁though	-8.70307
▁tanto	-8.70556
▁te	-8.70847
▁door	-8.70884
▁via	-8.70994
vo	-8.71411
▁king	-8.71492
▁both	-8.71607
▁miss	-8.71792
▁hm	-8.71826
▁city	-8.71933
▁sue	-8.72038
▁shall	-8.72456
▁enough	-8.72635
▁wait	-8.72787
▁eyes	-8.72901
bro	-8.73004
.”	-8.73185
▁remember	-8.73386
se	-8.735
▁together	-8.73557
as	-8.73669
▁read	-8.73818
▁side	-8.73895
▁_	-8.74004
▁god	-8.74079
▁quite	-8.74681
rono	-8.74796
▁però	-8.74873
▁best	-8.75251
▁dai	-8.75309
▁sarebbe	-8.75418
you	-8.75593
▁tratta	-8.75667
u	-8.7575
g	-8.76011
▁upon	-8.76018
nti	-8.76363
▁alcuni	-8.76789
▁nostra	-8.76876
▁detto	-8.77022
▁cup	-8.77078
▁primo	-8.7724
▁morning	-8.77348
▁dire	-8.77498
▁dog	-8.77503
▁daddy	-8.77519
ra	-8.7775
▁stesso	-8.78031
▁looks	-8.78271
yes	-8.78469
▁coming	-8.78753
▁children	-8.78859
.]	-8.7891
▁qualche	-8.78998
▁base	-8.79299
▁box	-8.79458
▁asked	-8.80319
▁pretty	-8.80521
▁sir	-8.80581
▁table	-8.80715
▁hard	-8.80729
▁seen	-8.80731
▁looking	-8.80898
▁stop	-8.81102
▁voi	-8.81214
▁its	-8.81465
▁ri	-8.81537
▁m	-8.81567
he	-8.81689
▁t	-8.81693
▁each	-8.81731
▁between	-8.81793
loi	-8.81812
▁young	-8.81951
▁leave	-8.81984
▁feel	-8.82247
▁caso	-8.823
▁3	-8.82505
▁child	-8.8258
▁hi	-8.82658
▁gone	-8.82665
▁says	-8.8284
▁ben	-8.83024
▁cose	-8.83158
▁hear	-8.83168
▁casa	-8.83222
▁agli	-8.83249
▁without	-8.83439
▁few	-8.83574
▁black	-8.8361
▁known	-8.83882
▁stata	-8.83954
▁united	-8.84005
▁everything	-8.84199
▁heard	-8.84528
▁second	-8.84544
▁mrs	-8.84585
▁vorrei	-8.84883
▁different	-8.8511
k	-8.8512
em	-8.8514
▁–	-8.85298
▁erano	-8.85307
▁bad	-8.85316
▁yet	-8.85553
▁story	-8.85703
,”	-8.86526
di	-8.86783
▁mondo	-8.86849
go	-8.87038
▁wanted	-8.87286
▁proposta	-8.87449
rlo	-8.87582
▁mom	-8.87829
zioni	-8.88576
▁american	-8.88605
f	-8.8892
▁problema	-8.89186
▁today	-8.89355
▁ready	-8.89366
▁onorevole	-8.8944
▁real	-8.89569
▁meno	-8.89624
▁set	-8.89709
▁round	-8.90097
▁altre	-8.90186
▁since	-8.90241
▁sit	-8.90498
▁sa	-8.90663
▁later	-8.9081
▁co	-8.90916
▁looked	-8.9137
pat	-8.91507
▁himself	-8.91567
▁fosse	-8.91818
▁against	-8.92282
▁hafta	-8.92647
▁getting	-8.92731
▁dalle	-8.92787
▁forse	-8.92987
▁ask	-8.93163
▁nome	-8.93204
▁mind	-8.93709
▁white	-8.93874
▁half	-8.93968
▁signora	-8.94226
▁persone	-8.94404
▁knew	-8.94408
).	-8.94515
▁fire	-8.94657
sib	-8.94688
▁top	-8.95159
▁importante	-8.95302
▁hands	-8.95328
▁happened	-8.95653
en	-8.96238
▁gran	-8.96496
▁hold	-8.96591
▁believe	-8.96803
▁watch	-8.96987
▁alright	-8.97012
▁momento	-8.97098
▁bed	-8.97254
▁poco	-8.97734
oh	-8.97781
▁verso	-8.97813
ca	-8.97887
),	-8.97932
rà	-8.97964
”	-8.97974
▁small	-8.98143
▁dobbiamo	-8.98151
▁high	-8.98195
me	-8.98414
▁paese	-8.98477
▁having	-8.9851
▁soon	-8.98846
▁food	-8.98899
▁idea	-8.99117
or	-8.99153
sa	-8.99228
▁commissario	-8.99308
▁blue	-8.99342
da	-8.99458
▁gruppo	-8.99481
▁light	-8.99511
▁states	-8.99569
adu	-8.99579
▁page	-8.9986
▁p	-8.99936
▁talking	-9.00263
▁six	-9.00283
▁ten	-9.0036
▁actually	-9.00371
▁died	-9.00529
▁tutta	-9.00635
▁avere	-9.0065
▁green	-9.00709
▁molti	-9.00809
▁move	-9.00875
ma	-9.00979
▁girls	-9.01174
▁picture	-9.01367
▁città	-9.01431
▁u	-9.01603
▁possibile	-9.01637
▁gave	-9.0174
▁whole	-9.01767
▁live	-9.01867
▁party	-9.01916
▁care	-9.01933
▁diritti	-9.02018
▁heart	-9.02119
an	-9.02695
▁questione	-9.02734
▁stay	-9.02748
▁sulle	-9.03087
▁making	-9.03338
▁color	-9.03384
▁nuovo	-9.03433
▁born	-9.03569
▁quelle	-9.03844
▁days	-9.03965
cha	-9.04253
▁ya	-9.04444
▁saying	-9.04729
▁war	-9.0473
▁dear	-9.04994
▁family	-9.05206
▁luogo	-9.05328
▁woman	-9.05358
▁during	-9.05401
▁eh	-9.05757
v	-9.05986
▁sviluppo	-9.06065
▁friend	-9.06329
▁vero	-9.06546
▁esempio	-9.06763
um	-9.06776
▁4	-9.06816
▁sort	-9.06894
z	-9.06947
onorevole	-9.07039
▁♪	-9.07275
amo	-9.07458
▁almost	-9.07678
▁mentre	-9.08326
▁nostri	-9.08369
▁mano	-9.08406
▁invece	-9.08439
▁toys	-9.08456
▁livello	-9.08501
",	-9.08507
we	-9.08529
▁dello	-9.08608
▁tuttavia	-9.08696
▁situazione	-9.09138
▁san	-9.09164
▁particolare	-9.09353
▁town	-9.09834
▁5	-9.09877
ers	-9.09982
▁wasn	-9.10049
▁paper	-9.10107
mento	-9.1017
▁rispetto	-9.10204
▁started	-9.10344
▁run	-9.10389
▁governo	-9.10713
ato	-9.11011
▁certo	-9.11208
▁cat	-9.11434
▁trying	-9.11573
▁guy	-9.11662
▁sopra	-9.11874
▁case	-9.11986
▁close	-9.1208
▁start	-9.12133
▁sui	-9.12317
▁18	-9.1259
▁comune	-9.12594
▁hundred	-9.12987
are	-9.13008
▁viene	-9.13099
▁sull	-9.13457
che	-9.13555
▁g	-9.1374
▁bring	-9.13796
▁word	-9.14005
cause	-9.14279
but	-9.14477
▁quasi	-9.14644
▁piece	-9.14659
▁sistema	-9.14666
▁lady	-9.14763
▁floor	-9.14928
▁bear	-9.15104
▁noise	-9.15276
▁cittadini	-9.15374
▁already	-9.15377
▁along	-9.15615
▁possono	-9.1583
▁nè	-9.15836
▁played	-9.15851
▁happy	-9.16243
▁fino	-9.16644
▁moment	-9.16783
▁wouldn	-9.16883
▁person	-9.16946
▁sei	-9.16988
▁unione	-9.17038
ted	-9.17105
▁cos	-9.17186
▁settore	-9.17254
▁probably	-9.17515
▁sound	-9.1766
▁death	-9.17706
▁game	-9.17801
▁point	-9.17819
▁mercato	-9.17819
▁diritto	-9.17972
▁allo	-9.18125
▁matter	-9.18198
▁brother	-9.18461
▁inoltre	-9.18692
▁national	-9.18717
▁r	-9.18784
▁mouth	-9.19303
▁hair	-9.19452
▁playing	-9.19481
▁haven	-9.19634
▁troppo	-9.19921
▁dare	-9.20009
▁country	-9.20256
▁guess	-9.20294
▁stuff	-9.20321
rci	-9.20332
▁team	-9.20807
▁full	-9.20874
▁wrong	-9.21099
rmi	-9.21181
ga	-9.21186
▁understand	-9.21227
tion	-9.21251
▁dad	-9.21385
▁began	-9.21451
▁aver	-9.21519
▁cut	-9.21595
▁front	-9.21626
▁lost	-9.21793
▁materia	-9.22322
▁credo	-9.22451
▁hello	-9.22485
▁voice	-9.2252
▁john	-9.22524
▁near	-9.22668
▁dice	-9.22765
▁became	-9.22796
▁sicurezza	-9.23044
▁job	-9.23186
▁music	-9.2336
▁volte	-9.23401
▁chair	-9.23894
il	-9.23915
ie	-9.24015
▁age	-9.24342
tta	-9.24371
▁terra	-9.24807
▁ce	-9.24914
▁mine	-9.24914
▁drink	-9.25044
▁line	-9.25291
▁roma	-9.25496
▁parole	-9.25534
▁pro	-9.25548
is	-9.25608
ry	-9.25747
que	-9.25872
▁friends	-9.25989
zza	-9.26008
▁poor	-9.26011
▁times	-9.26271
▁feet	-9.26614
▁tali	-9.2677
ce	-9.26996
▁brought	-9.27018
▁rest	-9.27307
▁problemi	-9.2737
▁anno	-9.27399
▁dio	-9.27586
ia	-9.27587
▁air	-9.27927
▁movie	-9.28456
▁minute	-9.2848
▁sleep	-9.28522
rla	-9.28765
▁seemed	-9.28806
▁occhi	-9.28934
▁women	-9.29056
ty	-9.29255
▁behind	-9.29339
▁siano	-9.29485
▁riguarda	-9.29732
car	-9.29982
▁negli	-9.3008
io	-9.3022
what	-9.30475
▁toy	-9.30496
▁conto	-9.30515
gra	-9.30747
▁porta	-9.30761
▁hope	-9.31008
▁quelli	-9.3118
▁fall	-9.31226
▁pre	-9.31336
▁meglio	-9.31358
▁generale	-9.31451
▁oltre	-9.31456
▁song	-9.3148
▁soltanto	-9.31787
points	-9.31922
▁v	-9.32171
▁gotta	-9.32179
▁turned	-9.3222
▁sometimes	-9.3224
▁sea	-9.32256
▁fat	-9.32283
▁dato	-9.32293
▁week	-9.32755
▁hot	-9.32855
▁twenty	-9.32984
▁vedere	-9.33001
▁sociale	-9.33069
▁ecco	-9.33216
▁words	-9.33273
▁outside	-9.33377
▁grandi	-9.3342
▁fun	-9.33581
▁dead	-9.3363
▁...	-9.33669
▁county	-9.33797
▁quest	-9.33824
▁programma	-9.34073
▁till	-9.34171
▁donna	-9.34222
▁south	-9.34426
▁et	-9.34644
▁discussione	-9.34722
▁boys	-9.34735
▁makes	-9.34762
▁taken	-9.34933
▁stessa	-9.34963
▁10	-9.35078
▁stand	-9.3521
▁pertanto	-9.35356
▁legge	-9.35474
▁alcune	-9.3552
▁rather	-9.35602
▁able	-9.35785
▁river	-9.35808
▁area	-9.35963
▁colleghi	-9.36014
▁train	-9.36136
▁someone	-9.36178
▁sun	-9.36243
▁couldn	-9.36266
▁yellow	-9.36475
▁necessario	-9.36503
▁favore	-9.36738
▁guerra	-9.36763
▁beautiful	-9.36765
▁donne	-9.36837
▁often	-9.37048
▁horse	-9.37121
▁french	-9.37151
▁europa	-9.37342
▁male	-9.37393
▁fell	-9.37416
▁processo	-9.37538
▁qua	-9.3755
▁pure	-9.3767
▁numero	-9.37811
one	-9.37829
anno	-9.37934
▁north	-9.38029
▁phone	-9.38132
▁direttiva	-9.38292
▁nulla	-9.38391
▁hai	-9.38533
ha	-9.38953
▁possiamo	-9.38994
▁means	-9.39185
▁taking	-9.39256
▁papa	-9.39325
▁pur	-9.39372
▁felt	-9.39557
j	-9.39596
▁el	-9.39629
▁lord	-9.39664
▁bird	-9.39725
ness	-9.39732
▁france	-9.39749
ate	-9.39763
azione	-9.39799
▁english	-9.39833
▁sent	-9.40066
▁sembra	-9.40076
▁milk	-9.40097
▁wife	-9.40218
▁guarda	-9.40285
▁write	-9.40326
▁pay	-9.40513
▁however	-9.40593
▁ella	-9.40798
▁uomini	-9.40871
▁insieme	-9.40876
▁herself	-9.40965
▁uhhuh	-9.41119
▁«	-9.41129
▁essi	-9.41196
that	-9.41308
un	-9.41392
▁order	-9.41395
▁nuova	-9.41493
▁x	-9.415
▁senso	-9.41568
▁listen	-9.41602
▁sister	-9.4161
▁myself	-9.41689
▁true	-9.41818
▁k	-9.41946
gli	-9.42002
▁vista	-9.42086
▁possa	-9.42185
▁soprattutto	-9.4236
ting	-9.42411
▁short	-9.42564
ar	-9.42608
▁seven	-9.42627
▁inside	-9.42664
▁piano	-9.42666
▁dunque	-9.42704
▁march	-9.42807
ssero	-9.42875
▁parti	-9.42991
ʼ	-9.43096
▁perhaps	-9.43186
▁late	-9.43225
▁yourself	-9.43387
ch	-9.43448
▁early	-9.43448
▁animals	-9.43881
▁20	-9.43946
▁avrebbe	-9.4411
—	-9.44226
▁ran	-9.44282
▁campo	-9.44332
▁maggiore	-9.44344
▁comes	-9.4435
▁infatti	-9.44435
▁company	-9.44503
▁6	-9.44664
well	-9.44699
▁walk	-9.44703
urs	-9.44829
▁group	-9.44875
▁fact	-9.44896
▁land	-9.44907
era	-9.4495
▁società	-9.45104
▁disse	-9.45193
▁business	-9.45229
▁studio	-9.45387
▁change	-9.45546
sta	-9.45569
▁mezzo	-9.45647
▁f	-9.45651
▁uomo	-9.45743
▁captain	-9.45897
ssi	-9.45968
▁pace	-9.46119
▁lungo	-9.46177
▁ago	-9.46221
▁pick	-9.46468
▁adesso	-9.46495
▁pi	-9.46834
▁forma	-9.46849
est	-9.46903
▁tree	-9.46927
▁morte	-9.46997
▁bisogno	-9.47013
▁books	-9.47043
4	-9.47265
▁ricerca	-9.47333
▁fuori	-9.47443
▁given	-9.47472
europa	-9.47675
▁possibilità	-9.47772
▁potrebbe	-9.47813
rne	-9.47827
▁popolo	-9.47979
▁trattato	-9.47981
born	-9.48004
be	-9.48103
▁wants	-9.482
▁general	-9.48355
▁essa	-9.48398
▁funny	-9.48487
▁[1	-9.4852
▁cuore	-9.48647
▁bro	-9.48748
▁york	-9.48755
▁guys	-9.48756
▁15	-9.48918
▁tal	-9.48936
▁là	-9.49158
▁posizione	-9.49266
▁futuro	-9.49313
▁emendamenti	-9.49454
sti	-9.49766
rò	-9.49783
▁presente	-9.49806
▁road	-9.49837
▁onorevoli	-9.4998
▁posto	-9.50005
▁poter	-9.50034
▁bilancio	-9.5008
▁cioè	-9.50212
tà	-9.50267
▁brown	-9.50318
▁either	-9.5035
iamo	-9.50392
▁mark	-9.50477
ba	-9.50624
▁body	-9.50746
▁domanda	-9.50775
▁eight	-9.50868
▁abbia	-9.50928
▁giorni	-9.50935
▁minutes	-9.51137
▁capo	-9.51162
▁risposta	-9.51166
ria	-9.51408
▁devono	-9.51499
at	-9.51593
tti	-9.51655
ling	-9.51924
tori	-9.51985
▁least	-9.52029
▁meet	-9.52042
▁hat	-9.52147
gi	-9.52543
1	-9.5267
▁sounds	-9.52677
▁buona	-9.52702
ndosi	-9.52752
▁somebody	-9.52806
(	-9.52917
▁né	-9.52953
▁causa	-9.5305
▁large	-9.53079
don	-9.53206
▁ve	-9.53252
am	-9.53272
▁bag	-9.53334
?”	-9.53362
▁bar	-9.53374
fi	-9.53424
▁several	-9.53474
childes	-9.5351
▁doctor	-9.53516
ge	-9.53546
2	-9.53659
▁childes	-9.53659
ranno	-9.53723
▁aren	-9.53922
▁forza	-9.54072
▁grazie	-9.54204
▁mani	-9.54245
el	-9.54252
▁wish	-9.54257
▁posso	-9.54378
▁alone	-9.54384
▁cold	-9.54464
▁12	-9.5471
▁working	-9.54807
▁visto	-9.54831
▁nostre	-9.55236
▁corso	-9.55451
ton	-9.55481
▁dovrebbe	-9.556
▁kill	-9.55937
ale	-9.56097
▁7	-9.5616
▁across	-9.56192
▁president	-9.56245
▁st	-9.56251
▁presso	-9.56357
▁ring	-9.56358
▁#	-9.56394
▁government	-9.56394
▁cause	-9.56497
▁molte	-9.56567
▁tuo	-9.56606
▁ragione	-9.56671
▁letter	-9.56945
rvi	-9.57121
▁throw	-9.57196
▁hungry	-9.57204
huh	-9.57425
▁ride	-9.57469
▁hurt	-9.57929
▁tape	-9.58035
▁principio	-9.58146
po	-9.58173
▁lived	-9.58186
▁camera	-9.5824
▁17	-9.58255
▁appena	-9.58459
▁club	-9.58552
▁proposte	-9.58554
▁buon	-9.5883
per	-9.58978
▁power	-9.58991
▁spesso	-9.59132
▁gente	-9.59266
▁present	-9.59382
&	-9.59428
ati	-9.59458
▁important	-9.59564
▁grado	-9.5957
▁libertà	-9.59673
▁padre	-9.59677
▁silver	-9.59803
▁fece	-9.60043
▁dr	-9.60138
▁tried	-9.60168
▁question	-9.60188
▁ok	-9.60407
▁tea	-9.60447
▁foot	-9.60706
▁killed	-9.60735
▁parola	-9.60962
ng	-9.6097
▁fronte	-9.61028
▁storia	-9.6107
.)	-9.61148
▁propria	-9.61201
»	-9.61316
▁street	-9.61346
▁thanks	-9.61476
▁truck	-9.61543
ano	-9.61599
▁misure	-9.61604
▁boat	-9.61902
▁rose	-9.61948
▁controllo	-9.6205
▁speak	-9.62061
tte	-9.62063
▁mummy	-9.62129
ke	-9.62223
▁voglio	-9.62306
nza	-9.62325
▁seconda	-9.62365
menti	-9.62441
▁past	-9.62476
▁cried	-9.62599
▁avuto	-9.62624
▁january	-9.62686
ant	-9.62764
▁fish	-9.62985
▁]	-9.62988
▁held	-9.63059
▁mamma	-9.63101
▁circa	-9.6313
looks	-9.63141
▁w	-9.63178
▁necessità	-9.63304
altro	-9.6342
ho	-9.6348
▁living	-9.63756
▁andare	-9.64051
▁condizioni	-9.64091
▁stick	-9.64361
▁ground	-9.64375
▁rising	-9.64425
▁others	-9.64578
▁thou	-9.64608
▁tempi	-9.64706
▁deal	-9.64838
▁nine	-9.6487
▁voce	-9.64888
▁pare	-9.64951
▁accordo	-9.65095
▁cooperazione	-9.65112
▁bo	-9.65188
▁glad	-9.65208
▁miei	-9.65222
▁occorre	-9.6524
▁dagli	-9.65331
▁servizi	-9.65434
▁pull	-9.65777
▁park	-9.65957
▁fight	-9.66102
▁fin	-9.66169
▁y	-9.66234
▁attività	-9.66279
▁university	-9.66345
pa	-9.66444
▁buy	-9.66478
▁merito	-9.6654
▁saranno	-9.66613
bile	-9.6684
▁hour	-9.66865
▁bus	-9.66878
▁16	-9.66943
▁diversi	-9.67151
▁realtà	-9.67236
ter	-9.67291
▁8	-9.67419
▁kept	-9.67534
▁quadro	-9.67536
▁star	-9.67565
▁pen	-9.67615
▁frog	-9.67756
ah	-9.67768
▁figure	-9.67775
▁quei	-9.67993
ata	-9.68003
▁everybody	-9.68062
▁‘	-9.68117
▁history	-9.68154
▁clothes	-9.68235
▁h	-9.68297
▁george	-9.683
▁earth	-9.68833
▁dark	-9.68886
▁master	-9.68926
▁tipo	-9.69018
▁break	-9.69118
▁become	-9.69155
▁silence	-9.69206
▁football	-9.69302
▁risoluzione	-9.69311
▁problem	-9.69357
▁among	-9.69437
land	-9.69646
col	-9.69668
rs	-9.69782
▁sat	-9.70128
▁named	-9.70177
▁department	-9.70298
▁wow	-9.70316
▁fit	-9.70432
▁desidero	-9.70467
▁regolamento	-9.70517
▁daughter	-9.70621
▁series	-9.70778
▁peter	-9.70864
▁termine	-9.70879
▁wonder	-9.70985
▁chance	-9.7101
▁nuove	-9.7112
▁tom	-9.7122
▁comunità	-9.71342
▁film	-9.71345
▁quattro	-9.71383
▁jack	-9.71383
▁whether	-9.71448
▁qualità	-9.71458
nt	-9.71473
▁less	-9.71603
▁mama	-9.71643
▁dinner	-9.71687
rli	-9.71778
▁answer	-9.71817
able	-9.71822
▁qualcosa	-9.71866
ment	-9.72076
she	-9.72141
▁vengono	-9.72271
by	-9.72274
▁kids	-9.72297
▁thinking	-9.72349
▁free	-9.7246
▁subito	-9.72578
▁persona	-9.72696
▁whatever	-9.72845
▁running	-9.72859
▁clear	-9.72881
men	-9.72909
hi	-9.72951
bo	-9.73019
▁afraid	-9.73184
▁easy	-9.7323
▁attraverso	-9.73279
▁luce	-9.73306
con	-9.73315
▁fast	-9.73361
▁member	-9.73408
▁nose	-9.73463
▁april	-9.73496
▁single	-9.73571
ssimo	-9.73618
▁trouble	-9.73618
▁eye	-9.73814
5	-9.73911
▁anzi	-9.73918
▁comunque	-9.73919
▁prodotti	-9.73988
▁strada	-9.74078
▁rock	-9.74168
▁band	-9.74195
up	-9.74273
▁ta	-9.74277
▁seems	-9.7429
▁grave	-9.74364
▁avevano	-9.74382
▁reason	-9.74413
▁west	-9.74436
ere	-9.74554
▁sitting	-9.74625
▁libro	-9.74894
▁davvero	-9.74953
vocalizes	-9.74958
▁moon	-9.74964
▁ice	-9.74976
▁esso	-9.75158
▁stood	-9.75202
▁hit	-9.75327
▁fatti	-9.75367
gma	-9.75429
▁tua	-9.75477
▁bella	-9.75479
der	-9.75482
▁pop	-9.75488
pe	-9.75524
▁pubblica	-9.75708
▁altra	-9.75752
▁pa	-9.75847
▁europei	-9.7592
accordo	-9.75989
▁window	-9.761
▁politiche	-9.76112
▁october	-9.76206
▁september	-9.76252
▁lives	-9.76265
▁ca	-9.76299
▁bye	-9.76352
▁indeed	-9.76389
▁progetto	-9.76455
▁married	-9.76501
▁august	-9.76503
▁special	-9.76582
▁visit	-9.76587
▁ship	-9.76765
▁strong	-9.76772
▁prendere	-9.76783
my	-9.76824
▁shoes	-9.76824
▁tomorrow	-9.77084
▁finished	-9.77182
▁durante	-9.77223
▁cap	-9.77232
▁seguito	-9.77329
▁informazioni	-9.77379
▁trova	-9.77387
▁signore	-9.77419
▁happen	-9.77467
▁themselves	-9.77469
▁corte	-9.77531
▁passo	-9.77589
▁forte	-9.77673
▁nessuno	-9.77905
▁released	-9.77997
▁usually	-9.77999
▁album	-9.78006
▁riguardo	-9.7812
▁thousand	-9.78407
ali	-9.78498
▁takes	-9.78516
▁italia	-9.78553
▁lay	-9.78631
▁j	-9.78642
if	-9.78647
▁third	-9.78757
▁proposito	-9.78774
▁career	-9.78847
▁mar	-9.78955
rle	-9.78955
tto	-9.78984
▁anyway	-9.7902
for	-9.79058
▁within	-9.7911
▁9	-9.79117
▁draw	-9.79156
▁summer	-9.79188
▁office	-9.79246
▁suppose	-9.79329
▁doll	-9.7933
▁qual	-9.79341
▁bunny	-9.79388
▁imprese	-9.79482
▁milioni	-9.79505
▁fondo	-9.79625
▁catch	-9.79722
▁send	-9.79731
▁nuovi	-9.79741
▁dì	-9.79818
▁pan	-9.79838
▁maggior	-9.79961
▁fanno	-9.80123
▁mare	-9.80195
▁hours	-9.80255
▁bisogna	-9.8042
▁push	-9.80433
▁prova	-9.80519
▁juice	-9.8055
▁nazionali	-9.80581
▁almeno	-9.80588
▁mo	-9.80591
▁parlare	-9.80745
▁nazionale	-9.8079
▁ka	-9.8084
▁board	-9.80938
▁data	-9.8105
▁worked	-9.81084
ck	-9.81091
3	-9.81091
▁art	-9.81136
▁mary	-9.81185
▁ruolo	-9.81295
▁noises	-9.81314
pi	-9.8138
▁months	-9.81415
▁exactly	-9.81495
▁british	-9.81512
▁internazionale	-9.81534
!”	-9.81733
▁army	-9.81801
▁opera	-9.81847
▁yep	-9.81917
▁save	-9.81975
▁uncle	-9.82062
▁infine	-9.82248
▁eating	-9.82305
▁gets	-9.82425
▁sede	-9.82442
▁regno	-9.82467
▁+	-9.82774
▁14	-9.82806
▁decisione	-9.82848
▁answered	-9.8294
▁ex	-9.82987
▁santa	-9.82994
▁13	-9.83089
▁england	-9.83286
▁cow	-9.83483
▁arm	-9.83547
▁news	-9.83553
▁kitchen	-9.83581
▁responsabilità	-9.83707
▁wall	-9.83739
▁ritengo	-9.83826
▁toward	-9.8392
▁husband	-9.83978
▁ore	-9.84044
▁thomas	-9.84051
▁fondi	-9.84083
▁punti	-9.84206
ley	-9.84223
▁instead	-9.84254
▁honey	-9.84261
▁forget	-9.84327
▁30	-9.8433
▁main	-9.84439
▁whose	-9.84499
▁dati	-9.84572
▁testa	-9.84598
▁drive	-9.84626
▁camp	-9.84649
laughing	-9.84732
▁coloro	-9.84792
▁touch	-9.8484
▁furono	-9.84887
▁parere	-9.84957
ine	-9.85031
▁parla	-9.85051
▁dentro	-9.85096
▁aiuti	-9.85138
ino	-9.85167
▁police	-9.85168
rio	-9.85197
▁east	-9.85199
▁june	-9.8525
▁above	-9.85252
puts	-9.85306
▁ate	-9.85334
00	-9.85366
▁potuto	-9.85401
▁mal	-9.85437
▁wind	-9.85445
▁presidenza	-9.85446
takes	-9.85609
ka	-9.85762
▁district	-9.85817
▁nor	-9.86056
▁indian	-9.86101
▁couple	-9.86149
▁autorità	-9.86314
▁forward	-9.86352
▁orange	-9.86363
▁list	-9.86433
▁pubblico	-9.86479
▁post	-9.86513
▁middle	-9.86568
▁vuole	-9.86604
▁bottle	-9.86666
▁avanti	-9.86686
picks	-9.86838
▁diverse	-9.86838
za	-9.86869
▁sera	-9.86918
▁evening	-9.86964
ità	-9.86983
▁excuse	-9.86991
▁fifty	-9.87014
▁ahead	-9.87074
▁relazioni	-9.87242
▁birthday	-9.87244
▁seem	-9.87316
▁cannot	-9.87332
▁moved	-9.87374
ist	-9.87449
▁servizio	-9.87458
▁natura	-9.87523
▁corpo	-9.87526
tore	-9.87527
▁putting	-9.87556
▁service	-9.87649
▁replied	-9.87677
▁euro	-9.8769
▁famiglia	-9.87748
▁human	-9.87972
less	-9.88036
▁bi	-9.88249
▁passed	-9.88263
▁quiet	-9.88283
▁met	-9.88428
▁ones	-9.88434
oni	-9.88434
▁certain	-9.88448
sh	-9.88453
▁sweet	-9.88468
▁ba	-9.88483
▁mettere	-9.8862
▁november	-9.88661
▁tonight	-9.88661
▁chiesa	-9.88683
▁sapere	-9.88709
▁wear	-9.8873
▁christmas	-9.88735
▁fair	-9.88757
▁video	-9.88776
▁pesca	-9.88838
ff	-9.89019
▁david	-9.8904
nze	-9.89471
▁television	-9.8948
▁super	-9.89507
▁relatore	-9.89543
▁system	-9.89592
▁effetti	-9.89592
▁die	-9.89619
▁reached	-9.89626
son	-9.89648
▁paul	-9.89683
▁gold	-9.89692
▁coffee	-9.89751
▁arms	-9.89816
▁shape	-9.89859
▁faccia	-9.89874
▁waiting	-9.89926
▁colla	-9.89952
▁sing	-9.89961
▁longer	-9.90194
▁church	-9.90303
▁rappresenta	-9.90434
all	-9.90466
sca	-9.90594
▁possible	-9.90619
sco	-9.90768
of	-9.90797
▁whom	-9.90801
▁dibattito	-9.9083
▁points	-9.90952
ver	-9.90952
▁tired	-9.9096
▁league	-9.90966
▁salute	-9.91026
▁plan	-9.91047
▁court	-9.91125
▁attenzione	-9.91142
▁vostra	-9.91443
▁mesi	-9.91452
ur	-9.91539
▁breve	-9.91567
▁clean	-9.91584
▁joe	-9.91588
▁veramente	-9.91595
rebbe	-9.91731
▁cool	-9.91739
▁poteva	-9.91751
▁december	-9.91765
▁significa	-9.91766
▁blood	-9.91824
▁space	-9.9185
▁giovani	-9.91852
▁queen	-9.91864
▁soft	-9.91949
▁tema	-9.91978
▁shut	-9.92028
rie	-9.92033
▁sole	-9.92338
▁return	-9.92413
▁na	-9.92436
▁class	-9.92579
▁van	-9.92631
1:	-9.92643
▁poiché	-9.92658
▁procedura	-9.92674
▁public	-9.92713
▁avete	-9.92722
à	-9.92762
▁dress	-9.92895
▁although	-9.92907
▁notte	-9.92925
▁motivo	-9.92925
▁trovare	-9.92992
▁broke	-9.93044
▁written	-9.93109
ic	-9.93173
interno	-9.93184
▁difficile	-9.9335
▁penso	-9.93524
é	-9.93589
ity	-9.93772
▁assai	-9.93779
▁economica	-9.93783
ue	-9.93991
mmo	-9.9401
▁inter	-9.94198
▁july	-9.94248
▁intorno	-9.94259
▁dat	-9.94302
▁plate	-9.94314
▁11	-9.94319
▁pari	-9.94402
▁check	-9.94458
▁testo	-9.94483
▁station	-9.94552
▁casi	-9.94577
▁everyone	-9.94587
▁madre	-9.94638
altra	-9.94645
bili	-9.94645
▁seat	-9.94647
▁bell	-9.94693
tu	-9.94695
▁misura	-9.94743
▁carlo	-9.94744
▁avesse	-9.94781
▁returned	-9.94806
▁province	-9.94855
ja	-9.94863
▁vale	-9.94958
▁region	-9.95
rti	-9.95043
▁island	-9.9506
bi	-9.95066
▁puts	-9.95133
▁season	-9.95145
▁afternoon	-9.9516
▁aunt	-9.95195
lla	-9.95405
▁garantire	-9.95425
▁standing	-9.95459
▁giustizia	-9.95492
ful	-9.95537
▁pieces	-9.95552
▁win	-9.95571
▁kitty	-9.95632
▁principi	-9.95695
▁politico	-9.95853
▁million	-9.959
▁certainly	-9.95905
▁form	-9.96007
eri	-9.96008
ner	-9.9604
ste	-9.96075
▁lì	-9.96196
▁count	-9.96314
▁nello	-9.96334
den	-9.96439
▁bambini	-9.96497
▁gun	-9.96734
▁lettera	-9.96767
▁hole	-9.96822
▁former	-9.96923
▁imp	-9.96975
▁norme	-9.97017
▁amore	-9.97019
▁spoon	-9.97205
▁media	-9.97317
▁caught	-9.97394
▁following	-9.97438
▁cinque	-9.97456
▁vede	-9.97555
▁apple	-9.97631
▁sola	-9.97658
▁tanti	-9.97771
▁straight	-9.97783
▁careful	-9.97857
02	-9.97865
▁holding	-9.97961
▁london	-9.98048
▁places	-9.98076
▁college	-9.98114
▁hall	-9.9813
▁low	-9.98156
▁par	-9.98311
▁law	-9.98346
▁opened	-9.98431
▁lotta	-9.98466
▁building	-9.98548
▁village	-9.98621
▁uhoh	-9.98743
▁linea	-9.98767
▁niente	-9.98917
▁umani	-9.98919
▁nobody	-9.98991
▁february	-9.98994
▁strange	-9.99144
▁games	-9.99191
▁francia	-9.99311
ita	-9.99348
▁quick	-9.99408
▁sight	-9.99502
▁affinché	-9.99537
▁chief	-9.99538
▁player	-9.99581
–	-9.99636
nce	-9.99809
▁sub	-9.99868
▁terzo	-9.99886
et	-9.99937
▁bel	-9.99957
▁periodo	-10.0001
▁migliore	-10.0003
▁towards	-10.0008
▁tv	-10.0014
mel	-10.0015
▁vostro	-10.0018
▁thirty	-10.0023
▁feeling	-10.0024
▁quickly	-10.0043
▁built	-10.005
▁piuttosto	-10.0055
▁pochi	-10.0057
▁farm	-10.0066
fa	-10.0067
▁shot	-10.0075
▁position	-10.008
▁alcun	-10.0085
▁prime	-10.0092
▁weeks	-10.0093
gna	-10.0095
▁wrote	-10.0102
silence	-10.0105
▁cheese	-10.0106
there	-10.011
▁broken	-10.0123
▁sick	-10.0126
roz	-10.0128
▁ross	-10.0131
▁potere	-10.0145
▁titolo	-10.0147
ion	-10.0156
▁sarah	-10.0162
▁battle	-10.0167
▁richiesta	-10.0191
▁anyone	-10.0196
▁chiaro	-10.02
▁cake	-10.0213
tra	-10.0221
▁essendo	-10.0225
▁cura	-10.0226
led	-10.0228
▁formazione	-10.0255
▁soluzione	-10.0259
▁wood	-10.0262
▁primi	-10.0262
▁sè	-10.0263
ì	-10.0267
▁serie	-10.0269
▁trees	-10.0285
▁america	-10.0288
▁supposed	-10.029
▁pig	-10.0292
▁en	-10.0293
▁risorse	-10.0295
▁conte	-10.0297
▁minister	-10.0306
sce	-10.0309
▁spero	-10.0311
▁thy	-10.0315
▁zzz	-10.0316
▁vogliamo	-10.032
▁ii	-10.032
▁facendo	-10.0327
▁ordine	-10.0334
▁sense	-10.0338
▁major	-10.0339
▁ooh	-10.0346
▁uniti	-10.0349
▁pel	-10.0355
▁wan	-10.0357
ki	-10.0375
zze	-10.0386
▁partito	-10.0394
▁devo	-10.0394
ko	-10.0402
▁aspetti	-10.0406
▁gi	-10.0415
nina	-10.0416
▁pounds	-10.0418
▁ro	-10.0422
▁sociali	-10.0423
▁naturalmente	-10.0425
▁stiamo	-10.0435
▁ni	-10.0445
▁cookie	-10.0458
▁successo	-10.0461
▁international	-10.0476
▁duck	-10.0476
▁maniera	-10.048
fe	-10.0488
▁deputati	-10.0491
▁amici	-10.0493
▁perciò	-10.0507
▁alcuna	-10.0508
▁kid	-10.0512
why	-10.0516
uomo	-10.0523
▁telling	-10.0531
way	-10.0534
su	-10.0536
▁commune	-10.0536
▁confronti	-10.0543
▁future	-10.0545
▁council	-10.0549
▁resto	-10.0553
day	-10.0555
▁pizza	-10.056
▁programmi	-10.0568
▁suddenly	-10.0569
ster	-10.0571
▁match	-10.0573
▁passato	-10.0574
▁protezione	-10.058
▁fe	-10.058
▁using	-10.0592
▁posti	-10.0595
▁sostegno	-10.0598
▁pass	-10.0603
▁truth	-10.0607
▁changed	-10.0607
▁armi	-10.0611
▁maria	-10.0613
qui	-10.0621
▁hell	-10.0626
▁works	-10.0626
▁pictures	-10.0628
▁atto	-10.0633
▁stessi	-10.0633
▁ultimi	-10.0641
▁attack	-10.0643
▁lu	-10.0645
▁questioni	-10.0662
▁garden	-10.0671
ambiente	-10.068
▁miles	-10.0682
amente	-10.0689
▁25	-10.0695
▁hospital	-10.0696
▁consumatori	-10.07
▁anti	-10.0716
lin	-10.0718
▁collega	-10.072
▁fatta	-10.0723
▁sangue	-10.0729
▁preso	-10.0731
6	-10.0731
▁safe	-10.0732
▁learn	-10.0741
▁presto	-10.0753
▁fellow	-10.0755
▁stars	-10.0762
▁importanza	-10.0769
▁circle	-10.0787
▁obiettivi	-10.0791
▁sai	-10.0794
7	-10.0802
▁breakfast	-10.0813
▁chiama	-10.082
lt	-10.0824
▁spazio	-10.0826
▁cook	-10.0833
▁centro	-10.0835
▁interested	-10.0846
▁common	-10.0849
2:	-10.0852
▁regioni	-10.0867
▁occasione	-10.0871
▁creare	-10.088
▁difficoltà	-10.0882
▁wild	-10.0883
▁chapter	-10.0886
▁pretend	-10.0887
tri	-10.0898
▁warm	-10.0904
▁dietro	-10.0905
▁animali	-10.0906
▁store	-10.0917
▁jump	-10.0917
▁decided	-10.0926
▁heavy	-10.093
▁pe	-10.0932
ero	-10.0935
▁fix	-10.0949
▁gas	-10.095
▁piedi	-10.0952
ish	-10.0954
▁vuoi	-10.0965
ya	-10.0966
ex	-10.0969
▁cross	-10.0977
8	-10.0978
makes	-10.0986
lu	-10.1011
▁language	-10.1012
▁interno	-10.103
ze	-10.1032
▁qualsiasi	-10.1035
▁valore	-10.1037
▁importanti	-10.1045
▁piú	-10.1049
▁anybody	-10.1052
▁build	-10.1054
▁bath	-10.1057
ation	-10.1062
▁german	-10.1073
▁finger	-10.108
▁grand	-10.1084
▁giving	-10.1085
▁que	-10.1088
▁beat	-10.1094
▁pratica	-10.1106
▁elephant	-10.1107
ring	-10.1113
▁dance	-10.1114
▁bread	-10.1118
í	-10.1122
not	-10.1123
▁act	-10.1127
▁mette	-10.113
▁fede	-10.1134
▁silly	-10.1137
▁produzione	-10.1142
▁jo	-10.1146
▁stopped	-10.1146
▁fi	-10.1152
▁followed	-10.116
▁articolo	-10.1161
let	-10.1162
▁lunch	-10.1175
cca	-10.1178
▁fo	-10.1182
▁doubt	-10.1183
▁nearly	-10.1193
▁istituzioni	-10.1195
▁scuola	-10.1201
▁spirito	-10.1202
▁contrario	-10.1214
▁radio	-10.1214
▁esiste	-10.1218
▁ye	-10.1218
▁field	-10.122
▁regione	-10.1226
▁population	-10.1227
▁mese	-10.1237
▁cry	-10.1248
▁happens	-10.125
▁19	-10.1267
▁repubblica	-10.1267
▁ain	-10.127
▁ought	-10.1274
▁lovely	-10.1275
▁tutela	-10.1278
▁stanno	-10.1281
▁blocks	-10.1283
▁local	-10.1291
▁carry	-10.1302
▁needs	-10.1309
▁milano	-10.1316
▁block	-10.1316
llo	-10.1317
▁(19	-10.1319
▁yesterday	-10.1323
▁nonché	-10.1325
▁attualmente	-10.1326
▁risultati	-10.1334
▁fear	-10.1343
▁finish	-10.1351
▁secret	-10.1362
▁received	-10.1368
▁tri	-10.1381
▁est	-10.1384
▁moving	-10.1389
▁alto	-10.1399
▁hang	-10.14
▁vari	-10.1401
ous	-10.1409
▁gestione	-10.141
▁except	-10.141
▁basta	-10.1411
▁finalmente	-10.1415
▁giusto	-10.1416
▁cars	-10.1416
▁yyy	-10.1423
▁trust	-10.1425
▁intende	-10.1434
▁test	-10.1446
ina	-10.1449
▁libera	-10.146
▁municipality	-10.1466
▁serve	-10.1477
▁beginning	-10.148
▁semplice	-10.1481
▁snow	-10.1484
▁race	-10.1484
▁ko	-10.1496
du	-10.1497
▁worry	-10.1501
ana	-10.1504
▁force	-10.1507
→	-10.151
▁giovanni	-10.151
▁liked	-10.1519
▁termini	-10.1521
▁comunicazione	-10.1524
▁mie	-10.1539
▁specie	-10.155
▁cover	-10.1551
▁letto	-10.1553
▁anymore	-10.1557
lli	-10.1561
▁parents	-10.1565
▁conferenza	-10.1568
▁egg	-10.157
▁deep	-10.1576
▁domani	-10.1578
▁betty	-10.1579
time	-10.1581
▁onde	-10.1582
▁lots	-10.1586
▁control	-10.1587
com	-10.159
fo	-10.1594
▁24	-10.16
▁support	-10.1609
▁avendo	-10.1617
▁flowers	-10.1618
▁conversation	-10.1622
▁sappiamo	-10.1629
▁writing	-10.163
how	-10.1636
▁chicken	-10.1636
ora	-10.1637
▁members	-10.1638
▁personale	-10.1646
▁animal	-10.1649
▁venga	-10.165
▁mente	-10.1661
▁debba	-10.1664
ambito	-10.1674
▁follow	-10.1689
▁prince	-10.169
▁interest	-10.1691
voc	-10.1696
▁du	-10.1721
▁whoa	-10.1723
▁esser	-10.1724
▁innanzi	-10.1725
▁crayon	-10.1731
tor	-10.1734
▁ringrazio	-10.1743
▁union	-10.1753
▁&	-10.1754
▁prese	-10.1754
▁carried	-10.1758
▁dovuto	-10.176
▁azioni	-10.1761
▁leader	-10.1765
▁adam	-10.1766
▁reca	-10.1771
▁bank	-10.1775
▁capital	-10.1777
▁lie	-10.178
▁moglie	-10.1784
zzo	-10.1799
▁interessi	-10.1801
▁sky	-10.1802
▁vera	-10.1804
▁welcome	-10.1806
▁figlio	-10.1808
▁report	-10.1817
ini	-10.1819
can	-10.1819
▁favorite	-10.182
▁bright	-10.1824
iti	-10.1828
▁including	-10.1829
▁)	-10.1832
they	-10.1844
▁scopo	-10.1861
▁venne	-10.1866
▁sign	-10.1866
▁knows	-10.1874
▁com	-10.1876
▁cream	-10.1878
▁laugh	-10.1885
ico	-10.1885
▁ottenere	-10.1889
▁wonderful	-10.1895
articolo	-10.1896
▁ormai	-10.1897
▁pat	-10.1899
▁piccolo	-10.1899
line	-10.1904
▁meeting	-10.1908
▁step	-10.1912
▁none	-10.1913
▁based	-10.1928
+	-10.1942
▁sco	-10.1944
▁assolutamente	-10.1945
obs	-10.1945
▁monkey	-10.1956
▁2020	-10.1959
cu	-10.196
▁presenti	-10.1967
▁politici	-10.1971
glo	-10.1976
▁mum	-10.1976
▁kiss	-10.1976
rgli	-10.1989
30	-10.1995
▁leaving	-10.2005
▁sto	-10.2009
▁aspetto	-10.2013
▁level	-10.2015
▁note	-10.2016
mother	-10.2016
▁fossero	-10.2022
▁appeared	-10.2026
▁kingdom	-10.203
▁questions	-10.2038
▁votazione	-10.2048
▁date	-10.2048
▁continua	-10.2053
▁meant	-10.2058
▁th	-10.206
▁dieci	-10.2061
▁square	-10.2063
▁nina	-10.2067
▁lose	-10.2067
▁difesa	-10.2072
▁bottom	-10.2076
▁share	-10.2076
remo	-10.2081
▁accordi	-10.2083
▁esse	-10.2085
▁pie	-10.2093
▁object	-10.2095
▁mad	-10.21
▁clock	-10.2103
▁leggi	-10.2106
")	-10.2115
tur	-10.2122
▁rispose	-10.213
erà	-10.2132
▁presentato	-10.2137
▁shoe	-10.214
rum	-10.2142
▁dream	-10.2147
▁starts	-10.2157
▁interesting	-10.216
▁puppet	-10.2176
▁roll	-10.2177
▁sam	-10.2188
▁entro	-10.2192
▁settori	-10.2194
▁bill	-10.2195
▁blow	-10.2212
▁progetti	-10.222
▁pensiero	-10.2223
▁yup	-10.2227
▁bob	-10.223
▁term	-10.225
▁hate	-10.2262
á	-10.2262
▁volontà	-10.2263
▁seeing	-10.2263
▁unico	-10.2271
▁michael	-10.2285
▁record	-10.2289
▁walking	-10.229
amp	-10.229
▁principe	-10.2292
ismo	-10.2293
▁attention	-10.2293
▁teacher	-10.2304
▁added	-10.2309
▁goin	-10.2313
▁laughing	-10.2317
,000	-10.2318
▁exclaimed	-10.2322
tivo	-10.2343
▁economico	-10.2351
▁darling	-10.2354
▁chiede	-10.2356
tive	-10.2358
▁india	-10.2361
▁distance	-10.2362
ente	-10.2367
ture	-10.2369
▁jane	-10.2385
▁sin	-10.2389
▁prove	-10.2389
▁ministro	-10.2391
▁sistemi	-10.2395
▁wa	-10.2397
▁stupid	-10.24
▁busy	-10.2403
▁hurry	-10.2405
▁passi	-10.2415
▁self	-10.2419
▁stone	-10.2423
▁commercio	-10.2425
▁paura	-10.2425
▁tratto	-10.2428
▁doveva	-10.2436
▁teeth	-10.2453
▁spent	-10.2455
▁view	-10.2458
▁costi	-10.2464
▁winter	-10.2471
tura	-10.2487
▁finally	-10.2489
pro	-10.2491
▁potrà	-10.2496
▁dovrà	-10.2499
▁computer	-10.2504
▁100	-10.2504
ian	-10.2511
▁farlo	-10.2514
▁bridge	-10.2523
▁ra	-10.2528
▁sheep	-10.2531
▁trasporto	-10.2536
▁legs	-10.2537
▁further	-10.254
▁mezzi	-10.254
▁example	-10.2545
▁politician	-10.2549
▁interesse	-10.255
▁bought	-10.2556
wa	-10.2559
▁faceva	-10.2564
▁social	-10.2567
▁germany	-10.2568
▁lavori	-10.2569
ism	-10.2572
room	-10.2591
▁turns	-10.2599
nda	-10.26
▁ebbe	-10.2604
im	-10.2605
▁corner	-10.2607
▁somewhere	-10.2609
▁presenza	-10.2612
▁riforma	-10.2622
les	-10.2623
▁pink	-10.2625
▁hill	-10.2625
▁tante	-10.2627
▁reading	-10.2633
▁promise	-10.2637
▁gruppi	-10.2638
▁rain	-10.2641
▁california	-10.2645
▁walked	-10.2649
▁plays	-10.2656
▁private	-10.2666
▁forty	-10.2673
▁boo	-10.2676
▁officer	-10.2676
▁led	-10.2679
▁reach	-10.2684
ordine	-10.2685
▁cost	-10.2685
▁pensare	-10.2688
▁genere	-10.2692
▁possano	-10.2695
▁picks	-10.2702
▁created	-10.2706
▁month	-10.2718
now	-10.2721
▁concorrenza	-10.2725
▁affrontare	-10.2736
▁perfect	-10.2738
▁risultato	-10.2748
rai	-10.2757
▁riferimento	-10.2759
▁21	-10.276
▁auto	-10.2762
▁puzzle	-10.2763
▁davanti	-10.2767
bu	-10.2768
▁spoke	-10.277
▁presentata	-10.2775
tico	-10.2786
▁contra	-10.2788
▁tower	-10.2791
▁twelve	-10.2794
▁monte	-10.2799
▁century	-10.2802
▁final	-10.2804
▁gioco	-10.2812
▁sugli	-10.2812
▁james	-10.2814
▁ove	-10.2814
▁vanno	-10.2818
▁disposizione	-10.2828
▁popolazione	-10.2829
▁especially	-10.284
zi	-10.2842
▁fuck	-10.2844
ies	-10.2846
▁verità	-10.2856
▁worth	-10.2857
bc	-10.2857
▁fondamentale	-10.2863
▁sunday	-10.2864
▁ja	-10.2867
▁dry	-10.2871
▁stage	-10.2872
▁coi	-10.2878
▁forgot	-10.2881
jo	-10.2882
▁fly	-10.2886
ld	-10.2886
▁proprie	-10.2887
#	-10.2887
▁served	-10.2897
▁carta	-10.2904
▁rende	-10.2905
▁rischio	-10.2906
▁grew	-10.2907
glio	-10.2915
▁mondiale	-10.2917
"]	-10.2921
▁drop	-10.2922
▁letters	-10.2922
▁yo	-10.2923
▁colle	-10.2926
▁danno	-10.2929
▁resta	-10.293
ssa	-10.2933
▁information	-10.2934
ber	-10.2939
▁charge	-10.294
ler	-10.2942
age	-10.2943
▁cento	-10.2951
▁watching	-10.2954
▁shop	-10.2956
▁leg	-10.2961
this	-10.2979
▁messo	-10.298
▁capi	-10.2982
▁mostra	-10.2983
▁director	-10.2984
▁allowed	-10.2989
▁loved	-10.2989
stra	-10.2989
▁obiettivo	-10.2991
▁forze	-10.2997
▁forth	-10.3001
▁laughed	-10.3001
ru	-10.3001
▁francesco	-10.3005
zo	-10.3018
▁purtroppo	-10.3019
▁lead	-10.3027
▁fini	-10.303
▁mon	-10.3032
▁spese	-10.3039
▁difficult	-10.3045
▁fucking	-10.3056
▁considerazione	-10.3059
▁track	-10.3064
ding	-10.3065
▁pot	-10.3065
▁shit	-10.3065
▁quanti	-10.3069
mer	-10.3093
ul	-10.3097
▁ga	-10.3098
ari	-10.3106
▁anne	-10.3113
ns	-10.3125
▁siete	-10.3125
▁health	-10.3132
ham	-10.3138
nd	-10.3146
▁venire	-10.3147
▁itself	-10.3154
▁stuck	-10.3157
▁pena	-10.3169
▁rer	-10.3171
▁mira	-10.318
▁robert	-10.3183
▁oggetto	-10.319
▁lunga	-10.319
▁piace	-10.3191
▁type	-10.3197
▁amico	-10.3199
▁neck	-10.3199
▁dubbio	-10.3202
▁duca	-10.3204
▁rich	-10.3204
▁dar	-10.3204
ger	-10.3212
▁vicino	-10.3214
▁23	-10.3216
▁richard	-10.3217
▁bite	-10.322
▁carattere	-10.3221
▁50	-10.323
▁partire	-10.3231
non	-10.3235
”.	-10.3241
0	-10.3244
▁crescita	-10.3253
▁musica	-10.3259
▁tanta	-10.3263
▁giovane	-10.3267
▁caterpillar	-10.3277
▁sposta	-10.3279
▁names	-10.3281
▁comuni	-10.3282
▁avea	-10.3287
▁ambito	-10.329
▁wash	-10.3299
▁rendere	-10.3303
▁seno	-10.3303
▁cielo	-10.3305
▁laughs	-10.3305
▁nord	-10.331
▁continued	-10.3315
▁qualcuno	-10.3319
ite	-10.3338
▁gravi	-10.335
▁crying	-10.3354
▁rimane	-10.3355
▁cha	-10.3356
▁settimana	-10.3363
ura	-10.3372
▁chiedere	-10.3375
▁castle	-10.3378
▁atti	-10.3382
▁crazy	-10.3394
▁spend	-10.3397
▁ears	-10.3403
▁vol	-10.3404
▁scorso	-10.3407
▁vecchio	-10.3407
▁period	-10.3411
▁jim	-10.3415
▁lavoratori	-10.3416
▁spot	-10.3417
▁voluto	-10.3419
▁stava	-10.342
▁center	-10.3432
then	-10.3445
▁varie	-10.345
▁grass	-10.3463
▁1,	-10.3465
▁character	-10.3468
ble	-10.3476
▁strumenti	-10.3476
▁za	-10.3484
lle	-10.3492
▁certamente	-10.3495
▁sad	-10.351
lia	-10.352
▁verde	-10.3522
▁shouldn	-10.3522
peter	-10.3523
tá	-10.3524
▁voto	-10.3525
▁membro	-10.353
▁lake	-10.354
ard	-10.3548
▁mu	-10.3556
▁dropped	-10.3559
ando	-10.3559
▁creazione	-10.3565
▁direzione	-10.3567
▁voleva	-10.3579
▁carne	-10.3582
▁china	-10.3593
▁bocca	-10.3598
▁prossimo	-10.3602
▁holds	-10.3604
▁ricordo	-10.3607
▁scritto	-10.3611
▁secolo	-10.3621
▁diceva	-10.3622
▁--	-10.3625
▁mille	-10.3625
▁decide	-10.3626
▁japan	-10.3629
▁washington	-10.363
▁poichè	-10.3632
▁qualunque	-10.3634
▁firenze	-10.3644
▁tenere	-10.3648
▁avevo	-10.3651
▁central	-10.3659
▁tail	-10.3662
▁chocolate	-10.3663
▁problems	-10.3664
▁ch	-10.3666
▁dialogo	-10.3671
▁destra	-10.3673
▁crisi	-10.3674
▁speranza	-10.3676
▁disposizioni	-10.368
▁oppure	-10.368
▁tall	-10.3691
▁bow	-10.3694
▁fortuna	-10.3696
zio	-10.3705
▁spring	-10.371
▁sostenere	-10.3715
▁conseguenze	-10.3717
▁frank	-10.3726
▁sé	-10.3726
▁pensa	-10.3729
▁piccoli	-10.3733
▁dà	-10.3739
▁bu	-10.3746
▁sito	-10.3746
tò	-10.3749
▁2000	-10.3751
▁ge	-10.3752
▁popular	-10.3755
▁account	-10.3756
come	-10.376
▁avviso	-10.3761
▁key	-10.3763
▁dico	-10.3764
ville	-10.3772
▁particular	-10.3776
gu	-10.3782
▁comunitario	-10.3791
▁evitare	-10.3792
▁showed	-10.3811
▁maggio	-10.3816
▁fondamentali	-10.3825
▁weren	-10.3826
▁peas	-10.3829
▁capire	-10.3831
▁prodotto	-10.3832
▁intervento	-10.3834
▁aiuto	-10.3841
▁para	-10.3847
▁feed	-10.3847
▁surprise	-10.3848
▁knock	-10.3852
▁professional	-10.3853
▁situation	-10.3853
=	-10.3855
▁horses	-10.3858
▁fase	-10.386
▁gar	-10.3861
▁decisioni	-10.3863
▁propri	-10.3868
▁affari	-10.3876
occupazione	-10.3879
▁seguente	-10.3884
▁apart	-10.3897
▁carica	-10.3898
▁alive	-10.3901
▁asking	-10.3904
trice	-10.3907
▁chiaramente	-10.391
▁simile	-10.3913
▁ovviamente	-10.3913
▁centrale	-10.3915
▁william	-10.3924
9	-10.3924
▁bello	-10.3929
▁stare	-10.3929
▁peace	-10.393
▁nurse	-10.3935
▁valutazione	-10.3944
red	-10.3949
▁paid	-10.3957
▁bang	-10.3959
▁democrazia	-10.396
▁facciamo	-10.3961
▁paris	-10.3968
▁fresh	-10.3969
▁according	-10.3971
▁facile	-10.3974
▁shake	-10.3977
▁ital	-10.3983
▁faith	-10.3989
▁semplicemente	-10.3989
turns	-10.3992
▁vedi	-10.3999
▁wide	-10.4001
▁passa	-10.4001
▁shirt	-10.4004
▁hardly	-10.4009
▁adult	-10.4011
anti	-10.4012
illustration	-10.4014
▁butter	-10.4019
ccio	-10.402
▁thus	-10.4028
rd	-10.4029
▁telephone	-10.403
gno	-10.403
▁val	-10.4032
▁saint	-10.4035
▁documento	-10.4041
▁smile	-10.4047
br	-10.4056
q	-10.4057
▁capacità	-10.4064
▁sport	-10.407
▁below	-10.4073
▁nonostante	-10.4077
▁unless	-10.4078
▁vivere	-10.4087
▁gra	-10.4089
▁mouse	-10.4091
▁famous	-10.4099
▁prende	-10.4111
▁lid	-10.4115
▁regole	-10.4121
▁volume	-10.4121
▁strumento	-10.4121
▁iii	-10.4122
▁pain	-10.4122
▁ver	-10.4132
▁senti	-10.4136
▁22	-10.4138
▁europee	-10.4141
▁intanto	-10.4148
▁francese	-10.4153
▁sleeping	-10.4157
holds	-10.416
▁marzo	-10.4161
▁figli	-10.4162
gasps	-10.4167
▁ragioni	-10.4168
▁anima	-10.4169
▁ero	-10.4171
▁serious	-10.4188
▁education	-10.4189
▁grow	-10.4192
▁fai	-10.4196
▁directed	-10.4205
▁yours	-10.4212
▁expect	-10.4216
▁rispondere	-10.4219
▁acqua	-10.4224
who	-10.4227
▁bobby	-10.4227
▁lines	-10.4234
▁calling	-10.4236
▁simple	-10.4236
▁hide	-10.4237
▁emendamento	-10.4242
▁popoli	-10.4242
▁wake	-10.4247
ava	-10.4253
▁verrà	-10.4263
▁giuridica	-10.4264
▁cerca	-10.4266
▁similar	-10.4267
▁ossia	-10.4267
▁certa	-10.4269
▁closed	-10.427
zzi	-10.4271
▁abbastanza	-10.4271
ac	-10.4279
▁bigger	-10.4297
▁migliorare	-10.43
enti	-10.4313
▁sicuramente	-10.4316
▁spirit	-10.432
▁joined	-10.4324
gt	-10.4332
id	-10.4344
▁parts	-10.4345
▁contesto	-10.4353
▁lingua	-10.4356
▁scared	-10.4358
▁&-	-10.4359
▁birds	-10.4359
▁lying	-10.4365
▁trip	-10.4365
▁fratello	-10.4365
▁market	-10.4368
▁portare	-10.4374
▁principali	-10.4381
▁entered	-10.4388
op	-10.4396
▁babies	-10.4396
▁political	-10.4399
▁relative	-10.4407
▁pericolo	-10.4407
▁sala	-10.4408
▁passare	-10.4412
▁loud	-10.4413
▁bet	-10.4413
▁turning	-10.4413
▁bowl	-10.4416
ssima	-10.4422
ola	-10.4428
▁ricordare	-10.4439
sso	-10.4441
▁design	-10.4442
▁charles	-10.4446
▁slowly	-10.445
▁nazioni	-10.4454
tic	-10.4456
▁caro	-10.4456
▁piccole	-10.447
glia	-10.4473
▁pu	-10.4474
▁elementi	-10.4474
ps	-10.4475
▁procedure	-10.4478
▁aspetta	-10.4485
▁zone	-10.4486
▁cor	-10.4486
▁voglia	-10.4487
cco	-10.4488
ent	-10.4488
▁accident	-10.4493
▁territorio	-10.4504
dy	-10.4505
▁sinistra	-10.4505
▁mattina	-10.4507
▁lato	-10.4513
▁cultura	-10.4514
▁press	-10.4518
ad	-10.4518
▁fiducia	-10.4532
▁hasn	-10.4536
▁hotel	-10.4537
▁probabilmente	-10.4555
▁leaves	-10.4557
▁esame	-10.4558
▁fox	-10.4564
▁piccola	-10.4565
▁needed	-10.4568
▁talked	-10.4572
▁maggioranza	-10.4574
▁napoli	-10.4574
▁lascia	-10.4575
osi	-10.4578
mp	-10.4584
▁personal	-10.4591
▁eggs	-10.4591
▁fingers	-10.4593
▁giudizio	-10.4593
▁danger	-10.4595
emendamento	-10.4609
house	-10.4609
▁vediamo	-10.4612
▁forest	-10.4613
inizio	-10.4615
gen	-10.4616
▁fuoco	-10.462
▁sale	-10.4624
▁stories	-10.4627
▁dicembre	-10.4629
ku	-10.463
▁compito	-10.4642
▁picked	-10.4643
▁stampa	-10.4645
▁conti	-10.4646
▁stra	-10.465
▁giugno	-10.4652
▁capitano	-10.4652
▁nature	-10.466
clock	-10.4661
▁fate	-10.4667
▁award	-10.4669
▁helped	-10.4676
▁glass	-10.468
mon	-10.468
▁various	-10.4684
▁pleasure	-10.4693
▁include	-10.4696
▁internet	-10.4699
▁40	-10.4706
▁beyond	-10.4707
▁nessun	-10.4709
▁mountain	-10.4719
▁viaggio	-10.4723
▁journey	-10.4726
».	-10.4727
acqua	-10.4729
▁sicuro	-10.4731
▁estremamente	-10.4731
▁legislazione	-10.4735
▁silenzio	-10.4738
▁positivo	-10.4745
▁progressi	-10.4748
▁murder	-10.475
▁ladies	-10.4752
▁fur	-10.4753
▁nemmeno	-10.4754
▁therefore	-10.4754
▁uso	-10.4755
▁rabbit	-10.4756
▁presenta	-10.4757
nu	-10.4758
▁action	-10.4763
▁teddy	-10.4764
▁professor	-10.4767
▁terrible	-10.4768
▁desiderio	-10.4768
▁chiedo	-10.4772
▁seduta	-10.4773
▁beach	-10.4774
▁singing	-10.4775
uso	-10.4776
ary	-10.4782
▁string	-10.4782
▁civile	-10.4783
▁sell	-10.4784
ica	-10.4788
▁tener	-10.4788
▁iron	-10.4795
▁medesimo	-10.4801
▁convenzione	-10.4801
cy	-10.4805
▁servi	-10.4814
her	-10.4817
▁australia	-10.4822
▁indi	-10.4826
▁alta	-10.4839
▁extra	-10.4839
out	-10.484
ggio	-10.4843
▁bensì	-10.4848
industria	-10.4851
▁russia	-10.4852
▁belle	-10.4861
▁learned	-10.4865
▁join	-10.4868
▁sette	-10.487
▁devi	-10.4876
pointing	-10.4879
▁particolarmente	-10.4881
▁size	-10.4886
▁dovrebbero	-10.4893
▁sc	-10.4893
▁japanese	-10.4895
▁supper	-10.4902
▁pieno	-10.4904
bra	-10.4906
▁conseguenza	-10.4909
▁western	-10.491
▁scene	-10.491
▁background	-10.4911
▁ministri	-10.4914
▁massima	-10.4922
▁comp	-10.4928
idea	-10.4928
bout	-10.4933
ito	-10.4934
▁shoot	-10.4939
▁scelta	-10.4947
▁ieri	-10.4949
▁speaking	-10.495
shi	-10.4952
▁worse	-10.4953
▁manca	-10.4965
▁migliori	-10.4969
▁studi	-10.4975
ono	-10.4975
▁chiesto	-10.4976
▁choo	-10.4979
▁notice	-10.4981
▁priorità	-10.499
▁centre	-10.4995
rri	-10.4996
▁study	-10.4996
▁dressed	-10.501
▁standard	-10.5017
▁older	-10.5021
▁piena	-10.5027
▁pin	-10.5027
▁patria	-10.5039
▁royal	-10.504
▁card	-10.5041
▁sufficiente	-10.5043
ccia	-10.5047
ante	-10.5048
▁button	-10.5055
▁esprimere	-10.5057
ji	-10.506
▁sar	-10.5061
▁meat	-10.5073
▁dolly	-10.5075
▁cast	-10.5076
▁cercare	-10.5078
▁dan	-10.508
▁vigore	-10.5083
▁guida	-10.5085
▁countries	-10.5086
▁rete	-10.5094
▁port	-10.5096
zia	-10.5097
▁effect	-10.5098
▁ar	-10.5099
▁trovato	-10.5103
child	-10.5104
▁total	-10.5105
▁taste	-10.5119
▁anna	-10.5122
▁azione	-10.5124
▁joy	-10.5127
▁libero	-10.5133
▁coach	-10.5151
▁piazza	-10.5155
▁enjoy	-10.5155
▁lower	-10.5155
▁impegno	-10.5162
▁machine	-10.5163
ù	-10.5183
▁rip	-10.5184
▁tie	-10.5187
▁gennaio	-10.5188
▁ultimo	-10.5189
▁barn	-10.5192
▁visita	-10.5192
▁raggiungere	-10.5193
▁magnet	-10.5198
▁aye	-10.5199
▁governor	-10.5201
▁coast	-10.5203
▁()	-10.5211
▁collaborazione	-10.5213
▁risulta	-10.5217
▁modello	-10.5219
▁shows	-10.522
▁sand	-10.522
▁lettura	-10.524
▁trasporti	-10.5242
▁attuale	-10.5244
▁likes	-10.5246
▁ricorda	-10.5249
▁reale	-10.5253
▁bri	-10.5258
▁1999	-10.5263
▁modifica	-10.5263
▁allah	-10.5268
iva	-10.5271
▁henry	-10.5276
▁absolutely	-10.5277
▁shore	-10.5281
▁maggiori	-10.5282
▁necessaria	-10.5284
▁corn	-10.5286
▁bal	-10.5287
▁siccome	-10.5291
▁double	-10.5291
▁dichiarazione	-10.5292
▁partecipazione	-10.5297
▁motivi	-10.5297
▁lor	-10.5303
▁damn	-10.5305
▁seguire	-10.5305
▁tiny	-10.531
▁sottolineare	-10.5313
▁bianco	-10.5321
ir	-10.5321
▁brush	-10.5323
▁26	-10.5324
▁anch	-10.5324
▁sensi	-10.533
▁amount	-10.5333
20	-10.5345
▁sugar	-10.5345
▁ear	-10.5358
▁svolto	-10.5365
▁eleanor	-10.5365
▁avrà	-10.5366
▁row	-10.5369
▁sarebbero	-10.5372
king	-10.5374
▁ab	-10.5375
▁likely	-10.5375
▁natural	-10.5377
▁society	-10.5385
▁bra	-10.5386
▁nan	-10.5389
▁soldiers	-10.5389
▁palazzo	-10.539
▁covered	-10.5398
▁2,	-10.541
▁footnote	-10.5415
▁febbraio	-10.5425
rre	-10.5427
▁affatto	-10.5429
▁dirty	-10.5432
▁storm	-10.5433
▁rapporto	-10.5435
▁certi	-10.5436
ghi	-10.5444
▁riduzione	-10.5455
▁1996	-10.5461
▁principale	-10.5467
▁slide	-10.5468
▁drew	-10.547
▁event	-10.5471
▁partner	-10.5472
▁rid	-10.5473
tus	-10.5473
▁regime	-10.5475
ultimo	-10.5476
▁ocean	-10.5478
▁conoscenza	-10.548
▁role	-10.5487
▁speed	-10.5487
▁continuare	-10.5488
▁comitato	-10.549
▁richiede	-10.549
ndi	-10.5494
▁nessuna	-10.5494
▁community	-10.5495
gar	-10.5496
▁actor	-10.5497
▁posta	-10.5498
▁airplane	-10.5505
▁caused	-10.551
▁ambiente	-10.551
▁soldati	-10.5511
▁singer	-10.5515
▁2018	-10.5515
bri	-10.552
▁presentare	-10.5526
▁gives	-10.5527
▁flat	-10.5533
▁dimostra	-10.5534
▁fiori	-10.5535
▁wheel	-10.5538
music	-10.5538
▁lion	-10.554
▁mor	-10.5543
osa	-10.5546
▁direction	-10.555
ship	-10.5552
▁path	-10.5557
side	-10.5558
looking	-10.5561
▁cups	-10.5562
▁settembre	-10.5565
▁iniziative	-10.5566
▁opere	-10.5567
ron	-10.5572
▁project	-10.5582
▁softly	-10.5586
▁colors	-10.5593
▁amsterdam	-10.5596
reaches	-10.5602
▁vuol	-10.5607
▁soul	-10.5608
▁european	-10.5615
▁maestro	-10.5616
▁ragazzi	-10.5616
▁fraser	-10.5619
ud	-10.562
▁drawing	-10.562
▁usa	-10.5624
▁pubblici	-10.5627
▁ow	-10.5633
▁op	-10.5638
▁z	-10.565
gia	-10.565
▁ovvero	-10.5652
▁deciso	-10.5652
▁forme	-10.5663
▁parlato	-10.5668
▁martin	-10.5668
▁puoi	-10.5672
▁add	-10.5674
cci	-10.5681
▁honor	-10.5682
▁starting	-10.5686
▁concetto	-10.5688
▁navi	-10.5701
▁efficace	-10.5701
▁africa	-10.5702
▁ze	-10.5705
▁piacere	-10.5712
▁luck	-10.5718
▁dovremmo	-10.5724
▁wand	-10.5728
▁libri	-10.5733
▁felice	-10.5734
▁military	-10.5734
etto	-10.5738
▁grandma	-10.5743
▁umana	-10.5745
▁[$	-10.5746
▁begin	-10.5746
▁č	-10.5747
▁princess	-10.5747
▁election	-10.5758
▁laid	-10.5759
▁sud	-10.5761
▁volto	-10.5768
▁cousin	-10.5768
gai	-10.5768
▁coat	-10.5772
▁falls	-10.5773
▁edge	-10.5774
▁idee	-10.5775
▁luglio	-10.5776
▁potrebbero	-10.5779
▁italy	-10.5779
▁mess	-10.5781
▁somma	-10.5785
▁oops	-10.5785
▁neither	-10.5787
▁("	-10.5788
▁relativa	-10.5788
▁27	-10.579
▁original	-10.5792
▁price	-10.5796
%	-10.5798
▁declared	-10.5799
▁sal	-10.58
▁canto	-10.5802
▁crede	-10.5807
nods	-10.5808
▁vengano	-10.5811
▁purple	-10.5812
▁shi	-10.5814
▁morto	-10.5818
eth	-10.5821
▁lettere	-10.5821
▁contributo	-10.5822
ric	-10.5833
▁castello	-10.5833
▁dicendo	-10.584
▁escape	-10.5845
ten	-10.5847
dis	-10.5847
▁giù	-10.5848
▁otto	-10.5849
▁raised	-10.5856
▁dogs	-10.5857
▁pietro	-10.5859
▁quegli	-10.586
▁trade	-10.5866
▁marco	-10.5873
▁brave	-10.5878
▁subject	-10.5884
▁metà	-10.5889
▁sebbene	-10.5891
▁governi	-10.5893
▁nu	-10.59
▁agreed	-10.5903
▁gu	-10.5904
▁saturday	-10.5905
▁bay	-10.5908
▁modi	-10.5908
▁modern	-10.5909
▁missing	-10.5909
▁magic	-10.5912
▁grazia	-10.5912
▁economici	-10.592
▁smell	-10.5921
▁championship	-10.5921
▁joseph	-10.5921
▁sold	-10.5924
▁zona	-10.593
▁asleep	-10.5933
ene	-10.5939
ph	-10.594
▁lontano	-10.5942
▁fighting	-10.5943
▁28	-10.5947
▁choice	-10.5948
▁tears	-10.5949
▁faccio	-10.595
▁ancor	-10.5963
▁threw	-10.5963
▁diventa	-10.5971
▁tardi	-10.5971
▁negoziati	-10.5974
▁spread	-10.5981
▁lavorare	-10.5985
▁zoo	-10.5985
▁sentire	-10.5987
uta	-10.5988
▁vertice	-10.5989
▁basket	-10.599
▁canada	-10.5992
▁engine	-10.5999
▁naturale	-10.5999
▁angry	-10.6
▁manner	-10.6
▁agree	-10.6006
au	-10.6007
▁ki	-10.6008
▁regionale	-10.6011
▁title	-10.6016
▁higher	-10.6017
kay	-10.6019
ak	-10.6021
▁europe	-10.6021
▁considered	-10.6022
▁imagine	-10.6029
▁marito	-10.6036
▁continue	-10.6039
▁figura	-10.6043
more	-10.6045
▁opportunità	-10.6045
▁ringraziare	-10.6047
▁scrivere	-10.6049
▁quarter	-10.605
▁esperienza	-10.6056
▁santo	-10.606
▁moneta	-10.6061
dem	-10.6063
▁nope	-10.6063
▁yum	-10.6068
tiva	-10.6072
enza	-10.6072
▁completely	-10.6078
ju	-10.6079
▁detta	-10.6082
▁scrive	-10.6089
▁strategia	-10.609
ken	-10.6091
▁costo	-10.6091
,--	-10.6095
▁breath	-10.6099
▁precedente	-10.6099
▁condizione	-10.6101
▁enemy	-10.6101
▁vogliono	-10.6101
▁flying	-10.6102
▁charlie	-10.6106
▁ridurre	-10.611
▁gate	-10.6118
▁signori	-10.6118
▁1998	-10.6123
nk	-10.6126
▁lawyer	-10.6128
▁announced	-10.6135
▁guard	-10.6139
▁difference	-10.6142
▁manager	-10.6151
▁jean	-10.6155
▁prevede	-10.6159
▁tenuto	-10.6161
▁abbiano	-10.6164
▁icecream	-10.6171
▁happening	-10.618
▁simili	-10.6184
▁dolore	-10.6193
▁molta	-10.6193
▁simply	-10.6198
▁prezzo	-10.6199
▁stesse	-10.6203
▁propone	-10.6203
▁entrare	-10.6206
ol	-10.6207
▁figliuolo	-10.6215
▁applicazione	-10.622
▁perch	-10.6221
▁female	-10.6224
▁besides	-10.6226
▁soli	-10.6229
etti	-10.6229
▁umano	-10.6235
▁falling	-10.6235
uto	-10.6246
like	-10.6252
▁cavallo	-10.6252
bus	-10.6255
ppo	-10.6256
ford	-10.6263
▁arrived	-10.6266
oso	-10.6267
▁struttura	-10.6267
▁pareva	-10.6271
▁slow	-10.6272
▁venti	-10.6274
art	-10.6277
▁strutturali	-10.6277
▁twice	-10.6279
▁villa	-10.6279
▁innanzitutto	-10.6284
▁italian	-10.6293
-0	-10.6293
▁skin	-10.6296
▁accettare	-10.6302
▁continues	-10.6303
▁iniziativa	-10.6305
uh	-10.6307
aun	-10.6307
ut	-10.631
tter	-10.6316
▁length	-10.6318
▁produced	-10.6318
▁missed	-10.632
▁porre	-10.632
▁offer	-10.6321
ran	-10.6321
▁sara	-10.6324
▁internazionali	-10.6329
ori	-10.6332
toys	-10.6336
vir	-10.6344
▁direttamente	-10.6351
▁cal	-10.6351
▁costituisce	-10.6355
▁informazione	-10.6357
▁doggie	-10.6357
▁brain	-10.6359
▁riteniamo	-10.6366
▁northern	-10.6366
▁obviously	-10.6367
▁terzi	-10.6372
▁ambientale	-10.6377
▁quell	-10.6378
je	-10.6379
▁fame	-10.6381
▁ru	-10.6385
ny	-10.6386
▁1995	-10.6389
▁spa	-10.6391
▁smoke	-10.6394
▁fourth	-10.6395
▁proud	-10.6395
▁domande	-10.6399
▁golden	-10.6405
ggia	-10.6417
▁fri	-10.642
▁meal	-10.6423
▁harry	-10.6425
▁opportuno	-10.6438
▁sharp	-10.644
cia	-10.6445
▁novembre	-10.6449
pre	-10.6451
▁tira	-10.6452
▁smart	-10.6453
▁vo	-10.6455
tro	-10.6455
van	-10.6456
▁arriva	-10.6457
eranno	-10.6459
▁southern	-10.6466
▁messa	-10.6467
▁training	-10.6469
▁riconoscimento	-10.6471
▁ordered	-10.6472
▁sforzi	-10.6476
smo	-10.6481
▁virtù	-10.6487
▁bee	-10.6488
▁upstairs	-10.6489
▁aiuta	-10.6492
▁christian	-10.6494
▁argomento	-10.6495
▁documenti	-10.6501
▁uhuh	-10.6502
▁command	-10.6509
▁practice	-10.651
bb	-10.6514
▁coscienza	-10.6515
▁pair	-10.6523
▁militare	-10.6529
▁ted	-10.6532
▁iv	-10.6532
ggi	-10.6538
▁driver	-10.6538
▁pla	-10.6541
pri	-10.6544
▁movies	-10.6544
▁plastic	-10.6546
▁sex	-10.6548
▁appunto	-10.6549
▁ke	-10.655
ab	-10.6552
▁sixty	-10.6554
▁sapete	-10.6554
▁prison	-10.6566
▁avrebbero	-10.6575
aria	-10.6576
▁division	-10.6578
▁calm	-10.6582
▁campagna	-10.6593
▁minuti	-10.6594
11	-10.6595
▁’	-10.6596
▁semi	-10.6606
▁terms	-10.6607
▁2013	-10.6608
▁greater	-10.6613
▁mancanza	-10.6617
▁pour	-10.6617
▁driving	-10.6622
▁christ	-10.6624
▁funzione	-10.6624
▁goodness	-10.6628
▁www	-10.6632
▁explain	-10.6633
▁giro	-10.6644
chè	-10.6646
▁lap	-10.6648
▁2015	-10.6649
ista	-10.665
▁massimo	-10.6652
▁lee	-10.6652
▁monster	-10.6662
▁fruit	-10.6665
des	-10.6667
▁discorso	-10.6667
▁jesus	-10.6667
▁organizzazioni	-10.6667
ane	-10.6683
endo	-10.6683
▁interventi	-10.6684
▁placed	-10.6685
10	-10.6686
▁experience	-10.6689
▁effetto	-10.6691
▁dangerous	-10.6692
field	-10.6694
▁dragon	-10.6697
▁investimenti	-10.6701
▁leva	-10.6703
▁differenza	-10.6706
▁eighty	-10.6708
ici	-10.6709
gio	-10.6709
▁flower	-10.6715
▁temi	-10.6719
▁dorothy	-10.6723
▁costa	-10.6725
50	-10.6725
▁parlamentare	-10.6729
▁lib	-10.6732
▁capitolo	-10.6733
▁prize	-10.6734
▁diana	-10.6739
▁proposto	-10.6741
▁venuto	-10.6742
▁development	-10.6742
▁ricevuto	-10.6746
nia	-10.6748
uri	-10.675
etta	-10.6756
▁utile	-10.6758
▁segno	-10.6758
▁ferma	-10.6759
▁mac	-10.6759
▁procedere	-10.6761
▁nota	-10.6777
▁ended	-10.6781
▁nomi	-10.679
▁dollars	-10.679
ute	-10.6796
▁movement	-10.6797
▁gloria	-10.6804
▁risponde	-10.6805
▁brand	-10.6808
▁luoghi	-10.6809
▁memoria	-10.681
▁plain	-10.6813
▁founded	-10.6814
▁rule	-10.6816
▁credere	-10.6818
▁voler	-10.6819
obiettivo	-10.682
▁denaro	-10.6826
▁gay	-10.6827
▁tries	-10.6828
▁result	-10.6829
dio	-10.6833
▁antonio	-10.6833
▁purpose	-10.6837
▁incontro	-10.6838
▁avrei	-10.6844
▁portato	-10.6847
▁roman	-10.6847
kin	-10.6848
▁numbers	-10.6849
▁presa	-10.685
▁regina	-10.6858
▁deck	-10.6861
hu	-10.6861
▁youth	-10.6867
▁medicine	-10.6869
▁vantaggio	-10.687
▁huge	-10.6873
ned	-10.6891
▁grown	-10.6892
▁corre	-10.6893
▁empty	-10.6895
▁located	-10.6897
▁surprised	-10.6902
▁minaccia	-10.691
▁permette	-10.6911
ap	-10.6912
▁fault	-10.6913
▁staff	-10.6913
▁pal	-10.6913
▁necessarie	-10.6918
▁mandato	-10.6919
▁essenziale	-10.6925
▁immediately	-10.6926
▁duty	-10.6932
▁morti	-10.6933
▁nato	-10.6935
▁nemico	-10.6937
▁anywhere	-10.694
just	-10.694
▁den	-10.6943
▁regular	-10.6943
▁keys	-10.6944
▁cavalli	-10.695
▁meaning	-10.6954
▁throat	-10.6959
▁basso	-10.6964
▁energia	-10.6964
▁beside	-10.6965
▁2004	-10.6973
▁rise	-10.698
ose	-10.6981
informazione	-10.6982
▁published	-10.6983
gue	-10.6984
▁style	-10.6985
▁reti	-10.6987
▁swing	-10.6988
nde	-10.6989
▁russian	-10.6996
▁chiara	-10.6996
har	-10.7002
▁filled	-10.7002
▁2010	-10.7005
▁weather	-10.7006
▁discovered	-10.701
▁committee	-10.7012
▁duke	-10.7014
▁pulled	-10.7018
▁current	-10.7019
▁parlamentari	-10.7023
▁criteri	-10.703
▁fornire	-10.7031
▁crew	-10.7033
▁taught	-10.7035
▁smith	-10.7036
▁mantenere	-10.7043
▁violenza	-10.7053
▁afferma	-10.7055
▁phil	-10.7057
▁je	-10.706
▁1997	-10.7062
tum	-10.7063
▁totale	-10.707
▁torna	-10.7075
▁braccia	-10.7077
▁sino	-10.708
▁pitcher	-10.7081
▁battaglia	-10.7082
▁census	-10.7082
▁research	-10.7087
nes	-10.709
▁aggiungere	-10.7091
ani	-10.7091
▁lips	-10.7095
▁cre	-10.7102
▁awful	-10.711
▁risolvere	-10.7113
▁file	-10.7113
▁produce	-10.7115
▁aziende	-10.7118
▁plane	-10.7118
▁pencil	-10.7123
ppi	-10.7128
▁cookies	-10.7131
pin	-10.7133
▁locali	-10.7142
▁nero	-10.7145
▁tone	-10.7146
▁conoscere	-10.715
▁scala	-10.7151
▁tongue	-10.7153
▁mangia	-10.7155
▁marriage	-10.7159
▁pocket	-10.7161
▁max	-10.7162
economia	-10.7165
▁occupazione	-10.7169
▁sci	-10.7171
▁merry	-10.7181
▁italiana	-10.7182
▁rate	-10.7189
▁valley	-10.7192
▁sposa	-10.7195
▁pardon	-10.7196
gni	-10.7197
▁hath	-10.72
▁windows	-10.7204
ized	-10.7204
▁salt	-10.7205
▁paragrafo	-10.7213
▁completamente	-10.7214
▁dura	-10.7216
▁lock	-10.722
▁mostly	-10.7221
▁yay	-10.7224
▁fool	-10.7225
▁em	-10.7226
▁doin	-10.7229
sha	-10.723
rebbero	-10.7237
▁wearing	-10.7239
▁songs	-10.7241
singing	-10.7244
ris	-10.7244
▁mister	-10.7247
▁accept	-10.7257
▁opinione	-10.7259
▁conclusione	-10.726
▁beauty	-10.7261
▁risk	-10.7261
°	-10.7264
▁vide	-10.7281
▁vote	-10.7284
eremo	-10.7285
▁poveri	-10.7286
ultima	-10.729
▁spanish	-10.7291
▁houses	-10.7297
ens	-10.73
off	-10.7301
▁aprile	-10.7301
▁italiano	-10.7307
▁potete	-10.7309
▁wi	-10.731
▁accesso	-10.7311
▁roof	-10.7312
▁manda	-10.7313
▁easily	-10.7315
▁watched	-10.7316
▁rings	-10.7317
▁presently	-10.7317
▁largest	-10.7318
▁comunitaria	-10.7318
▁moves	-10.732
▁pleased	-10.732
▁germania	-10.7322
▁2017	-10.7324
san	-10.7326
▁teach	-10.7328
▁usual	-10.7328
▁promuovere	-10.7329
places	-10.7334
rra	-10.7336
▁venezia	-10.7336
▁km	-10.7338
▁arte	-10.7338
▁mass	-10.734
▁vai	-10.7345
▁pants	-10.7351
▁message	-10.7352
▁crowd	-10.7354
▁contenuto	-10.7357
▁sentito	-10.7366
▁lucky	-10.7368
▁povero	-10.7371
▁mcdonalds	-10.7372
▁adottare	-10.7374
▁relativi	-10.7375
▁relatrice	-10.7381
ai	-10.7385
▁believed	-10.7391
aft	-10.7399
bar	-10.74
▁acque	-10.7408
▁trans	-10.7411
▁web	-10.7414
tamente	-10.7417
▁pet	-10.742
▁officers	-10.7421
▁saved	-10.7426
idi	-10.7426
▁porto	-10.7432
vis	-10.7432
▁vive	-10.7434
▁stairs	-10.7437
wood	-10.744
▁science	-10.7455
▁onto	-10.7456
▁boom	-10.7457
▁tony	-10.7459
ated	-10.7461
▁flag	-10.7468
▁ram	-10.747
gre	-10.747
▁friday	-10.7473
▁codice	-10.7479
▁grace	-10.7482
▁altrimenti	-10.7493
stru	-10.7497
▁hadn	-10.7499
▁exp	-10.75
▁dovere	-10.75
▁spe	-10.7505
▁ju	-10.7505
▁annie	-10.7511
▁bull	-10.7513
▁motion	-10.7516
▁austria	-10.7519
▁29	-10.7523
▁potesse	-10.7525
▁leaf	-10.7527
▁giornata	-10.7528
▁formula	-10.7533
▁colore	-10.7541
▁conosce	-10.7542
▁rapporti	-10.7546
▁app	-10.7552
▁nemici	-10.7559
▁rosa	-10.756
gne	-10.7565
▁complete	-10.7566
▁importa	-10.7569
ffi	-10.7576
▁trasparenza	-10.7577
rk	-10.7578
▁altresì	-10.7578
||	-10.7581
▁flight	-10.759
▁handle	-10.7593
▁ama	-10.7595
▁porti	-10.7596
▁earlier	-10.7596
▁steps	-10.7597
▁billy	-10.7598
▁opening	-10.7601
▁palace	-10.7603
▁spoken	-10.7605
▁valori	-10.7609
▁bambino	-10.761
▁coraggio	-10.7611
▁ninety	-10.7611
▁indietro	-10.7621
▁cristo	-10.7623
▁formed	-10.7624
▁secretary	-10.7627
▁favorevole	-10.7628
▁pages	-10.7628
▁2011	-10.7633
nato	-10.7635
gan	-10.7636
azioni	-10.7637
▁metal	-10.7638
▁aged	-10.7643
▁runs	-10.765
▁expected	-10.7658
fu	-10.7658
▁fashion	-10.7666
▁aumento	-10.7667
▁neppure	-10.7673
▁process	-10.7673
uti	-10.7675
where	-10.7679
▁rustling	-10.7684
▁stabilità	-10.7685
▁promised	-10.7687
▁turchia	-10.7689
▁chiamato	-10.7689
▁veniva	-10.7696
▁rice	-10.7703
han	-10.7704
▁fecero	-10.7712
▁pone	-10.7712
▁dutch	-10.7715
▁prezzi	-10.7716
▁normal	-10.7717
▁multi	-10.7717
▁unica	-10.7721
▁unito	-10.7726
tica	-10.7727
ssimi	-10.773
▁strength	-10.7734
▁ways	-10.7738
▁evidence	-10.7739
▁concerne	-10.7741
▁evidente	-10.7741
▁superiore	-10.7744
▁climb	-10.7745
▁definizione	-10.7746
▁fortune	-10.7746
▁maid	-10.7747
▁regola	-10.7749
▁noticed	-10.7751
▁republic	-10.7758
▁q	-10.7764
▁texas	-10.7771
▁morire	-10.7772
▁tiger	-10.7774
ssime	-10.778
▁età	-10.7781
▁dallo	-10.7782
▁author	-10.7783
ties	-10.7784
▁network	-10.7784
▁african	-10.7785
▁brothers	-10.7787
▁dov	-10.7789
▁cur	-10.7791
▁rough	-10.7792
▁votato	-10.7795
▁stanza	-10.7796
▁heaven	-10.7798
head	-10.7802
▁banca	-10.7813
▁cute	-10.7814
▁recorder	-10.7814
▁search	-10.7814
▁2003	-10.7815
▁chris	-10.7817
shakes	-10.7817
▁poche	-10.7818
▁plenty	-10.7822
▁activity	-10.7823
▁farsi	-10.7824
eh	-10.7828
▁aperto	-10.7829
▁bound	-10.783
▁gentlemen	-10.7835
▁pleasant	-10.7836
ario	-10.784
▁ann	-10.7842
▁<	-10.7853
▁security	-10.786
▁mc	-10.7871
mine	-10.7871
euro	-10.7871
▁travel	-10.7872
▁chiese	-10.7877
▁donald	-10.7879
sen	-10.7883
▁stayed	-10.7883
▁sha	-10.7888
▁fifteen	-10.789
▁salva	-10.7894
▁listening	-10.7894
▁involved	-10.7895
night	-10.7896
▁punch	-10.7902
▁motor	-10.7903
▁judge	-10.7906
▁previsto	-10.7911
▁gentleman	-10.7912
sia	-10.7916
▁sca	-10.7918
spi	-10.7919
▁solamente	-10.7923
▁tramite	-10.7924
▁percento	-10.7928
www	-10.793
▁andrea	-10.7933
lly	-10.7937
▁spalle	-10.7945
olo	-10.7949
▁esistono	-10.7949
ven	-10.7952
▁eastern	-10.7952
▁kick	-10.7953
▁services	-10.7958
▁sicilia	-10.796
▁31	-10.7961
▁mala	-10.7964
▁spell	-10.7972
▁mistake	-10.7977
▁giusta	-10.798
▁chiusa	-10.7984
▁respect	-10.7992
sing	-10.7996
▁necessari	-10.8003
▁boss	-10.8009
▁diverso	-10.8014
▁lieutenant	-10.8014
▁closer	-10.8014
▁terza	-10.8015
some	-10.8017
▁addirittura	-10.8027
▁effettivamente	-10.8027
▁cu	-10.8028
ghe	-10.8029
▁sapeva	-10.803
▁owl	-10.8037
isce	-10.8039
▁flew	-10.8041
▁necessary	-10.8053
▁knife	-10.8053
ú	-10.8058
▁polizia	-10.8059
ndolo	-10.8063
▁vedo	-10.8063
▁soup	-10.8069
▁competenze	-10.8072
▁spain	-10.8077
▁ritiene	-10.8079
▁mission	-10.8087
▁cro	-10.8087
▁crime	-10.8087
ang	-10.8088
▁massa	-10.809
▁racconta	-10.8093
▁fond	-10.8094
▁marry	-10.8105
▁drinking	-10.8107
▁whispered	-10.8114
▁speech	-10.8122
▁bologna	-10.8124
▁osservazioni	-10.8125
▁comincia	-10.8126
nna	-10.8129
▁jumped	-10.8135
lyn	-10.8137
▁leggere	-10.8138
▁australian	-10.8141
▁disease	-10.8144
▁wise	-10.8149
▁medio	-10.815
▁ulteriori	-10.815
wi	-10.8158
▁dicono	-10.8161
▁por	-10.8161
oli	-10.8161
▁channel	-10.8169
▁comfort	-10.817
▁dinanzi	-10.817
▁impossible	-10.8177
▁struck	-10.8177
▁marchese	-10.8178
▁florida	-10.8178
▁knight	-10.8183
ee	-10.8185
▁creature	-10.8196
▁objects	-10.82
▁accanto	-10.8203
▁finale	-10.8204
▁buono	-10.8208
▁heat	-10.8209
▁candidati	-10.8211
▁sà	-10.8214
▁fallen	-10.8216
▁trattamento	-10.8218
▁spin	-10.8219
▁civil	-10.822
▁needta	-10.8223
▁tip	-10.8226
▁peekaboo	-10.8229
▁fixed	-10.8234
▁fan	-10.8235
▁louis	-10.8236
▁costruzione	-10.8236
▁scott	-10.8236
▁scale	-10.8237
▁scienza	-10.8237
▁caccia	-10.8238
▁dolce	-10.8239
▁woods	-10.8243
cri	-10.8244
▁cancer	-10.8245
▁succede	-10.8247
▁brian	-10.8249
▁ph	-10.825
▁excellent	-10.8256
▁gray	-10.8264
▁success	-10.8265
sol	-10.8267
iche	-10.8269
▁rischi	-10.8271
▁weird	-10.8277
cal	-10.8281
▁particularly	-10.8283
look	-10.8284
▁realizzazione	-10.8285
▁disoccupazione	-10.8285
▁ritorno	-10.8287
▁desidera	-10.8288
▁elemento	-10.8288
▁inglese	-10.829
▁han	-10.8292
ette	-10.8292
▁trick	-10.8304
▁entra	-10.8306
▁figlia	-10.8309
attività	-10.8313
▁ruth	-10.8315
▁swimming	-10.8316
▁lookee	-10.8318
▁pound	-10.8318
▁bat	-10.8318
▁model	-10.8322
ux	-10.8324
nie	-10.8327
▁task	-10.8337
use	-10.8337
amento	-10.8345
▁oil	-10.8348
val	-10.8349
unt	-10.8349
ened	-10.8349
▁nesting	-10.8349
>	-10.835
▁usare	-10.835
▁fatte	-10.8352
▁version	-10.8353
▁choose	-10.8355
▁dancing	-10.8357
▁showing	-10.8358
▁unite	-10.8358
▁nineteen	-10.8361
▁keeping	-10.8363
▁generally	-10.8367
▁coordinamento	-10.8369
▁sudden	-10.8372
▁sword	-10.8372
▁quietly	-10.8374
with	-10.8375
▁commander	-10.8376
▁economiche	-10.8377
very	-10.838
▁program	-10.8385
cce	-10.8386
▁60	-10.8394
▁paint	-10.8395
▁wolf	-10.8397
▁tratti	-10.8402
▁bin	-10.8407
light	-10.8408
▁mercati	-10.8409
die	-10.8419
▁assicurare	-10.8419
▁allow	-10.8421
▁helen	-10.8425
▁hu	-10.8428
lan	-10.8431
▁scena	-10.8432
▁festa	-10.8439
via	-10.8439
▁entrambi	-10.8443
▁plus	-10.8444
applicazione	-10.8444
▁definitely	-10.8445
▁monday	-10.8451
▁numerosi	-10.8452
▁growing	-10.8456
▁cara	-10.8458
25	-10.8461
▁swim	-10.8463
▁fill	-10.8467
▁actress	-10.847
▁viva	-10.8473
▁trattati	-10.848
▁marky	-10.8482
▁decision	-10.8482
udi	-10.8483
▁sandwich	-10.8488
▁✿	-10.849
▁afterwards	-10.8496
▁consider	-10.8498
▁holy	-10.8501
pping	-10.8504
▁famiglie	-10.8505
19	-10.8511
▁quantità	-10.8512
erò	-10.8517
▁moo	-10.8519
▁porte	-10.852
▁bathroom	-10.8525
▁sch	-10.8529
▁ourselves	-10.8531
▁francesi	-10.8532
▁plant	-10.8535
ey	-10.8536
▁weak	-10.854
mbo	-10.8543
ries	-10.8545
tz	-10.8546
▁daniel	-10.8547
▁firm	-10.8549
▁elezioni	-10.8552
▁protect	-10.8552
▁beads	-10.8557
▁colpa	-10.8557
ping	-10.8558
▁range	-10.8564
▁peso	-10.8565
sto	-10.8565
▁offered	-10.8573
▁medical	-10.8574
▁analisi	-10.8582
▁ultima	-10.8583
▁blind	-10.8587
una	-10.8587
▁walks	-10.8588
ning	-10.8589
▁remained	-10.8594
ula	-10.8598
▁carriage	-10.86
▁dovranno	-10.86
▁medal	-10.8601
▁provvedimenti	-10.8606
▁ancient	-10.8613
▁circolazione	-10.8614
▁paolo	-10.8614
▁cosí	-10.8622
▁critica	-10.8623
▁intervenire	-10.8627
▁justice	-10.8634
▁dover	-10.8634
97	-10.8635
▁association	-10.8635
cli	-10.8636
▁discutere	-10.8638
▁soldi	-10.8639
old	-10.864
▁braccio	-10.8642
▁vecchia	-10.8646
▁kinda	-10.8647
ché	-10.8647
▁colonel	-10.8649
noise	-10.8649
▁finding	-10.8653
nge	-10.8654
▁yummy	-10.8655
▁riceve	-10.8663
ó	-10.8673
15	-10.8675
▁balls	-10.8677
▁effects	-10.8679
▁[2	-10.8683
▁responsabile	-10.8689
▁energy	-10.869
our	-10.8692
▁container	-10.8692
▁occupa	-10.8699
▁3,	-10.8702
▁production	-10.8704
▁limiti	-10.8708
▁recente	-10.8709
▁2008	-10.8709
▁muta	-10.8711
▁perfectly	-10.8711
▁sol	-10.8715
▁sake	-10.8717
ally	-10.8718
ide	-10.8719
bat	-10.872
nto	-10.8721
▁partiti	-10.8722
▁impossibile	-10.8724
importanza	-10.8725
▁upper	-10.8727
▁tour	-10.8729
▁troviamo	-10.8731
▁ger	-10.8732
▁generali	-10.8736
▁appearance	-10.8739
21	-10.8741
uk	-10.8742
▁utili	-10.8744
▁paga	-10.8744
▁andava	-10.8747
▁eleven	-10.875
▁trovano	-10.8756
▁prefer	-10.8756
▁mid	-10.8759
gh	-10.876
▁thick	-10.8766
▁condition	-10.8766
▁whoops	-10.8769
▁cave	-10.877
qua	-10.8776
▁carrying	-10.8777
▁metodo	-10.8777
▁odd	-10.8778
▁diventare	-10.8779
gg	-10.8784
▁globale	-10.8787
▁fancy	-10.8795
▁contact	-10.88
▁clearly	-10.8801
▁walls	-10.8805
▁pale	-10.8809
ii	-10.8811
▁controlli	-10.8811
▁compagnia	-10.8812
kh	-10.8814
▁capelli	-10.8823
glie	-10.8824
▁1994	-10.8829
▁labour	-10.8829
▁lamb	-10.8829
▁considerare	-10.883
▁assume	-10.8833
sque	-10.8839
▁certe	-10.884
▁assemblea	-10.8842
▁1990	-10.8843
▁shown	-10.8845
▁peccato	-10.8851
▁leading	-10.8851
▁students	-10.8852
▁acc	-10.8855
mus	-10.8855
▁performance	-10.8857
▁richieste	-10.8857
▁rimase	-10.8859
▁classe	-10.8862
▁traffic	-10.8863
▁consenso	-10.8864
▁ali	-10.8865
▁marie	-10.8873
ara	-10.8875
▁lisa	-10.8879
▁mike	-10.8879
▁planet	-10.8879
nta	-10.8881
▁rappresentanti	-10.8882
▁anco	-10.8883
ung	-10.8884
▁entire	-10.8885
▁carefully	-10.889
▁bur	-10.8896
▁lamp	-10.8899
▁harm	-10.89
▁finanziari	-10.8902
▁weight	-10.8905
▁festival	-10.8906
▁tocca	-10.8912
▁prossima	-10.8913
▁foreign	-10.8913
▁species	-10.8915
▁preoccupazione	-10.8916
▁novel	-10.8917
40	-10.8922
▁wha	-10.8925
▁cava	-10.8925
▁records	-10.8925
▁mura	-10.8927
iniziativa	-10.8928
▁possibly	-10.8935
▁italiani	-10.8938
▁buoni	-10.8939
▁snap	-10.894
bbe	-10.8941
▁é	-10.8947
▁managed	-10.8948
▁younger	-10.8951
▁sguardo	-10.8955
▁rico	-10.8961
▁andò	-10.8961
▁opportunity	-10.8963
▁macchina	-10.8964
▁penny	-10.8965
▁loves	-10.8967
▁ottobre	-10.8971
▁dump	-10.8971
ui	-10.8972
sighs	-10.8972
▁corona	-10.8976
▁knowledge	-10.8977
▁fre	-10.898
▁lights	-10.8984
▁miglioramento	-10.8984
ye	-10.899
▁surface	-10.8991
▁culturale	-10.8994
▁farmer	-10.8997
▁movimento	-10.8998
▁riding	-10.9
▁treat	-10.9002
▁sides	-10.9004
▁foto	-10.9007
year	-10.9012
▁vieni	-10.9021
▁scu	-10.9021
▁punta	-10.9022
▁opinion	-10.9026
▁honest	-10.9037
▁pienamente	-10.9037
▁academy	-10.9041
▁relationship	-10.9041
▁code	-10.9043
▁realizzare	-10.9052
▁ned	-10.9052
▁esigenze	-10.9056
▁finora	-10.9058
▁vice	-10.9059
▁neat	-10.9063
▁aw	-10.9068
▁commerciali	-10.907
▁evil	-10.9072
▁host	-10.9077
▁debito	-10.9078
▁vento	-10.9081
▁rosso	-10.9082
mini	-10.9085
bye	-10.909
▁orders	-10.9091
▁forti	-10.9094
good	-10.9097
▁tight	-10.9098
▁volete	-10.9101
cio	-10.9107
▁guardia	-10.9114
▁mountains	-10.9117
▁consiste	-10.9123
▁calls	-10.9125
tina	-10.9125
▁stock	-10.9126
▁mirror	-10.9127
▁vittime	-10.9128
▁mate	-10.9132
▁fairy	-10.9142
▁crayons	-10.9143
mila	-10.9143
▁altrettanto	-10.9144
▁positive	-10.9145
▁merita	-10.9152
▁bert	-10.9153
▁viola	-10.9154
▁aperta	-10.9155
▁morale	-10.9155
14	-10.9159
▁arab	-10.9161
▁ognuno	-10.9164
▁gre	-10.9168
▁ku	-10.9175
▁begins	-10.9178
▁wheels	-10.9179
zie	-10.9182
12	-10.9184
▁suit	-10.9186
tivi	-10.9189
cche	-10.9193
▁mentioned	-10.9194
hai	-10.9196
▁hug	-10.9199
▁groups	-10.9199
▁contribuire	-10.9201
▁diede	-10.9203
tis	-10.9204
▁dawn	-10.9205
▁zi	-10.9206
▁rode	-10.9207
▁talvolta	-10.9208
18	-10.9208
▁equal	-10.9209
▁plans	-10.9211
▁lift	-10.9213
▁policy	-10.9215
here	-10.9217
▁changes	-10.9217
▁viso	-10.9219
▁remain	-10.922
--"	-10.922
▁2007	-10.922
▁guns	-10.9224
ek	-10.9232
▁stu	-10.9233
▁fer	-10.9234
▁errore	-10.9237
▁spagna	-10.9237
▁mila	-10.9238
▁estate	-10.9239
▁desk	-10.9244
▁hiding	-10.9244
▁butterfly	-10.9244
▁sy	-10.9245
▁prepared	-10.9245
▁tuoi	-10.9246
▁shoulder	-10.9247
▁narra	-10.9253
organizzazione	-10.9262
▁dolls	-10.9262
▁official	-10.9264
▁parlando	-10.9264
▁knights	-10.9267
▁linee	-10.927
▁rules	-10.9273
▁cane	-10.9273
port	-10.9273
▁contract	-10.9273
rica	-10.9276
imento	-10.9277
ü	-10.928
▁zero	-10.928
▁episode	-10.9282
▁create	-10.9284
▁mangiare	-10.9284
▁chinese	-10.9284
▁capitale	-10.929
▁hal	-10.9299
▁ut	-10.93
▁soldier	-10.93
▁torre	-10.9301
▁screw	-10.9301
▁studied	-10.9308
▁svolgere	-10.931
▁dere	-10.9313
▁culture	-10.9318
▁smaller	-10.9319
▁cloth	-10.932
▁georgia	-10.9326
▁cash	-10.9331
▁awards	-10.9333
▁rom	-10.9335
▁dec	-10.9338
▁volle	-10.9338
colo	-10.9341
▁messi	-10.9341
▁crash	-10.9343
16	-10.9345
▁knowing	-10.9345
nny	-10.9347
▁arrivare	-10.9351
▁fence	-10.9355
▁2016	-10.9358
▁hearing	-10.9366
▁cari	-10.9374
kar	-10.9374
ave	-10.9376
when	-10.9378
▁bru	-10.9382
▁safety	-10.9386
▁definire	-10.939
whispered	-10.9395
▁heads	-10.9401
▁combattere	-10.9403
▁competenza	-10.9406
ating	-10.9411
▁relativo	-10.9413
▁smiled	-10.9413
▁writer	-10.9414
work	-10.9414
▁figures	-10.9416
▁pushed	-10.9418
▁hammer	-10.9423
▁rin	-10.9424
▁greatest	-10.9426
▁ban	-10.9426
▁value	-10.9427
did	-10.9428
dia	-10.943
▁familiar	-10.943
▁lasciare	-10.9435
▁manage	-10.9437
ella	-10.9438
ky	-10.9441
▁mayor	-10.9444
▁romani	-10.9444
▁pool	-10.9445
▁native	-10.9446
ira	-10.9447
▁origine	-10.945
▁vostri	-10.9451
▁danni	-10.9452
txt	-10.9454
▁rope	-10.9454
▁stack	-10.9456
▁merci	-10.9456
▁peanut	-10.9458
▁potranno	-10.946
▁parigi	-10.9463
▁edward	-10.9463
▁clever	-10.9466
▁horsie	-10.9473
▁otherwise	-10.9475
hv	-10.9475
▁ponte	-10.9478
▁chiave	-10.9479
▁quo	-10.9479
▁speciale	-10.9482
▁riconoscere	-10.9484
▁colpo	-10.9485
▁unknown	-10.9489
▁boston	-10.9489
▁bump	-10.949
▁everywhere	-10.949
rate	-10.9492
▁4,	-10.9494
▁ships	-10.9495
sound	-10.9498
▁capito	-10.95
▁empire	-10.9501
▁andiamo	-10.9501
▁comporta	-10.9503
▁quarto	-10.9505
essere	-10.951
dra	-10.951
ole	-10.951
▁sforzo	-10.9511
▁boots	-10.9512
▁finanziario	-10.9518
▁opposite	-10.9518
▁terre	-10.9519
lio	-10.9519
▁fratelli	-10.952
▁forces	-10.9521
▁strike	-10.9526
▁quack	-10.9526
▁locale	-10.9527
▁release	-10.9528
▁burn	-10.9529
▁buone	-10.9529
▁troops	-10.9534
▁desire	-10.9536
▁marcia	-10.9541
agricoltura	-10.9542
▁collo	-10.9543
ance	-10.9546
▁campaign	-10.9548
▁raggiunto	-10.9548
▁railway	-10.9549
▁traffico	-10.9557
▁nancy	-10.9557
▁mail	-10.9561
▁distanza	-10.9563
▁produttori	-10.9563
▁settled	-10.9564
▁vino	-10.9565
sione	-10.9567
▁pra	-10.9568
▁freedom	-10.9571
▁bedroom	-10.9573
▁crown	-10.9576
▁downstairs	-10.958
▁interessante	-10.958
▁costume	-10.9586
▁goodbye	-10.9587
▁scar	-10.9588
▁purse	-10.9588
▁reaches	-10.9593
▁espresso	-10.9594
▁eric	-10.9599
▁parliament	-10.9601
▁condotta	-10.9601
▁spiega	-10.9608
pu	-10.961
mba	-10.9611
▁correct	-10.9613
▁sports	-10.9615
▁bilanci	-10.9615
▁competition	-10.9616
moves	-10.9618
▁surely	-10.9626
▁gua	-10.9632
ade	-10.9637
▁crea	-10.9639
▁tecnologie	-10.9639
▁vesti	-10.964
▁giant	-10.9641
▁sullo	-10.9642
▁lasciato	-10.9645
▁ghost	-10.9655
▁utilizzare	-10.9657
▁snake	-10.9675
▁lavora	-10.9676
▁wedding	-10.9677
▁gift	-10.9678
ov	-10.9678
▁indians	-10.9681
▁areas	-10.9682
▁credit	-10.9684
▁tecnologia	-10.9685
▁approvato	-10.9685
▁loss	-10.969
▁section	-10.9691
▁elephants	-10.9692
elli	-10.9694
hands	-10.9695
▁worried	-10.97
▁normativa	-10.9701
▁tro	-10.9702
gasp	-10.9713
▁inizia	-10.9715
▁turkey	-10.9716
▁min	-10.9716
▁frightened	-10.9717
▁gentle	-10.9722
▁verifica	-10.9722
▁sostanze	-10.9723
▁esattamente	-10.9723
▁carico	-10.9724
▁excited	-10.9727
▁trial	-10.9728
▁appear	-10.9731
▁reply	-10.9733
▁rim	-10.9736
tiche	-10.9739
▁finanziamento	-10.9739
▁diversa	-10.9746
▁easier	-10.9746
▁turismo	-10.9746
▁livelli	-10.9749
▁chiari	-10.9753
80	-10.9753
xi	-10.9756
▁statua	-10.9761
▁sfida	-10.9762
▁mention	-10.9778
▁sally	-10.9783
▁materiale	-10.9784
▁wine	-10.9788
tici	-10.9789
”,	-10.9796
tato	-10.9809
▁gioia	-10.9809
▁bellezza	-10.981
▁greek	-10.9811
otto	-10.9811
▁bomb	-10.9813
▁monetaria	-10.9815
▁seventy	-10.982
▁affermato	-10.9822
ö	-10.9822
▁percent	-10.9822
▁spaghetti	-10.9831
▁retired	-10.9834
▁1992	-10.9839
▁forgotten	-10.9839
▁portata	-10.9839
▁bringing	-10.9839
▁commerciale	-10.984
▁honour	-10.9843
▁peraltro	-10.9845
▁dimostrato	-10.9851
▁campi	-10.9853
▁1993	-10.9855
▁cercando	-10.9857
rog	-10.9864
]!	-10.9868
▁favor	-10.987
sur	-10.9873
abile	-10.9873
▁appoggio	-10.9874
▁stai	-10.9876
▁ob	-10.9886
▁grosso	-10.9889
▁farà	-10.9893
▁birth	-10.9896
▁sabato	-10.9903
stri	-10.9905
cor	-10.9905
▁offre	-10.9909
▁sento	-10.9911
▁bla	-10.9916
▁lengthened	-10.9925
▁federal	-10.9934
▁2005	-10.9937
cle	-10.9939
ier	-10.9939
▁soluzioni	-10.994
▁tavola	-10.994
▁teatro	-10.9941
▁oo	-10.9943
▁dinosaur	-10.9945
▁guardare	-10.9945
▁available	-10.9948
▁perdere	-10.9951
▁dick	-10.9952
morrow	-10.9955
▁peggio	-10.996
▁broad	-10.9968
moving	-10.997
▁enter	-10.9971
▁modalità	-10.9972
▁vie	-10.9972
▁lois	-10.9973
▁interview	-10.9973
tch	-10.9973
▁agire	-10.9974
▁compagni	-10.9975
▁comfortable	-10.998
vocalization	-10.9981
▁hanging	-10.9985
▁triste	-10.9988
▁veri	-10.9993
▁belong	-10.9995
ude	-10.9996
▁funzionamento	-10.9996
▁assistenza	-11.0006
▁parve	-11.0007
▁laura	-11.0011
▁migliaia	-11.0011
ann	-11.0013
opinione	-11.0013
▁narrow	-11.0019
ffa	-11.002
energia	-11.0021
▁medico	-11.0024
hsl	-11.0028
get	-11.0029
▁remembered	-11.003
▁explained	-11.0031
nata	-11.0032
▁cell	-11.0034
▁microphone	-11.0037
ida	-11.0038
▁spetta	-11.0043
▁economia	-11.0043
ada	-11.0044
▁nobili	-11.0044
▁wales	-11.0045
▁players	-11.0055
italia	-11.0058
▁padrone	-11.0059
▁rat	-11.006
▁wooden	-11.0062
▁provincia	-11.0064
▁ciascuno	-11.0065
▁tosto	-11.0068
▁temple	-11.0068
▁robin	-11.0069
▁ray	-11.0071
▁splendid	-11.0072
▁somewhat	-11.0075
tino	-11.0078
▁beni	-11.0078
▁pagare	-11.0078
mpi	-11.0079
▁sentiva	-11.008
▁ampio	-11.0084
▁militari	-11.0084
▁pensato	-11.0086
▁uscire	-11.0092
▁anxious	-11.0094
▁miliardi	-11.0098
attuale	-11.0099
▁drama	-11.0101
▁2009	-11.0104
▁bike	-11.0108
▁partecipare	-11.0108
▁vivo	-11.0108
▁rap	-11.0112
▁log	-11.0113
▁sonno	-11.0114
▁fought	-11.0114
see	-11.0127
▁guide	-11.0128
▁tar	-11.0129
▁lad	-11.013
-19	-11.0136
▁ji	-11.0138
▁petto	-11.0138
▁pubbliche	-11.0138
▁suggested	-11.0138
▁scuole	-11.0138
▁dichiara	-11.0139
▁tornare	-11.0139
scono	-11.014
will	-11.014
tene	-11.0141
▁2002	-11.0142
▁pack	-11.0143
▁couch	-11.0147
▁aria	-11.0154
▁mori	-11.0156
▁chap	-11.0161
▁papers	-11.0162
▁hero	-11.0174
▁forced	-11.0177
▁attiva	-11.018
vin	-11.0181
▁particolari	-11.0186
▁branch	-11.0193
▁vittoria	-11.0195
▁sente	-11.0196
▁consumatore	-11.0203
ampliamento	-11.0204
attenzione	-11.0204
▁silent	-11.0209
▁specifica	-11.021
▁seconds	-11.0211
▁rapidamente	-11.0212
assemblea	-11.0212
esi	-11.0215
▁stabilire	-11.0217
▁switzerland	-11.0219
vol	-11.022
auto	-11.0223
▁cittadino	-11.0227
ney	-11.023
ä	-11.023
▁seguita	-11.0232
▁bloody	-11.0233
▁fairly	-11.0233
▁hung	-11.0235
▁fifth	-11.0235
▁disciplina	-11.0237
▁elected	-11.0237
▁highest	-11.0241
▁consigli	-11.0241
▁solito	-11.0243
▁pane	-11.0243
24	-11.0246
▁forever	-11.0246
▁signal	-11.0247
▁pezzo	-11.0252
▁candy	-11.0252
▁completa	-11.0257
▁pagina	-11.0259
ren	-11.0263
▁cambiare	-11.0266
▁events	-11.0268
▁cade	-11.0269
gua	-11.027
▁dying	-11.0271
ugh	-11.0271
▁gen	-11.0276
▁piu	-11.0276
▁popolare	-11.0278
▁revisione	-11.0283
▁passing	-11.0283
▁signed	-11.0287
fri	-11.0288
▁pillow	-11.0291
▁pietra	-11.0293
▁povera	-11.0296
▁realize	-11.0296
▁independent	-11.0299
▁insomma	-11.0299
▁influence	-11.0303
▁ladder	-11.0309
▁blanket	-11.031
▁amy	-11.0311
▁drove	-11.0312
▁rattle	-11.0316
▁slice	-11.0318
▁lega	-11.032
▁successful	-11.032
▁indispensabile	-11.0324
▁apartment	-11.0327
▁mediante	-11.033
▁immediatamente	-11.0333
▁spesa	-11.0334
▁degree	-11.0335
▁possibili	-11.0338
▁auguro	-11.034
▁wagon	-11.0341
▁0	-11.0342
▁cambiamento	-11.0349
▁esistenti	-11.0352
▁novità	-11.0355
▁ricevere	-11.036
▁ur	-11.036
mmer	-11.0361
▁owner	-11.0371
put	-11.0374
mina	-11.0374
ec	-11.0375
▁ill	-11.0378
cho	-11.038
▁ireland	-11.0382
▁memory	-11.0383
tano	-11.0383
▁smiling	-11.0389
▁genitori	-11.039
▁buddy	-11.039
▁cop	-11.0392
min	-11.0394
ppa	-11.0397
ua	-11.04
law	-11.0403
▁»	-11.0404
▁responsabili	-11.0406
▁totally	-11.0406
▁killing	-11.0409
▁zu	-11.0413
▁fiume	-11.0414
izzazione	-11.0417
▁pressure	-11.0423
▁passione	-11.0426
▁score	-11.0427
▁rica	-11.0427
▁manifesta	-11.0427
▁compromesso	-11.043
▁¶	-11.0431
▁strade	-11.0431
▁ambientali	-11.0431
▁progresso	-11.0432
back	-11.0433
▁concludere	-11.0435
▁hmm	-11.0436
▁bunch	-11.0436
▁turtle	-11.0443
▁rub	-11.0446
▁finito	-11.0448
▁cum	-11.0448
box	-11.0449
▁complesso	-11.0455
▁stir	-11.0455
▁schools	-11.0464
tries	-11.0469
▁spi	-11.0469
▁nuovamente	-11.0475
▁border	-11.0477
▁recording	-11.0483
▁shadow	-11.0484
vasi	-11.0485
mma	-11.0488
▁votare	-11.049
▁dunno	-11.049
▁monti	-11.049
▁suggest	-11.0497
▁pronto	-11.0498
▁vecchi	-11.0505
▁venisse	-11.0505
▁jerry	-11.0505
▁applicare	-11.0508
▁debut	-11.0509
row	-11.0511
▁toscana	-11.0513
gri	-11.0516
▁scan	-11.0516
▁queer	-11.0517
▁cer	-11.052
▁comb	-11.0523
▁gira	-11.0524
▁individual	-11.0525
▁online	-11.0527
▁sí	-11.0527
▁giungere	-11.0528
▁eppure	-11.053
▁errori	-11.053
▁ministero	-11.0532
▁ue	-11.0537
▁avvicina	-11.0538
▁bravo	-11.0541
▁studenti	-11.0541
▁lin	-11.0547
▁precedenti	-11.0547
▁200	-11.0548
▁museum	-11.0555
▁creek	-11.0555
▁arrest	-11.0557
▁albert	-11.0557
chuckles	-11.0557
▁approccio	-11.0566
▁etc	-11.0568
▁elizabeth	-11.0572
▁patient	-11.0574
▁conferma	-11.0574
zion	-11.0577
isti	-11.0579
eating	-11.058
▁ste	-11.0581
▁proprietà	-11.0582
▁paio	-11.0583
pped	-11.0584
▁expression	-11.0589
▁proper	-11.059
pp	-11.0592
▁faces	-11.0594
▁minor	-11.0596
ence	-11.0597
▁pile	-11.0599
▁cammino	-11.0599
ball	-11.0604
▁willing	-11.0605
zer	-11.0606
▁serio	-11.0608
▁terreno	-11.0608
▁quindici	-11.0609
continues	-11.0611
▁religione	-11.0613
▁arthur	-11.0614
sie	-11.0614
▁active	-11.0614
▁antichi	-11.0615
▁nin	-11.0616
▁content	-11.0616
ndola	-11.0617
gie	-11.0618
▁5,	-11.0625
▁rispettare	-11.0627
▁worst	-11.063
▁counter	-11.0636
▁sang	-11.0638
▁aid	-11.0638
▁onore	-11.0639
▁alimentare	-11.064
▁agent	-11.0641
▁separate	-11.0642
▁pipe	-11.0645
friend	-11.0645
▁kinds	-11.0645
rse	-11.0647
poli	-11.0649
▁ritorna	-11.0653
▁included	-11.0654
▁chicago	-11.0655
▁cooking	-11.0666
▁nick	-11.0667
▁effort	-11.0671
▁parco	-11.0672
▁primavera	-11.0672
▁cloud	-11.0673
▁ter	-11.0675
▁concerned	-11.0677
▁magazine	-11.068
▁receive	-11.0684
▁passaggio	-11.0692
▁directly	-11.0693
right	-11.0694
▁bucket	-11.0698
▁gara	-11.0698
▁thin	-11.0698
esercizio	-11.07
▁alex	-11.0705
▁prego	-11.0707
▁partenza	-11.0707
▁prega	-11.0711
▁aumentare	-11.0711
home	-11.0712
▁comma	-11.0712
▁alza	-11.0715
▁potenza	-11.0723
war	-11.0726
cola	-11.0727
▁patto	-11.0728
▁ò	-11.0731
▁drawn	-11.0733
▁dust	-11.0737
ena	-11.0737
▁shouted	-11.0737
22	-11.0739
▁sticks	-11.074
▁vostre	-11.074
▁tende	-11.074
len	-11.0745
▁coesione	-11.0748
par	-11.0749
▁conta	-11.0751
star	-11.0753
▁od	-11.0754
23	-11.0757
▁singoli	-11.0757
▁hay	-11.0761
▁towel	-11.0764
▁sh	-11.0769
over	-11.0772
▁[3	-11.0772
▁aliens	-11.0773
▁alien	-11.0774
nzi	-11.0774
▁tecnica	-11.078
▁disponibili	-11.0782
▁/	-11.0787
▁chest	-11.0787
▁zealand	-11.0791
oo	-11.0792
▁cities	-11.0794
▁tasso	-11.0796
▁strutture	-11.0799
ise	-11.0802
▁pol	-11.0808
▁intergovernativ	-11.0808
▁facilmente	-11.0808
▁tray	-11.0808
▁prossimi	-11.0808
▁hum	-11.0812
▁ceased	-11.0812
▁creato	-11.0818
▁stima	-11.0819
▁sm	-11.0825
▁friendly	-11.0826
▁gal	-11.0826
▁apparently	-11.0827
▁sentimento	-11.083
▁margaret	-11.0834
▁rifiuti	-11.0834
▁tecniche	-11.0834
▁decidere	-11.0834
▁dovesse	-11.0836
▁congress	-11.0838
▁animo	-11.0839
ello	-11.0839
▁permesso	-11.0842
▁romantic	-11.0846
▁riunione	-11.0846
▁comunitarie	-11.0847
ppe	-11.0847
ram	-11.0849
▁perde	-11.085
▁vendita	-11.0851
▁shook	-11.0852
ft	-11.0853
▁2014	-11.0854
long	-11.0854
berg	-11.0854
▁stream	-11.0856
▁related	-11.0856
▁understood	-11.0859
▁amazing	-11.0859
▁contiene	-11.086
▁somehow	-11.0864
▁wished	-11.0865
▁bassi	-11.0867
▁wondering	-11.0868
▁veduto	-11.0868
▁delight	-11.0868
_,	-11.0869
dic	-11.0871
06	-11.0871
▁spada	-11.0872
▁sorta	-11.0875
▁cabin	-11.0876
▁wrestling	-11.0877
net	-11.0881
asse	-11.0883
▁giuridico	-11.0885
▁solidarietà	-11.0885
▁conclusioni	-11.0887
▁quivi	-11.0887
▁affermare	-11.0888
end	-11.0892
▁tan	-11.0892
▁haha	-11.0895
sings	-11.0896
▁shame	-11.0898
town	-11.0898
▁helping	-11.0898
▁plants	-11.0899
8.	-11.09
▁maggiormente	-11.0902
▁trovo	-11.0904
▁victory	-11.0905
▁wo	-11.0906
erebbe	-11.0911
▁sum	-11.0914
▁percorso	-11.092
▁avviene	-11.092
arsi	-11.0921
▁sanità	-11.0923
▁latter	-11.0925
▁bishop	-11.0928
▁dimensione	-11.0931
▁tickle	-11.0932
▁dipende	-11.0932
▁raise	-11.0934
▁andato	-11.0939
▁scarpe	-11.0944
cher	-11.0945
▁shoulders	-11.0947
▁wet	-11.0947
▁visione	-11.0949
▁treasure	-11.095
▁matters	-11.0951
▁ricordi	-11.0952
▁funziona	-11.0953
▁tim	-11.0955
▁facoltà	-11.0963
sch	-11.0963
ker	-11.0964
▁poli	-11.0972
▁conserva	-11.0976
▁des	-11.0976
rn	-11.0977
▁ferro	-11.0979
▁advantage	-11.098
▁address	-11.0981
▁established	-11.0983
26	-11.0988
▁significato	-11.0989
▁pointing	-11.099
▁riconosce	-11.0991
▁wings	-11.0998
▁voices	-11.1003
▁voci	-11.1004
▁scientists	-11.101
▁cases	-11.1015
▁bas	-11.1018
▁cas	-11.1021
▁doors	-11.1021
▁scotland	-11.1024
ev	-11.1026
ok	-11.1027
▁gradi	-11.1028
cla	-11.1028
yo	-11.1031
tevi	-11.1031
▁emperor	-11.1033
▁1991	-11.1033
▁1980	-11.1033
▁impegni	-11.1034
▁intenzione	-11.1034
▁contempo	-11.1037
▁matches	-11.104
▁medesima	-11.1041
area	-11.1042
▁loose	-11.1044
▁fired	-11.1044
rato	-11.1051
▁prof	-11.1053
▁weekend	-11.1053
ow	-11.1055
▁quante	-11.1056
▁tele	-11.1057
▁alcuno	-11.1063
▁pelle	-11.1064
▁conflitto	-11.1068
tate	-11.1069
▁baseball	-11.1069
▁settimane	-11.1077
▁authority	-11.1077
▁luigi	-11.1079
▁ordini	-11.1084
lie	-11.1086
▁verranno	-11.1087
mpa	-11.1088
nsi	-11.1088
▁giustamente	-11.1089
▁consentire	-11.1089
▁2019	-11.1093
▁enorme	-11.1093
▁tunnel	-11.1094
▁fiscale	-11.1103
▁madam	-11.1106
▁35	-11.1107
▁inv	-11.1107
▁somethin	-11.1109
▁ascolta	-11.111
▁inizio	-11.1113
▁student	-11.1117
▁attempt	-11.1119
▁artist	-11.112
▁response	-11.1121
▁tuesday	-11.1121
▁mount	-11.1121
▁woof	-11.1124
▁apri	-11.1124
▁messaggio	-11.1126
▁throughout	-11.1126
▁aree	-11.1126
▁copy	-11.1127
▁ac	-11.1128
▁grey	-11.1136
▁acting	-11.1137
▁jenny	-11.114
▁ricordato	-11.114
▁arti	-11.1143
inter	-11.1144
▁issue	-11.1144
▁presentazione	-11.1146
▁folk	-11.1147
ize	-11.1148
▁grecia	-11.1151
▁rocks	-11.1152
▁chess	-11.1153
▁leone	-11.1156
▁knocked	-11.1156
▁neanche	-11.1158
▁pensi	-11.1162
▁yard	-11.1163
▁notizia	-11.1165
▁library	-11.1165
▁dichiarazioni	-11.1166
▁professionale	-11.1168
ons	-11.1168
▁carte	-11.1168
zzazione	-11.1172
uli	-11.1172
▁finanziaria	-11.1172
ving	-11.1173
▁refer	-11.1174
æ	-11.1176
▁waste	-11.1177
opera	-11.1178
▁curious	-11.1178
▁doggy	-11.118
▁religion	-11.1181
▁ricorso	-11.1183
▁picnic	-11.1183
▁seguenti	-11.1184
13	-11.1186
▁appare	-11.1187
▁developed	-11.1187
▁attuazione	-11.1188
▁feels	-11.1189
▁alice	-11.119
▁roberto	-11.1194
▁recognize	-11.1195
▁teams	-11.1197
▁limite	-11.1199
▁tin	-11.12
▁presence	-11.1201
▁hop	-11.1205
cker	-11.1206
rac	-11.1208
▁uguale	-11.1209
▁giacomo	-11.121
▁latte	-11.1211
▁persino	-11.1212
▁rimanere	-11.1215
mann	-11.1217
▁notizie	-11.1218
▁airport	-11.1219
▁hook	-11.1219
▁dozen	-11.1219
▁nut	-11.1223
▁attorno	-11.1227
▁2012	-11.1231
▁handsome	-11.1231
lon	-11.1231
▁faint	-11.1234
▁desert	-11.1235
▁palla	-11.1236
▁ideas	-11.1237
▁switch	-11.1237
▁dev	-11.1237
▁metti	-11.1238
▁ecu	-11.1238
▁goal	-11.1245
del	-11.1246
▁chase	-11.1247
▁bush	-11.1252
▁access	-11.1255
▁gio	-11.1256
▁segue	-11.1261
▁quantunque	-11.1263
▁giunto	-11.1265
▁waited	-11.1275
vole	-11.1282
▁scusa	-11.1282
▁reso	-11.1283
▁virginia	-11.1284
▁reported	-11.1285
intera	-11.1288
▁olympics	-11.1289
▁dishes	-11.129
▁specialmente	-11.129
▁2022	-11.129
uni	-11.1291
▁sogno	-11.1292
▁metodi	-11.1292
cer	-11.1293
▁incontra	-11.1294
▁professione	-11.1295
ili	-11.1296
cou	-11.1301
▁condanna	-11.1308
risate	-11.1308
▁scambio	-11.1311
▁quote	-11.1312
▁marker	-11.1312
▁potevano	-11.1315
▁genova	-11.1317
▁avessero	-11.1317
▁pony	-11.1321
▁democratico	-11.1323
uro	-11.1324
▁costituzione	-11.1326
▁situazioni	-11.1326
▁repeated	-11.1327
▁cure	-11.133
▁operation	-11.1331
▁assicura	-11.1333
ks	-11.1333
▁woo	-11.1337
▁sanno	-11.1338
din	-11.1339
laugh	-11.1342
▁democratic	-11.1349
med	-11.1353
about	-11.1356
ese	-11.136
▁colori	-11.1363
▁nazione	-11.1363
▁spo	-11.1363
ez	-11.1366
▁picking	-11.1367
▁boats	-11.1368
▁smooth	-11.1371
board	-11.1371
silver	-11.1374
▁oxford	-11.138
▁ufficiale	-11.138
▁chiarezza	-11.138
tine	-11.1388
mu	-11.1388
▁target	-11.139
▁languages	-11.1393
▁comunitari	-11.1393
▁sig	-11.1396
▁gesù	-11.1398
▁zebra	-11.1398
cries	-11.1399
ologia	-11.1399
▁becoming	-11.14
▁ordina	-11.1404
▁route	-11.141
bilità	-11.1412
▁rag	-11.1413
▁learning	-11.1414
▁vent	-11.1415
▁raccolta	-11.1416
▁requisiti	-11.1416
▁seriously	-11.1417
mor	-11.1417
▁coal	-11.1417
▁chairman	-11.1418
spe	-11.1419
▁yu	-11.1421
cus	-11.1421
ible	-11.1421
▁beh	-11.1422
▁prete	-11.1422
▁aiutare	-11.143
▁rumore	-11.1433
▁riforme	-11.1435
▁fl	-11.1435
▁♫	-11.1436
▁zo	-11.1438
▁fleet	-11.144
▁profondo	-11.1443
▁powerful	-11.1446
unica	-11.1448
▁sottolinea	-11.1448
▁dignità	-11.1453
nic	-11.1453
▁notevole	-11.1456
▁edna	-11.1458
▁diciamo	-11.1463
miss	-11.1466
▁rafforzare	-11.1467
▁storico	-11.1471
▁upset	-11.1474
▁var	-11.1482
▁impresa	-11.1483
▁material	-11.1485
▁madame	-11.1486
▁cervello	-11.1489
▁soviet	-11.1489
aula	-11.1491
▁larger	-11.1492
▁cina	-11.1492
phone	-11.1495
▁average	-11.1495
▁structure	-11.1498
▁shopping	-11.1499
▁americani	-11.1499
▁express	-11.15
▁owned	-11.1501
▁sail	-11.1505
▁latin	-11.1507
▁interessati	-11.1515
ach	-11.1515
▁touched	-11.152
liberalizzazione	-11.152
▁70	-11.1524
▁programme	-11.1527
ndomi	-11.1528
▁hills	-11.1528
▁legno	-11.1531
▁gro	-11.1532
▁failed	-11.1533
▁(;	-11.1535
▁esperti	-11.1535
▁legato	-11.1535
your	-11.1536
▁osserva	-11.1542
▁appello	-11.1546
▁thrown	-11.1549
▁scambi	-11.1549
▁gene	-11.155
▁shh	-11.1551
yn	-11.1559
90	-11.156
▁medici	-11.1562
▁bianca	-11.1562
▁aggiunge	-11.1566
▁maggie	-11.1569
giggles	-11.1571
▁angeles	-11.1574
05	-11.1574
▁2021	-11.1576
mme	-11.1576
▁drug	-11.1577
▁6,	-11.1577
▁ken	-11.1578
▁minimo	-11.1579
▁trap	-11.1581
▁svolgerà	-11.1582
▁comprende	-11.1585
▁vedete	-11.1586
book	-11.1588
▁domenica	-11.159
▁disegno	-11.159
▁babbo	-11.1591
▁luna	-11.1591
lus	-11.1593
▁wounded	-11.1597
▁papà	-11.16
▁pac	-11.16
▁influenza	-11.1601
▁rare	-11.1602
▁approvazione	-11.1605
▁mixed	-11.1607
▁religious	-11.1609
▁delicious	-11.1609
▁admit	-11.1609
ery	-11.1614
▁organization	-11.1614
zu	-11.1615
▁babe	-11.1617
▁chiunque	-11.1618
▁immagini	-11.1618
▁sorriso	-11.1618
▁preoccupazioni	-11.1619
▁debbano	-11.1627
▁destroy	-11.1627
▁companies	-11.1627
▁cibo	-11.1628
▁alti	-11.1629
▁status	-11.1631
▁darkness	-11.1631
▁frogs	-11.1634
▁exercise	-11.1637
▁concrete	-11.1637
ius	-11.1637
▁ty	-11.1637
fer	-11.164
▁kissed	-11.164
▁tax	-11.1644
▁accade	-11.1645
▁monta	-11.1645
▁biggest	-11.1646
▁modifiche	-11.1646
▁bessie	-11.1646
01	-11.165
▁presta	-11.1651
▁families	-11.1655
▁tough	-11.1656
▁2019,	-11.1656
▁governa	-11.1656
▁ufficio	-11.1661
▁damage	-11.1662
▁site	-11.1662
▁condurre	-11.1664
▁finanziarie	-11.1664
▁alternative	-11.1665
▁1970	-11.1665
▁quoth	-11.1667
▁forgive	-11.1676
lar	-11.1676
▁facevano	-11.1676
▁costruire	-11.1678
▁catholic	-11.1683
▁salad	-11.1688
▁trunk	-11.169
▁illinois	-11.1692
▁chamber	-11.1693
▁wore	-11.1693
▁buzz	-11.1695
▁aula	-11.1695
▁rug	-11.1696
▁joke	-11.1696
▁contratto	-11.17
▁grandfather	-11.1703
▁scegliere	-11.1705
▁vado	-11.1706
▁traccia	-11.171
▁kim	-11.171
▁sviluppare	-11.1714
▁awake	-11.1714
▁currently	-11.1719
▁$	-11.1722
▁colui	-11.1723
▁beep	-11.1723
▁direttive	-11.1725
▁batte	-11.1729
tions	-11.173
▁software	-11.173
▁mistress	-11.173
▁versione	-11.1731
▁jimmy	-11.1731
anni	-11.1732
▁estera	-11.1733
▁sentence	-11.1735
ered	-11.1735
----"	-11.1735
▁preoccupa	-11.1735
far	-11.1736
▁cra	-11.1737
▁bother	-11.1738
▁thursday	-11.1739
▁planning	-11.174
▁drops	-11.1743
▁sisters	-11.1747
▁sti	-11.1748
▁statistics	-11.1749
▁testi	-11.1749
▁clima	-11.1752
▁theory	-11.1753
▁magari	-11.1753
▁sali	-11.1753
▁rome	-11.1754
▁finire	-11.1756
▁walter	-11.1761
cro	-11.1771
▁vantaggi	-11.1776
17	-11.1776
▁senior	-11.1777
▁labbra	-11.1777
overlap	-11.178
▁tent	-11.1782
▁map	-11.1786
▁afford	-11.1786
▁saputo	-11.1786
▁distributed	-11.1787
▁quota	-11.1787
▁compiti	-11.1788
▁wondered	-11.1795
▁slept	-11.1796
▁divieto	-11.1796
▁pressione	-11.1796
▁eve	-11.1796
▁chain	-11.1799
▁copia	-11.1802
▁jar	-11.1804
▁jackson	-11.1807
▁noble	-11.1809
▁organi	-11.1809
▁champion	-11.181
▁britain	-11.1815
▁poeta	-11.1816
▁pity	-11.1819
▁increase	-11.182
▁dollhouse	-11.1825
▁julia	-11.1825
▁bitch	-11.1826
▁lume	-11.1826
▁islands	-11.1828
▁sembrava	-11.1832
▁ottenuto	-11.1834
▁rac	-11.1836
▁wave	-11.1841
▁newspaper	-11.1843
▁rush	-11.1843
▁sostenibile	-11.1843
▁oggetti	-11.1843
▁text	-11.1847
▁musical	-11.1848
▁giu	-11.1848
▁proved	-11.1848
▁mag	-11.1854
▁nap	-11.1857
▁soap	-11.1857
28	-11.1857
▁jan	-11.1861
▁originally	-11.1861
num	-11.1862
▁giochi	-11.1862
▁horn	-11.1862
abili	-11.1863
voli	-11.1864
▁povertà	-11.1872
▁rimasto	-11.1872
▁advice	-11.1873
▁diaper	-11.1873
iscono	-11.1875
▁lies	-11.1875
▁rolling	-11.1875
▁sb	-11.1879
pie	-11.188
ratner	-11.1885
▁agricola	-11.1891
▁agricoltori	-11.1891
▁stile	-11.1891
newman	-11.1895
▁pei	-11.1896
▁uses	-11.1898
▁prevent	-11.1902
▁brevi	-11.1903
▁operazioni	-11.1905
zzare	-11.1907
▁guerre	-11.1907
wing	-11.191
▁tiene	-11.191
▁beans	-11.1911
▁hamburger	-11.1912
▁aprire	-11.1913
▁contatto	-11.192
▁tenta	-11.192
▁priest	-11.1921
nder	-11.1922
▁stones	-11.1922
▁streets	-11.1923
▁serra	-11.1927
▁concert	-11.1928
▁bodies	-11.1929
▁aware	-11.1934
▁rappresentano	-11.1936
▁soggetti	-11.1938
▁conference	-11.1938
▁funzionari	-11.194
▁locked	-11.1942
▁tap	-11.1944
▁accetta	-11.1947
fully	-11.1949
▁stuffed	-11.1962
▁previous	-11.1962
imp	-11.1965
▁potremmo	-11.1967
occasione	-11.1971
▁favour	-11.1976
▁2001	-11.1976
▁attuali	-11.1977
▁croce	-11.1977
▁uniform	-11.1982
point	-11.1984
▁funzioni	-11.1986
▁malattia	-11.1986
▁glasses	-11.1992
▁valle	-11.1993
trici	-11.1993
pot	-11.1994
cos	-11.1994
play	-11.1995
▁destroyed	-11.1995
▁pensieri	-11.1996
▁consente	-11.2
rata	-11.2001
▁categoria	-11.2006
▁split	-11.2006
introduzione	-11.2009
▁pad	-11.2009
▁trovava	-11.201
▁deriva	-11.2014
▁volevo	-11.2016
▁alquanto	-11.2017
▁stella	-11.2019
occhi	-11.202
▁plot	-11.202
▁cala	-11.2022
▁legal	-11.2022
▁pulling	-11.2028
tea	-11.2029
▁rivela	-11.2029
▁minori	-11.203
▁perfettamente	-11.2036
▁bone	-11.2036
▁bio	-11.2036
▁lorenzo	-11.2037
▁sweetie	-11.2038
▁nas	-11.2041
▁basically	-11.2044
▁disappeared	-11.205
▁riso	-11.205
04	-11.2053
▁canadian	-11.2054
▁esprime	-11.2055
▁fonte	-11.2055
▁teneva	-11.2056
▁useful	-11.2056
▁bis	-11.206
▁precisa	-11.2062
▁svezia	-11.2064
▁sostanza	-11.2064
▁bor	-11.2067
▁moto	-11.2067
▁whenever	-11.2071
▁blu	-11.2072
▁sorte	-11.2072
nch	-11.2073
▁junior	-11.2073
▁severe	-11.2076
▁plates	-11.2081
stro	-11.2083
ging	-11.2089
▁[4	-11.2092
▁lieto	-11.2092
▁tecnico	-11.2093
▁property	-11.2094
▁scarcely	-11.2094
▁svolta	-11.2095
▁90	-11.2096
▁habit	-11.2098
▁killer	-11.21
mal	-11.2101
▁industry	-11.2102
▁wednesday	-11.2102
interesse	-11.2106
▁nucleare	-11.211
▁vada	-11.2113
▁suspect	-11.2115
rat	-11.2117
▁equilibrio	-11.2117
▁squadra	-11.2122
▁knee	-11.2124
▁bid	-11.2125
▁solid	-11.2126
▁ritrova	-11.2129
▁rein	-11.2131
▁hidden	-11.2132
take	-11.2134
giu	-11.2138
▁provide	-11.214
▁pause	-11.2141
▁false	-11.2142
▁80	-11.2144
▁nest	-11.2144
▁blame	-11.2145
nzia	-11.2145
▁disc	-11.2146
▁pianta	-11.2147
▁offrire	-11.2149
pra	-11.215
▁7,	-11.215
ray	-11.2153
▁stranger	-11.2155
03	-11.2156
bre	-11.2157
▁barba	-11.2158
ified	-11.216
▁giuseppe	-11.2161
▁woke	-11.2162
▁vedendo	-11.2164
▁dominio	-11.2166
▁enjoyed	-11.2168
▁clown	-11.2171
▁breast	-11.2171
place	-11.2174
▁verbale	-11.2175
▁metri	-11.2178
▁deputato	-11.2181
▁sottolineato	-11.2182
was	-11.2182
▁agosto	-11.2183
▁passage	-11.2185
▁fianco	-11.2191
▁slave	-11.2193
▁+/	-11.2197
▁fatica	-11.2197
▁hearts	-11.2198
▁faster	-11.2199
▁freddo	-11.2202
▁mud	-11.2203
mes	-11.2203
gives	-11.2207
▁irene	-11.2208
▁susan	-11.2208
▁fenomeno	-11.221
▁nervous	-11.221
▁congratularmi	-11.221
▁eventi	-11.2217
nga	-11.2219
illa	-11.2221
▁statement	-11.2227
▁riesce	-11.223
▁cowboy	-11.223
▁ufficiali	-11.2232
▁cagione	-11.2232
▁jail	-11.2233
▁invito	-11.2233
mb	-11.2237
tati	-11.2239
▁nutri	-11.2245
▁mali	-11.2245
round	-11.2246
▁fork	-11.2249
▁invita	-11.2249
▁chimney	-11.2249
▁prisoners	-11.2252
▁industria	-11.2252
▁fermo	-11.2252
▁results	-11.2255
▁comprendere	-11.2255
▁cone	-11.2256
▁privati	-11.2256
fica	-11.2257
2.	-11.2257
▁cottage	-11.2259
bit	-11.2261
▁strano	-11.2261
▁paying	-11.2264
▁tue	-11.2265
▁basti	-11.2266
▁sed	-11.2268
▁nondimeno	-11.2269
▁toast	-11.2272
▁espressione	-11.2272
odo	-11.2274
fici	-11.2276
▁knees	-11.2276
▁companion	-11.2285
ical	-11.2286
▁lancia	-11.2294
▁beth	-11.2294
▁adopera	-11.2294
thank	-11.2295
rus	-11.2298
▁compiere	-11.2298
▁promozione	-11.23
sk	-11.2304
▁contenuti	-11.2309
▁canton	-11.2316
▁riserva	-11.2316
▁keeps	-11.2317
istruzione	-11.2317
▁southwestern	-11.2319
cina	-11.232
▁asia	-11.2322
▁oop	-11.2322
▁inde	-11.2324
nne	-11.2325
▁mix	-11.2326
american	-11.2329
▁brilliant	-11.2329
▁rec	-11.2331
▁considerato	-11.2331
▁comedy	-11.2331
▁compete	-11.2331
▁gain	-11.2332
▁contest	-11.2332
▁asilo	-11.2333
▁direct	-11.2334
▁florence	-11.2339
▁naughty	-11.234
▁winning	-11.234
▁socks	-11.2345
▁determined	-11.2346
▁items	-11.2347
▁mainly	-11.2348
▁prevenzione	-11.2349
▁industriale	-11.235
▁stands	-11.2353
▁tha	-11.2355
▁challenge	-11.2359
▁intendo	-11.2362
▁regionali	-11.2364
▁reali	-11.2366
▁buried	-11.2369
▁universale	-11.2369
▁mile	-11.2369
▁removed	-11.2369
whispers	-11.2369
nci	-11.2373
has	-11.2375
27	-11.2377
▁32	-11.2378
▁posizioni	-11.2379
▁cards	-11.2382
▁ends	-11.2383
▁quit	-11.2384
▁interni	-11.2386
▁illumina	-11.2388
▁angel	-11.2388
▁transport	-11.2389
▁statue	-11.2389
▁sanzioni	-11.239
itá	-11.2392
esperienza	-11.2392
tting	-11.2393
▁ecc	-11.2393
ub	-11.2396
▁terribile	-11.2399
▁chiediamo	-11.2399
▁pratiche	-11.2399
▁aside	-11.2399
▁pia	-11.24
▁sorella	-11.2406
▁cart	-11.2407
▁balloon	-11.2408
▁autori	-11.2408
▁medie	-11.2412
cra	-11.2413
▁orientale	-11.2415
▁tenendo	-11.2415
▁steve	-11.2417
gge	-11.2419
▁tribunale	-11.2421
▁mobile	-11.2421
▁fishing	-11.2422
ium	-11.2424
dan	-11.2428
▁giardino	-11.243
ral	-11.2432
▁ragazza	-11.2439
▁grandmother	-11.244
▁soddisfazione	-11.244
▁numerose	-11.244
▁rear	-11.2441
▁dreams	-11.2442
60	-11.2443
▁crack	-11.2447
tten	-11.2448
ug	-11.2448
▁occasion	-11.2448
▁appointed	-11.2451
07	-11.2451
▁rocket	-11.2451
▁claus	-11.2453
▁holes	-11.2454
▁invited	-11.2458
▁roz	-11.2459
▁stomach	-11.2459
lato	-11.246
▁atteggiamento	-11.2461
▁mono	-11.2461
uno	-11.2462
tar	-11.2462
▁considera	-11.2464
▁teaching	-11.2465
▁nasce	-11.2465
▁reasons	-11.2466
ik	-11.2466
▁acquista	-11.2466
▁criminalità	-11.247
▁bud	-11.2476
coughs	-11.2476
▁affairs	-11.2477
▁spare	-11.2477
▁grab	-11.2477
▁circostanze	-11.2479
▁risposte	-11.2479
▁naturali	-11.2484
ges	-11.2485
▁gathered	-11.2485
▁forms	-11.2488
uo	-11.2489
▁consumo	-11.2489
▁screen	-11.249
run	-11.249
▁specifico	-11.249
▁adottato	-11.2492
▁presentati	-11.2497
▁courage	-11.2497
▁articoli	-11.25
▁towns	-11.2502
▁confini	-11.2502
▁mel	-11.2503
▁auntie	-11.2504
▁prepara	-11.2506
▁treatment	-11.2511
▁firma	-11.2514
▁venuta	-11.252
▁presi	-11.252
cul	-11.2521
▁consiglia	-11.2521
▁evidently	-11.2522
▁alarm	-11.2524
▁feelings	-11.2525
▁entirely	-11.2526
▁constatare	-11.2528
▁buttons	-11.2528
▁cereal	-11.2529
▁semplici	-11.2529
▁esempi	-11.2529
▁vessel	-11.253
▁1989	-11.253
▁1960	-11.253
▁cominciò	-11.253
09	-11.2532
35	-11.2532
ering	-11.2535
low	-11.2535
▁claim	-11.2536
▁urban	-11.2536
▁nove	-11.254
▁setting	-11.2541
▁sentenza	-11.2542
▁slightly	-11.2544
▁democratica	-11.2546
▁sur	-11.2546
gro	-11.2546
▁stri	-11.2546
comp	-11.2547
ward	-11.255
▁holiday	-11.255
▁ordinary	-11.2551
▁burning	-11.2552
give	-11.256
▁instant	-11.2562
▁landed	-11.2562
▁avoid	-11.2562
▁bon	-11.2563
▁opens	-11.2573
▁seek	-11.2574
▁introdurre	-11.2575
▁à	-11.2577
▁attacked	-11.2578
▁valutare	-11.258
▁gia	-11.2581
▁perdita	-11.2581
▁cape	-11.2582
▁steal	-11.2585
▁impedire	-11.2585
▁cucina	-11.2585
stone	-11.2587
▁istruzione	-11.2587
▁spider	-11.259
▁fully	-11.259
70	-11.2591
▁described	-11.2592
oro	-11.2592
▁segreto	-11.2601
vit	-11.2602
▁civili	-11.2607
▁realized	-11.261
▁upside	-11.2611
▁shark	-11.2611
▁condivido	-11.2611
▁rachel	-11.2612
▁disponibilità	-11.2612
▁morta	-11.2616
▁destinati	-11.2616
▁cavaliere	-11.2617
▁interrogazioni	-11.2623
key	-11.2624
ngo	-11.2625
▁pian	-11.2629
▁approva	-11.2638
▁adesione	-11.2638
▁esseri	-11.264
cchia	-11.264
▁characters	-11.2643
▁2020,	-11.2643
▁grida	-11.2643
▁agita	-11.2646
▁stephen	-11.2653
▁stove	-11.2655
▁listened	-11.2656
▁link	-11.2658
▁discuss	-11.2658
▁mexico	-11.2663
▁esperienze	-11.2673
▁pontefice	-11.2673
▁potremo	-11.2674
▁chiude	-11.2674
▁highway	-11.2677
▁pose	-11.2678
▁personalmente	-11.2679
▁mer	-11.268
▁bark	-11.2681
45	-11.2682
▁pit	-11.2682
▁vivi	-11.2682
▁vergogna	-11.2683
▁republican	-11.2684
▁management	-11.2684
dor	-11.2686
burg	-11.2688
▁isola	-11.269
▁throws	-11.2692
▁egypt	-11.2692
▁odio	-11.2697
▁secoli	-11.2698
▁dimensioni	-11.2698
▁discussioni	-11.2701
▁lane	-11.2703
▁taluni	-11.2709
▁circus	-11.271
▁cavalieri	-11.2713
▁location	-11.2715
adesione	-11.2718
▁dur	-11.2718
▁pilot	-11.2718
▁possession	-11.2718
▁treated	-11.2719
▁fabbrica	-11.272
▁tied	-11.2724
▁puppy	-11.2725
▁pond	-11.2726
▁vicini	-11.2727
▁mari	-11.2729
ller	-11.273
▁interna	-11.2731
▁umane	-11.2733
▁powder	-11.2735
▁ulteriore	-11.2738
▁giunta	-11.2738
▁pitch	-11.2738
▁dimostrare	-11.2738
ay	-11.2741
▁temperature	-11.2746
▁possesso	-11.2746
▁giovine	-11.2746
▁tend	-11.2747
▁stabili	-11.2748
▁esteri	-11.2748
▁nonna	-11.2748
▁policeman	-11.2752
▁pisa	-11.2754
▁pagamento	-11.2758
▁garage	-11.2758
▁continuo	-11.2764
▁2020)	-11.2766
▁impression	-11.2766
▁inutile	-11.2766
▁peek	-11.2767
▁~	-11.2767
▁—	-11.2771
wn	-11.2772
▁idiot	-11.2773
▁defeat	-11.2773
▁grant	-11.2773
▁profonda	-11.2774
▁senator	-11.2775
▁eventually	-11.2777
▁ly	-11.2779
▁materiali	-11.2782
flu	-11.2782
▁rientra	-11.2783
▁mise	-11.2783
cent	-11.2789
▁jones	-11.2791
99	-11.2792
▁trenta	-11.2794
ches	-11.2795
arte	-11.2796
▁excitement	-11.2798
▁vescovo	-11.2798
late	-11.28
▁fellows	-11.2804
▁cho	-11.2809
▁andrew	-11.2811
▁wipe	-11.2811
rsene	-11.2816
▁somme	-11.2816
▁institute	-11.2818
▁ahhah	-11.282
down	-11.282
mm	-11.282
clu	-11.2821
attuazione	-11.2823
▁logica	-11.2824
set	-11.2824
▁throwing	-11.2825
▁attesa	-11.283
ped	-11.283
▁mini	-11.2839
▁giornali	-11.2839
▁prospettiva	-11.2839
▁rovina	-11.284
▁sixteen	-11.284
ology	-11.284
▁accusa	-11.284
▁“‘	-11.2841
▁irish	-11.2841
▁clouds	-11.2842
mas	-11.2842
bol	-11.2843
▁dish	-11.2849
▁organizzazione	-11.285
aggio	-11.2851
▁kings	-11.2859
▁minore	-11.2859
▁ron	-11.2859
ami	-11.2861
▁bug	-11.2868
▁strip	-11.287
▁johnson	-11.2875
▁associazione	-11.2877
▁revolution	-11.2881
▁riguardano	-11.2882
ttu	-11.2882
▁balance	-11.2882
▁dispone	-11.2884
▁losing	-11.2885
▁recently	-11.2885
bilmente	-11.2892
▁philip	-11.2892
▁romano	-11.2897
▁studies	-11.2898
▁sultan	-11.2898
▁usci	-11.29
ans	-11.2901
▁adventure	-11.2904
▁ugly	-11.2904
▁valuta	-11.2908
▁accompagna	-11.2911
▁staying	-11.2912
may	-11.2912
▁construction	-11.2914
▁divided	-11.2914
▁truly	-11.2917
▁dodici	-11.2918
▁professore	-11.2919
ela	-11.2922
▁bless	-11.2923
▁entertainment	-11.2924
▁miglior	-11.2924
ffer	-11.2926
und	-11.2927
av	-11.2932
▁chairs	-11.2932
eva	-11.2933
▁vedeva	-11.2936
▁argomenti	-11.2945
▁tentativo	-11.2945
▁ding	-11.2946
▁cri	-11.2946
▁shooting	-11.2954
ō	-11.2955
▁avremo	-11.2956
▁poll	-11.2957
▁dissi	-11.2961
▁trump	-11.2965
▁dava	-11.2966
▁budget	-11.2967
atta	-11.2967
▁steel	-11.2967
▁luci	-11.2972
▁majesty	-11.2976
▁rushed	-11.2986
▁norma	-11.2987
▁eaten	-11.2987
▁10,	-11.2988
▁disco	-11.2988
nor	-11.2989
fra	-11.2991
▁timore	-11.2992
mate	-11.2993
▁der	-11.2994
▁pò	-11.2996
tezza	-11.2997
▁belt	-11.2997
▁rivoluzione	-11.2998
unc	-11.2998
▁lunghi	-11.2998
▁load	-11.2999
▁raccomandazione	-11.2999
▁clo	-11.3007
rá	-11.3012
tel	-11.3012
ø	-11.3013
▁voti	-11.3017
▁bruxelles	-11.3019
▁muove	-11.3019
▁difendere	-11.3021
pen	-11.3026
▁principal	-11.3027
▁iniziare	-11.3031
▁dem	-11.3031
▁breaking	-11.3031
ced	-11.3036
▁burst	-11.3036
lina	-11.3038
ag	-11.3042
▁arts	-11.3042
▁svolge	-11.3044
ufficio	-11.3045
▁frate	-11.3046
▁drugs	-11.3047
▁cam	-11.3047
▁horrible	-11.3051
▁ragazzo	-11.3051
▁entrance	-11.3052
▁arrive	-11.3056
▁interrogazione	-11.3058
▁toglie	-11.3059
▁ultime	-11.3062
▁producer	-11.3064
▁operatori	-11.3064
sche	-11.3065
▁grade	-11.3067
▁taglia	-11.307
▁guest	-11.3072
▁pagine	-11.3073
▁comportamento	-11.3074
ign	-11.3075
ities	-11.3078
▁ampliamento	-11.3081
▁sovra	-11.3085
▁hasta	-11.3087
▁observed	-11.3088
nel	-11.3092
zz	-11.3093
ā	-11.3093
▁momenti	-11.3093
▁tabacco	-11.3094
▁restaurant	-11.3094
▁ivi	-11.3099
ivo	-11.31
enne	-11.31
▁tipi	-11.3101
fl	-11.3103
▁competitività	-11.3105
▁executive	-11.3105
▁squeeze	-11.3105
▁dubbi	-11.3109
▁figliuoli	-11.3109
▁personali	-11.311
▁banana	-11.3114
▁detective	-11.3116
▁sospetto	-11.3116
mat	-11.3116
▁greatly	-11.3116
accesso	-11.312
rdi	-11.3121
▁devil	-11.3123
▁settlement	-11.3125
▁mario	-11.3126
▁raymond	-11.3126
▁pooh	-11.3135
▁source	-11.3136
▁hadta	-11.3137
▁genti	-11.3139
▁frontiere	-11.3141
▁pio	-11.3142
▁noto	-11.3143
▁sno	-11.3144
▁dimenticare	-11.3145
▁verificare	-11.3148
▁ser	-11.315
▁performed	-11.315
▁nearer	-11.3151
pos	-11.3153
▁marina	-11.3156
▁garanzia	-11.3159
▁rosalie	-11.3159
▁connection	-11.316
▁lifted	-11.316
▁eccellente	-11.3161
▁veder	-11.3162
▁dichiarato	-11.3163
▁tutt	-11.3163
▁folks	-11.3166
▁israel	-11.3168
▁autore	-11.3172
sion	-11.3172
throws	-11.3172
▁adatta	-11.3173
▁pointed	-11.3177
▁conditions	-11.3179
▁felici	-11.3179
nica	-11.3179
▁qualora	-11.3182
▁mighty	-11.3184
▁wee	-11.3188
▁suona	-11.3189
▁sticker	-11.3192
▁eddie	-11.3197
temi	-11.32
▁marine	-11.3201
bel	-11.3201
▁protocollo	-11.3203
tru	-11.3203
▁slip	-11.3204
▁preparazione	-11.3204
▁piani	-11.3209
sure	-11.3209
pur	-11.3212
▁durata	-11.3219
tan	-11.322
▁8,	-11.3221
▁elena	-11.3222
ure	-11.3222
shed	-11.3224
▁assembly	-11.3224
▁sarei	-11.3225
▁vision	-11.3225
▁patsy	-11.3226
tal	-11.3226
▁shock	-11.3228
▁senz	-11.3228
▁chiamata	-11.3232
▁tells	-11.3232
▁tag	-11.3232
▁introduce	-11.3233
▁malgrado	-11.3235
▁madonna	-11.3235
▁pranzo	-11.3235
▁jacket	-11.3237
▁osservazione	-11.324
rico	-11.3242
▁innocent	-11.3245
▁lista	-11.3248
▁rival	-11.3248
▁altrove	-11.3253
▁progress	-11.3254
▁favorire	-11.3255
▁nave	-11.3255
▁pray	-11.3255
▁alessandro	-11.3257
▁responsible	-11.3257
▁benefit	-11.3258
▁considerando	-11.3259
▁500	-11.3259
▁dollari	-11.3262
▁9,	-11.3263
lor	-11.3264
▁interessa	-11.3267
▁condotto	-11.3267
shire	-11.3272
rati	-11.3272
▁ernie	-11.3274
▁filo	-11.3277
▁premio	-11.3278
▁rifle	-11.3278
▁emissioni	-11.3278
▁opinioni	-11.328
▁altogether	-11.328
▁segnale	-11.3281
▁stia	-11.3282
▁nation	-11.3285
án	-11.3287
▁technology	-11.3289
▁uk	-11.3292
▁wal	-11.3292
▁comando	-11.3293
▁versa	-11.3295
età	-11.3295
▁corsi	-11.3298
▁kangaroo	-11.33
cur	-11.33
▁1988	-11.3301
▁chosen	-11.3305
uff	-11.3306
▁gained	-11.331
unico	-11.331
▁avevamo	-11.3311
▁earl	-11.3311
▁gordon	-11.3311
▁hockey	-11.3311
▁tear	-11.3318
▁suffering	-11.3319
▁regret	-11.3323
▁dovremo	-11.3323
▁protection	-11.3323
▁planned	-11.3323
sten	-11.3324
▁tam	-11.3328
▁manfredi	-11.3333
▁lingue	-11.3334
▁criminal	-11.3334
▁lucy	-11.3335
▁riprende	-11.3336
eli	-11.3336
▁wire	-11.3336
nese	-11.3337
▁dette	-11.3339
▁jumping	-11.3341
▁notare	-11.3342
▁austrian	-11.3342
▁fourteen	-11.3343
▁engaged	-11.3347
▁positivi	-11.3348
▁bavaria	-11.3351
▁accogliere	-11.3352
rina	-11.3353
▁differenze	-11.3355
▁netherlands	-11.3355
door	-11.3356
▁divina	-11.3361
▁matrimonio	-11.3361
▁produrre	-11.3361
▁imper	-11.3362
▁dante	-11.3362
▁colour	-11.3363
▁parecchi	-11.3363
▁breathing	-11.3364
▁refused	-11.3365
▁spoons	-11.3365
▁prevista	-11.3367
▁kidding	-11.3368
▁lack	-11.337
▁termina	-11.3371
▁flash	-11.3371
▁hoping	-11.3373
▁struggle	-11.3375
voice	-11.3377
▁features	-11.3377
▁poesia	-11.3377
▁ritardo	-11.3377
▁clip	-11.3378
▁badly	-11.3378
29	-11.3378
▁ghe	-11.3379
▁introduced	-11.338
▁recorded	-11.3381
hy	-11.3381
▁comanda	-11.3383
▁notes	-11.3383
▁fila	-11.3384
▁mill	-11.3386
▁belli	-11.3388
▁inteso	-11.339
▁rail	-11.3393
▁versi	-11.3395
▁fonti	-11.3395
▁capisco	-11.3398
▁avviare	-11.3398
▁piglia	-11.3399
▁includes	-11.34
▁modificare	-11.3403
▁pride	-11.3403
▁slaves	-11.3405
▁von	-11.3406
song	-11.3408
▁finestra	-11.3409
▁decreto	-11.3411
▁rib	-11.3411
▁stepped	-11.3411
▁nations	-11.3412
▁speciali	-11.3414
ig	-11.3417
▁dum	-11.3419
▁craft	-11.3424
▁daily	-11.3424
holding	-11.3425
▁hunt	-11.3426
▁accepted	-11.3426
ndogli	-11.3427
▁cherry	-11.3427
▁crawl	-11.3429
▁poet	-11.3431
▁negative	-11.3433
▁fred	-11.3434
af	-11.3434
▁brenda	-11.3439
nico	-11.344
▁aspettare	-11.3442
▁lasciò	-11.3446
▁relativamente	-11.3449
gui	-11.3453
▁eighteen	-11.3453
▁chè	-11.3463
ala	-11.3465
▁malattie	-11.3466
▁swear	-11.3467
▁weapon	-11.347
▁intero	-11.3471
vy	-11.3474
pan	-11.3474
▁chat	-11.3475
▁furniture	-11.3477
▁avranno	-11.3478
dono	-11.3479
▁grandpa	-11.3479
▁cambia	-11.348
▁basi	-11.3482
▁britannico	-11.3489
▁sacco	-11.3489
▁fama	-11.3489
▁abitanti	-11.349
▁electric	-11.3494
▁servire	-11.3495
▁wound	-11.3496
▁positiva	-11.3497
▁cats	-11.3503
▁shower	-11.3504
impegno	-11.3505
▁asian	-11.3508
▁allen	-11.351
▁parties	-11.3514
▁fc	-11.3518
▁advance	-11.3518
▁dimentica	-11.352
▁owe	-11.3522
▁platform	-11.3522
ther	-11.3524
▁45	-11.3527
▁capace	-11.3534
▁chiuso	-11.3535
▁fed	-11.3538
▁bones	-11.354
▁rent	-11.3542
his	-11.3543
98	-11.3544
▁ulteriormente	-11.3545
ffe	-11.3545
▁collection	-11.3546
▁dun	-11.3549
lata	-11.355
▁hurried	-11.3551
▁baker	-11.3554
▁gotten	-11.3555
▁diretto	-11.3555
▁quality	-11.3555
only	-11.3557
▁sigh	-11.356
▁rapidly	-11.3561
▁poteri	-11.3561
▁pine	-11.3566
▁lonely	-11.3567
▁sweetheart	-11.3567
▁aereo	-11.3569
atto	-11.357
▁roles	-11.3572
▁recognized	-11.3572
boy	-11.3573
▁fia	-11.3574
▁indicato	-11.3578
▁tradizione	-11.358
▁penale	-11.358
▁sembrano	-11.3582
▁piede	-11.3584
▁weapons	-11.3586
rah	-11.3588
ule	-11.3588
▁sorts	-11.3588
▁rescue	-11.3588
▁costituiscono	-11.359
▁frutto	-11.359
▁pulls	-11.359
acco	-11.359
▁byebye	-11.3591
▁numeri	-11.3591
▁barbara	-11.3592
▁integrazione	-11.3597
▁colà	-11.3597
▁actual	-11.3599
▁num	-11.3599
dar	-11.36
lum	-11.3612
▁orientamenti	-11.3613
▁fuga	-11.3616
▁lessons	-11.3618
lf	-11.3618
▁300	-11.3622
ily	-11.3624
▁riflessione	-11.3624
▁pronti	-11.3625
▁vii	-11.3627
▁rapid	-11.3627
▁scratch	-11.3627
▁warning	-11.363
▁riuscire	-11.3632
▁cosiddett	-11.3633
▁legati	-11.3635
▁gently	-11.3635
▁assistant	-11.3636
autore	-11.3636
mic	-11.3639
▁remarked	-11.364
▁beer	-11.364
▁rude	-11.3642
▁poca	-11.3643
▁stan	-11.3646
▁render	-11.3646
▁ostacoli	-11.3646
▁caratteristiche	-11.3646
oth	-11.3649
▁relax	-11.3649
new	-11.3654
lea	-11.3656
▁cru	-11.3657
▁vennero	-11.3657
▁addosso	-11.3658
▁lit	-11.3661
▁cruel	-11.3662
▁stabilito	-11.3665
▁giunge	-11.3669
▁necklace	-11.3669
▁supply	-11.3669
▁richiesto	-11.3669
▁sweden	-11.367
▁whistle	-11.367
▁bastard	-11.367
mark	-11.3672
▁esercito	-11.3673
py	-11.3676
▁nomina	-11.3677
▁sales	-11.3677
▁lago	-11.3678
▁gri	-11.3681
▁cambiamenti	-11.3681
▁emerge	-11.3681
▁seal	-11.3681
▁washing	-11.3682
▁abita	-11.3683
▁scritta	-11.3683
rian	-11.3689
▁lesson	-11.369
▁terror	-11.3691
▁kosovo	-11.3692
▁scon	-11.3693
usa	-11.3693
▁corretto	-11.3694
▁vienna	-11.3695
▁alimentari	-11.3696
▁unicamente	-11.3696
▁pole	-11.3702
▁permettere	-11.3703
▁prospettive	-11.3703
nate	-11.3704
▁realizzato	-11.3705
ix	-11.3706
▁appoggia	-11.3706
hood	-11.3709
▁cambio	-11.3711
▁suffered	-11.3711
▁climate	-11.3712
▁exciting	-11.3715
▁financial	-11.3715
▁santi	-11.3716
▁painting	-11.3716
▁deer	-11.3717
dur	-11.3723
▁missione	-11.3725
▁credito	-11.3725
▁lire	-11.3727
▁char	-11.3728
bin	-11.3728
dale	-11.3734
▁cad	-11.3736
▁audience	-11.3738
▁mickey	-11.3738
▁francisco	-11.3739
▁benissimo	-11.374
▁competed	-11.3741
▁recentemente	-11.3741
▁cadere	-11.3743
say	-11.3743
▁har	-11.3744
▁2006	-11.3745
▁crossed	-11.3745
▁labor	-11.3745
cò	-11.3746
▁normally	-11.3746
▁zio	-11.3748
▁speriamo	-11.3749
▁ros	-11.3752
0.000	-11.3756
▁scopri	-11.3758
▁racing	-11.3759
▁pensava	-11.3761
▁corrisponde	-11.3768
▁thirteen	-11.3772
▁montagna	-11.3773
▁chop	-11.3774
ón	-11.3775
▁cena	-11.3776
dri	-11.3776
touches	-11.3777
▁cutting	-11.378
▁poscia	-11.3785
▁pietà	-11.3787
▁conduce	-11.3789
▁settle	-11.3792
▁annuale	-11.3794
▁pezzi	-11.3796
▁soggiunse	-11.3797
08	-11.3798
▁amor	-11.3802
▁laws	-11.3805
▁francis	-11.3806
▁assieme	-11.3807
▁horror	-11.3807
have	-11.3807
▁americans	-11.3808
pt	-11.3808
▁benefici	-11.3809
▁hy	-11.3812
▁cercato	-11.3813
▁commission	-11.3815
ably	-11.3815
▁esercita	-11.3816
▁cooper	-11.3816
▁comunica	-11.3817
▁instance	-11.3818
▁attend	-11.382
▁useta	-11.3821
nio	-11.3822
▁consent	-11.3826
▁yards	-11.3832
▁abbandona	-11.3833
▁animale	-11.3834
▁arma	-11.3835
tory	-11.3837
stica	-11.3838
▁drunk	-11.384
cc	-11.3844
▁ebbene	-11.3845
▁hoped	-11.3845
▁fields	-11.3846
▁gla	-11.385
▁allontana	-11.3851
▁arrivato	-11.3851
▁fiorentini	-11.3853
▁bimbo	-11.3854
▁specifiche	-11.3854
▁difficulty	-11.3855
nus	-11.3865
▁extremely	-11.3868
▁norah	-11.3869
▁domina	-11.3869
▁servant	-11.387
▁nn	-11.3873
nare	-11.3874
▁farò	-11.3874
▁carrots	-11.3875
▁spettacolo	-11.3876
▁steam	-11.3877
▁fattori	-11.3885
▁unit	-11.3885
cat	-11.3886
▁gang	-11.3886
▁procura	-11.3888
rin	-11.3889
nelli	-11.389
▁origin	-11.3891
▁approach	-11.3891
▁types	-11.3893
pulls	-11.3893
▁thousands	-11.3896
000	-11.3896
gy	-11.3899
oma	-11.3899
mbi	-11.3901
▁guisa	-11.3901
playing	-11.3903
▁inserire	-11.3903
▁angela	-11.3907
▁circumstances	-11.3909
gono	-11.391
▁persian	-11.3911
gate	-11.3913
▁ria	-11.3914
▁israele	-11.3914
▁concede	-11.392
66	-11.3922
▁victim	-11.3922
▁convinto	-11.3923
▁esclusivamente	-11.3923
▁pattern	-11.3924
▁disney	-11.3926
▁cardinale	-11.3928
▁quod	-11.393
▁pri	-11.393
▁ignora	-11.3931
▁operare	-11.3932
▁delegazione	-11.3935
▁boxes	-11.3935
▁conciliazione	-11.3935
▁cord	-11.3935
▁resistenza	-11.3936
utf	-11.3937
▁frase	-11.3939
▁aumenta	-11.3939
▁divide	-11.3939
▁gambe	-11.3942
▁ras	-11.3943
▁indica	-11.3943
▁partita	-11.3943
▁funeral	-11.3947
▁1986	-11.3947
▁trail	-11.3948
▁fretta	-11.3951
▁esercitare	-11.3954
▁consuma	-11.3958
▁triangle	-11.3958
▁spite	-11.396
▁gioca	-11.3961
▁denti	-11.3964
▁matt	-11.3965
▁required	-11.3965
▁prisoner	-11.3967
▁trace	-11.3968
▁patrimonio	-11.3969
▁distribuzione	-11.3971
▁wicked	-11.3972
▁saluta	-11.3976
▁11,	-11.3976
▁nec	-11.3981
▁potente	-11.3981
.9	-11.3981
▁riflettere	-11.3983
rda	-11.3985
gon	-11.3986
▁cent	-11.3986
▁scheme	-11.3988
cking	-11.399
▁captured	-11.3992
▁vince	-11.3993
▁trovò	-11.3993
▁armed	-11.3993
▁helmet	-11.3993
▁thunder	-11.3994
▁vivono	-11.3996
▁agnes	-11.3997
ice	-11.3998
▁properly	-11.4
mmi	-11.4
▁giulia	-11.4003
▁dude	-11.4004
avano	-11.4004
▁alexander	-11.4005
cie	-11.4009
▁provided	-11.401
▁altrui	-11.4011
nò	-11.4013
▁net	-11.4017
▁discriminazione	-11.4017
▁evidentemente	-11.4021
vio	-11.4023
▁nelson	-11.4026
▁minuto	-11.4029
ama	-11.4031
▁flu	-11.4033
▁normale	-11.4035
▁retro	-11.4038
amore	-11.4039
bal	-11.404
▁volentieri	-11.404
▁risposto	-11.404
▁beneath	-11.404
▁massachusetts	-11.404
▁avvenire	-11.4041
▁stroke	-11.4041
▁romana	-11.4042
▁preme	-11.4044
▁amongst	-11.4045
▁amministrazione	-11.4045
▁donkey	-11.4046
▁diretta	-11.4049
▁dir	-11.405
hal	-11.4052
▁colloca	-11.4052
bil	-11.4052
-1	-11.4053
▁benessere	-11.4054
▁negozi	-11.4055
▁sezione	-11.4056
▁istituzione	-11.4057
▁distant	-11.4058
▁signs	-11.4059
▁virus	-11.406
▁gusto	-11.4061
water	-11.4061
▁appears	-11.4062
▁jobs	-11.4063
▁considerazioni	-11.4066
▁impone	-11.4068
▁sink	-11.4068
▁detti	-11.4068
▁changing	-11.4069
▁parità	-11.4069
▁hunting	-11.4069
removes	-11.4071
▁addition	-11.4075
▁mobili	-11.4075
▁lately	-11.4076
cum	-11.4076
▁incident	-11.4076
▁cosi	-11.4078
▁roger	-11.4079
ben	-11.408
▁seth	-11.408
mont	-11.408
▁bisogni	-11.408
▁sits	-11.4082
▁mus	-11.4083
▁brief	-11.4083
▁ped	-11.4084
▁designed	-11.4087
▁gesti	-11.409
ré	-11.4092
▁raccomandazioni	-11.4101
▁fro	-11.4104
▁provoca	-11.4106
▁conquista	-11.4107
▁scary	-11.4109
▁dovevano	-11.411
▁velocità	-11.4112
▁drawer	-11.4112
▁proporre	-11.412
▁replaced	-11.4121
▁messer	-11.4124
nzo	-11.4124
▁12,	-11.4127
▁segna	-11.4128
▁bib	-11.4129
▁veste	-11.4129
▁chart	-11.4133
▁loudly	-11.4135
▁gosh	-11.4136
▁riusciti	-11.4138
▁xi	-11.4139
sc	-11.4139
▁spinge	-11.4144
▁pomeriggio	-11.4147
95	-11.416
▁alberto	-11.4161
▁unità	-11.4162
▁belongs	-11.4164
ple	-11.4167
▁limita	-11.4168
▁pic	-11.417
▁jersey	-11.4171
▁elevato	-11.4172
▁deserve	-11.4172
▁focus	-11.4172
bis	-11.4174
▁affair	-11.4174
▁workers	-11.4175
▁perdona	-11.4176
rone	-11.4179
▁bou	-11.4181
▁editor	-11.4181
sar	-11.4183
ston	-11.4183
▁previste	-11.4183
▁occurred	-11.4183
▁becomes	-11.4187
▁privato	-11.4192
▁tommy	-11.4193
▁chron	-11.4193
▁guilty	-11.4196
▁recita	-11.4199
▁trains	-11.4202
▁fru	-11.4203
▁jon	-11.4209
32	-11.4215
▁throne	-11.4219
opens	-11.4223
▁sap	-11.4227
▁cd	-11.4227
two	-11.4229
▁pete	-11.4229
▁delighted	-11.4231
▁esclamò	-11.4231
▁satisfied	-11.4232
▁osservare	-11.4236
▁mont	-11.4237
▁estero	-11.4238
▁function	-11.4243
ments	-11.4243
▁issues	-11.4246
ban	-11.4247
▁1950	-11.4249
▁direttore	-11.4252
▁cents	-11.4255
▁1984	-11.4255
▁nuts	-11.4256
▁accoglie	-11.4258
▁fonda	-11.4259
▁ricco	-11.4261
▁volo	-11.4261
yeah	-11.4263
gged	-11.4266
▁riconosciuto	-11.4267
▁ms	-11.4268
▁shout	-11.4268
▁demand	-11.4269
▁commercial	-11.4271
▁nobile	-11.4271
pper	-11.4275
▁imporre	-11.4276
▁closely	-11.4277
▁tank	-11.428
▁fiore	-11.4282
▁beg	-11.4282
▁remove	-11.4282
▁metropolitan	-11.4282
▁wing	-11.4283
intervento	-11.4285
cta	-11.4285
tell	-11.4286
ists	-11.4286
▁williams	-11.4287
▁verdi	-11.4287
pit	-11.429
▁micro	-11.4291
ross	-11.4291
▁finchè	-11.4293
ibile	-11.4293
which	-11.4295
▁request	-11.4296
uf	-11.4299
▁pun	-11.4299
▁bolt	-11.43
▁giudice	-11.4304
▁waves	-11.4305
▁generation	-11.4307
▁00	-11.4307
▁efficacia	-11.4307
igh	-11.4308
▁bears	-11.4309
▁exist	-11.431
▁lasciando	-11.431
▁potè	-11.4311
▁oriente	-11.4311
▁repeat	-11.4313
▁sixth	-11.4314
36	-11.4315
▁basa	-11.4315
ï	-11.4316
▁antica	-11.4319
-2	-11.4319
▁andando	-11.432
▁mosse	-11.432
▁print	-11.432
▁gum	-11.4321
▁arranged	-11.4323
▁engineer	-11.4325
▁tru	-11.4327
▁mettiamo	-11.4329
pushes	-11.4334
ski	-11.4337
▁arrow	-11.4338
▁insurance	-11.434
▁brucia	-11.434
▁inferiore	-11.4343
▁gates	-11.4344
▁boot	-11.4346
▁esaminare	-11.4346
bly	-11.4347
elo	-11.4348
▁storie	-11.4351
▁previsti	-11.4352
▁disposto	-11.4353
▁kong	-11.4353
▁antico	-11.4355
▁physical	-11.436
▁interroga	-11.436
▁brings	-11.4361
55	-11.4362
sio	-11.4363
▁bassa	-11.4363
48	-11.4363
▁beast	-11.4367
still	-11.4367
▁specific	-11.4374
▁vir	-11.4376
▁relief	-11.4376
▁symbol	-11.4377
▁fetch	-11.4377
▁serving	-11.438
▁natale	-11.438
▁cheeks	-11.4381
▁selected	-11.4381
▁navy	-11.4389
▁ottimo	-11.4391
▁segretario	-11.4392
▁seated	-11.4397
▁rod	-11.4399
▁environment	-11.44
▁insegna	-11.44
▁compiuto	-11.4401
▁costui	-11.4402
▁elder	-11.4402
▁viii	-11.4412
▁territory	-11.4413
▁slipped	-11.4413
jen	-11.4415
gene	-11.4415
▁ampia	-11.4416
▁stretta	-11.4424
ace	-11.4424
▁ducati	-11.4424
rini	-11.4425
▁ragionevole	-11.4426
▁anime	-11.4428
▁giudica	-11.443
after	-11.4431
▁ruin	-11.4432
elle	-11.4433
▁rotta	-11.4433
▁fries	-11.4433
▁chiamare	-11.4435
1.	-11.4438
▁intendere	-11.4439
▁assumere	-11.4441
▁global	-11.4442
▁ascoltare	-11.4444
win	-11.4444
▁tire	-11.4445
▁andata	-11.4446
▁calcio	-11.4448
▁mappamondo	-11.445
▁jam	-11.4451
▁liberal	-11.4453
▁cau	-11.4456
▁sentimenti	-11.4457
▁witch	-11.4457
▁giocare	-11.4459
▁guitar	-11.4461
▁failure	-11.4462
▁iniziato	-11.4463
▁eager	-11.447
▁trattare	-11.4473
▁eventuali	-11.4474
intero	-11.4475
▁precious	-11.4476
sson	-11.4477
▁spera	-11.4481
▁13,	-11.4484
▁height	-11.4485
▁tournament	-11.4487
cchè	-11.4488
▁casca	-11.4496
▁tribe	-11.4497
▁protest	-11.4498
▁sunshine	-11.4499
▁sforza	-11.4499
▁describe	-11.45
▁potatoes	-11.4501
▁eagerly	-11.4504
▁fornito	-11.4505
▁cock	-11.4506
▁ticket	-11.4508
▁linda	-11.4511
▁razzismo	-11.4512
▁affect	-11.4515
ucci	-11.4516
▁discussion	-11.4516
ezza	-11.4516
▁saving	-11.4519
▁shy	-11.4519
ever	-11.4521
▁screaming	-11.4521
▁rappresentante	-11.4522
▁scoprire	-11.4526
▁guests	-11.4527
▁venir	-11.4532
▁scia	-11.4535
uring	-11.4536
▁enemies	-11.4537
▁skirt	-11.4537
▁bible	-11.4539
▁agreement	-11.454
▁mezza	-11.454
▁consegna	-11.4545
▁session	-11.4546
▁venivano	-11.4547
▁shouting	-11.4547
▁thoughts	-11.4547
baby	-11.4548
▁procede	-11.4548
▁persuade	-11.4548
▁expensive	-11.4549
▁provenienti	-11.4549
▁potrei	-11.4549
▁piggy	-11.455
▁suffer	-11.455
▁pesante	-11.455
▁landing	-11.4551
▁farther	-11.4552
▁20,	-11.4552
▁2017,	-11.4556
▁ap	-11.4561
▁1987	-11.4562
▁lisbona	-11.4563
▁attraversa	-11.4564
▁divert	-11.4564
▁superare	-11.4567
applausi	-11.4568
▁determinato	-11.4569
ged	-11.4572
▁bounce	-11.4572
bla	-11.4572
▁sostiene	-11.4574
▁universe	-11.4574
▁processi	-11.4574
▁lucia	-11.4577
▁riferi	-11.4577
▁profit	-11.4578
▁stress	-11.4579
▁originale	-11.4584
▁avremmo	-11.4586
▁flessibilità	-11.4587
▁rang	-11.4587
▁ché	-11.4587
dro	-11.4589
▁prodi	-11.459
▁2022,	-11.4592
interrogazione	-11.4593
▁differenti	-11.4598
▁14,	-11.4598
aba	-11.46
▁servants	-11.46
stan	-11.4601
▁figliuola	-11.4603
▁momma	-11.4604
▁threat	-11.4605
▁jake	-11.4606
▁limit	-11.4607
rino	-11.4609
▁informa	-11.461
father	-11.4611
▁stagione	-11.4612
integrazione	-11.4618
▁ringing	-11.462
duc	-11.462
▁cominciare	-11.4621
▁oldest	-11.4622
▁difficili	-11.4624
▁argument	-11.4624
▁riposo	-11.4637
▁senate	-11.4638
▁correre	-11.4641
▁trasforma	-11.4641
▁laughter	-11.4642
▁controlla	-11.4645
▁wh	-11.4646
▁parlava	-11.4646
▁stavano	-11.4647
▁lunghe	-11.4649
▁sostenuto	-11.4649
▁critiche	-11.465
ense	-11.4652
▁torn	-11.4652
▁carpet	-11.4652
▁washed	-11.4652
lino	-11.4653
▁desideri	-11.4659
▁glance	-11.466
▁precipita	-11.4662
▁riprese	-11.4662
pretends	-11.4663
tari	-11.467
▁keen	-11.4672
▁sen	-11.4673
▁bent	-11.4673
▁1985	-11.4674
▁parliamo	-11.4675
▁systems	-11.4676
▁vast	-11.468
▁organizzata	-11.4681
ifica	-11.4683
▁chose	-11.4685
▁sausage	-11.4687
aiuto	-11.4689
▁riferisco	-11.469
▁imparare	-11.469
▁lava	-11.469
▁arrivati	-11.4691
▁sedi	-11.4693
▁passò	-11.4695
▁pakistan	-11.4698
▁comunale	-11.4699
boat	-11.4701
▁prevedere	-11.4703
▁chiarire	-11.4707
▁frances	-11.4707
▁exchange	-11.4712
▁giraffe	-11.4712
▁oink	-11.4712
▁fuor	-11.4713
▁tenuta	-11.4715
tissimo	-11.4715
▁vicina	-11.4716
ivi	-11.4718
▁sending	-11.4723
▁[5	-11.4723
▁aggiunto	-11.4725
▁destino	-11.4725
pc	-11.4729
▁permission	-11.473
▁eliminare	-11.473
▁sooner	-11.473
▁accorda	-11.4731
▁meta	-11.4732
▁suono	-11.4733
anima	-11.4733
▁cinema	-11.4734
▁tengo	-11.4735
cut	-11.4737
▁1972	-11.4738
▁goals	-11.4738
▁2018,	-11.4738
▁definitiva	-11.4739
▁pepper	-11.474
cella	-11.4747
▁michele	-11.4748
▁trasfer	-11.4748
▁remains	-11.4748
75	-11.475
▁margot	-11.475
▁cocoon	-11.4751
▁burned	-11.4752
▁nah	-11.4752
▁mattino	-11.4754
▁economic	-11.4755
▁au	-11.4757
▁shining	-11.4758
-3	-11.4759
▁sons	-11.4761
▁tecnici	-11.4763
▁veni	-11.4763
▁utenti	-11.4763
zy	-11.4765
rge	-11.4765
▁debbono	-11.4769
▁eats	-11.4773
▁raccogliere	-11.4773
ight	-11.4774
▁avessi	-11.4775
▁dull	-11.4775
▁tedesco	-11.4775
▁hood	-11.4776
▁categorie	-11.4776
nni	-11.4783
▁entrambe	-11.4788
▁dirt	-11.4788
▁tummy	-11.4789
▁jason	-11.479
▁vel	-11.4793
▁escaped	-11.4795
▁intera	-11.4797
▁applica	-11.4797
ington	-11.4798
▁core	-11.4801
lis	-11.4802
lini	-11.4803
▁epi	-11.4808
▁fissa	-11.481
▁riporta	-11.4811
▁whilst	-11.4813
▁ghi	-11.4814
▁consola	-11.4815
▁tools	-11.4817
▁bench	-11.4818
▁intended	-11.4819
▁angle	-11.4821
▁whisper	-11.4826
▁mediterraneo	-11.4826
▁enormi	-11.4827
tanti	-11.4829
▁fail	-11.483
▁intra	-11.4831
▁naso	-11.4843
▁ham	-11.4848
▁palm	-11.4852
▁svedese	-11.4852
▁hut	-11.4853
▁quinto	-11.4854
▁tractor	-11.4855
▁controllare	-11.4858
segui	-11.4858
iano	-11.4859
▁seguendo	-11.4863
▁greci	-11.4864
▁scoperto	-11.4865
▁consentito	-11.4865
▁label	-11.4867
▁75	-11.4868
▁underneath	-11.4878
dal	-11.488
arrondissement	-11.4884
▁realmente	-11.4886
eu	-11.4886
▁reign	-11.4886
▁bir	-11.4887
▁mental	-11.4888
▁rondini	-11.4888
▁scelto	-11.489
▁prepare	-11.4891
▁twin	-11.4892
▁corsa	-11.4893
▁limited	-11.4894
▁foundation	-11.4896
▁rileva	-11.4899
ibus	-11.49
▁credi	-11.4901
▁gui	-11.4903
▁lussemburgo	-11.4903
▁delay	-11.4906
most	-11.4906
▁branches	-11.4908
▁giunti	-11.4909
▁crab	-11.4911
▁trarre	-11.4911
▁income	-11.4915
▁talks	-11.4915
▁efficaci	-11.4916
▁1979	-11.4916
▁shade	-11.4919
▁grim	-11.4919
▁londra	-11.492
▁turba	-11.492
fan	-11.4923
▁powers	-11.4924
▁apre	-11.4926
alto	-11.4926
▁conflitti	-11.4929
▁fanciulla	-11.4929
▁defence	-11.4929
▁spirits	-11.4929
▁volere	-11.493
▁jungle	-11.4931
five	-11.4932
▁carbon	-11.4933
▁saremo	-11.4934
▁alberi	-11.4934
▁16,	-11.4935
▁peg	-11.4938
▁ratifica	-11.494
▁estrema	-11.4941
▁jimmie	-11.4942
▁giunse	-11.4945
▁pubblicato	-11.4945
▁museo	-11.4945
tp	-11.4948
git	-11.4952
▁chin	-11.4953
▁dee	-11.4954
gin	-11.4954
▁avvenuto	-11.4955
▁reckon	-11.4955
▁arrested	-11.4955
▁mercy	-11.4955
▁inghilterra	-11.4956
▁presents	-11.496
▁giova	-11.4965
▁caldo	-11.4968
▁pee	-11.497
▁buildings	-11.4971
▁reward	-11.4972
bert	-11.4973
▁conduct	-11.4974
untranscribed	-11.4975
▁anziani	-11.4982
▁roy	-11.4985
▁corrente	-11.4986
▁recenti	-11.4988
▁nil	-11.499
cast	-11.499
▁suggestion	-11.4992
▁temper	-11.4999
:—	-11.5004
▁selling	-11.5007
▁stadium	-11.5007
▁popolazioni	-11.5008
▁spill	-11.5009
▁rapida	-11.501
▁goat	-11.5011
▁segui	-11.5012
▁spar	-11.5013
quo	-11.5013
▁stole	-11.5016
tata	-11.5016
▁rob	-11.5017
▁marked	-11.5018
▁implica	-11.5019
▁inhabitants	-11.502
▁pacific	-11.5023
▁jeff	-11.5024
▁realizza	-11.5027
▁spy	-11.5029
▁nana	-11.5032
▁appreciate	-11.5033
▁happiness	-11.5033
▁soccorso	-11.5033
▁speranze	-11.5033
▁poo	-11.5036
▁acp	-11.5038
▁dose	-11.5038
wo	-11.5038
▁seats	-11.504
▁prayer	-11.5042
dini	-11.5043
▁rifiuta	-11.5044
â	-11.5046
▁dedicato	-11.5048
▁dettagli	-11.5049
▁pati	-11.5052
▁superiori	-11.5052
opportunità	-11.5053
▁rischia	-11.5056
high	-11.5056
▁continui	-11.5057
▁proposed	-11.5057
▁disponibile	-11.5059
▁sussidiarietà	-11.5059
▁swiss	-11.5059
▁ursula	-11.5059
▁statuto	-11.5059
▁bianchi	-11.5059
▁1976	-11.5059
▁muro	-11.5064
▁avvi	-11.5069
▁raggiunge	-11.5071
▁composto	-11.5072
boo	-11.5074
▁intention	-11.5076
ossi	-11.5081
▁accolto	-11.5085
▁associazioni	-11.5086
▁graham	-11.5086
▁salvo	-11.509
▁assist	-11.5091
▁padri	-11.5095
▁torto	-11.5096
▁alphabet	-11.5098
▁rubber	-11.5099
▁quae	-11.51
▁parlamenti	-11.5102
▁stadio	-11.5103
▁eravamo	-11.5104
▁anger	-11.5106
ele	-11.5109
▁enti	-11.5109
lock	-11.5109
avi	-11.511
31	-11.511
lic	-11.5111
▁despite	-11.5112
▁prender	-11.5112
▁vicenda	-11.5112
▁36	-11.5113
▁client	-11.5115
▁attribu	-11.5116
▁legend	-11.5118
▁connected	-11.5118
scio	-11.5119
▁defeated	-11.5122
▁quid	-11.5123
33	-11.5125
▁carolina	-11.5125
▁remind	-11.5125
tero	-11.5127
▁archer	-11.513
▁sviluppi	-11.5133
▁recent	-11.5134
▁confidence	-11.5138
▁giulio	-11.5138
▁vite	-11.514
▁dando	-11.514
▁sce	-11.5142
▁oro	-11.5144
analisi	-11.5145
▁nido	-11.5145
shows	-11.5147
▁largo	-11.5149
▁description	-11.5151
▁confronto	-11.5151
▁disporre	-11.5151
▁approvare	-11.5152
▁polish	-11.5152
▁torino	-11.5152
▁colpi	-11.5153
▁seized	-11.5154
done	-11.5158
▁organizzato	-11.5159
▁gentile	-11.5159
▁delicate	-11.5163
▁17,	-11.5164
gga	-11.5166
▁arrivo	-11.517
▁volesse	-11.5176
▁racconto	-11.5177
▁utterance	-11.5178
▁linguaggio	-11.5178
▁nata	-11.5179
▁sarò	-11.5179
▁edizione	-11.518
▁girlfriend	-11.5181
▁19,	-11.5181
▁tender	-11.5183
▁dame	-11.5185
▁oak	-11.5185
making	-11.5188
▁harder	-11.519
hard	-11.5191
▁profughi	-11.5191
▁ridiculous	-11.5191
▁sprang	-11.5191
▁regolamentazion	-11.5195
▁regard	-11.5195
▁reazione	-11.5195
▁toilet	-11.5195
ndole	-11.5195
dies	-11.5195
▁aah	-11.5196
▁cheap	-11.5203
▁timid	-11.5203
▁cy	-11.5204
▁centinaia	-11.5204
▁ricerche	-11.5204
▁delitto	-11.5205
▁package	-11.5206
▁majority	-11.5206
▁kindly	-11.5206
▁tucker	-11.5208
geni	-11.5208
utilizzo	-11.5211
▁contento	-11.5214
rick	-11.5214
▁immagina	-11.5216
▁rossa	-11.5216
involuntary	-11.5217
▁1981	-11.5217
▁basketball	-11.5218
▁experiment	-11.522
65	-11.522
▁volendo	-11.5221
▁costante	-11.5222
▁theatre	-11.5222
▁apertura	-11.5222
▁dada	-11.5223
▁wit	-11.5224
▁depends	-11.5225
▁marks	-11.5228
37	-11.523
▁anzitutto	-11.5231
▁obbliga	-11.5233
▁effettuare	-11.5233
▁johnny	-11.5233
▁rooms	-11.5233
*	-11.5235
▁gil	-11.5238
▁abbraccia	-11.5239
▁delightful	-11.5241
▁attuare	-11.5244
▁umbrella	-11.5244
▁corretta	-11.5244
▁consultazione	-11.5246
▁impatto	-11.5249
▁immagine	-11.525
▁21,	-11.5252
▁image	-11.5254
▁infra	-11.5255
▁sorrow	-11.5257
anza	-11.5262
pol	-11.5265
▁riuscito	-11.5265
▁cows	-11.5265
▁passion	-11.5266
▁15,	-11.5269
▁lincoln	-11.527
▁anchor	-11.5272
▁completed	-11.5272
▁registra	-11.5273
▁details	-11.5276
qu	-11.5276
▁congresso	-11.5277
immagine	-11.5278
▁pushing	-11.528
▁eagle	-11.5284
▁mood	-11.5285
▁dica	-11.5286
▁shapes	-11.5286
▁segnala	-11.5287
▁bits	-11.5287
▁clara	-11.5289
▁highly	-11.529
▁quanta	-11.5292
para	-11.5293
▁compagnie	-11.5295
▁assunto	-11.5297
▁proof	-11.5302
▁aim	-11.5303
bury	-11.5304
▁jr	-11.5304
▁dreadful	-11.5306
▁straw	-11.5307
▁utilizza	-11.5309
ening	-11.531
▁impianti	-11.5311
▁guardando	-11.5312
▁principalmente	-11.5314
▁comment	-11.5314
▁poste	-11.5316
▁pensate	-11.5317
▁diamond	-11.5319
▁culturali	-11.532
picking	-11.5321
▁voyage	-11.5324
▁wazir	-11.5324
▁concilio	-11.5324
▁spiegare	-11.5325
▁bend	-11.5326
▁contempla	-11.5328
▁pap	-11.5331
▁sexual	-11.5335
▁bearing	-11.5338
▁provare	-11.5338
app	-11.534
▁smiles	-11.5341
▁crescente	-11.5344
▁korea	-11.5344
▁presentate	-11.5345
▁pensiamo	-11.5346
▁scientifica	-11.5346
▁method	-11.5347
▁ward	-11.5347
▁attempts	-11.5347
▁piega	-11.5348
▁murdered	-11.5349
3/	-11.5351
ong	-11.5351
▁turkish	-11.5351
▁joint	-11.5352
▁gian	-11.5353
▁ppe	-11.5357
▁nega	-11.5361
▁inaccettabile	-11.5364
▁prigione	-11.5365
▁parent	-11.5366
▁cima	-11.5366
▁competente	-11.5367
▁appeal	-11.537
otti	-11.5371
starts	-11.5372
▁insult	-11.5376
▁giusti	-11.5376
▁gettin	-11.5377
▁ebrei	-11.5378
▁madeline	-11.5379
▁kit	-11.538
▁shelter	-11.5383
▁painted	-11.5385
coli	-11.5386
▁rivolta	-11.5386
▁attacca	-11.5389
onda	-11.539
ieri	-11.5391
▁responsibility	-11.5391
▁posa	-11.5392
▁clothing	-11.5394
▁capitali	-11.5394
bed	-11.54
▁sounded	-11.54
letto	-11.54
▁household	-11.5405
▁venerdì	-11.5405
▁perduto	-11.5405
▁occasioni	-11.5407
▁rossi	-11.5408
▁stable	-11.5414
▁loving	-11.5418
▁conclude	-11.5418
▁storica	-11.5419
mur	-11.5422
▁slight	-11.5422
▁returning	-11.5423
▁rolled	-11.5423
▁raccomanda	-11.5425
▁reality	-11.5427
▁rav	-11.5429
▁oratori	-11.5429
▁unable	-11.543
▁compreso	-11.5432
▁austin	-11.5432
▁multiple	-11.5437
adozione	-11.5441
▁restare	-11.5443
▁agricoltura	-11.5443
▁universal	-11.5444
▁debole	-11.5444
▁capaci	-11.5445
wed	-11.5446
▁stretto	-11.5446
▁alter	-11.5447
▁discover	-11.5449
▁increased	-11.5451
▁abba	-11.5455
▁catherine	-11.5459
▁vuoto	-11.5459
▁investigation	-11.546
▁advanced	-11.5462
air	-11.5465
spa	-11.5466
č	-11.5466
assi	-11.5468
▁ciao	-11.547
rce	-11.547
▁1983	-11.5473
▁soggetto	-11.5475
▁worn	-11.5476
▁cessa	-11.5478
▁chick	-11.5478
▁scorre	-11.548
▁clap	-11.548
▁cristiani	-11.5481
ions	-11.5481
▁closet	-11.5483
gets	-11.5484
▁uffici	-11.5485
▁imposta	-11.5486
▁mystery	-11.5487
▁riserve	-11.5487
▁vendetta	-11.5488
▁marchesa	-11.5488
▁scrisse	-11.5489
▁pensando	-11.5494
nati	-11.5496
▁udi	-11.5497
tone	-11.5497
▁eletto	-11.5498
▁bore	-11.5498
ona	-11.5499
▁nera	-11.5499
▁tedeschi	-11.55
mr	-11.5503
▁guards	-11.5504
ef	-11.5505
toria	-11.551
▁occhio	-11.5511
▁driven	-11.5513
also	-11.5513
▁classic	-11.5513
▁mississippi	-11.5514
▁geografo	-11.5514
▁stanziamenti	-11.5514
▁rivolge	-11.5516
▁creatures	-11.5516
▁neri	-11.5516
▁leo	-11.552
▁piante	-11.5523
▁bordo	-11.5526
▁clay	-11.5526
▁foolish	-11.5529
ked	-11.553
/02	-11.553
▁magnets	-11.553
▁bruce	-11.5533
▁contare	-11.5535
▁katherine	-11.5541
▁emergency	-11.5541
51	-11.5544
▁journalist	-11.5544
nella	-11.5545
▁concentra	-11.5546
▁climbing	-11.5547
▁ducks	-11.5547
42	-11.555
▁prop	-11.5552
▁persia	-11.5557
▁studiare	-11.5559
▁andar	-11.556
▁hurts	-11.5564
▁meow	-11.5564
▁vor	-11.5565
69	-11.5565
▁teachers	-11.5567
uda	-11.5568
america	-11.5569
▁tavolo	-11.5569
▁championships	-11.5569
▁governatore	-11.557
▁sessione	-11.5571
▁filippo	-11.5572
▁istituzionale	-11.5583
▁sacrifice	-11.5583
▁liberi	-11.5583
▁alimenti	-11.5584
▁speaks	-11.5588
▁organismi	-11.559
▁hong	-11.5592
▁shortly	-11.5594
96	-11.5595
▁guglielmo	-11.5596
▁scienze	-11.5596
▁jacob	-11.5598
ome	-11.5599
▁38	-11.5604
associazione	-11.5604
▁taylor	-11.561
▁pacchetto	-11.561
▁belly	-11.5611
▁pitched	-11.5611
▁generazione	-11.5612
▁begun	-11.5612
▁lasciar	-11.5613
▁conosco	-11.5614
▁previously	-11.5617
ioni	-11.5619
▁classes	-11.5619
▁contrasto	-11.5622
▁politics	-11.5624
▁review	-11.5627
▁climbed	-11.5629
▁vincere	-11.563
from	-11.563
zar	-11.563
▁sicura	-11.5632
epoca	-11.5632
demonstrates	-11.5634
any	-11.5635
▁iris	-11.5637
▁belief	-11.5638
▁1982	-11.5638
▁suck	-11.5639
▁patrick	-11.5639
▁creatura	-11.5639
▁nominated	-11.5639
▁mode	-11.5643
▁2021,	-11.5645
▁compi	-11.5648
▁brazil	-11.5651
▁jewish	-11.5652
▁proseguire	-11.5655
▁robot	-11.5656
esistenza	-11.5658
▁talent	-11.5659
▁gross	-11.5662
▁ability	-11.5662
band	-11.5662
ware	-11.5662
▁chew	-11.5663
▁combat	-11.5665
▁proteggere	-11.5666
ock	-11.5666
▁mat	-11.5666
▁meanwhile	-11.5667
▁visited	-11.5669
▁segni	-11.5669
▁pesce	-11.5671
▁centri	-11.5672
▁benchè	-11.5672
dad	-11.5673
▁37	-11.5673
▁stops	-11.5674
issimo	-11.5677
▁temo	-11.5678
▁conosciuto	-11.568
▁sergeant	-11.568
▁kin	-11.568
▁ricchezza	-11.568
▁neve	-11.5681
▁profondamente	-11.5683
▁taci	-11.5683
▁lance	-11.5683
▁premier	-11.5683
^	-11.5684
▁indipendente	-11.5685
▁utilizzo	-11.5687
▁fantastic	-11.5692
▁dna	-11.5693
▁rilievo	-11.5693
▁scrittura	-11.5693
▁padova	-11.5694
▁impedi	-11.5694
▁uhhum	-11.5696
▁presidential	-11.5696
▁guardian	-11.5696
▁dottore	-11.5698
▁application	-11.57
▁investigator	-11.57
attempts	-11.5701
▁stamp	-11.5706
▁permanente	-11.5706
▁carcere	-11.5708
▁quam	-11.5708
gging	-11.5708
bird	-11.5709
▁circonda	-11.571
▁perdono	-11.571
▁capture	-11.571
▁capita	-11.5711
▁22,	-11.5711
43	-11.5713
▁calma	-11.5714
diamo	-11.5716
▁doctors	-11.5719
▁rolls	-11.572
▁dig	-11.572
vvi	-11.5722
sul	-11.5722
yan	-11.5723
▁checked	-11.5723
▁portion	-11.5724
▁concessione	-11.5724
▁perso	-11.5725
▁castel	-11.5726
▁concreti	-11.5726
▁letting	-11.5727
49	-11.5728
azienda	-11.5729
woman	-11.5731
▁rif	-11.5732
▁facesse	-11.5733
68	-11.5734
▁adventures	-11.5735
▁partenariato	-11.5735
▁dam	-11.5736
fall	-11.5736
▁nasconde	-11.5737
▁occupied	-11.5739
▁backwards	-11.5747
gle	-11.5749
▁specifici	-11.5749
fr	-11.5757
▁demon	-11.5759
▁presented	-11.5761
▁gervaise	-11.5763
▁legislativo	-11.5763
▁cesare	-11.5765
▁costituire	-11.5766
▁simon	-11.5767
chan	-11.5768
loud	-11.5769
toy	-11.577
▁iniziale	-11.577
▁diver	-11.577
▁contributi	-11.5771
▁gods	-11.5773
[	-11.5775
▁appresso	-11.5778
▁stranieri	-11.5778
▁danari	-11.5779
▁nonsense	-11.5779
▁bambina	-11.578
▁yi	-11.578
▁rapi	-11.5784
▁chiare	-11.5785
ndoli	-11.5787
rp	-11.5789
▁israeli	-11.579
▁infrastrutture	-11.5792
▁trasferimento	-11.5792
▁1969	-11.5792
67	-11.5794
drops	-11.5795
▁commissioni	-11.5796
▁giudici	-11.5797
▁spots	-11.5797
top	-11.5799
▁passengers	-11.5803
worth	-11.5805
▁peculiar	-11.5805
▁pyrénées	-11.5806
▁spencer	-11.5806
▁resi	-11.5806
▁strawberries	-11.5806
▁rep	-11.5806
▁amare	-11.5807
▁fili	-11.5807
▁collegio	-11.5811
▁goose	-11.5812
wait	-11.5813
nea	-11.5813
▁approvata	-11.5818
▁gestire	-11.5818
▁adeguato	-11.582
hand	-11.582
▁mandò	-11.5822
▁cogli	-11.5824
▁andate	-11.5825
▁veneziani	-11.5826
▁nearest	-11.5828
▁consenta	-11.5831
ô	-11.5832
cello	-11.5833
▁garibaldi	-11.5834
▁enrico	-11.5834
bia	-11.5837
az	-11.5839
pla	-11.5839
▁orbit	-11.5843
▁priva	-11.5843
▁marmo	-11.5843
94	-11.5844
evole	-11.5845
▁ragazze	-11.5848
▁ritornare	-11.5848
▁maestra	-11.5848
▁aircraft	-11.5848
▁fortemente	-11.5849
▁favorevoli	-11.5849
▁broadcast	-11.5854
▁basic	-11.5856
▁premi	-11.5858
mber	-11.5859
▁vidi	-11.5861
▁carter	-11.5862
▁bundle	-11.5862
▁partecipa	-11.5864
ttle	-11.5866
▁discusso	-11.587
▁lemme	-11.5871
▁attended	-11.5871
▁watches	-11.5872
duca	-11.5872
▁larga	-11.5874
▁entrò	-11.5876
▁ashamed	-11.5876
▁bare	-11.5877
▁futuri	-11.5878
▁totalmente	-11.5884
▁rese	-11.5886
▁silk	-11.5887
85	-11.5887
▁metter	-11.5888
47	-11.589
▁sheet	-11.5891
▁savage	-11.5891
▁safely	-11.5897
▁percy	-11.59
▁baa	-11.5901
▁brad	-11.5904
▁conflict	-11.5905
▁survey	-11.5905
ensi	-11.5905
▁rafforzamento	-11.5906
▁cabinet	-11.5906
▁feeding	-11.5906
▁measure	-11.5906
▁successivamente	-11.5906
▁buying	-11.5907
▁admitted	-11.5908
gger	-11.5908
agi	-11.5908
▁legale	-11.5908
stante	-11.5908
nis	-11.5909
▁luca	-11.591
lica	-11.591
had	-11.5911
▁valida	-11.5913
bur	-11.5918
▁bosco	-11.5919
▁pianeta	-11.5919
▁bead	-11.5919
▁disegni	-11.5919
▁1968	-11.5919
▁seventeen	-11.5919
▁lucca	-11.5921
▁beneficio	-11.5922
▁ripeto	-11.5923
▁incontri	-11.5926
pon	-11.5928
omi	-11.5931
▁nail	-11.5933
▁oliver	-11.5933
▁coerente	-11.5933
▁preghiera	-11.5933
▁famoso	-11.5933
▁medita	-11.5934
▁gale	-11.5934
cchio	-11.5939
▁giura	-11.5941
▁incidenti	-11.5944
▁decor	-11.5945
▁promessa	-11.5948
▁rive	-11.5949
▁click	-11.5949
cato	-11.5949
▁certezza	-11.595
▁kent	-11.595
▁destinato	-11.595
▁morgan	-11.5951
▁nursery	-11.5951
stico	-11.5953
▁hip	-11.5953
▁ruler	-11.5955
▁metto	-11.5955
▁irrita	-11.5955
▁compared	-11.5959
▁vinto	-11.5959
▁spedi	-11.5959
▁vorrebbe	-11.596
▁veicoli	-11.5962
▁1978	-11.5962
▁conservative	-11.5962
▁refuse	-11.5963
emo	-11.5963
▁modelli	-11.5965
▁cupcake	-11.5967
▁respond	-11.5968
▁vota	-11.5968
▁cab	-11.5971
▁scored	-11.5972
sky	-11.5973
▁proclama	-11.5974
▁stronger	-11.5975
▁pronuncia	-11.5975
▁deputy	-11.5976
▁sic	-11.5977
▁tendenza	-11.5978
▁steady	-11.5978
▁splash	-11.5982
▁[.7	-11.5984
ddle	-11.5984
▁arg	-11.5986
▁ebbero	-11.5987
▁grosse	-11.5987
▁farne	-11.5987
ardo	-11.5987
▁cassa	-11.599
▁accaduto	-11.5991
▁caduta	-11.5991
▁emily	-11.5993
▁esecuzione	-11.5995
▁trained	-11.5998
ibili	-11.6002
▁perfino	-11.6002
▁screwdriver	-11.6005
▁1974	-11.6005
▁surrounded	-11.6007
▁esercizio	-11.6007
▁factory	-11.6008
iv	-11.6009
▁product	-11.601
▁ol	-11.6012
▁chiamati	-11.6018
▁ucciso	-11.6019
fire	-11.602
39	-11.6021
▁edition	-11.6021
▁considerable	-11.6021
▁friendship	-11.6023
▁nepal	-11.6023
gel	-11.6026
▁sets	-11.6027
begins	-11.6028
▁convert	-11.6028
▁iran	-11.6028
▁vola	-11.6029
▁perform	-11.6029
▁demanded	-11.6029
▁grateful	-11.6031
87	-11.6032
▁essenziali	-11.6034
38	-11.6034
▁dolci	-11.6035
▁thirsty	-11.6035
▁chemical	-11.6036
▁adottata	-11.6037
▁bomba	-11.6039
▁succeeded	-11.6041
▁superficie	-11.6042
▁awfully	-11.6045
▁butta	-11.6046
▁feci	-11.6046
▁dirò	-11.6048
▁risoluzioni	-11.6048
▁defense	-11.6048
▁pirate	-11.6053
▁sufficienti	-11.6061
▁virtú	-11.6063
▁lontani	-11.6063
▁starring	-11.6065
▁amanda	-11.6067
-4	-11.6067
▁represented	-11.6069
▁cinquanta	-11.607
▁easter	-11.607
▁invest	-11.6072
▁messe	-11.6073
▁becky	-11.6074
▁ag	-11.6075
▁economy	-11.6077
▁melissa	-11.6077
▁frame	-11.6078
▁mmm	-11.6079
▁pala	-11.6081
▁roads	-11.6083
isse	-11.6084
▁protesta	-11.6084
▁cominciato	-11.6086
▁2017)	-11.6091
▁equipment	-11.6092
▁edgar	-11.6092
▁34	-11.6094
▁attached	-11.6096
▁charm	-11.6097
▁item	-11.61
▁reports	-11.6101
eg	-11.6102
▁roba	-11.6105
▁cage	-11.6105
▁vacation	-11.6106
▁composizione	-11.6106
vamo	-11.6109
▁follows	-11.611
hm	-11.611
▁disappear	-11.6112
▁corse	-11.6113
▁servono	-11.6114
▁necessariamente	-11.6114
▁raccoglie	-11.6115
▁banche	-11.6115
▁moments	-11.6116
▁partecipato	-11.6116
;"	-11.6118
▁naturally	-11.6121
▁felicità	-11.6122
▁tornò	-11.6123
▁secure	-11.6126
aglia	-11.6126
▁cattivo	-11.6126
aspetto	-11.6132
▁rank	-11.6133
▁profilo	-11.6135
▁scare	-11.6137
▁scal	-11.6138
▁headquarters	-11.614
rest	-11.6141
▁blowing	-11.6141
▁handed	-11.6142
▁article	-11.6143
▁posse	-11.6147
▁fits	-11.6147
▁sleepy	-11.6154
▁earn	-11.6159
▁giustifica	-11.616
gil	-11.6161
ile	-11.6162
▁osa	-11.6163
▁administration	-11.6164
rna	-11.6171
▁attende	-11.6172
▁inc	-11.6173
▁esistenza	-11.6174
▁roar	-11.6176
▁causes	-11.6176
▁charlotte	-11.6179
▁volontari	-11.618
▁av	-11.6182
▁primary	-11.6182
nz	-11.6183
▁treno	-11.6185
tque	-11.6185
scia	-11.6186
▁bade	-11.6187
rry	-11.6187
grunts	-11.6188
59	-11.619
▁frattempo	-11.6194
▁geography	-11.6194
dice	-11.6195
▁stelle	-11.6197
56	-11.6199
▁register	-11.62
▁supported	-11.6201
ete	-11.6204
▁tiro	-11.6205
▁pul	-11.6207
▁tramp	-11.6207
▁scelte	-11.6208
▁maestà	-11.6208
▁expert	-11.6208
▁truppe	-11.6208
▁suicide	-11.6209
erie	-11.6209
mpo	-11.621
▁appropriate	-11.621
▁supera	-11.6211
pet	-11.6218
▁vestito	-11.6219
▁whoever	-11.6219
▁confusione	-11.622
▁1977	-11.6223
▁ridotto	-11.6223
▁fever	-11.6226
nse	-11.623
▁salire	-11.6232
▁fog	-11.6233
▁colombia	-11.6233
▁dispiace	-11.6233
▁futura	-11.6234
fish	-11.6235
atlantiques	-11.6238
▁deliver	-11.6246
▁passati	-11.6246
comune	-11.6246
▁understanding	-11.6247
▁clan	-11.6247
▁sailor	-11.625
▁punk	-11.6251
▁tagli	-11.6252
▁1975	-11.6253
▁materie	-11.6255
▁films	-11.626
▁chuck	-11.626
▁cliente	-11.626
▁33	-11.6262
46	-11.6266
▁bond	-11.6266
▁helicopter	-11.6267
▁industriali	-11.6268
asso	-11.6271
dr	-11.6273
▁polo	-11.6275
obbligo	-11.6276
argomento	-11.6279
▁intelligence	-11.6282
▁plenaria	-11.6282
▁dormire	-11.6284
▁andati	-11.6284
▁unfortunately	-11.6285
▁cio	-11.6286
▁invite	-11.6289
58	-11.6293
▁convince	-11.6293
▁tuttora	-11.6295
}	-11.6297
▁concesso	-11.6297
▁angelo	-11.6297
▁meters	-11.6298
▁pubblicità	-11.6299
▁scudi	-11.6302
▁accent	-11.6302
▁confess	-11.6304
ett	-11.6308
▁traditional	-11.6309
▁fuggi	-11.631
▁discarico	-11.6311
▁mantenimento	-11.6311
▁dici	-11.6312
lmente	-11.6315
▁billion	-11.6316
roll	-11.6316
▁predi	-11.6318
▁iraq	-11.6318
▁gala	-11.6319
▁stern	-11.6325
▁concreto	-11.6326
▁23,	-11.633
▁sp	-11.6331
act	-11.6332
mone	-11.6335
este	-11.6335
bli	-11.6335
▁ravenna	-11.6337
▁fol	-11.6339
▁testimoni	-11.6339
▁ruff	-11.6339
▁negativo	-11.6342
▁bimba	-11.6342
▁efforts	-11.6342
▁mabel	-11.6342
▁rivers	-11.6345
▁cattiva	-11.6346
▁companions	-11.6347
▁ash	-11.6352
▁promesso	-11.6356
▁riempi	-11.6356
wan	-11.6358
▁adottate	-11.6359
▁portava	-11.636
▁visitors	-11.6361
▁giorgio	-11.6363
cano	-11.6363
cini	-11.6367
▁soddisfare	-11.6368
zionale	-11.6368
▁lick	-11.6369
▁satellite	-11.6371
▁malcolm	-11.6371
▁punishment	-11.6372
▁indu	-11.6374
▁greco	-11.6374
▁gina	-11.6375
aro	-11.6375
▁inquired	-11.6375
▁saper	-11.6377
▁vain	-11.6378
▁cries	-11.638
▁elaborare	-11.638
▁dovete	-11.6381
rro	-11.6382
izing	-11.6384
▁obblighi	-11.6386
▁tradition	-11.6386
▁prospect	-11.6387
▁cheek	-11.639
▁rassegna	-11.6391
▁birdie	-11.6392
▁citizens	-11.6394
▁concern	-11.6396
▁degrees	-11.6396
▁faremo	-11.6398
▁scientifico	-11.6398
ame	-11.6399
▁signoria	-11.6399
made	-11.6399
▁drum	-11.64
▁shaking	-11.6403
▁prior	-11.6406
uch	-11.6408
▁ul	-11.6409
▁utilizzato	-11.6409
perhaps	-11.641
tosi	-11.641
▁aha	-11.6411
▁solleva	-11.6411
▁ohio	-11.6412
▁missouri	-11.6416
▁injured	-11.6416
▁midnight	-11.6416
▁interessanti	-11.6418
▁dipendenti	-11.6419
▁bold	-11.6423
▁pension	-11.6425
▁democratici	-11.6425
▁meccanismi	-11.6431
▁movimenti	-11.6431
▁pennsylvania	-11.6431
▁harvey	-11.6431
▁pericoli	-11.6431
▁collect	-11.6431
▁centrali	-11.6432
▁fattore	-11.6434
▁behold	-11.6434
▁lavorato	-11.6436
table	-11.6436
▁obbligo	-11.6437
rdo	-11.6438
▁rurale	-11.6438
▁hits	-11.6438
▁sperare	-11.6439
▁intendiamo	-11.6439
▁clienti	-11.644
▁lads	-11.6444
ë	-11.6446
▁caffè	-11.6446
▁exact	-11.6449
▁bags	-11.6452
▁reform	-11.6455
would	-11.6456
▁medicina	-11.6456
▁ski	-11.6459
ability	-11.646
▁completo	-11.6461
▁pasta	-11.6461
▁neuro	-11.6461
▁alte	-11.6466
▁patter	-11.6467
▁arrival	-11.6471
▁salvare	-11.6474
▁novella	-11.6476
▁explanation	-11.6476
▁seleziona	-11.6476
▁esterne	-11.6476
▁compiuti	-11.6476
▁2017.	-11.6478
▁crescere	-11.6484
▁rammenta	-11.6491
▁seco	-11.6491
▁wilson	-11.6492
▁inspector	-11.6492
▁potenziale	-11.6492
cide	-11.6495
▁shin	-11.6496
▁rio	-11.6499
▁costs	-11.65
zing	-11.6501
▁covers	-11.6502
even	-11.6503
▁soggiorno	-11.6506
▁definito	-11.6506
▁accettato	-11.6508
▁usato	-11.6509
▁fled	-11.651
▁intend	-11.6512
▁fumo	-11.6513
▁pretending	-11.6517
gano	-11.652
▁venuti	-11.6521
▁expedition	-11.6522
▁1973	-11.6522
rbi	-11.6526
post	-11.6527
▁unhappy	-11.6529
▁victor	-11.6533
approvazione	-11.6534
▁moral	-11.6534
▁strana	-11.6534
▁effie	-11.6537
▁monete	-11.6537
▁favourite	-11.6537
▁louise	-11.6539
▁diversità	-11.6542
▁permitted	-11.6544
▁richiama	-11.6544
34	-11.6544
▁2016,	-11.6545
▁faithful	-11.6547
▁turchi	-11.6551
▁activist	-11.6552
▁squirrel	-11.6552
▁apples	-11.6557
gus	-11.6557
▁neo	-11.6558
ians	-11.6559
▁volevano	-11.656
▁decent	-11.6561
izzato	-11.6561
nici	-11.6564
▁grido	-11.6564
▁ovunque	-11.6567
uz	-11.6567
▁miserable	-11.6567
▁pazienza	-11.6569
▁saluto	-11.6573
rr	-11.6574
▁fold	-11.6574
addressed	-11.6576
▁guai	-11.6578
▁rappresentato	-11.6581
▁soccer	-11.6582
bru	-11.6582
▁hid	-11.6582
▁kevin	-11.6582
▁cromer	-11.6583
▁poetry	-11.6583
nar	-11.6587
ncy	-11.6589
▁banks	-11.659
54	-11.6592
▁diventato	-11.6597
▁literature	-11.6597
▁sorpresa	-11.6597
▁resist	-11.6598
▁feast	-11.6598
ima	-11.6598
▁importance	-11.6598
▁discorsi	-11.6601
▁echo	-11.6605
▁finita	-11.6608
▁talun	-11.6609
oc	-11.661
86	-11.6611
▁fantasia	-11.6613
▁nascita	-11.6613
▁jolly	-11.6614
iana	-11.6614
▁danny	-11.6615
▁ricchi	-11.6615
▁indicate	-11.6616
▁terrà	-11.6616
care	-11.6619
▁bald	-11.6619
▁alfredo	-11.6619
▁impegnati	-11.662
draws	-11.6621
▁riva	-11.6624
▁gather	-11.6628
▁activities	-11.6628
▁mettendo	-11.6628
▁turco	-11.663
▁2000,	-11.663
ndone	-11.6631
▁commi	-11.6632
92	-11.6633
▁villani	-11.6635
▁appoggiare	-11.6639
▁awarded	-11.6641
▁pronta	-11.6643
▁biblioteca	-11.6643
▁meccanismo	-11.6643
▁proposti	-11.6643
▁satisfaction	-11.6643
▁moltiplica	-11.6644
▁tub	-11.6644
▁cul	-11.6647
tini	-11.6648
▁addio	-11.665
▁nar	-11.6651
▁illegal	-11.6655
mbe	-11.6656
▁nipote	-11.6658
lità	-11.6659
▁kisses	-11.6659
▁photo	-11.6659
▁sfide	-11.6659
▁prendi	-11.6659
▁nowhere	-11.6661
▁colonna	-11.6662
fort	-11.6662
ual	-11.6664
▁fida	-11.6671
▁vecchie	-11.6672
▁coerenza	-11.6674
▁lentamente	-11.6675
guard	-11.6679
ificazione	-11.6679
▁concernente	-11.6679
▁champions	-11.6681
▁laddove	-11.6689
▁costretto	-11.6689
bell	-11.669
▁guardava	-11.6692
sel	-11.6694
▁drinks	-11.6695
▁critical	-11.6695
▁candle	-11.6696
57	-11.6697
▁agenda	-11.6697
pli	-11.6698
▁fund	-11.6702
▁1930	-11.6706
▁merchant	-11.6706
▁adora	-11.6708
▁sandy	-11.6708
▁beds	-11.6708
▁variety	-11.6708
▁passando	-11.6708
▁speaker	-11.6709
▁violazione	-11.6709
▁pura	-11.6711
▁ricca	-11.6716
assa	-11.6718
elecomunicazioni	-11.672
▁neighborhood	-11.672
▁regional	-11.672
▁pumpkin	-11.672
▁scadenza	-11.672
▁abbassa	-11.6721
▁replica	-11.6722
▁studia	-11.6722
▁accor	-11.6725
▁concedere	-11.6727
ization	-11.6731
▁2019.	-11.6732
▁stacker	-11.6732
▁dining	-11.6733
▁jennie	-11.6736
▁root	-11.6737
▁cappello	-11.6737
▁soldato	-11.6739
▁laurea	-11.674
▁naval	-11.674
▁rimedio	-11.6741
▁comic	-11.6742
▁operato	-11.6748
▁mul	-11.6749
▁helps	-11.6749
▁acco	-11.6751
▁scorsa	-11.6752
▁bada	-11.6753
luc	-11.6754
▁tickets	-11.6756
dina	-11.6757
▁soci	-11.6758
▁umili	-11.6761
▁unusual	-11.6762
î	-11.6762
▁privilegi	-11.6763
▁trovi	-11.6764
▁br	-11.6764
▁pope	-11.6765
▁obliged	-11.6768
▁jury	-11.6769
▁disappointed	-11.6769
▁permanent	-11.677
▁violent	-11.677
tape	-11.677
▁answers	-11.6771
▁stiff	-11.6772
▁jin	-11.6773
erano	-11.6774
▁products	-11.6775
evoluzione	-11.6776
anda	-11.6777
▁cheerful	-11.6779
▁brava	-11.6781
▁expecting	-11.6781
▁worm	-11.6782
▁ribadire	-11.6782
▁sensazione	-11.6782
▁1971	-11.6782
mble	-11.6782
▁gesto	-11.6783
cip	-11.6785
hol	-11.6786
▁oven	-11.6787
▁gl	-11.6788
▁filosofia	-11.6788
▁continente	-11.6791
▁bitter	-11.6794
▁acted	-11.6794
▁bun	-11.6796
cap	-11.6797
▁medesimi	-11.6798
▁scoperta	-11.6798
almente	-11.6798
▁merely	-11.6801
▁assenza	-11.6802
▁boyfriend	-11.6802
▁folla	-11.6803
▁reaching	-11.6807
log	-11.6807
torio	-11.6808
▁debate	-11.6808
▁adeguata	-11.6813
▁imposte	-11.6813
▁committed	-11.6814
▁ouch	-11.6815
▁perceived	-11.6816
dere	-11.6816
rete	-11.6817
▁immaginare	-11.6818
▁personaggi	-11.6818
press	-11.6818
lone	-11.682
pia	-11.682
▁vessels	-11.6829
▁doppio	-11.683
▁votazioni	-11.683
▁salta	-11.6831
master	-11.6831
▁mask	-11.6836
▁limitare	-11.6838
under	-11.6842
▁rosamund	-11.6844
▁esp	-11.6844
▁appointment	-11.6845
▁reddito	-11.6846
telli	-11.6846
dog	-11.6846
▁kelly	-11.6847
▁conservazione	-11.6848
93	-11.6849
▁[.6	-11.6853
▁cora	-11.6856
▁2018.	-11.6857
▁differenzia	-11.686
▁individui	-11.686
▁rubbish	-11.686
▁cappella	-11.686
lies	-11.6861
▁disposti	-11.6861
▁whereupon	-11.6862
▁nati	-11.6864
▁spari	-11.6866
▁chiudere	-11.6869
▁obey	-11.687
pl	-11.6874
▁mustn	-11.6874
▁valuable	-11.6876
dine	-11.6876
▁surgery	-11.6876
▁whoo	-11.6877
▁privata	-11.6878
▁carl	-11.6879
▁gon	-11.688
ago	-11.6881
▁shift	-11.6883
▁launched	-11.6884
▁rumor	-11.6884
▁straordinaria	-11.6887
▁potenti	-11.6889
nn	-11.6889
▁sindaco	-11.6891
▁finanziamenti	-11.6892
▁costumi	-11.6892
▁artisti	-11.6894
▁fairies	-11.6894
▁notevoli	-11.6895
▁determinazione	-11.6895
▁hunter	-11.6898
▁display	-11.6898
mato	-11.6899
chr	-11.69
▁sicuri	-11.6903
▁ralph	-11.6907
▁barca	-11.6908
▁mobilità	-11.6909
▁genera	-11.691
▁banda	-11.6911
▁whee	-11.6913
▁contenta	-11.6913
▁coda	-11.6914
▁[.8	-11.6916
autorità	-11.6917
▁moderna	-11.6918
▁praticamente	-11.6918
▁promo	-11.6919
▁cipro	-11.6919
▁fossi	-11.6919
▁parish	-11.6921
lam	-11.6922
▁mostrare	-11.6923
▁femminile	-11.6923
▁pressioni	-11.6923
▁cerchi	-11.6925
cto	-11.6925
▁jazz	-11.6926
▁farci	-11.6926
▁illness	-11.6926
▁patients	-11.6927
▁polly	-11.6927
▁ciascun	-11.6928
cino	-11.6929
esame	-11.693
▁winner	-11.6931
▁dimora	-11.6931
▁nam	-11.6935
72	-11.6938
▁complex	-11.6938
▁cardinali	-11.6938
▁thumb	-11.6939
▁giornale	-11.694
▁sought	-11.6941
var	-11.6941
▁ix	-11.6942
dom	-11.6943
▁stopping	-11.6943
second	-11.6944
pic	-11.6944
▁tentare	-11.6945
▁(18	-11.6948
▁kh	-11.6949
▁shared	-11.6954
▁gioventù	-11.6954
▁belonged	-11.6956
▁ricorrere	-11.6957
▁pears	-11.6957
▁offerte	-11.696
▁charming	-11.6964
▁ideale	-11.6965
▁ciascuna	-11.6968
▁reputa	-11.6968
▁compagno	-11.6971
▁indicazioni	-11.6972
▁tennis	-11.6972
bef	-11.6981
▁dollar	-11.6981
bet	-11.6981
bad	-11.6982
▁donde	-11.6982
▁historical	-11.6983
▁diavolo	-11.6985
▁genio	-11.6985
udo	-11.6985
▁sniff	-11.6986
▁1967	-11.6987
▁1966	-11.6987
▁rompe	-11.6987
▁conoscenze	-11.6987
▁restano	-11.6988
▁coke	-11.699
▁aft	-11.6993
▁olive	-11.6998
▁whale	-11.6999
▁portoghese	-11.7002
▁heavily	-11.7002
▁terrorismo	-11.7002
hei	-11.7003
▁confine	-11.7004
▁molly	-11.7005
▁artists	-11.7007
▁vehicle	-11.7008
enta	-11.7011
▁perche	-11.7011
▁poured	-11.7011
screams	-11.7012
letta	-11.7013
known	-11.7015
▁assoluta	-11.7017
essa	-11.7017
▁fle	-11.7017
▁sostanzialmente	-11.7018
▁ribbon	-11.7018
▁hannah	-11.7018
▁attitude	-11.7018
▁flotta	-11.7019
▁chip	-11.702
▁banging	-11.702
▁delibera	-11.7026
▁25,	-11.7026
met	-11.7026
usi	-11.7028
istituzione	-11.7028
▁fisica	-11.7032
▁ingegno	-11.7034
cott	-11.7035
▁ful	-11.7036
mia	-11.7036
▁discovery	-11.704
▁lands	-11.704
▁breathe	-11.704
dress	-11.7042
rgi	-11.7045
▁heap	-11.7047
▁sappia	-11.7047
▁snack	-11.705
▁valido	-11.7053
▁tribes	-11.7055
▁tutelare	-11.7056
▁regna	-11.7057
▁flood	-11.7057
▁pr	-11.7059
▁rappresentare	-11.7061
▁leaders	-11.7062
ou	-11.7063
▁anton	-11.7063
▁ugo	-11.7064
nei	-11.7064
▁scientific	-11.7068
▁letteratura	-11.7068
▁nesta	-11.707
▁condivide	-11.707
▁script	-11.7071
▁witness	-11.7072
▁miseria	-11.7072
1/	-11.7074
▁confer	-11.7076
▁flow	-11.7077
▁illustra	-11.7078
ep	-11.7078
▁considerata	-11.7081
53	-11.7081
clears	-11.7081
pass	-11.7082
▁monitor	-11.7082
▁giallo	-11.7083
vie	-11.7083
▁ages	-11.7084
▁differ	-11.7086
▁islamic	-11.7086
bag	-11.7087
▁parenti	-11.7089
cente	-11.709
▁costoro	-11.7091
▁continuano	-11.7095
▁scrittori	-11.7095
▁diffusione	-11.7096
▁cricket	-11.7096
▁livorno	-11.7098
▁ovvio	-11.7098
▁convergenza	-11.7098
▁corporation	-11.7098
▁freak	-11.7099
▁incoraggia	-11.7102
▁confused	-11.7103
▁negoziato	-11.7104
44	-11.7104
▁wreck	-11.7106
istica	-11.7106
▁dumb	-11.7106
▁utilizzati	-11.7106
▁drag	-11.7109
▁jealous	-11.7109
atti	-11.711
▁baba	-11.7112
▁fiscali	-11.7113
▁compra	-11.7113
▁provvedimento	-11.7114
▁rattling	-11.7114
▁toes	-11.7115
▁crediamo	-11.7115
▁riusci	-11.7116
oggi	-11.7116
forma	-11.7118
▁rilevare	-11.712
▁dave	-11.7121
▁franco	-11.7122
▁pushes	-11.7124
▁scende	-11.7124
▁trucks	-11.7126
▁18,	-11.7126
▁visitare	-11.7127
▁flo	-11.7127
▁dispute	-11.713
▁edith	-11.7132
▁survive	-11.7133
▁offerta	-11.7133
mino	-11.7135
cula	-11.7135
"?	-11.7136
▁30,	-11.7138
referring	-11.7139
first	-11.714
▁patti	-11.7142
atura	-11.7142
89	-11.7144
▁chiusura	-11.7146
▁misericordia	-11.7146
hl	-11.7146
▁puglia	-11.7147
▁preciso	-11.7147
▁partly	-11.7149
▁degno	-11.715
▁knot	-11.7151
stic	-11.7151
▁cammina	-11.7154
▁quarters	-11.7156
▁esistente	-11.7157
mail	-11.7158
▁affronta	-11.7161
▁kenneth	-11.7162
▁olandese	-11.7162
▁lecture	-11.7162
▁denuncia	-11.7163
▁animated	-11.7166
▁2018)	-11.7167
▁ugh	-11.717
abbiamo	-11.7172
▁fuel	-11.7173
▁unde	-11.7175
▁kar	-11.7175
pr	-11.7176
▁discipline	-11.7178
▁tokyo	-11.7179
▁gridò	-11.7179
▁ew	-11.7181
never	-11.7185
▁pregnant	-11.7194
▁pretesto	-11.7195
▁buonarroti	-11.7195
▁lamenta	-11.7195
▁spaventa	-11.7197
▁healthy	-11.7197
▁prendiamo	-11.7198
▁kate	-11.72
chen	-11.7206
▁relations	-11.7207
▁replace	-11.7208
▁cera	-11.7209
▁gode	-11.721
▁environmental	-11.7211
▁sample	-11.7211
▁bah	-11.7211
3.	-11.7212
▁guido	-11.7212
▁singolo	-11.7212
evoli	-11.7215
▁soglia	-11.7217
▁irlanda	-11.7217
▁savi	-11.7218
▁qu	-11.7219
▁vocal	-11.722
▁earned	-11.7221
▁neighbor	-11.7221
wy	-11.7223
▁sunny	-11.7223
▁guinea	-11.7227
▁preparare	-11.7227
▁disastro	-11.7227
▁carrozza	-11.7227
▁liberty	-11.7228
▁raggi	-11.7229
▁spending	-11.7229
sina	-11.7235
▁entrata	-11.7236
gor	-11.724
▁pianto	-11.7243
▁promesse	-11.7244
aci	-11.7244
▁stores	-11.7245
▁azienda	-11.7245
▁dressing	-11.7247
▁golf	-11.7248
▁ruled	-11.7249
▁bullet	-11.7253
esso	-11.7257
▁counsel	-11.7258
▁supreme	-11.7259
▁percentuale	-11.7259
▁contribuito	-11.726
▁bagno	-11.726
▁condannato	-11.7263
▁cleaning	-11.7264
▁sacro	-11.7265
▁tornata	-11.7268
▁concorda	-11.7268
denti	-11.7268
▁nodded	-11.7269
▁spoil	-11.727
both	-11.727
▁penetra	-11.7271
▁launch	-11.7272
▁preti	-11.7272
ters	-11.7273
▁sauce	-11.7277
——	-11.7277
▁seriamente	-11.7278
▁blew	-11.7278
▁gr	-11.728
ib	-11.7281
▁stolen	-11.7282
▁comin	-11.7283
origine	-11.7286
▁virgin	-11.7288
hmm	-11.7289
▁ng	-11.729
▁vasta	-11.7291
▁bicycle	-11.7292
▁garanzie	-11.7292
▁vedremo	-11.7292
▁biography	-11.7292
▁uccide	-11.7295
▁straordinario	-11.7295
▁dealing	-11.7297
▁flip	-11.7299
▁pier	-11.7301
▁accenna	-11.7303
apertura	-11.7303
▁integra	-11.7304
▁intro	-11.7305
▁incomincia	-11.7309
▁monk	-11.7309
going	-11.7309
▁lewis	-11.731
mie	-11.731
▁annual	-11.7311
▁benché	-11.7313
▁propose	-11.7313
▁anyhow	-11.7314
versa	-11.7317
ial	-11.7319
please	-11.7319
irlanda	-11.732
▁constant	-11.732
82	-11.7322
41	-11.7323
▁restitui	-11.7323
▁solenne	-11.7324
▁legislative	-11.7325
▁costituito	-11.7325
▁frodi	-11.7327
▁pescatori	-11.733
▁lover	-11.7331
▁charged	-11.7331
dici	-11.7331
▁scream	-11.7337
▁urgente	-11.7338
▁grossa	-11.734
▁penna	-11.734
▁elettorale	-11.7341
▁veritá	-11.7342
▁attacks	-11.7343
▁capable	-11.7346
▁hun	-11.7348
▁repair	-11.7349
▁shan	-11.735
▁verse	-11.7351
`	-11.7351
▁avver	-11.7354
▁swa	-11.7354
▁bari	-11.7355
uccio	-11.7355
▁legislativa	-11.7358
▁skill	-11.7358
▁avanza	-11.7359
atte	-11.736
iglia	-11.7361
▁manifestazione	-11.7363
▁potendo	-11.7363
nale	-11.7364
fini	-11.7367
▁indicare	-11.7369
▁isole	-11.7369
▁humans	-11.7375
▁vien	-11.7376
▁flesh	-11.7376
▁bacon	-11.7377
▁shell	-11.7379
▁tracks	-11.738
▁tempio	-11.7381
hn	-11.7385
▁digital	-11.7385
thou	-11.7387
vansi	-11.7387
▁2021.	-11.7388
▁compliment	-11.7388
▁impact	-11.739
▁gregorio	-11.7391
▁strasburgo	-11.7391
▁titoli	-11.7391
▁tricks	-11.7391
▁wishes	-11.7391
▁matteo	-11.7391
▁daisy	-11.7393
break	-11.7393
▁trasformazione	-11.7394
▁hugo	-11.7395
because	-11.7395
▁promette	-11.7395
▁resolved	-11.7395
▁sings	-11.7398
▁mancano	-11.7398
ggiare	-11.7401
▁rivolto	-11.7403
vocalize	-11.7406
▁solution	-11.7407
▁grief	-11.7407
▁saluti	-11.7407
arco	-11.7408
▁jwww	-11.7409
▁24,	-11.7409
▁creduto	-11.741
▁informati	-11.741
▁bab	-11.7416
▁generi	-11.7416
▁commissari	-11.7418
▁precede	-11.7419
▁trono	-11.742
versi	-11.742
▁mist	-11.7424
▁humphrey	-11.7424
nova	-11.7424
▁bacia	-11.7424
venti	-11.7424
▁sfruttamento	-11.7425
1,	-11.7427
▁gee	-11.7429
▁teme	-11.7429
▁sveglia	-11.7432
amministrazione	-11.7434
università	-11.7434
63	-11.7437
ip	-11.7437
lara	-11.7437
▁reference	-11.7437
pone	-11.7439
▁ardi	-11.7442
▁presidenti	-11.7442
▁schedule	-11.7444
▁paralympics	-11.7444
▁siena	-11.7444
▁deboli	-11.7445
▁duro	-11.7446
▁patch	-11.7448
▁bern	-11.7448
▁vene	-11.745
▁gatto	-11.7452
bee	-11.7452
▁doo	-11.7453
▁avv	-11.7455
▁clerk	-11.7457
▁liquid	-11.7457
▁composer	-11.7457
▁zipper	-11.7458
▁beating	-11.7459
▁egyptian	-11.7459
▁lezione	-11.7459
▁cresce	-11.7459
▁figured	-11.7461
▁cifre	-11.7463
▁organizza	-11.7463
fal	-11.7465
▁persons	-11.7467
ously	-11.7467
▁capitani	-11.7467
▁begged	-11.7469
▁shield	-11.7474
▁sollecita	-11.7474
▁childhood	-11.7476
▁significativo	-11.7476
ssy	-11.7476
▁reg	-11.7476
▁borsa	-11.7476
heim	-11.7477
▁contratti	-11.7477
▁ritira	-11.7477
▁cotesto	-11.748
▁potato	-11.748
▁sbagliato	-11.7482
lk	-11.7486
▁sv	-11.7488
glielo	-11.749
▁puff	-11.749
▁calabria	-11.749
▁bellissima	-11.7491
▁significant	-11.7492
▁amato	-11.7493
▁deposit	-11.7494
▁martha	-11.7495
▁42	-11.7499
▁separa	-11.7499
▁gam	-11.7502
chu	-11.7503
▁basis	-11.7504
▁metro	-11.7505
▁pressed	-11.7505
▁sfrutta	-11.7506
africa	-11.7506
▁lontana	-11.7506
▁silvio	-11.7507
▁affetto	-11.7507
▁rimasta	-11.7508
▁retreat	-11.7508
leg	-11.7509
▁thoroughly	-11.7509
▁2023,	-11.7509
▁romanzo	-11.7509
hr	-11.751
▁vela	-11.7515
▁combatte	-11.7517
ère	-11.7517
▁seasons	-11.7523
▁pazienti	-11.7524
▁ripresa	-11.7524
▁dessert	-11.7524
▁volti	-11.7524
▁housing	-11.7526
▁tooth	-11.7529
▁gru	-11.753
▁tasse	-11.7531
▁vedono	-11.7534
▁continuamente	-11.7535
▁parallel	-11.7536
load	-11.7536
▁profitto	-11.7537
zed	-11.754
▁teoria	-11.754
try	-11.7544
▁transito	-11.7545
stiche	-11.7546
▁nun	-11.7547
▁luke	-11.7547
▁steven	-11.7548
▁commonly	-11.7548
▁vest	-11.7549
▁jay	-11.7549
▁imparato	-11.755
▁officially	-11.7551
impatto	-11.7551
orum	-11.7552
stop	-11.7554
▁bubbles	-11.7555
▁mitten	-11.7555
▁ammira	-11.7556
▁ginevra	-11.7557
▁prescindere	-11.7557
▁inglesi	-11.7558
▁calendario	-11.7558
▁winnie	-11.7559
▁familiare	-11.7559
▁hated	-11.7559
▁lightning	-11.756
▁amicizia	-11.7561
▁briefly	-11.7564
▁27,	-11.7565
▁crap	-11.7566
unanimità	-11.7568
▁fake	-11.7568
▁assoluto	-11.7574
▁violence	-11.7574
▁1964	-11.7574
▁confronta	-11.7575
▁surrounding	-11.7576
▁alongside	-11.7578
▁atlantic	-11.7578
▁grandezza	-11.7579
▁2022)	-11.7579
▁determinati	-11.7581
▁grain	-11.7581
▁graduated	-11.7582
▁nights	-11.7583
▁vegetables	-11.7583
yer	-11.7583
▁difende	-11.7585
▁dora	-11.7586
pers	-11.7587
▁sentì	-11.7589
tree	-11.7591
▁portogallo	-11.7591
▁trascina	-11.7591
▁stasera	-11.7591
lati	-11.7592
▁simbolo	-11.7593
▁gig	-11.7596
▁contrast	-11.7598
anzi	-11.7601
ids	-11.7605
▁evento	-11.7606
▁ottima	-11.7607
▁dimenticato	-11.7607
▁independence	-11.7608
▁energie	-11.7609
▁finché	-11.7609
▁territori	-11.7611
▁attendere	-11.7611
form	-11.7612
----------------	-11.7613
▁ringrazia	-11.7614
▁evoluzione	-11.7614
four	-11.762
▁fierce	-11.762
▁citato	-11.7623
▁ciclo	-11.7623
▁domandò	-11.7625
▁smoking	-11.7625
▁thrust	-11.7625
▁schengen	-11.7625
▁tesoro	-11.7626
▁gusta	-11.7626
▁lasci	-11.7626
▁wherever	-11.7629
▁menti	-11.7629
▁auspica	-11.763
▁università	-11.7631
▁rick	-11.7631
▁parma	-11.7635
▁latina	-11.7636
▁annal	-11.7637
▁rage	-11.764
▁tune	-11.764
▁presu	-11.7641
▁skipper	-11.7642
▁councillor	-11.7642
▁fuss	-11.7644
▁cole	-11.7647
▁levi	-11.7648
▁nucleari	-11.7649
gone	-11.765
▁riuscita	-11.7651
▁bees	-11.7654
ros	-11.7655
▁atmosphere	-11.7658
ised	-11.7659
▁rimasti	-11.766
▁remaining	-11.7662
▁ryan	-11.7664
▁panel	-11.7667
▁bosnia	-11.7667
ffo	-11.7668
▁ridge	-11.7669
vent	-11.767
▁wil	-11.7671
▁trasporta	-11.7674
▁relatori	-11.7675
▁brescia	-11.7675
▁extent	-11.7675
▁tradizionale	-11.7676
▁counting	-11.7677
▁interne	-11.7677
▁hundreds	-11.7678
▁poeti	-11.7678
▁violazioni	-11.7679
▁andavano	-11.7679
▁composed	-11.768
▁invitation	-11.7682
▁marian	-11.7686
▁kissing	-11.7688
▁wool	-11.7689
▁400	-11.7692
▁attorney	-11.7692
▁congratulo	-11.7692
▁glanced	-11.7693
▁northeast	-11.7694
▁prassi	-11.7694
▁barrel	-11.7695
▁numerous	-11.7696
▁cel	-11.7701
mouth	-11.7704
▁deb	-11.7706
▁serva	-11.7707
▁evidenzia	-11.7708
▁veloce	-11.7708
▁pubblicazione	-11.7708
▁berlin	-11.7708
▁mason	-11.7709
▁mexican	-11.7709
▁sapendo	-11.771
▁galley	-11.7711
▁carni	-11.7714
▁feature	-11.7715
▁mh	-11.7717
▁khan	-11.7718
▁distruzione	-11.772
burn	-11.772
▁banco	-11.7721
▁accosta	-11.7721
500	-11.7722
last	-11.7723
▁resa	-11.7725
▁imperial	-11.7726
▁meraviglia	-11.7727
▁penguin	-11.7727
▁ottimi	-11.7729
▁catena	-11.7729
▁classi	-11.773
▁grossi	-11.7731
▁debt	-11.7732
▁2000.	-11.7735
▁divent	-11.7737
▁theater	-11.7737
▁2013.	-11.7738
▁parlo	-11.7738
▁avviato	-11.7738
▁mettono	-11.7739
eur	-11.774
▁affinchè	-11.7744
▁decisamente	-11.7745
bilitante	-11.7746
▁sailing	-11.7747
▁returns	-11.7747
▁accorge	-11.775
▁eran	-11.775
llum	-11.7751
▁extreme	-11.7753
▁povere	-11.7754
▁touching	-11.7754
▁tesi	-11.7756
▁crossing	-11.7756
▁essersi	-11.7757
▁colpito	-11.7757
▁condur	-11.7759
poor	-11.7759
▁ridere	-11.7759
▁mun	-11.7761
▁minnesota	-11.7761
▁concluso	-11.7761
▁lagrime	-11.7761
▁defend	-11.7761
▁tube	-11.7762
▁pappa	-11.7766
▁ispira	-11.7769
▁liberali	-11.7771
▁responded	-11.7771
▁tieni	-11.7772
▁xii	-11.7772
▁desperate	-11.7773
▁codes	-11.7774
▁periodi	-11.7776
▁happily	-11.7778
gal	-11.7778
▁column	-11.7778
▁conseguire	-11.7779
uck	-11.7779
▁selezione	-11.7779
▁capua	-11.778
▁circolo	-11.778
▁chu	-11.7781
▁carrot	-11.7783
▁lab	-11.7786
▁istante	-11.7791
71	-11.7791
crying	-11.7794
▁applied	-11.7795
▁harbor	-11.7795
▁blank	-11.7796
▁closing	-11.7796
▁norway	-11.7798
▁pene	-11.78
▁inviato	-11.7806
▁dey	-11.7806
▁essay	-11.7809
▁shakespeare	-11.7812
▁occidentale	-11.7813
volta	-11.7813
▁65	-11.7814
▁venture	-11.7817
▁slim	-11.782
▁abuse	-11.7821
▁document	-11.7822
▁founder	-11.7824
▁regolare	-11.7828
▁tropical	-11.783
acce	-11.7831
▁larry	-11.7832
▁pickle	-11.7832
▁saddle	-11.7832
coming	-11.7832
▁compare	-11.7832
▁rallegra	-11.7832
hoo	-11.7833
esse	-11.7841
▁chips	-11.7842
▁snip	-11.7842
▁andarono	-11.7845
▁orchestra	-11.7848
▁ong	-11.7848
▁impegna	-11.7849
▁rapido	-11.7851
▁cingar	-11.7852
tty	-11.7852
▁conven	-11.7853
▁storici	-11.7853
▁spazi	-11.7854
mati	-11.786
▁nuclear	-11.786
▁unlike	-11.7862
▁kra	-11.7863
sounds	-11.7863
▁perfetto	-11.7864
▁1945	-11.7865
▁gerald	-11.7865
▁1940	-11.7865
▁negozio	-11.7866
▁directions	-11.7866
▁occasionally	-11.7867
gn	-11.7867
▁motiva	-11.7869
▁finds	-11.787
cept	-11.7872
▁gel	-11.7875
▁risolve	-11.7876
three	-11.7878
▁avvia	-11.788
▁agricolo	-11.7881
▁drank	-11.7881
▁intenzioni	-11.7882
▁holmes	-11.7882
▁scottish	-11.7883
▁agency	-11.7883
▁riguardanti	-11.7883
▁apprezza	-11.7884
▁coltiva	-11.7885
▁distribu	-11.7886
▁costrui	-11.7891
sim	-11.7891
▁formato	-11.7892
▁prendo	-11.7893
▁confident	-11.7894
know	-11.7896
▁inserito	-11.7899
▁pilastro	-11.7899
▁sostituire	-11.7899
▁lacrime	-11.7899
▁campagne	-11.7899
▁glory	-11.79
▁ferrara	-11.79
▁successivo	-11.79
▁entrato	-11.7909
▁beard	-11.7909
▁rider	-11.7909
▁pigs	-11.7911
▁fui	-11.7911
▁foglio	-11.7912
▁bottles	-11.7912
▁norman	-11.7913
▁esterni	-11.7916
▁macchine	-11.7917
▁mica	-11.7919
▁ampiamente	-11.792
▁bronze	-11.7921
▁deeply	-11.7923
rup	-11.7924
▁hin	-11.7924
79	-11.7924
▁candidate	-11.7924
accio	-11.7925
▁borrow	-11.7925
▁violet	-11.7926
▁faci	-11.7929
▁rabbia	-11.7929
▁sedere	-11.7929
▁precise	-11.7931
▁congiunta	-11.7931
nam	-11.7931
▁nova	-11.7932
▁noon	-11.7932
▁enormous	-11.7934
▁matthew	-11.7934
▁authorities	-11.7934
▁degna	-11.7935
▁hester	-11.7935
▁canta	-11.7935
▁stefano	-11.7937
ces	-11.794
▁archivio	-11.7943
▁modest	-11.7945
impresa	-11.7945
▁scappa	-11.7945
▁inform	-11.7946
64	-11.7947
▁portano	-11.7948
▁cig	-11.7948
▁transfer	-11.7952
▁stazione	-11.7956
▁ripete	-11.7956
discards	-11.7958
▁growth	-11.7959
té	-11.796
▁swallow	-11.796
▁colored	-11.7966
▁sla	-11.7968
▁acid	-11.7968
▁watermelon	-11.7969
▁polvere	-11.7969
▁commesso	-11.7969
▁brazilian	-11.7969
▁referred	-11.7969
ash	-11.7972
▁liberale	-11.7973
▁mostrato	-11.7973
ntur	-11.7975
▁morì	-11.7975
aw	-11.7975
ggle	-11.7975
▁succeed	-11.7978
▁cogliere	-11.798
▁verona	-11.7982
▁foe	-11.7983
▁existence	-11.7986
▁facing	-11.7987
▁elements	-11.7989
▁ellie	-11.799
bble	-11.799
▁vende	-11.799
▁dirige	-11.7991
stin	-11.7993
pose	-11.7993
▁soddisfa	-11.7994
▁cadde	-11.7997
▁componenti	-11.7997
▁chiuse	-11.8001
▁sneak	-11.8003
▁nanna	-11.8003
▁raggio	-11.8003
73	-11.8003
▁mysterious	-11.8004
▁rebecca	-11.8004
▁depth	-11.8004
▁esagera	-11.8004
▁federico	-11.8004
aldo	-11.8008
ax	-11.8011
▁150	-11.8012
▁appo	-11.8012
▁28,	-11.8016
▁quaranta	-11.8017
dam	-11.802
scu	-11.802
▁swept	-11.8021
▁napkin	-11.8022
▁reception	-11.8022
▁mina	-11.8022
rb	-11.8027
▁genetic	-11.8031
▁invoca	-11.8032
por	-11.8034
▁squad	-11.8036
▁annuncia	-11.8038
▁abusi	-11.8038
▁[1.5	-11.8039
▁bimbi	-11.804
▁piero	-11.8041
▁doppia	-11.8042
74	-11.8042
78	-11.8042
▁representatives	-11.8042
83	-11.8044
▁cannon	-11.8045
▁amo	-11.8045
▁attivo	-11.8047
ching	-11.8047
▁concerto	-11.8048
zon	-11.8051
▁stretch	-11.8053
meg	-11.8054
▁argentina	-11.8056
▁avvenimenti	-11.8056
▁maastricht	-11.8056
▁adunque	-11.8056
▁michelangelo	-11.8056
▁ammazza	-11.8059
▁cerchio	-11.8059
dito	-11.8059
▁gai	-11.8061
tia	-11.8062
cata	-11.8062
▁madrid	-11.8066
▁diego	-11.8069
▁sib	-11.8073
▁bretagna	-11.8074
▁ritenuto	-11.8074
▁danaro	-11.8075
▁risa	-11.8076
nger	-11.8077
▁praise	-11.8079
▁corpi	-11.808
▁frutti	-11.808
▁culto	-11.8082
ride	-11.8084
▁fireman	-11.8086
▁liberamente	-11.8087
▁loco	-11.8088
▁lollipop	-11.8092
▁dottrina	-11.8092
▁federigo	-11.8092
▁feste	-11.8093
▁kat	-11.8094
▁elenco	-11.8097
▁solar	-11.8098
▁stretched	-11.81
▁sweep	-11.8101
cate	-11.8104
▁affrontato	-11.8104
▁0,	-11.8106
▁cable	-11.8106
▁socialista	-11.8107
▁giovedì	-11.811
▁possibility	-11.8112
▁ease	-11.8112
▁lettori	-11.8112
▁terrore	-11.8116
▁individua	-11.8117
▁trascura	-11.8117
▁instrument	-11.8121
pul	-11.8121
assistenza	-11.8121
▁nigeria	-11.8124
lici	-11.8126
▁monsieur	-11.8127
▁rooster	-11.8127
▁condotti	-11.8128
▁piange	-11.8128
▁adopted	-11.8132
▁raining	-11.8133
▁celebra	-11.8133
kov	-11.8135
lay	-11.814
▁trattava	-11.8142
▁anxiety	-11.8145
▁marjorie	-11.8145
▁avenue	-11.8145
▁sventura	-11.8145
▁moderni	-11.8148
▁industrial	-11.8148
▁provato	-11.815
▁(2	-11.815
▁urla	-11.815
▁circles	-11.8152
▁potessero	-11.8153
▁lieve	-11.8154
ious	-11.8155
2/	-11.8158
▁blessing	-11.816
▁prosegue	-11.816
▁immobili	-11.816
▁daughters	-11.8164
▁conclusion	-11.8165
▁shakes	-11.8168
▁tab	-11.8168
view	-11.8169
▁psico	-11.8169
▁curve	-11.8171
tv	-11.8174
▁48	-11.8174
▁prayers	-11.8177
▁confusion	-11.8177
▁mounted	-11.818
▁piangere	-11.818
▁awesome	-11.8181
▁probabilità	-11.8181
▁1965	-11.8181
tain	-11.8185
▁cells	-11.8187
▁wwe	-11.8193
▁roth	-11.8194
▁scissors	-11.8196
▁esce	-11.8197
▁oranges	-11.8197
erei	-11.8197
..."	-11.8198
▁tremendous	-11.8199
▁disabili	-11.8199
▁garanti	-11.8201
▁civiltà	-11.8201
▁competenti	-11.8201
▁appar	-11.8203
▁sticking	-11.8204
isola	-11.8204
zionali	-11.8206
goes	-11.8207
▁2014,	-11.8212
▁onora	-11.8214
▁hired	-11.8215
▁shepherd	-11.8217
▁whispering	-11.8217
▁connect	-11.8217
part	-11.8218
▁duties	-11.8218
▁avventura	-11.8218
▁christians	-11.8219
▁ripetere	-11.822
▁citare	-11.822
▁plebe	-11.8221
arono	-11.8222
▁tur	-11.8223
▁regiment	-11.8223
▁cli	-11.8225
▁stette	-11.8225
▁ornament	-11.8229
▁zara	-11.823
▁clue	-11.823
▁riprendere	-11.8231
▁tornato	-11.8232
ís	-11.8232
sey	-11.8234
▁istituzionali	-11.8235
▁apollo	-11.8235
▁ninja	-11.8236
▁uscì	-11.8236
▁attentamente	-11.8236
▁feared	-11.8245
▁cardinal	-11.8245
▁ascend	-11.8247
▁earnest	-11.8249
remmo	-11.8251
▁wanting	-11.8252
▁messenger	-11.8253
▁sovranità	-11.8253
▁armata	-11.8253
ndoci	-11.8254
▁schiera	-11.8254
ator	-11.8255
▁gear	-11.8256
▁gravità	-11.8256
▁chiamano	-11.8256
▁sock	-11.8257
▁soda	-11.8258
cita	-11.8261
▁supporto	-11.8261
▁mortal	-11.8263
iz	-11.8264
▁marvel	-11.8265
▁caratterizza	-11.8268
▁tissue	-11.8271
▁traduzione	-11.8271
▁garbage	-11.8271
▁burden	-11.8272
force	-11.8272
▁midst	-11.8272
▁personality	-11.8274
▁nicola	-11.8276
face	-11.8277
▁serena	-11.8278
77	-11.8278
▁aveano	-11.8281
▁victoria	-11.8284
▁pirates	-11.8286
whispering	-11.8288
▁dovette	-11.8289
▁jelly	-11.8289
▁accettabile	-11.829
▁rotto	-11.8291
▁manchester	-11.8292
▁steamer	-11.8294
▁esclama	-11.8296
▁crowded	-11.8296
gente	-11.8296
▁baroni	-11.8298
dus	-11.8299
▁coro	-11.8299
parti	-11.83
▁cleared	-11.8304
▁stor	-11.8306
▁clark	-11.8307
▁proposal	-11.8307
▁shops	-11.8307
▁sufficient	-11.8307
▁apologize	-11.8311
▁attenti	-11.8312
▁solve	-11.8314
▁instantly	-11.8315
fy	-11.8315
tissima	-11.8316
▁prae	-11.8316
nonspeech	-11.8318
▁soil	-11.8321
▁intense	-11.8321
▁claimed	-11.8322
▁zucchero	-11.8325
▁transizione	-11.8325
▁leather	-11.8325
▁26,	-11.8328
▁alan	-11.8328
▁(1	-11.833
▁generalmente	-11.8331
uc	-11.8333
▁desta	-11.8334
awa	-11.8336
▁studying	-11.834
▁volge	-11.834
▁coloring	-11.8341
▁mandare	-11.8342
▁davis	-11.8342
▁scrivi	-11.8342
▁zia	-11.8342
▁sesso	-11.8343
▁oatmeal	-11.8343
▁welsh	-11.8343
▁1948	-11.8344
▁fee	-11.8344
▁italiane	-11.8345
▁carità	-11.8348
▁confirmed	-11.8348
▁entrate	-11.835
▁operate	-11.8351
▁borgo	-11.8354
▁honestly	-11.8355
▁treaty	-11.8355
▁affected	-11.8355
▁organ	-11.8357
▁essenzialmente	-11.8361
rom	-11.8362
▁hur	-11.8362
▁packed	-11.8362
▁impar	-11.8363
▁mars	-11.8364
▁classifica	-11.8365
whines	-11.8366
gola	-11.8366
▁autorizzazione	-11.8367
▁2014.	-11.8369
▁senato	-11.837
▁leap	-11.8376
▁squeak	-11.8376
▁sommo	-11.8378
▁remote	-11.8378
▁strategie	-11.8379
▁absence	-11.8379
▁miracle	-11.838
▁cultural	-11.838
▁magnetic	-11.8381
▁regolamenti	-11.8381
▁guadagna	-11.8382
▁frode	-11.8382
▁decade	-11.8384
temporaneamente	-11.8384
▁diversamente	-11.8385
▁ascoltato	-11.8387
▁invia	-11.8389
▁invasion	-11.839
▁maiden	-11.8393
bbie	-11.8393
▁guardate	-11.8394
▁esita	-11.8395
phi	-11.8395
▁riflette	-11.8397
▁website	-11.8398
▁squ	-11.8398
scope	-11.8399
▁brutto	-11.8399
▁convention	-11.84
▁plums	-11.8402
▁porch	-11.8402
▁kindness	-11.8403
▁interrupted	-11.8403
▁lasciate	-11.8405
member	-11.8406
▁accompagnato	-11.8408
";	-11.8415
▁rifiuto	-11.8416
▁columbia	-11.8416
▁montagne	-11.8416
▁pierre	-11.8418
▁39	-11.8423
show	-11.8427
▁tata	-11.8429
▁geo	-11.8433
▁communist	-11.8434
▁determina	-11.8436
▁getta	-11.8437
▁esorta	-11.8438
▁minima	-11.8438
▁stall	-11.8439
▁lookin	-11.8439
▁willn	-11.8441
▁arose	-11.8443
esti	-11.8445
▁accused	-11.8446
▁venera	-11.8446
▁scrittore	-11.8448
▁blade	-11.845
département	-11.8453
▁cambridge	-11.8453
▁thief	-11.8453
▁boring	-11.8454
▁navigazione	-11.8455
▁comunicazioni	-11.8455
▁brutta	-11.8455
▁lombardia	-11.8457
▁interamente	-11.8459
▁tat	-11.8461
menta	-11.8461
otta	-11.8461
▁aloud	-11.8463
ncia	-11.8465
iere	-11.8467
nee	-11.8468
▁tenne	-11.8468
▁taxi	-11.8469
▁accerta	-11.847
▁dynasty	-11.8471
▁greece	-11.8471
▁trasparente	-11.8471
▁́	-11.8471
▁transfrontalier	-11.8471
▁strawberry	-11.8471
▁dama	-11.8472
▁formulare	-11.8472
▁stout	-11.8472
▁drill	-11.8472
▁apparent	-11.8472
▁contains	-11.8474
▁emma	-11.8475
arm	-11.8475
▁hen	-11.8478
▁quarta	-11.8479
76	-11.8481
▁stared	-11.8481
▁strain	-11.8482
▁bei	-11.8483
arma	-11.8484
rano	-11.8484
▁antiche	-11.8485
▁blessed	-11.8486
▁marble	-11.8487
▁outer	-11.8487
▁monetari	-11.8488
▁administrative	-11.8489
▁ambassador	-11.8489
▁philadelphia	-11.8489
▁vittima	-11.8489
▁louder	-11.849
▁pensione	-11.849
▁hans	-11.8491
▁sho	-11.8491
▁romeo	-11.8496
▁vasto	-11.8499
▁footballer	-11.8499
▁gamba	-11.85
7/	-11.8501
inchiesta	-11.8502
▁approaching	-11.8503
▁pas	-11.8505
▁tide	-11.8506
▁represent	-11.8506
▁esserci	-11.8506
▁americano	-11.8506
▁genovesi	-11.8508
▁vissuto	-11.8508
▁bianche	-11.8508
▁charges	-11.8509
▁whoop	-11.8509
ain	-11.851
asi	-11.8511
▁extended	-11.8514
▁fusse	-11.8516
ín	-11.8517
▁corti	-11.8517
▁py	-11.8519
▁separated	-11.8519
hold	-11.8521
▁ambiti	-11.8523
lice	-11.8524
▁units	-11.8525
▁lace	-11.8525
▁ricordiamo	-11.8529
▁depend	-11.853
▁scritti	-11.853
▁odia	-11.8531
mai	-11.8532
uma	-11.8532
▁hah	-11.8534
▁talmente	-11.8535
▁canzone	-11.8537
▁ending	-11.8538
▁spilled	-11.8538
▁esb	-11.854
▁tolto	-11.8542
▁brevemente	-11.8542
▁mancato	-11.8543
▁consapevole	-11.8544
▁nasty	-11.8547
▁panic	-11.8547
gillam	-11.8547
▁##	-11.8548
▁seventh	-11.8549
▁votes	-11.855
fond	-11.8551
ado	-11.8553
adi	-11.8556
▁scrap	-11.8558
stein	-11.8559
rno	-11.8559
▁parade	-11.856
▁kan	-11.8563
▁hamilton	-11.8563
▁paziente	-11.8563
▁escort	-11.8563
▁musician	-11.8564
▁dropping	-11.8564
/3	-11.8565
hey	-11.8568
▁nearby	-11.8572
▁attivi	-11.8574
▁predica	-11.8577
▁lezioni	-11.8577
▁guari	-11.8578
▁unique	-11.8578
▁representative	-11.8578
▁contrari	-11.8582
▁55	-11.8582
▁municipalities	-11.8582
▁xvi	-11.8582
▁constitution	-11.8582
▁caratteri	-11.8583
▁oscar	-11.8584
▁opposizione	-11.8586
▁eccita	-11.8586
▁2016.	-11.8586
||2	-11.8587
▁ours	-11.859
▁polite	-11.8593
▁aew	-11.8594
due	-11.8594
ddy	-11.8595
▁duo	-11.8595
▁stations	-11.8595
▁stupi	-11.8596
rmoni	-11.8598
▁covid	-11.8601
▁poland	-11.8601
▁sicchè	-11.8602
▁frutta	-11.8602
▁sogni	-11.8606
▁morali	-11.861
omc	-11.8612
▁signorina	-11.8614
brother	-11.8616
▁comrade	-11.8616
▁joan	-11.8617
▁critici	-11.8619
▁agricole	-11.8619
▁ambedue	-11.8619
▁codecisione	-11.8619
▁immense	-11.8619
▁widow	-11.8619
▁espresse	-11.8619
▁berg	-11.862
▁ospita	-11.8621
▁element	-11.8621
▁direi	-11.8621
▁useless	-11.8621
▁matura	-11.8626
▁villaggio	-11.8626
▁insist	-11.8627
avo	-11.8629
▁cops	-11.863
▁muni	-11.8631
▁assegna	-11.8634
appa	-11.8634
incontro	-11.8634
char	-11.8634
▁digitale	-11.8635
▁seppe	-11.8635
▁arena	-11.8637
▁distress	-11.8638
▁1963	-11.8638
zzato	-11.8641
▁naked	-11.8642
▁threatened	-11.8642
▁ramp	-11.8643
▁sector	-11.8643
▁[6	-11.8644
▁bruno	-11.8644
▁efficiente	-11.8644
▁beaten	-11.8645
▁eletti	-11.8649
struct	-11.8649
▁recall	-11.8652
▁basata	-11.8653
▁idol	-11.8654
▁curtain	-11.8654
▁dean	-11.8654
▁inizi	-11.8656
▁raimondo	-11.8657
▁beloved	-11.8657
▁prigionieri	-11.8657
▁gola	-11.8658
▁additional	-11.8658
▁ipotesi	-11.8659
▁derivanti	-11.866
▁favori	-11.866
▁aut	-11.8661
▁maraviglia	-11.8662
▁frequenta	-11.8662
▁commo	-11.8664
away	-11.8664
dear	-11.8665
parent	-11.8667
▁mah	-11.8667
▁criterio	-11.8667
▁custom	-11.8667
▁29,	-11.8668
script	-11.867
▁zip	-11.8672
▁1998.	-11.8674
nc	-11.8674
god	-11.8675
▁kay	-11.8675
▁costretti	-11.8675
▁vorremmo	-11.8675
▁deficit	-11.8676
▁sovente	-11.8676
▁def	-11.8677
▁pensò	-11.8677
5-00	-11.8679
▁osservato	-11.868
▁hol	-11.8681
▁kicked	-11.8681
▁kha	-11.8683
▁creation	-11.8685
celli	-11.8685
▁anticipa	-11.8689
▁professionali	-11.869
▁legittima	-11.8692
▁fedele	-11.8694
▁harris	-11.8694
▁incredible	-11.8694
▁indipendenti	-11.8694
▁ricostruzione	-11.8694
▁quarrel	-11.8694
▁bandiera	-11.8695
▁jeffreys	-11.8695
▁obbedi	-11.8695
▁vorrà	-11.8696
▁varia	-11.8696
▁sentiero	-11.8696
▁popolari	-11.8697
ject	-11.8699
fil	-11.8704
▁jerk	-11.8705
▁resources	-11.8706
▁miglia	-11.8706
▁condividere	-11.8708
▁apply	-11.8708
▁waffle	-11.8711
▁ukraine	-11.8713
▁holland	-11.8714
▁victims	-11.8714
▁acquistare	-11.8714
▁affida	-11.8715
▁bum	-11.8716
▁trot	-11.8717
tario	-11.8717
▁buck	-11.8718
▁baci	-11.8721
▁qualifica	-11.8722
▁ven	-11.8723
▁sostitui	-11.8724
istic	-11.8724
▁chum	-11.8725
▁tick	-11.8726
▁swift	-11.8727
class	-11.8728
▁milli	-11.8728
▁villages	-11.8729
stato	-11.873
▁fiction	-11.8731
▁cami	-11.8732
▁bovina	-11.8732
▁difetto	-11.8732
quin	-11.8732
▁trash	-11.8733
▁compa	-11.8733
▁sailed	-11.8733
▁pil	-11.8735
▁stando	-11.8737
▁latino	-11.8738
▁sieno	-11.8738
▁rendono	-11.8738
▁diploma	-11.8739
▁sk	-11.8739
ìa	-11.8739
▁wars	-11.8743
▁fal	-11.8743
tha	-11.8744
▁whip	-11.8744
▁touches	-11.8744
foot	-11.8747
▁troubled	-11.8748
aff	-11.875
▁comprensione	-11.8751
▁nephew	-11.8751
▁lobster	-11.8751
▁resistance	-11.8751
▁murderer	-11.8751
▁dovuta	-11.8752
▁gradually	-11.8752
little	-11.8752
▁condiziona	-11.8752
▁aggrava	-11.8754
▁ville	-11.8754
▁scompar	-11.8755
▁roberta	-11.8758
▁bride	-11.8759
talking	-11.8759
▁concept	-11.876
▁proto	-11.876
▁yer	-11.8762
▁superior	-11.8764
▁wealth	-11.8765
▁tryin	-11.8767
▁eccetera	-11.877
▁assistance	-11.877
▁1956	-11.877
▁1947	-11.877
▁leslie	-11.8771
▁pag	-11.8771
▁farmaci	-11.8771
▁contatti	-11.8772
▁partecipanti	-11.8772
▁geneticamente	-11.8772
▁camere	-11.8774
▁bestia	-11.8774
▁immigrazione	-11.8774
▁genus	-11.8775
▁device	-11.8775
▁marbles	-11.8775
ew	-11.8775
print	-11.8777
▁cuba	-11.8778
▁potential	-11.8782
rag	-11.8785
▁concreta	-11.8786
▁colli	-11.8787
▁marketing	-11.8787
▁radi	-11.879
▁insisted	-11.8791
ency	-11.8792
▁stringe	-11.8794
nello	-11.8794
▁howard	-11.8795
▁loan	-11.8795
ione	-11.8799
▁darsi	-11.88
▁shine	-11.88
▁bugs	-11.8801
▁cambiato	-11.8803
▁wilt	-11.8805
▁bando	-11.8807
▁cristiano	-11.8808
▁concorso	-11.8808
▁ospiti	-11.8808
▁spagnolo	-11.8808
▁maestri	-11.8809
dotti	-11.8809
ctor	-11.881
prov	-11.8812
▁rafforza	-11.8813
▁waved	-11.8815
▁seria	-11.8815
boli	-11.8816
▁korean	-11.8818
▁ple	-11.8818
jack	-11.8818
▁stavo	-11.8818
▁obtain	-11.8818
▁custodi	-11.8819
anche	-11.882
feri	-11.8823
fre	-11.8825
▁farmi	-11.8826
▁glorious	-11.8827
▁revenge	-11.8827
▁anderson	-11.8827
▁rivedere	-11.8829
ardi	-11.8832
▁aboard	-11.8832
▁esterno	-11.8833
▁collegamento	-11.8834
▁worthy	-11.8834
▁fissare	-11.8835
▁dancer	-11.8836
▁criminali	-11.8837
▁overall	-11.8838
sì	-11.8839
▁cia	-11.884
▁abbi	-11.884
▁notable	-11.884
▁ombra	-11.884
▁twist	-11.8841
▁associated	-11.8841
▁beef	-11.8843
▁triumph	-11.8845
▁licenza	-11.8846
wind	-11.8847
sser	-11.8847
▁bot	-11.8847
▁fondamento	-11.8848
▁programmazione	-11.8854
▁sosta	-11.8854
▁millions	-11.8856
vel	-11.8858
▁dough	-11.8862
▁calendar	-11.8864
▁introdotto	-11.8865
▁passeggeri	-11.8865
name	-11.8865
▁mart	-11.8865
▁preparato	-11.8866
▁aperte	-11.8866
▁hic	-11.8872
▁ami	-11.8874
▁interessate	-11.8878
▁farla	-11.8879
▁chiamava	-11.8879
▁tomb	-11.888
▁xx	-11.888
▁udito	-11.888
▁views	-11.8881
▁vere	-11.8882
▁cinquecento	-11.8884
▁dragged	-11.8884
power	-11.8886
52	-11.8888
▁collabora	-11.8889
▁rigore	-11.8889
▁arch	-11.889
▁tempesta	-11.889
▁limitato	-11.8891
▁fedeli	-11.8898
▁catching	-11.8898
ille	-11.89
▁habe	-11.8903
▁douglas	-11.8903
▁albums	-11.8903
▁testimonianza	-11.8904
▁mater	-11.8904
▁minus	-11.8904
▁tradizioni	-11.8905
▁stool	-11.8905
aco	-11.8908
▁foreste	-11.8911
▁amica	-11.8912
▁lasciava	-11.8914
▁marched	-11.8914
▁impressione	-11.8916
▁percio	-11.8916
▁programs	-11.8917
▁draft	-11.8917
▁determinate	-11.8918
▁passes	-11.892
▁doc	-11.892
▁youngest	-11.892
mise	-11.8922
▁breeze	-11.8923
▁aquilino	-11.8923
▁jordan	-11.8923
▁assault	-11.8923
▁richiamare	-11.8924
▁flies	-11.8924
final	-11.8925
▁moor	-11.8925
▁cakes	-11.8927
▁fondazione	-11.8928
▁divisione	-11.8934
▁44	-11.8935
mica	-11.8935
▁dubita	-11.8941
▁riscontra	-11.8942
▁cartoon	-11.8942
▁strongly	-11.8942
▁precedenza	-11.8943
▁refrigerator	-11.8943
▁misero	-11.8944
▁2020.	-11.8944
▁kitten	-11.8944
une	-11.8945
jan	-11.8947
▁cassi	-11.8947
▁poly	-11.8948
▁sorge	-11.8948
▁revealed	-11.8948
▁aspettava	-11.8949
▁opponent	-11.8954
▁regarded	-11.8954
▁rami	-11.8956
▁organizzare	-11.8958
▁shelf	-11.8958
vu	-11.8959
▁gitta	-11.8961
▁jews	-11.8962
ique	-11.8964
▁genius	-11.8964
▁tenuti	-11.8965
▁blows	-11.8965
ob	-11.8966
▁bushes	-11.8967
▁quinta	-11.897
▁pearl	-11.8972
▁ethel	-11.8974
armonizzazione	-11.8974
▁disgust	-11.8974
▁siti	-11.8974
▁mozione	-11.8978
▁awhile	-11.8978
▁viaggi	-11.898
▁britannica	-11.898
▁congratulations	-11.8981
▁wrapped	-11.8981
▁abroad	-11.8981
▁1946	-11.8981
▁caravan	-11.8981
▁rimessa	-11.8982
▁strettamente	-11.8984
▁sacred	-11.8985
wit	-11.8987
▁cared	-11.8989
▁tenga	-11.8989
impressione	-11.8994
issima	-11.8995
▁ignorant	-11.8996
▁scendere	-11.8998
▁95	-11.8999
▁ripet	-11.9
▁forehead	-11.9
▁avvisa	-11.9001
▁rinnova	-11.9002
▁sacra	-11.9002
▁fredda	-11.9003
▁prote	-11.9003
▁intima	-11.9007
▁dinosaurs	-11.9008
▁fior	-11.9011
▁raid	-11.9012
▁staring	-11.9012
▁averlo	-11.9014
▁sfo	-11.9014
▁presero	-11.9015
▁casual	-11.9017
▁operations	-11.9017
▁rispetta	-11.9018
▁interfere	-11.9019
▁behavior	-11.9019
▁ruggiero	-11.9019
▁1962	-11.902
▁provo	-11.902
▁christopher	-11.902
▁francesca	-11.9024
▁legate	-11.9025
▁aggiorna	-11.9027
atore	-11.9028
▁suscita	-11.9029
▁calo	-11.9032
▁tentato	-11.9033
▁obvious	-11.9034
▁samuel	-11.9039
▁clatter	-11.9039
▁steep	-11.9039
▁neu	-11.9041
▁2015.	-11.9041
▁fiera	-11.9042
rici	-11.9045
mming	-11.9045
ika	-11.9045
▁rie	-11.9046
▁pericoloso	-11.9047
▁aspira	-11.905
fit	-11.9052
▁ces	-11.9055
mani	-11.9055
▁suolo	-11.9056
▁nicholas	-11.9059
▁spara	-11.9059
▁inganna	-11.9059
▁decisionale	-11.906
▁tool	-11.9062
▁disgrazia	-11.9063
▁razza	-11.9063
▁constantly	-11.9064
ctu	-11.9064
▁vendere	-11.9064
▁naviga	-11.9065
▁commanded	-11.9068
▁holidays	-11.9077
▁examine	-11.9077
▁lunedì	-11.9078
▁imposto	-11.9078
▁1957	-11.9078
▁1942	-11.9078
▁drain	-11.9079
▁crystal	-11.9079
▁caroline	-11.908
▁undici	-11.908
▁passata	-11.9082
rì	-11.9083
▁floss	-11.9084
▁forests	-11.9085
▁scri	-11.9085
▁finestre	-11.9087
▁patri	-11.9089
▁introduzione	-11.909
inquinamento	-11.9091
▁stanze	-11.9091
▁expressed	-11.9096
▁gerusalemme	-11.9097
▁phrase	-11.9097
▁nevertheless	-11.9097
▁minimi	-11.9098
▁curiosità	-11.9098
▁develop	-11.9098
▁ricava	-11.9099
cious	-11.9099
▁inspired	-11.91
▁lasted	-11.9101
▁barely	-11.9104
osso	-11.9105
▁giudicare	-11.9105
▁evita	-11.9108
▁vizio	-11.9108
▁installa	-11.9109
kan	-11.9111
▁printed	-11.9111
▁shed	-11.9113
anto	-11.9115
▁vietnam	-11.9117
ê	-11.9117
▁blocco	-11.9117
▁cigarette	-11.9117
▁costringe	-11.9117
▁ribbit	-11.9117
▁wax	-11.9118
▁bontà	-11.9118
▁chickens	-11.9119
▁costantemente	-11.912
hanno	-11.9122
▁reduce	-11.9125
▁epoca	-11.9126
▁blast	-11.9126
contr	-11.9127
▁headed	-11.9129
iii	-11.9129
▁confessa	-11.9132
occo	-11.9134
ggie	-11.9136
▁canon	-11.9136
▁worship	-11.9137
▁---	-11.9137
▁lungi	-11.9139
▁esther	-11.914
arch	-11.9141
▁peak	-11.9143
▁visi	-11.9146
▁amen	-11.9146
▁sibi	-11.9147
▁servo	-11.9149
▁trent	-11.915
▁benjamin	-11.9156
▁suspicion	-11.9156
▁cotton	-11.9156
▁michigan	-11.9156
▁iddio	-11.9157
▁pmi	-11.916
▁sticky	-11.9162
▁lavorano	-11.9163
mbra	-11.9163
▁poison	-11.9163
▁rito	-11.9164
umque	-11.9166
▁familiari	-11.9169
▁sostituito	-11.9169
▁scarsa	-11.917
▁giacch	-11.917
▁coin	-11.9172
▁vanta	-11.9172
▁glen	-11.9173
interviews	-11.9174
▁chef	-11.9174
softly	-11.9174
▁accompanied	-11.9176
▁racconti	-11.9176
▁benedetto	-11.9176
▁google	-11.9176
▁bisognava	-11.9176
tratta	-11.9176
fore	-11.9177
▁esportazioni	-11.9177
▁scandal	-11.9177
▁offering	-11.9178
▁moda	-11.9179
▁miller	-11.9179
▁monarch	-11.9179
▁vibra	-11.918
▁crept	-11.9183
://	-11.9183
▁addressed	-11.9184
▁iscritto	-11.9185
▁dor	-11.9189
▁istituire	-11.9192
▁mole	-11.9192
rich	-11.9192
▁milione	-11.9196
▁ultra	-11.9197
▁dbottle	-11.9197
▁error	-11.9198
▁reaction	-11.9199
▁gulf	-11.9199
▁employed	-11.9201
▁lieta	-11.9203
▁maine	-11.9203
ern	-11.9204
▁incontrato	-11.9204
▁console	-11.9204
esimo	-11.9206
▁ritiro	-11.9207
▁accedere	-11.9209
▁divenne	-11.9209
aka	-11.9211
lico	-11.9211
▁moreover	-11.9212
▁stabile	-11.9214
▁thine	-11.9214
▁technique	-11.9216
▁1959	-11.9216
▁conosciamo	-11.9217
bound	-11.9217
▁piatto	-11.9218
▁allorchè	-11.9219
tella	-11.9225
▁cali	-11.9225
▁miracolo	-11.9225
▁necessarily	-11.923
▁informato	-11.9232
black	-11.9232
▁furia	-11.9232
▁costituzionale	-11.9235
▁jet	-11.9237
iani	-11.9237
▁nobel	-11.9238
cera	-11.924
▁prigioni	-11.9241
▁flap	-11.9243
▁laboratorio	-11.9243
unità	-11.9243
▁radice	-11.9244
▁stated	-11.9245
▁funzionare	-11.9247
chy	-11.9247
▁objection	-11.9248
▁approached	-11.925
▁gap	-11.9253
▁dy	-11.9253
wer	-11.9255
aga	-11.9255
▁milizie	-11.9255
▁patience	-11.9255
▁spiaggia	-11.9256
▁1944	-11.9256
▁brittany	-11.9256
ska	-11.9256
▁mucca	-11.9257
▁smarri	-11.9258
▁franchi	-11.9259
▁helm	-11.9265
▁latest	-11.9265
▁tassi	-11.9265
▁comunicare	-11.9269
▁impara	-11.927
anna	-11.9274
▁reviews	-11.9274
▁suitcase	-11.9275
▁salerno	-11.9276
▁dedica	-11.9276
▁vittorio	-11.9276
possum	-11.9277
▁generazioni	-11.9277
▁iranian	-11.9277
▁rinnovabili	-11.9279
▁sbaglia	-11.9279
▁rig	-11.928
yu	-11.9284
roni	-11.9287
▁apporta	-11.9288
▁cliff	-11.9289
sei	-11.9291
▁generous	-11.9291
▁violin	-11.9293
▁buonarrot	-11.9295
▁ambulance	-11.9295
▁swedish	-11.9295
▁vescovi	-11.9295
▁infinite	-11.9295
▁terrific	-11.9296
▁causing	-11.9296
mmy	-11.9297
▁beam	-11.9299
▁mcc	-11.9301
zen	-11.9302
nut	-11.9302
bes	-11.9304
▁yelling	-11.9305
▁scarica	-11.9306
▁serata	-11.9306
▁taglio	-11.9308
▁associa	-11.9309
▁orale	-11.9312
▁rimette	-11.9315
▁jennifer	-11.9315
east	-11.9315
▁organisation	-11.9315
▁invidia	-11.9316
▁attento	-11.9316
eni	-11.9316
▁quadri	-11.9317
enda	-11.9317
▁rimangono	-11.9317
▁spoglia	-11.9317
▁contents	-11.9318
▁problematica	-11.9321
▁vitale	-11.9322
▁lodge	-11.9322
▁lasciarono	-11.9323
▁clemente	-11.9323
▁socio	-11.9327
▁devoted	-11.9328
▁pens	-11.933
▁giappone	-11.933
ontá	-11.9334
88	-11.9335
▁fenomeni	-11.9335
▁harbour	-11.9335
▁sostanziale	-11.9335
▁esalta	-11.9335
▁soddisfatto	-11.9336
▁incredibile	-11.9336
▁taperecorder	-11.9336
▁megan	-11.9336
▁noisy	-11.9338
▁sorti	-11.9338
▁evident	-11.934
retto	-11.9341
▁2022.	-11.9341
grm	-11.9341
▁arresta	-11.9341
▁ira	-11.9342
▁med	-11.9342
esb	-11.9343
▁aerei	-11.9346
gun	-11.9347
▁nozze	-11.9347
▁rispondeva	-11.9348
▁leonardo	-11.9349
▁cl	-11.935
▁xxi	-11.935
ologist	-11.9353
▁zan	-11.9354
▁legata	-11.9354
▁consapevoli	-11.9355
▁extraordinary	-11.9355
▁tragedia	-11.9355
▁herb	-11.9358
▁homes	-11.9359
▁ammettere	-11.9359
zan	-11.9359
▁modena	-11.9361
▁gau	-11.9361
▁experienced	-11.9361
▁battery	-11.9362
trazione	-11.9362
▁philippines	-11.9366
fast	-11.9369
▁passava	-11.9369
▁incoraggiare	-11.9374
mun	-11.9375
▁sometime	-11.9375
▁sdegno	-11.9375
▁bureau	-11.9376
▁remarkable	-11.9376
▁revoca	-11.9376
▁admiral	-11.9376
▁sensibilità	-11.9377
▁arro	-11.9377
▁poem	-11.9377
▁identità	-11.9379
▁canoe	-11.938
▁industrie	-11.9384
hearted	-11.9384
cular	-11.9384
▁spark	-11.9388
▁makin	-11.939
posto	-11.9391
▁diretti	-11.9395
▁centuries	-11.9396
▁tecnologico	-11.9396
▁consacra	-11.9396
▁clinton	-11.9396
▁probabile	-11.9396
▁pioggia	-11.9396
bon	-11.9399
▁russell	-11.94
▁loda	-11.94
▁uscito	-11.9401
▁guardò	-11.9403
ory	-11.9403
▁stem	-11.9403
got	-11.9404
▁moose	-11.9404
▁waters	-11.9406
stand	-11.9406
▁skills	-11.9408
▁individuare	-11.9409
▁lottare	-11.9415
▁cathedral	-11.9416
▁danimarca	-11.9416
▁kyoto	-11.9416
▁credibilità	-11.9416
5-01	-11.9416
thing	-11.9416
gine	-11.9416
▁rot	-11.9421
▁tr	-11.9422
▁uscita	-11.9423
▁consulta	-11.9424
letti	-11.9426
▁sank	-11.9426
▁bam	-11.9427
▁esamina	-11.9429
nali	-11.943
sun	-11.9434
▁math	-11.9435
▁indubbiamente	-11.9436
▁dimostrano	-11.9436
▁prolunga	-11.9436
▁terribly	-11.9436
▁disaster	-11.9436
▁aldred	-11.9436
▁1943	-11.9437
▁riferisce	-11.9437
▁indirizzo	-11.9439
▁xiv	-11.9439
▁interests	-11.944
▁prendendo	-11.944
▁fortezza	-11.9441
▁orleans	-11.9441
bbo	-11.9444
▁assiste	-11.9445
dire	-11.9446
▁attimo	-11.9446
▁spit	-11.9446
▁abbandonare	-11.945
▁karl	-11.945
mpe	-11.9451
▁enjoying	-11.9452
▁provvedere	-11.9452
▁prato	-11.9453
▁lavorando	-11.9453
lip	-11.9455
▁acts	-11.9456
▁celebre	-11.9456
▁corruzione	-11.9456
▁resolution	-11.9456
▁salvaguardia	-11.9456
▁singapore	-11.9456
▁autumn	-11.9456
▁despair	-11.9456
▁license	-11.9456
▁rifugiati	-11.9457
▁electronic	-11.9458
▁2023	-11.9459
▁devasta	-11.9459
▁chiedono	-11.946
▁precisamente	-11.9461
▁inner	-11.9462
cup	-11.9466
▁sack	-11.9469
▁gazed	-11.9469
62	-11.9469
▁dedicata	-11.947
crea	-11.9475
▁mantova	-11.9476
▁cioccolato	-11.9477
▁contenute	-11.9477
▁danneggia	-11.9477
▁finanziare	-11.9478
▁mosè	-11.9479
izzare	-11.9481
mò	-11.9485
▁bagna	-11.9487
rman	-11.9487
").	-11.9487
▁noted	-11.9488
fine	-11.9488
▁unconscious	-11.9489
▁engineering	-11.9492
▁bandi	-11.9492
▁insistere	-11.9497
▁raccolto	-11.9497
▁identity	-11.9497
▁rainbow	-11.9497
▁gigante	-11.9497
▁perseguita	-11.9498
▁notato	-11.9498
▁finlandia	-11.9498
▁underground	-11.9498
▁anziché	-11.9499
▁tetto	-11.9499
▁arre	-11.9501
▁buio	-11.9502
▁aperti	-11.9502
▁ashore	-11.9503
▁hollow	-11.9504
▁willis	-11.9504
bear	-11.9506
-5	-11.9511
mag	-11.9514
▁grapes	-11.9515
aumento	-11.9516
▁svolgimento	-11.9517
▁slope	-11.9518
▁warrant	-11.9519
rock	-11.9519
▁evolution	-11.9519
▁flung	-11.9519
▁inclined	-11.952
▁correttamente	-11.9521
▁coward	-11.9524
▁2010.	-11.9524
▁connessi	-11.9526
▁dimostrazione	-11.9526
▁temp	-11.9526
▁grill	-11.9527
--_	-11.9527
▁jackie	-11.9528
mette	-11.9533
▁capitoli	-11.9535
▁armati	-11.9537
▁hunhunh	-11.9538
▁prevenire	-11.9538
▁convinti	-11.9538
▁1961	-11.9538
▁personaggio	-11.9539
▁collins	-11.9539
france	-11.9539
tec	-11.954
qual	-11.954
▁conosci	-11.954
▁continuerà	-11.9543
▁whining	-11.9544
▁hank	-11.9545
▁canal	-11.9546
▁percepi	-11.9546
▁needle	-11.9548
▁sollevato	-11.9549
▁stake	-11.9554
▁metteva	-11.9555
▁alcohol	-11.9558
▁envelope	-11.9558
▁judgment	-11.9558
▁sydney	-11.9558
▁elettronica	-11.9558
▁vendite	-11.9559
▁1939	-11.9559
▁esposto	-11.956
mond	-11.9562
▁frequently	-11.9562
▁richiamo	-11.9565
▁recovered	-11.9566
▁diminui	-11.9566
▁juan	-11.9567
nau	-11.9568
▁bau	-11.9571
▁pouring	-11.9572
▁heading	-11.9577
▁debbo	-11.9578
▁minds	-11.9579
▁hopes	-11.9579
▁guarantee	-11.9579
▁yourselves	-11.9579
▁innalza	-11.9579
▁cenno	-11.9579
▁contraria	-11.958
▁yuck	-11.958
▁mettersi	-11.9581
logiche	-11.9583
▁occupato	-11.9585
▁brick	-11.9586
▁vend	-11.9588
▁raw	-11.9589
▁islam	-11.9591
▁vengo	-11.9592
▁reduced	-11.9593
▁fatal	-11.9593
▁pieni	-11.9595
▁topic	-11.9595
▁levels	-11.9596
efficacia	-11.9598
▁insiste	-11.9598
▁harvard	-11.9599
▁proroga	-11.96
▁1952	-11.96
▁dettaglio	-11.9601
▁observation	-11.9601
▁bellissimo	-11.9601
▁eccezione	-11.9604
▁eseguire	-11.9604
▁demo	-11.9604
▁districts	-11.9604
▁considering	-11.9605
▁assistere	-11.9607
▁eserciti	-11.9608
▁induce	-11.9608
▁detail	-11.9609
free	-11.9611
erete	-11.9611
▁pc	-11.9611
▁conservare	-11.9611
▁maintain	-11.9612
▁edit	-11.9613
▁2012,	-11.9613
tail	-11.9615
▁destinata	-11.9617
š	-11.962
▁bangladesh	-11.962
▁conformità	-11.962
▁sofa	-11.9621
▁rover	-11.9622
▁promotion	-11.9623
▁cub	-11.9625
/2	-11.9625
messa	-11.9629
▁frost	-11.963
test	-11.963
gram	-11.9631
▁closes	-11.9637
pop	-11.9638
▁claims	-11.9641
▁dolphin	-11.9641
▁veduta	-11.9641
▁colonnello	-11.9641
▁tranquillo	-11.9641
▁southeast	-11.9642
▁stink	-11.9642
▁investment	-11.9644
▁campus	-11.9644
▁angolo	-11.9645
▁thi	-11.9655
▁ricorre	-11.9655
▁rispetti	-11.9656
▁sfruttare	-11.9658
▁farebbe	-11.9659
▁strategic	-11.9659
▁require	-11.9661
▁strappa	-11.9661
▁infelice	-11.9661
▁suddetto	-11.9661
▁unexpected	-11.9661
▁convinzione	-11.9661
▁compresi	-11.9661
▁fiamma	-11.9662
▁bottega	-11.9664
▁conforta	-11.9664
▁vroom	-11.9666
▁searching	-11.9669
▁armonizzazione	-11.9669
▁finest	-11.967
▁leak	-11.9671
▁fen	-11.9672
▁ideal	-11.9673
▁delivered	-11.9673
▁shah	-11.9674
alba	-11.9675
▁flame	-11.9676
▁43	-11.9677
atori	-11.9677
▁fig	-11.968
▁historic	-11.9681
▁dresses	-11.9682
▁perfetta	-11.9682
▁rota	-11.9682
▁acquaintance	-11.9682
▁distinzione	-11.9682
▁tradizionali	-11.9682
▁historian	-11.9682
▁dried	-11.9683
produces	-11.9683
tola	-11.9684
▁pagamenti	-11.9684
▁reserve	-11.9685
▁indipendenza	-11.9686
▁capisce	-11.9686
▁ritra	-11.9689
▁trovarsi	-11.9689
▁consigliere	-11.9689
▁paused	-11.969
▁fargli	-11.9691
gò	-11.9691
▁actions	-11.9695
inc	-11.9695
▁improve	-11.9699
▁marmi	-11.97
nning	-11.9703
▁balcani	-11.9703
▁accende	-11.9703
▁rinvio	-11.9704
▁precisione	-11.9704
▁spaceship	-11.9705
▁comrades	-11.9706
▁2006,	-11.9707
84	-11.9707
stici	-11.9708
tale	-11.9708
▁tristi	-11.9708
▁sasso	-11.9708
▁lawn	-11.9708
▁personally	-11.9708
rolls	-11.971
▁kara	-11.9711
▁serpent	-11.9712
▁warned	-11.9715
▁imperciocch	-11.9716
▁occur	-11.9716
maker	-11.9717
▁41	-11.9719
▁passeggia	-11.9721
▁subi	-11.9722
verso	-11.9723
▁destruction	-11.9724
▁sapevo	-11.9724
▁visible	-11.9724
▁cattle	-11.9725
▁serba	-11.9726
▁2024	-11.9726
uci	-11.9726
▁prestare	-11.9731
▁tranne	-11.9732
▁visitor	-11.9733
▁passioni	-11.9737
ziale	-11.9738
istituto	-11.9738
nai	-11.9739
▁ossa	-11.9741
▁conforme	-11.9742
▁bean	-11.9745
▁delicato	-11.9745
▁vergine	-11.9745
▁entusiasmo	-11.9746
aldi	-11.9746
▁danced	-11.9746
luk	-11.9746
ordina	-11.975
▁karen	-11.9751
▁remark	-11.9751
arms	-11.9751
▁visti	-11.9751
▁plum	-11.9752
▁twins	-11.9755
▁diventi	-11.9756
telo	-11.976
▁sighed	-11.9761
▁$1	-11.9761
▁rad	-11.9761
▁kal	-11.9763
▁poster	-11.9764
▁lang	-11.9764
▁regions	-11.9765
▁maddalena	-11.9766
▁riunioni	-11.9766
▁finanze	-11.9766
▁frasi	-11.9766
essi	-11.9766
▁seduto	-11.9766
▁rivolte	-11.9767
▁reputation	-11.9767
▁reasonable	-11.9771
trying	-11.9771
think	-11.9774
▁chances	-11.9774
▁portò	-11.9775
▁articles	-11.9775
▁mp	-11.9775
▁domini	-11.9777
▁64	-11.9778
▁definite	-11.9782
▁altera	-11.9784
▁curiosity	-11.9787
▁elbow	-11.9787
▁conseguente	-11.9787
▁darà	-11.9787
▁gimme	-11.9788
▁rovescia	-11.979
plo	-11.979
fel	-11.9792
gata	-11.9792
▁checking	-11.9792
▁nizza	-11.9793
▁baron	-11.9794
▁bernard	-11.9795
▁lest	-11.9796
▁simul	-11.9799
▁calda	-11.9799
|	-11.98
rj	-11.98
▁romania	-11.9804
▁laying	-11.9806
cod	-11.9806
lé	-11.9806
▁convinced	-11.9806
▁1999.	-11.9807
▁ceremony	-11.9808
▁lawrence	-11.9808
▁palermo	-11.9808
▁limp	-11.9808
▁massive	-11.9808
▁merged	-11.9808
▁esterna	-11.9808
▁petrolio	-11.9808
▁tradimento	-11.9809
▁stacca	-11.9809
▁youtube	-11.981
▁spray	-11.981
pea	-11.981
▁orientamento	-11.9811
▁heels	-11.9815
▁divorce	-11.9816
▁covering	-11.982
▁specula	-11.9825
▁gaze	-11.9827
▁leadership	-11.983
▁foglie	-11.9831
▁otter	-11.9834
▁spezza	-11.9835
▁ballo	-11.9836
▁hugh	-11.9836
▁diet	-11.9839
▁uccelli	-11.9846
▁tang	-11.9848
▁giuridiche	-11.985
▁paradiso	-11.985
▁mailbox	-11.985
▁1958	-11.985
▁normative	-11.985
rza	-11.9853
);	-11.9854
▁arca	-11.9857
▁accuse	-11.9859
▁pawn	-11.986
▁geni	-11.986
▁equally	-11.9863
▁carriera	-11.9864
▁engines	-11.9867
▁individuale	-11.9868
▁sri	-11.9868
▁sessuale	-11.9871
▁avrete	-11.9871
▁michelagnio	-11.9871
▁feroci	-11.9873
▁hopefully	-11.9874
▁corea	-11.9875
▁provvede	-11.9875
▁finisce	-11.9875
▁deserto	-11.988
▁compensa	-11.9881
▁gathering	-11.9883
▁hor	-11.9883
soft	-11.9883
km	-11.9884
▁ramo	-11.9884
effetto	-11.9886
▁verb	-11.9886
▁49	-11.9888
▁pear	-11.9889
▁shouts	-11.9889
▁abbandonato	-11.9889
▁painful	-11.989
pao	-11.9891
▁execution	-11.9892
▁emilia	-11.9892
▁niece	-11.9893
sburg	-11.9894
does	-11.9895
▁affretta	-11.9895
▁interior	-11.9895
▁questioned	-11.9897
▁gem	-11.9898
ack	-11.9903
▁vieta	-11.9907
▁pru	-11.991
▁gram	-11.9912
▁economie	-11.9913
▁somministra	-11.9913
▁hoc	-11.9914
▁1920	-11.9915
▁elimina	-11.9917
▁registrato	-11.9917
▁segnali	-11.9919
bot	-11.992
▁gab	-11.9922
▁obtained	-11.9923
▁swinging	-11.9924
▁strict	-11.9924
▁daylight	-11.9924
▁weary	-11.9925
▁parli	-11.9926
▁movements	-11.9928
whining	-11.9928
▁arco	-11.9929
cte	-11.9931
▁fissato	-11.9933
▁giuridici	-11.9935
▁literally	-11.9935
▁injury	-11.9935
▁soddisfacente	-11.9935
▁prophet	-11.9935
▁ritmo	-11.9935
▁ridotta	-11.9935
▁1954	-11.9935
▁contamina	-11.9935
▁1949	-11.9935
▁1955	-11.9935
▁avvocato	-11.9936
▁uefa	-11.9936
91	-11.9937
▁oramai	-11.9937
▁allarga	-11.9937
▁registrazione	-11.9938
▁symptoms	-11.994
▁unita	-11.9942
▁cosà	-11.9943
▁lieti	-11.9943
▁resistere	-11.9944
▁suburb	-11.9944
▁toccare	-11.9945
▁bbc	-11.9947
▁destro	-11.9951
kisses	-11.9952
▁infant	-11.9953
▁salami	-11.9953
▁mey	-11.9954
▁lighted	-11.9955
▁briga	-11.9956
▁identify	-11.9956
▁ritardi	-11.9956
▁padroni	-11.9956
▁confonde	-11.9956
▁odierna	-11.9957
▁brass	-11.9958
▁whit	-11.996
▁dreamed	-11.9963
▁forni	-11.9965
▁veda	-11.9965
▁suprema	-11.9966
▁chapel	-11.9966
olio	-11.9966
enni	-11.9967
▁macedonia	-11.9967
▁gary	-11.9968
▁lupo	-11.9969
▁spirituale	-11.9969
▁robe	-11.997
helps	-11.9973
nca	-11.9973
▁wrap	-11.9977
▁almighty	-11.9977
▁complessa	-11.9977
▁attractive	-11.9977
▁wrist	-11.9977
▁julie	-11.9978
▁calcolo	-11.9978
▁migliora	-11.9979
▁cares	-11.998
▁spiegazione	-11.9983
▁giudiziaria	-11.9984
▁torture	-11.9986
sport	-11.9988
▁collected	-11.9989
▁moore	-11.999
▁visiting	-11.9995
▁simone	-11.9995
▁christy	-11.9998
▁accustomed	-11.9999
▁ceiling	-11.9999
▁soffoca	-11.9999
▁opposition	-11.9999
▁1941	-11.9999
▁consapevolezza	-12
stead	-12
▁vanilla	-12
▁rocky	-12
▁rebel	-12.0001
▁xiii	-12.0005
▁assured	-12.0007
▁adozione	-12.001
▁amplia	-12.001
▁collaborare	-12.0012
insieme	-12.0014
eb	-12.0015
esterno	-12.0016
▁warrior	-12.0018
▁mansion	-12.0018
▁dramma	-12.0019
▁sponsor	-12.002
▁tonnellate	-12.002
▁1938	-12.0021
▁bacio	-12.0021
▁1936	-12.0021
▁arrivò	-12.0021
▁saucer	-12.0021
▁fifa	-12.0023
▁pronounced	-12.0026
posta	-12.0026
▁tradi	-12.0027
▁firing	-12.0027
▁fei	-12.0033
▁vincent	-12.0035
▁marca	-12.0036
▁immediate	-12.0037
thy	-12.0038
▁inventa	-12.0038
▁strangers	-12.0038
▁hence	-12.0038
▁espressa	-12.0039
▁sperimenta	-12.004
▁receiving	-12.0042
▁ripercussioni	-12.0042
▁assunta	-12.0042
▁keith	-12.0043
▁circo	-12.0046
▁prenda	-12.0047
bio	-12.0048
▁organized	-12.0049
▁contenti	-12.0052
organ	-12.0053
▁server	-12.0055
▁collar	-12.0055
ssen	-12.0057
nson	-12.0057
hole	-12.0058
▁xv	-12.0062
▁puo	-12.0064
▁pietre	-12.0064
▁belgio	-12.0065
▁warriors	-12.0065
▁grape	-12.007
▁dicevano	-12.007
▁sung	-12.007
relli	-12.0073
raw	-12.0073
▁proibi	-12.0073
▁definiti	-12.0074
▁nora	-12.0074
babbles	-12.0075
▁basil	-12.0078
▁determinare	-12.0079
gere	-12.0079
▁carol	-12.0079
▁spear	-12.008
life	-12.0081
kid	-12.0081
▁corda	-12.0082
▁hats	-12.0082
terà	-12.0082
▁sceglie	-12.0083
▁weigh	-12.0084
▁arde	-12.0084
eve	-12.0084
▁awkward	-12.0085
▁academic	-12.0085
▁sheriff	-12.0085
▁seldom	-12.0085
▁toothbrush	-12.0085
▁richiedono	-12.0085
▁cecilia	-12.0086
▁ripartizione	-12.0086
▁mescola	-12.0087
▁subjects	-12.0087
lent	-12.0088
▁dug	-12.0089
▁permetta	-12.009
▁2011.	-12.0091
▁risparmio	-12.0093
▁arricch	-12.0093
▁presentano	-12.0096
▁nunc	-12.0097
▁grandissima	-12.0102
importante	-12.0104
▁lasciamo	-12.0105
▁ridi	-12.0105
▁anthony	-12.0106
scriv	-12.0106
uber	-12.0106
▁cavalleria	-12.0107
eria	-12.0107
▁benvenuto	-12.0107
▁improvvisamente	-12.0108
▁entering	-12.0109
▁hitler	-12.011
▁lily	-12.0111
▁cairo	-12.0111
▁rangers	-12.0112
▁batteries	-12.0117
▁copies	-12.0118
▁regge	-12.0118
mque	-12.012
▁merit	-12.0122
world	-12.0124
▁warn	-12.0125
sir	-12.0127
▁horrid	-12.0128
▁wolves	-12.0128
▁hollywood	-12.0128
▁ricchezze	-12.0128
▁secondi	-12.0131
▁organo	-12.0134
-6	-12.0136
▁impro	-12.0137
▁puzzled	-12.0137
▁lantern	-12.0139
▁bai	-12.0141
▁lode	-12.0144
▁ille	-12.0145
reaching	-12.0147
▁stanzia	-12.0147
uovo	-12.015
▁padrona	-12.015
▁kansas	-12.015
▁mischief	-12.015
▁cancro	-12.015
[...]
